<unk>	0
<s>	0
</s>	0
,	-2.85458
.	-3.21733
▁và	-4.362
▁	-4.57232
▁của	-4.84595
▁là	-5.29403
▁(	-5.3002
▁được	-5.49481
:	-5.516
▁đã	-5.5253
▁với	-5.54664
▁trong	-5.59191
▁để	-5.63172
▁có	-5.67923
)	-5.68065
▁cho	-5.70868
▁các	-5.8146
▁này	-5.82611
▁-	-5.84354
▁ở	-5.86936
▁về	-5.87709
▁một	-5.99497
▁những	-5.9992
▁từ	-6.02672
-	-6.05918
▁không	-6.0983
▁tại	-6.10607
▁trên	-6.15807
▁khi	-6.17125
▁2	-6.17546
▁sẽ	-6.19993
▁đến	-6.24643
▁năm	-6.25873
▁Việt▁Nam	-6.26449
;	-6.26904
▁vào	-6.29531
▁như	-6.30055
▁người	-6.3182
▁thì	-6.36952
▁ông	-6.37764
▁cũng	-6.38455
▁1	-6.40088
▁"	-6.43317
▁nhiều	-6.43896
▁nhưng	-6.45725
▁3	-6.45895
▁hơn	-6.47869
▁mới	-6.50074
▁bị	-6.53728
m	-6.54878
▁làm	-6.55534
▁lại	-6.55773
▁phải	-6.57749
/	-6.58749
▁việc	-6.61136
▁mà	-6.61534
▁đang	-6.62527
▁ngày	-6.62562
▁cho▁biết	-6.66085
▁nên	-6.73151
▁có▁thể	-6.7427
n	-6.75172
▁còn	-6.7522
▁do	-6.75489
▁4	-6.77128
▁xe	-6.8271
▁theo	-6.84268
▁vì	-6.84518
▁5	-6.86749
▁đi	-6.86834
▁cùng	-6.87133
"	-6.87393
t	-6.92407
▁sự	-6.9332
i	-6.93857
▁khác	-6.94808
▁lên	-6.95759
).	-6.96037
▁ra	-6.98114
▁T	-6.99241
▁tới	-6.99926
▁Theo	-7.00676
▁số	-7.02129
▁Mỹ	-7.02286
▁sau	-7.03026
▁10	-7.04533
▁chỉ	-7.05026
▁anh	-7.0543
▁bằng	-7.06531
▁trước	-7.06632
h	-7.07013
s	-7.08224
▁nhà	-7.09185
▁nước	-7.09224
▁Tuy▁nhiên	-7.09296
▁rất	-7.09445
...	-7.0948
?	-7.10352
u	-7.10577
▁nói	-7.11774
▁tôi	-7.12782
▁S	-7.1289
▁hay	-7.13322
▁6	-7.13374
),	-7.15673
▁xây▁dựng	-7.16671
▁Ông	-7.17919
▁phát▁triển	-7.1793
▁B	-7.18522
▁lớn	-7.18769
▁Hà▁Nội	-7.19613
▁khoảng	-7.19918
▁tổ▁chức	-7.20112
▁sử▁dụng	-7.20488
▁thực▁hiện	-7.21831
▁C	-7.22035
▁vẫn	-7.22122
▁hoặc	-7.22807
▁tuổi	-7.2309
▁Anh	-7.25302
▁M	-7.2548
▁Các	-7.27011
▁con	-7.27403
▁doanh▁nghiệp	-7.27796
▁mình	-7.28951
▁đường	-7.29399
▁hoạt▁động	-7.29971
▁7	-7.30767
▁'	-7.30776
▁Ảnh	-7.30784
▁điểm	-7.3118
y	-7.32133
'	-7.32231
▁H	-7.32458
▁qua	-7.32844
▁đó	-7.33552
▁gần	-7.33565
▁đối▁với	-7.34021
c	-7.34294
▁N	-7.34473
ng	-7.3551
▁cao	-7.36115
▁khiến	-7.37015
▁8	-7.37188
▁vừa	-7.37358
▁nào	-7.37738
▁hai	-7.38559
o	-7.38954
▁U	-7.39243
23	-7.40351
▁chưa	-7.42106
▁của▁mình	-7.42304
▁Trong	-7.42328
▁nhất	-7.42399
▁TP	-7.42606
▁cần	-7.42814
a	-7.43633
▁sản▁xuất	-7.44045
▁họ	-7.44422
▁đều	-7.44536
▁dự▁án	-7.45357
▁triệu▁đồng	-7.46001
▁tháng	-7.46168
▁một▁số	-7.46528
▁thông▁tin	-7.4687
▁giữa	-7.47575
▁bà	-7.47684
▁huyện	-7.48134
▁học	-7.484
▁cả	-7.48905
▁đồng	-7.50718
▁9	-7.51327
▁xã	-7.51528
▁cho▁rằng	-7.51668
▁từng	-7.51827
▁giá	-7.52145
▁L	-7.53184
▁hệ▁thống	-7.53251
▁rồi	-7.53266
▁tăng	-7.54158
▁2017	-7.54308
▁người▁dân	-7.56665
▁tỷ▁đồng	-7.56814
▁chương▁trình	-7.57237
▁giúp	-7.57243
▁A	-7.57785
▁chính	-7.57886
▁sau▁khi	-7.58636
▁nếu	-7.58671
▁V	-7.58803
▁bởi	-7.59052
▁tiền	-7.59063
▁thêm	-7.5912
T	-7.59406
▁thuộc	-7.60343
▁Những	-7.60608
▁D	-7.60626
▁cô	-7.61022
▁cấp	-7.61679
▁cách	-7.62003
g	-7.625
▁đầu	-7.63591
▁công▁nghệ	-7.64071
▁tham▁gia	-7.64364
▁K	-7.65179
▁thành▁phố	-7.65282
▁Trung▁Quốc	-7.65332
▁thị▁trường	-7.65375
▁quản▁lý	-7.65467
▁Một	-7.66049
▁đất	-7.66707
▁12	-7.67142
▁bạn	-7.67304
▁20	-7.67313
▁ăn	-7.67993
▁tiếp▁tục	-7.67998
▁chia▁sẻ	-7.68901
▁khu▁vực	-7.69349
▁đầu▁tư	-7.69639
▁G	-7.70252
".	-7.70644
C	-7.70905
▁nghiên▁cứu	-7.71037
▁trẻ	-7.71216
2	-7.71282
▁Nga	-7.72138
▁chiếc	-7.7301
▁muốn	-7.73675
▁trường	-7.74526
▁Đức	-7.74676
▁chị	-7.74678
▁Khi	-7.74838
▁công▁tác	-7.75099
▁bán	-7.75719
▁hỗ▁trợ	-7.7595
▁thời▁gian	-7.75966
▁luôn	-7.76133
▁P	-7.76791
▁Với	-7.76938
▁đưa	-7.77249
M	-7.77852
1	-7.78444
▁đạt	-7.7886
▁Nguyễn	-7.79317
B	-7.79338
▁rằng	-7.79625
▁quyết▁định	-7.79729
▁là▁một	-7.79761
▁giờ	-7.79889
▁nhằm	-7.79992
▁Ngày	-7.80009
HCM	-7.80099
▁em	-7.80174
▁kinh▁tế	-7.80185
▁thành	-7.80194
▁kinh▁doanh	-7.80265
▁đã▁được	-7.8042
▁quốc▁gia	-7.80758
▁giảm	-7.81263
▁gia▁đình	-7.81298
▁tỉnh	-7.81367
▁ngành	-7.8137
▁lần	-7.81372
▁giao▁thông	-7.81447
▁đặc▁biệt	-7.81789
▁kiểm▁tra	-7.82338
▁tính	-7.82477
▁tay	-7.82616
▁nhỏ	-7.83836
▁môi▁trường	-7.84471
▁thường	-7.8472
▁Việt	-7.85593
▁mua	-7.86714
▁cũng▁như	-7.86839
▁yêu▁cầu	-7.87011
▁sản▁phẩm	-7.87507
▁m	-7.8764
▁Minh	-7.87664
p	-7.87874
▁không▁có	-7.88011
▁15	-7.88263
▁Nhưng	-7.88402
▁11	-7.88402
▁so▁với	-7.88784
▁nơi	-7.88826
▁đầu▁tiên	-7.89188
▁khá	-7.89229
▁địa▁phương	-7.89289
▁học▁sinh	-7.89371
▁điện	-7.89445
e	-7.90203
A	-7.90963
▁lãnh▁đạo	-7.9175
▁bộ	-7.92147
▁Nam	-7.92801
▁không▁thể	-7.92815
▁máy	-7.92815
▁dùng	-7.9293
▁quá	-7.9345
▁xử▁lý	-7.93519
▁30	-7.94174
▁hàng	-7.94196
▁chức▁năng	-7.94634
▁nó	-7.9489
▁tốt	-7.94994
S	-7.95138
▁thứ	-7.95296
▁quốc▁tế	-7.95412
L	-7.95496
N	-7.96181
▁thế▁giới	-7.96243
▁chúng▁tôi	-7.96367
▁sống	-7.96966
▁khẳng▁định	-7.97265
▁phần	-7.97362
▁dưới	-7.97803
▁vụ	-7.97893
▁tự	-7.98661
▁loại	-7.98677
▁Chính▁phủ	-7.98918
▁triển▁khai	-7.99068
▁bản	-7.99314
▁Đây▁là	-8.00004
▁thấy	-8.00392
▁đã▁có	-8.00454
▁tình▁trạng	-8.00744
▁Nếu	-8.01105
▁công▁ty	-8.01208
H	-8.01369
▁sang	-8.02253
▁chất▁lượng	-8.02775
▁vùng	-8.02796
▁của▁các	-8.02879
ch	-8.02963
▁Thanh	-8.03169
V	-8.03293
▁Triều▁Tiên	-8.03381
▁Sơn	-8.03608
▁R	-8.03769
▁cầu	-8.04031
▁hết	-8.04215
b	-8.04295
▁gì	-8.04803
▁mất	-8.0493
▁xảy▁ra	-8.04981
▁F	-8.05927
▁xuống	-8.05963
▁tàu	-8.06046
▁nhận	-8.06212
▁thành▁công	-8.06462
▁mỗi	-8.06503
▁An	-8.06602
▁phát▁hiện	-8.06631
▁19	-8.07218
▁bảo▁vệ	-8.07357
▁cán▁bộ	-8.07441
▁Hà	-8.07447
▁lực▁lượng	-8.07483
▁khó▁khăn	-8.07576
▁biết	-8.07693
▁an▁toàn	-8.0822
▁Tôi	-8.0833
▁cây	-8.08792
▁gây	-8.08812
▁chạy	-8.08894
▁gồm	-8.09608
▁Ngoài▁ra	-8.10626
▁vấn▁đề	-8.10676
▁biển	-8.10992
▁mang	-8.11099
▁hiện▁nay	-8.11191
▁Văn	-8.11357
▁vốn	-8.11538
&	-8.11793
▁đơn▁vị	-8.11949
▁kết▁quả	-8.12118
▁công	-8.12137
▁Sau	-8.12139
▁hiệu▁quả	-8.12346
▁mẹ	-8.12417
▁xã▁hội	-8.12624
3	-8.12643
▁cái	-8.12772
▁mặt	-8.12823
▁phòng	-8.12989
▁cá▁nhân	-8.13009
▁nhóm	-8.13147
▁Tại	-8.13295
▁lớp	-8.13369
▁Thành	-8.1342
▁độ	-8.13528
▁đồng▁thời	-8.13538
▁18	-8.1366
▁Hoàng	-8.13841
▁lấy	-8.14063
▁2018	-8.1416
▁X	-8.1419
▁quy▁định	-8.14947
▁Từ	-8.15145
▁thiết▁kế	-8.15205
▁dù	-8.15335
▁đúng	-8.15631
▁công▁trình	-8.15633
▁trường▁hợp	-8.16776
▁Việc	-8.16937
▁trở▁thành	-8.17143
▁ngoài	-8.17542
▁giải▁quyết	-8.17576
▁chống	-8.17592
▁những▁người	-8.17791
▁ba	-8.17928
▁cơ▁quan	-8.1794
▁chính▁sách	-8.18689
▁Lê	-8.18692
▁Chủ▁tịch	-8.18824
▁chung	-8.1894
8	-8.19639
▁làm▁việc	-8.1965
▁báo	-8.19655
l	-8.20022
▁hoa	-8.20247
▁đá	-8.20248
▁n	-8.20282
▁rất▁nhiều	-8.20288
▁vi▁phạm	-8.20309
▁cung▁cấp	-8.20335
▁giáo▁dục	-8.20548
▁khó	-8.20588
▁cho▁thấy	-8.20919
▁gặp	-8.21063
▁hoàn▁toàn	-8.2115
▁Trung	-8.21192
▁16	-8.21491
D	-8.21576
▁Đ	-8.21976
▁nhau	-8.2204
▁Năm	-8.22079
▁dịch▁vụ	-8.22143
▁triệu	-8.222
▁quan▁trọng	-8.22218
▁Để	-8.22536
!	-8.22536
▁thay▁đổi	-8.22661
▁Sau▁khi	-8.22728
▁ấy	-8.23017
▁chính▁thức	-8.23399
G	-8.23559
▁đội	-8.23836
▁đối▁tượng	-8.24129
▁phiên▁bản	-8.24138
:▁"	-8.24198
▁ngay	-8.24286
▁khách▁hàng	-8.24305
▁đưa▁ra	-8.24355
▁khả▁năng	-8.24388
▁nữ	-8.24722
▁đề▁nghị	-8.24791
▁mẫu	-8.24839
▁báo▁cáo	-8.25231
▁nữa	-8.25779
▁Ngọc	-8.25914
▁s	-8.26113
▁giải	-8.26259
▁riêng	-8.26596
▁Hàn▁Quốc	-8.26772
▁Nhiều	-8.26772
▁vòng	-8.26891
▁diễn▁ra	-8.27144
▁đó▁là	-8.27231
▁đặt	-8.27481
▁thiếu	-8.2752
▁sinh	-8.28093
▁giáo▁viên	-8.28109
▁chúng▁ta	-8.28484
▁xuất▁hiện	-8.28643
▁đánh▁giá	-8.28771
▁13	-8.28879
▁14	-8.28893
▁Công▁ty	-8.29318
▁kỹ▁thuật	-8.29663
K	-8.29747
▁xem	-8.29861
▁về▁việc	-8.29868
▁chân	-8.30278
▁Hải	-8.30642
▁dài	-8.30905
▁hiện	-8.30907
▁mọi	-8.3093
▁vị▁trí	-8.31259
▁sớm	-8.31841
d	-8.31943
▁sau▁đó	-8.32106
▁thật	-8.32194
▁sáng	-8.3229
▁chơi	-8.32436
R	-8.32499
▁năm▁nay	-8.32591
r	-8.32666
▁cá	-8.32931
P	-8.32947
▁vàng	-8.33002
▁lượng	-8.33408
▁trên▁địa▁bàn	-8.33931
▁E	-8.34003
▁sẽ▁được	-8.34531
▁Trần	-8.3463
▁thu	-8.34741
▁du▁lịch	-8.34789
▁điều	-8.34837
▁trong▁việc	-8.35125
▁bỏ	-8.35169
▁Xuân	-8.3526
▁Có	-8.35266
▁bên	-8.35366
▁Và	-8.35645
▁khai▁thác	-8.35826
▁đoàn	-8.35965
▁chỉ▁đạo	-8.35987
▁USD	-8.36015
▁Giám▁đốc	-8.36023
▁Người	-8.36037
▁Phương	-8.36216
▁trước▁khi	-8.36375
▁cho▁các	-8.36392
",	-8.36491
▁quyền	-8.3672
▁tài▁sản	-8.36782
▁dân	-8.36814
▁kế▁hoạch	-8.36942
▁tập▁trung	-8.36953
▁lao▁động	-8.36956
▁bắt▁đầu	-8.36978
▁nhờ	-8.37009
▁đủ	-8.37185
▁Bà	-8.37196
▁Trước▁đó	-8.37415
▁trực▁tiếp	-8.3743
▁bóng	-8.37547
▁cũ	-8.37738
▁đầy	-8.37919
▁đánh	-8.38048
▁điều▁tra	-8.38055
▁trung▁tâm	-8.38142
▁một▁trong▁những	-8.38216
▁l	-8.38302
ĐT	-8.38309
▁văn▁hóa	-8.38626
▁viết	-8.38781
▁I	-8.38843
▁thế	-8.38923
▁chính▁quyền	-8.3934
▁của▁ông	-8.39404
▁có▁nhiều	-8.3948
▁phút	-8.39642
▁lời	-8.39649
▁17	-8.39688
▁phường	-8.39707
▁đẹp	-8.3971
▁như▁vậy	-8.3975
▁khu	-8.40055
▁đảm▁bảo	-8.40066
▁vợ	-8.40225
▁thương▁mại	-8.40281
▁100	-8.40388
▁hình▁ảnh	-8.40671
▁thông▁báo	-8.40752
er	-8.40765
▁liên▁quan▁đến	-8.4079
▁chúng	-8.41138
▁mức	-8.41309
k	-8.41639
▁bệnh	-8.41848
▁Nhật▁Bản	-8.41999
▁ứng▁dụng	-8.42038
▁Bình	-8.42078
▁ít	-8.42088
▁chuyển	-8.42252
▁dành▁cho	-8.42583
▁chồng	-8.42744
▁nhiệm▁vụ	-8.42991
▁Vũ	-8.43122
▁nhất▁là	-8.43258
▁t	-8.43275
▁lúc	-8.43286
▁tiếng	-8.43751
▁thiết▁bị	-8.43815
▁lựa▁chọn	-8.43912
in	-8.43943
▁Đà▁Nẵng	-8.44031
▁nội▁dung	-8.44141
▁khoa▁học	-8.44216
▁sở▁hữu	-8.44218
v	-8.44222
▁thi	-8.44454
▁lòng	-8.44473
▁đây▁là	-8.44504
▁thường▁xuyên	-8.44515
▁nhiều▁người	-8.4455
▁Kim	-8.44682
▁cuộc▁sống	-8.44732
▁cơ▁sở	-8.44794
▁Đông	-8.45036
▁km	-8.45053
▁mở	-8.45101
▁đại▁diện	-8.45421
▁thực▁tế	-8.45466
▁cảnh	-8.45514
▁tên	-8.45682
▁nguyên	-8.45917
▁chất	-8.46031
▁quận	-8.46068
4	-8.46237
▁công▁việc	-8.46271
▁chọn	-8.46288
▁giao	-8.46324
I	-8.46688
▁đào▁tạo	-8.46701
▁Thủ▁tướng	-8.46909
▁ô▁tô	-8.47016
▁thuốc	-8.47325
▁máy▁bay	-8.47364
▁vị	-8.47387
▁trong▁khi	-8.47411
▁Long	-8.4767
▁Nhà▁nước	-8.47739
▁khách	-8.47938
X	-8.47956
▁thí▁sinh	-8.47999
5	-8.48042
▁sinh▁viên	-8.48064
▁trận	-8.48137
▁cuộc	-8.4846
▁khác▁nhau	-8.48483
▁thông▁qua	-8.48652
▁trong▁đó	-8.48685
▁gửi	-8.4889
▁Theo▁đó	-8.489
▁đời	-8.49244
▁tăng▁cường	-8.49548
▁một▁cách	-8.49639
▁đăng▁ký	-8.49648
▁toàn▁bộ	-8.49766
▁mạnh	-8.49783
▁phục▁vụ	-8.4987
▁tại▁Việt▁Nam	-8.50051
▁xa	-8.50239
▁Hồng	-8.50549
▁quy▁hoạch	-8.50675
▁truyền▁thống	-8.50768
▁25	-8.50946
▁phim	-8.50999
▁giá▁trị	-8.51097
▁công▁bố	-8.51237
▁da	-8.5133
▁Trong▁khi▁đó	-8.51379
▁Bộ▁trưởng	-8.51683
▁chiều	-8.51696
▁mục▁tiêu	-8.5184
nh	-8.51902
▁nhân	-8.51977
▁chuyện	-8.52049
▁Bộ	-8.52201
▁Tân	-8.52202
▁quân	-8.52349
▁tạo	-8.52406
▁vào▁năm	-8.5252
▁sức▁khỏe	-8.52764
▁Th	-8.5293
▁bất▁ngờ	-8.52938
▁Trung▁tâm	-8.53039
▁thi▁đấu	-8.5311
▁Dương	-8.53182
▁hóa	-8.53378
▁Còn	-8.53735
▁càng	-8.53754
▁bay	-8.53884
▁áp▁dụng	-8.53951
▁sao	-8.54182
▁Quang	-8.54306
▁tích▁cực	-8.54314
▁nước▁ngoài	-8.54379
▁50	-8.54411
▁nặng	-8.54446
▁đề▁xuất	-8.54513
O	-8.54745
x	-8.54791
▁Châu	-8.54906
an	-8.55318
▁hình	-8.55328
▁cổ	-8.55516
▁tin	-8.55696
▁chủ	-8.55853
▁chi▁phí	-8.55882
▁kiểm▁soát	-8.55936
▁tấn▁công	-8.5596
▁cầu▁thủ	-8.55989
▁W	-8.56152
▁điện▁thoại	-8.56154
▁Hòa	-8.56407
▁động▁cơ	-8.56513
▁ngân▁hàng	-8.56517
▁Hiện	-8.56675
▁bao▁gồm	-8.56712
▁Ba	-8.56821
▁liên▁tục	-8.56829
▁giống	-8.56844
▁Bên▁cạnh▁đó	-8.56987
▁sông	-8.57179
▁ca	-8.57292
▁b	-8.57325
▁nghe	-8.57334
U	-8.5744
▁tiến▁hành	-8.5759
▁nhận▁được	-8.5764
on	-8.57738
▁cho▁phép	-8.57841
▁21	-8.57847
▁ai	-8.58031
▁cứ	-8.58091
▁Bắc	-8.58162
▁thuế	-8.58274
▁HLV	-8.58343
▁mở▁rộng	-8.58494
▁chiến▁thắng	-8.5858
▁cho▁hay	-8.58947
▁r	-8.58953
▁24	-8.59015
▁tên▁lửa	-8.591
▁rừng	-8.59118
▁vừa▁qua	-8.59163
▁bàn	-8.59177
▁xanh	-8.59343
▁tài▁chính	-8.59384
▁đêm	-8.59699
▁hồ▁sơ	-8.59725
▁ổn▁định	-8.60191
▁chết	-8.60231
▁trách▁nhiệm	-8.60306
▁tuyến	-8.60788
▁nâng▁cao	-8.60858
▁thời	-8.60861
▁bóng▁đá	-8.60912
▁cháu	-8.61026
▁phương▁tiện	-8.61081
▁trận▁đấu	-8.61093
▁với▁những	-8.61239
▁cuối▁cùng	-8.61374
▁điện▁tử	-8.61443
▁lịch▁sử	-8.61452
▁viên	-8.61806
▁Không	-8.62269
▁nhân▁viên	-8.62356
▁xin	-8.62394
▁tất▁cả	-8.62515
▁trong▁đó▁có	-8.62752
▁tình	-8.63092
▁Quốc▁hội	-8.63145
▁hoàn▁thành	-8.63159
▁Công	-8.63227
▁nguồn	-8.63271
▁chỗ	-8.63326
▁thể▁hiện	-8.63338
▁bài	-8.63378
▁đây	-8.6392
▁chính▁là	-8.64016
6	-8.64063
▁nhanh	-8.64159
▁quả	-8.64236
▁các▁loại	-8.6426
▁c	-8.64352
▁tinh▁thần	-8.64421
▁Đoàn	-8.64654
▁nuôi	-8.64725
▁Tổng▁thống	-8.64734
▁không▁chỉ	-8.64736
▁Mai	-8.64813
▁hiện▁đại	-8.64842
▁trồng	-8.65005
▁22	-8.65034
▁điều▁chỉnh	-8.65159
▁góp▁phần	-8.65236
▁nổi▁tiếng	-8.65308
▁bé	-8.65366
▁lớn▁nhất	-8.65478
▁nằm	-8.65624
▁giữ	-8.65632
Đ	-8.65668
▁châu▁Á	-8.6576
▁Về	-8.65969
▁ta	-8.66386
▁kéo▁dài	-8.66392
▁với▁các	-8.66396
▁hợp▁tác	-8.66461
▁tuyên▁bố	-8.66523
▁Nhật	-8.66653
▁và▁các	-8.66655
▁giới▁thiệu	-8.66669
▁xác▁định	-8.66679
▁nhân▁dân	-8.66707
▁Hai	-8.66783
▁là▁người	-8.66829
▁cụ▁thể	-8.66947
▁bệnh▁nhân	-8.6724
▁h	-8.6724
▁trong▁năm	-8.67475
▁trắng	-8.67638
▁Đại	-8.67903
▁lập	-8.68063
▁giám▁sát	-8.68213
▁không▁được	-8.68233
▁mọi▁người	-8.68254
▁Dự▁án	-8.68343
▁thể▁thao	-8.6838
▁cửa	-8.68491
▁Pháp	-8.6859
▁con▁người	-8.68789
▁chính▁trị	-8.69119
▁giai▁đoạn	-8.69192
▁màu	-8.69206
▁Thái	-8.69391
▁thời▁điểm	-8.69424
▁hướng	-8.69486
▁cũng▁đã	-8.69634
▁chi	-8.69742
▁Hội	-8.69844
▁Phó	-8.6993
▁nghiêm▁trọng	-8.69966
▁hộ	-8.7001
đ	-8.70019
▁ảnh	-8.70029
▁Cụ▁thể	-8.70256
▁Do	-8.70295
▁Điều	-8.70352
▁2017,	-8.70425
▁đứng	-8.70498
▁O	-8.70519
▁pháp▁luật	-8.7059
▁Linh	-8.70612
▁không▁phải	-8.70897
▁công▁nghiệp	-8.71022
▁thực▁sự	-8.71108
▁toàn	-8.71176
▁Công▁an	-8.71307
▁ra▁mắt	-8.71308
▁châu	-8.71326
▁có▁một	-8.71406
▁bổ▁sung	-8.7147
▁từ▁năm	-8.71505
▁Trung▁ương	-8.71524
▁nguyên▁nhân	-8.71556
ha	-8.71636
▁quá▁trình	-8.71725
▁29	-8.71751
▁kỳ	-8.71761
▁trên▁thế▁giới	-8.71953
▁máu	-8.72071
▁Đặc▁biệt	-8.72183
▁có▁khả▁năng	-8.72211
▁Dù	-8.72388
▁thân	-8.72397
▁hiện▁tại	-8.72602
▁sức	-8.72842
▁sách	-8.72862
▁trưởng	-8.72868
▁xem▁xét	-8.72952
20	-8.73319
▁đóng	-8.7332
▁mùa	-8.73447
▁luật	-8.73516
▁điều▁trị	-8.73603
▁vô▁cùng	-8.73625
▁thành▁viên	-8.7365
▁mắt	-8.73652
▁hỏi	-8.73671
▁trở▁lại	-8.73747
▁đơn	-8.73766
th	-8.73827
▁thực▁phẩm	-8.73961
▁chăm▁sóc	-8.7402
▁có▁những	-8.74123
▁hạn▁chế	-8.74254
▁vào▁ngày	-8.74556
▁các▁cơ▁quan	-8.74634
▁nhà▁nước	-8.74653
▁Trường	-8.74791
▁quân▁sự	-8.74841
▁xe▁máy	-8.74858
▁kết▁nối	-8.74919
▁Luật	-8.74981
Ảnh	-8.75142
▁Phạm	-8.75237
▁mô▁hình	-8.75255
▁chiếm	-8.75265
▁vụ▁việc	-8.75481
▁Phú	-8.75524
▁khán▁giả	-8.75553
▁Nhà	-8.75633
▁chuẩn▁bị	-8.7565
▁hành▁động	-8.75748
▁chỉ▁có	-8.76191
▁Họ	-8.76366
▁nhấn▁mạnh	-8.76426
▁tối	-8.76429
el	-8.76624
▁Cô	-8.76632
▁đặc▁biệt▁là	-8.76682
▁nhìn	-8.76872
▁ngày▁càng	-8.76889
▁dễ	-8.77016
F	-8.77041
9	-8.77221
▁của▁họ	-8.77245
▁đến▁nay	-8.77385
▁to	-8.774
▁nghĩ	-8.77402
▁tình▁hình	-8.77597
▁yêu	-8.7762
▁thấp	-8.7774
▁thương▁hiệu	-8.77927
▁điều▁kiện	-8.77989
▁ủng▁hộ	-8.7801
▁gió	-8.78178
▁đô▁thị	-8.78209
▁23	-8.78225
▁đâu	-8.7823
▁hợp▁đồng	-8.78243
▁rộng	-8.78289
▁Đó▁là	-8.78454
▁gọi	-8.78673
▁hành▁chính	-8.78741
▁nhanh▁chóng	-8.78812
▁Hùng	-8.78955
▁nghề	-8.79134
▁thông▁minh	-8.79292
▁tìm	-8.79418
▁ngồi	-8.79437
▁2016	-8.79503
▁hướng▁dẫn	-8.79542
▁40	-8.79721
▁theo▁quy▁định	-8.79725
▁2017.	-8.79736
▁nghệ▁thuật	-8.79786
▁cơ▁hội	-8.79805
▁sâu	-8.79817
▁Hồ	-8.80064
▁đã▁bị	-8.80189
▁chiếc▁xe	-8.80231
▁thầy	-8.80341
▁thuê	-8.80376
▁Tuấn	-8.80476
▁của▁người▁dân	-8.80631
▁phối▁hợp▁với	-8.80642
▁nam	-8.80733
▁trang	-8.80918
▁đồ	-8.80918
▁chuyên▁gia	-8.81034
▁trời	-8.81073
▁chiến▁lược	-8.8111
▁làng	-8.81135
▁mạnh▁mẽ	-8.81194
▁động	-8.81235
▁vẫn▁còn	-8.81317
▁an▁ninh	-8.81407
▁ký	-8.81445
▁Đến	-8.81552
▁trong▁nước	-8.81677
▁còn▁lại	-8.81734
▁người▁dùng	-8.81828
▁hát	-8.81879
▁tiếp	-8.81901
▁x	-8.81987
▁môn	-8.82
▁tấn	-8.82004
▁Trong▁đó	-8.82044
▁trẻ▁em	-8.82239
▁dòng	-8.82348
▁đen	-8.8237
▁Tr	-8.82413
▁đỏ	-8.82414
▁phía	-8.82658
▁không▁gian	-8.82744
▁tập	-8.82886
▁Ban	-8.82937
▁khỏi	-8.82976
▁nhu▁cầu	-8.83147
▁nỗ▁lực	-8.8322
▁số▁lượng	-8.83352
▁phương▁án	-8.83638
▁vô	-8.83728
▁khí	-8.83761
▁không▁còn	-8.83856
▁dự▁kiến	-8.84166
▁cùng▁với	-8.84192
▁UBND▁tỉnh	-8.84256
▁gần▁đây	-8.84336
30	-8.8434
▁Thị	-8.84421
▁giành	-8.84484
TT	-8.84705
km	-8.848
▁Lâm	-8.84803
▁tâm	-8.84995
▁trong▁một	-8.85109
-1	-8.85155
▁g	-8.85192
E	-8.85192
al	-8.85319
▁mẫu▁xe	-8.85375
▁các▁đơn▁vị	-8.85378
▁trước▁đó	-8.85418
▁Thái▁Lan	-8.85419
▁Phong	-8.85477
▁màn▁hình	-8.85599
▁Hưng	-8.8574
▁bác▁sĩ	-8.8579
▁tự▁nhiên	-8.85891
▁bánh	-8.86014
n▁Độ	-8.8616
un	-8.86216
▁Tết	-8.86271
▁Bảo	-8.86634
▁đội▁bóng	-8.86778
▁năng▁lượng	-8.86936
▁kể	-8.86983
▁VN	-8.86998
▁bị▁cáo	-8.873
▁nhạc	-8.87326
▁Hương	-8.87334
▁thi▁công	-8.87532
▁đổ	-8.87587
▁Tiến	-8.87599
▁đảo	-8.87607
▁nay	-8.87615
ra	-8.87749
▁câu▁chuyện	-8.87765
▁nh	-8.87772
▁xong	-8.87798
▁Ch	-8.879
▁nóng	-8.87904
▁DN	-8.88058
▁Yên	-8.88094
▁của▁Mỹ	-8.88098
▁Khánh	-8.88156
▁số▁tiền	-8.88196
▁Hoa	-8.88214
▁điều▁khiển	-8.88218
▁iPhone	-8.88289
▁tham▁dự	-8.88454
▁d	-8.88472
▁nông▁nghiệp	-8.88547
▁Sau▁đó	-8.88613
▁tầng	-8.88635
▁lá	-8.88682
▁phản▁ánh	-8.88745
▁Cục	-8.88823
▁khối	-8.8885
▁bắt	-8.88862
▁tìm▁kiếm	-8.89101
▁Thắng	-8.89266
▁phù▁hợp▁với	-8.89342
▁triệu▁USD	-8.89461
▁dẫn▁đến	-8.89548
▁đoạn	-8.89559
▁27	-8.89703
▁Y	-8.89749
▁tổng	-8.89758
▁La	-8.89784
▁Thu	-8.89909
▁nhà▁trường	-8.89936
▁quan▁tâm	-8.89991
▁thôn	-8.90142
▁hãng	-8.90252
▁tại▁các	-8.9028
▁cao▁hơn	-8.9039
▁phụ▁nữ	-8.9039
▁quý	-8.90402
▁thành▁lập	-8.90564
▁theo▁dõi	-8.90607
▁đến▁từ	-8.90661
▁hồ	-8.90701
▁tuần	-8.90752
▁lĩnh▁vực	-8.90763
7	-8.90871
▁di▁chuyển	-8.90882
▁trong▁quá▁trình	-8.91035
SN	-8.91072
▁du▁khách	-8.91379
▁hay▁không	-8.91524
▁hôm	-8.91682
▁mạng	-8.91688
▁thậm▁chí	-8.91705
'.	-8.9181
▁chịu	-8.92145
▁cảnh▁báo	-8.92211
▁buổi	-8.9223
▁băng	-8.92271
▁28	-8.9228
▁chủ▁đầu▁tư	-8.92292
▁Phó▁Chủ▁tịch	-8.92311
▁TPHCM	-8.92312
▁bình▁thường	-8.92333
▁mà▁còn	-8.9242
kg	-8.92603
▁Trước	-8.92606
▁giải▁pháp	-8.92646
▁dầu	-8.92669
▁Chúng▁tôi	-8.9275
▁Quốc	-8.92758
▁tạo▁ra	-8.92781
▁phát	-8.92933
▁nạn▁nhân	-8.9303
▁đầy▁đủ	-8.93042
▁Dũng	-8.93123
▁Hồ▁Chí▁Minh	-8.9317
▁dần	-8.93364
▁Q	-8.93438
▁26	-8.93518
▁khắc▁phục	-8.93534
▁TS	-8.93603
▁năng▁lực	-8.93781
▁cuối	-8.93852
▁200	-8.93874
▁đôi	-8.93916
▁nhà▁đầu▁tư	-8.93924
▁Đồng▁thời	-8.9404
▁trang▁bị	-8.94057
▁nhớ	-8.9418
▁của▁người	-8.94232
▁phối▁hợp	-8.94432
et	-8.94711
▁bảng	-8.94823
▁Lộc	-8.94831
ing	-8.94856
▁các▁hoạt▁động	-8.94883
▁vào▁tháng	-8.94885
▁sẵn▁sàng	-8.94946
▁phụ▁huynh	-8.9503
▁cộng▁đồng	-8.9514
▁được▁trang▁bị	-8.9521
▁chợ	-8.95239
▁tỷ▁lệ	-8.95271
▁liên▁quan	-8.95285
▁chi▁tiết	-8.95301
▁lực	-8.95474
▁mong▁muốn	-8.95551
▁chuyên	-8.95601
▁gây▁ra	-8.95669
▁dạy	-8.95742
▁Đồng	-8.95811
▁vận▁tải	-8.95867
▁đối▁thủ	-8.95891
▁ban	-8.9599
▁ch	-8.96005
▁Tây	-8.96028
▁siêu	-8.96051
▁đất▁nước	-8.96301
▁chờ	-8.96367
▁kinh▁nghiệm	-8.9643
▁v	-8.96473
▁Huy	-8.96509
▁nhận▁định	-8.96553
▁nghệ▁sĩ	-8.96713
▁cao▁nhất	-8.96931
▁cuộc▁thi	-8.97185
▁Phan	-8.97232
▁học▁tập	-8.974
▁người▁ta	-8.9743
▁dẫn	-8.97444
▁Nguyên	-8.97465
▁sát	-8.97467
10	-8.97473
▁giả	-8.97585
▁sẽ▁có	-8.97707
▁lạ	-8.97712
▁cần▁phải	-8.97747
▁hàng▁loạt	-8.97751
▁sai	-8.97799
▁kiến▁nghị	-8.97889
▁dự	-8.97938
▁Cũng	-8.97947
▁giao▁dịch	-8.97982
▁báo▁chí	-8.98061
▁hồi	-8.98166
▁bệnh▁viện	-8.98203
▁chở	-8.98367
▁UBND	-8.98368
▁đông	-8.98834
▁phân	-8.98946
▁sân	-8.99026
▁đợt	-8.9903
▁thắng	-8.99033
▁đại	-8.9909
▁truyền▁thông	-8.99333
▁đáng	-8.99441
▁phá	-8.99461
▁Syria	-8.99637
▁thương	-8.99684
▁vận▁hành	-8.99686
▁trong▁các	-8.99707
▁Xe	-8.99755
▁Nguyễn▁Thị	-8.9989
▁Phòng	-8.99898
▁tốc▁độ	-9.00088
▁lỗi	-9.00095
▁tài▁xế	-9.00139
▁nhập▁khẩu	-9.00141
▁Mặc▁dù	-9.0017
▁tỷ▁USD	-9.00177
man	-9.00218
▁sáng▁tạo	-9.00296
▁công▁an	-9.00322
▁trả▁lời	-9.0039
▁J	-9.00428
▁Toyota	-9.00436
▁Nguyễn▁Văn	-9.00466
▁đơn▁giản	-9.00489
▁Sài▁Gòn	-9.00592
▁phụ	-9.00599
▁lạnh	-9.00704
▁ban▁đầu	-9.00721
or	-9.00761
▁trở▁nên	-9.0134
▁hạt▁nhân	-9.01427
▁biên▁giới	-9.01553
▁vậy	-9.01609
▁sự▁kiện	-9.01653
▁nổi	-9.01754
▁tăng▁trưởng	-9.01844
▁phí	-9.01846
▁thử▁nghiệm	-9.01861
▁cảm▁thấy	-9.01886
▁điều▁này	-9.0189
▁danh	-9.01921
▁tránh	-9.01952
▁diện▁tích	-9.01971
▁hành▁vi	-9.02081
▁thôi	-9.02191
▁chế▁độ	-9.02216
▁đọc	-9.02222
▁án	-9.02312
▁Đảng	-9.02375
▁trên▁đường	-9.02476
▁hàng▁đầu	-9.02513
▁thích	-9.02591
▁của▁một	-9.02601
./.	-9.0261
▁phân▁tích	-9.02719
▁hiểu	-9.0272
▁cũng▁là	-9.02811
▁thỏa▁thuận	-9.02879
▁phù▁hợp	-9.0291
▁vận▁chuyển	-9.02949
▁hành	-9.02951
▁rõ▁ràng	-9.03001
▁xác▁nhận	-9.03003
▁trái	-9.03112
▁loài	-9.03189
▁Lý	-9.03284
▁đón	-9.03333
▁Vinh	-9.03356
0	-9.03415
▁nguy▁hiểm	-9.03521
▁thanh▁tra	-9.03561
▁mưa	-9.036
▁duy▁nhất	-9.03689
▁hơi	-9.03918
▁lần▁đầu▁tiên	-9.0403
▁trả	-9.04054
▁kịp▁thời	-9.04149
▁thu▁hút	-9.04204
▁Ngoài	-9.04256
▁xuất▁sắc	-9.04287
▁cao▁cấp	-9.04346
▁gắn	-9.04352
▁Được▁biết	-9.04354
▁nợ	-9.04389
▁tử	-9.04397
▁bao	-9.0441
▁lễ	-9.04458
▁Giang	-9.04525
f	-9.04564
);	-9.04613
▁chủ▁yếu	-9.0478
▁dân▁tộc	-9.04917
▁ấn▁tượng	-9.04982
▁ngủ	-9.05009
le	-9.05058
▁chưa▁có	-9.05065
▁dữ▁liệu	-9.05131
▁cha	-9.0516
▁thu▁hồi	-9.05175
▁bước	-9.0518
▁hàng▁hóa	-9.05279
▁Cường	-9.053
▁cắt	-9.05303
▁ngoại	-9.05455
▁chậm	-9.05521
▁vũ▁khí	-9.0563
▁cũng▁không	-9.05701
▁người▁hâm▁mộ	-9.05705
▁chủ▁động	-9.05725
▁vượt	-9.05754
▁này▁là	-9.0577
▁Theo▁ông	-9.05783
▁Trang	-9.05792
▁hoàn▁thiện	-9.05832
▁500	-9.05862
▁Al	-9.05865
▁lý▁do	-9.06067
▁Điều▁này	-9.06082
▁cơ▁bản	-9.0609
▁chứa	-9.06133
▁Vân	-9.06181
▁kết▁luận	-9.06194
▁nhà▁máy	-9.06224
▁Đối▁với	-9.06264
▁Chỉ	-9.06264
▁ngân▁sách	-9.06277
▁cam▁kết	-9.06317
▁Sự	-9.06372
▁kéo	-9.06375
▁Apple	-9.06381
▁60	-9.06413
▁phố	-9.06554
▁Vì▁vậy	-9.06569
▁cạnh▁tranh	-9.06636
▁Nghĩa	-9.0664
▁giới	-9.06816
▁ghi	-9.0689
▁bố	-9.06923
▁kết▁thúc	-9.06933
▁xuất▁khẩu	-9.07075
▁Báo	-9.07187
▁cảnh▁sát	-9.07315
▁Con	-9.07329
▁Như	-9.07411
▁điều▁hành	-9.07424
▁Duy	-9.07434
▁cấm	-9.07719
▁vẫn▁chưa	-9.07734
▁nhẹ	-9.07736
▁Em	-9.07805
▁tác▁động	-9.07863
▁tuy▁nhiên	-9.07913
▁hạnh▁phúc	-9.07972
▁Chị	-9.0798
▁sạch	-9.07982
▁biến	-9.07998
▁trước▁đây	-9.08089
▁là▁những	-9.08122
▁Hà▁Tĩnh	-9.08163
ri	-9.08188
▁chiến▁đấu	-9.08283
▁tác▁phẩm	-9.08349
▁Tập▁đoàn	-9.08445
en	-9.08621
▁ngang	-9.08742
▁nằm▁trong	-9.08753
▁nhiên▁liệu	-9.08785
▁song	-9.08808
▁tất▁cả▁các	-9.08894
▁cực	-9.08925
▁tỷ	-9.08976
▁tiêu▁chuẩn	-9.09059
ỗi	-9.09102
▁tốt▁nhất	-9.09139
▁độc	-9.09141
▁bản▁thân	-9.09229
▁xung▁quanh	-9.09355
▁đóng▁góp	-9.09364
▁công▁nhân	-9.0942
▁cơ▁thể	-9.09563
▁thanh	-9.09573
▁đ	-9.09715
▁ôtô	-9.09776
▁năm▁qua	-9.09789
▁ảnh▁hưởng▁đến	-9.09919
▁trình	-9.09942
▁mời	-9.10063
▁hàng▁trăm	-9.10201
▁Trên	-9.10213
▁chính▁xác	-9.1049
▁trong▁thời▁gian	-9.10529
▁Lương	-9.10598
▁Tổng	-9.10601
▁diễn	-9.1061
▁chữ	-9.10639
▁thị▁trấn	-9.10773
▁hòa	-9.10833
▁phương▁pháp	-9.10841
▁hãy	-9.10934
ê	-9.11079
▁không▁biết	-9.11198
▁tiếp▁cận	-9.11212
▁này▁đã	-9.11216
▁Phúc	-9.11222
▁tiết▁kiệm	-9.11258
▁hình▁thức	-9.11372
▁gỗ	-9.11392
▁truyền	-9.1161
▁2018.	-9.11638
▁tặng	-9.11643
ol	-9.12093
▁nước▁này	-9.12206
▁vui	-9.1233
▁công▁khai	-9.1237
▁thay	-9.12403
▁cựu	-9.12438
▁300	-9.12486
▁câu	-9.12516
▁PV	-9.1254
▁tiết▁lộ	-9.12674
▁thể	-9.12691
▁thanh▁niên	-9.12765
▁bảo	-9.12773
▁người▁tiêu▁dùng	-9.12842
▁tuyên▁truyền	-9.12909
▁áo	-9.12927
▁nguy▁cơ	-9.12957
▁thống▁nhất	-9.13024
▁duy▁trì	-9.13033
▁mấy	-9.13058
▁Hải▁Phòng	-9.13069
▁vượt▁qua	-9.13167
▁0	-9.1335
▁Huế	-9.13515
▁Honda	-9.13529
▁không▁phải▁là	-9.1363
▁vai▁trò	-9.13731
▁đạt▁được	-9.139
▁Hội▁đồng	-9.13999
▁The	-9.14063
W	-9.14066
▁lên▁tới	-9.14103
▁CLB	-9.14122
▁tổ	-9.14132
▁chủ▁trương	-9.1446
▁tỉ▁đồng	-9.14481
▁Thiên	-9.1452
▁Liên	-9.14598
co	-9.1473
▁Qua	-9.14736
ong	-9.14895
▁vật	-9.14898
▁cơ▁chế	-9.14951
▁ĐH	-9.15095
▁cánh	-9.15177
▁lắm	-9.15251
▁hy▁vọng	-9.15253
▁vận▁động	-9.15279
▁kiến▁thức	-9.15309
▁mặc	-9.15352
▁bảo▁đảm	-9.15369
▁đại▁học	-9.15546
▁nâng▁cấp	-9.15569
▁việc▁làm	-9.15626
▁thanh▁toán	-9.15658
▁chuyên▁môn	-9.15718
▁vườn	-9.15802
y▁ban	-9.15875
▁tối▁đa	-9.15969
▁tương▁lai	-9.15985
▁ở▁đây	-9.16061
▁cố▁gắng	-9.16062
▁lợi▁nhuận	-9.16138
▁thay▁thế	-9.16241
▁bão	-9.16242
▁đào	-9.16309
▁khoản	-9.16316
▁người▁đàn▁ông	-9.16348
ro	-9.16399
▁hôm▁nay	-9.16566
▁trạm	-9.16669
▁lần▁thứ	-9.16911
▁Một▁số	-9.1694
▁từ▁ngày	-9.17036
▁xây	-9.17175
▁Khu	-9.17241
▁ghi▁nhận	-9.17278
▁trải▁nghiệm	-9.17322
▁âm▁nhạc	-9.17329
▁in	-9.17338
▁trung▁bình	-9.1742
▁hấp▁dẫn	-9.17511
▁chính▁phủ	-9.17793
▁tồn▁tại	-9.17798
▁tự▁động	-9.17853
▁chắc▁chắn	-9.18118
▁dạng	-9.18212
▁ý▁kiến	-9.18432
▁hành▁khách	-9.18485
▁thực	-9.18525
▁Chi	-9.18597
▁kính	-9.18598
▁được▁cho▁là	-9.18609
▁thúc▁đẩy	-9.18681
▁Đại▁học	-9.18772
us	-9.18856
▁quay	-9.18914
z	-9.19016
▁hội	-9.1905
▁tốt▁hơn	-9.19144
▁kh	-9.19308
00	-9.19333
▁Sáng	-9.1938
▁đổi▁mới	-9.19416
▁bằng▁cách	-9.19489
▁cải▁thiện	-9.19544
re	-9.19561
▁sẽ▁không	-9.19613
▁các▁em	-9.19625
▁Giá	-9.19664
▁Hiện▁nay	-9.19742
▁giấy	-9.19774
▁yếu	-9.19821
▁ng	-9.20024
▁gốc	-9.20037
▁nhà▁khoa▁học	-9.20135
▁rất▁lớn	-9.2014
▁Nghệ▁An	-9.20157
▁này▁sẽ	-9.20234
▁Vì	-9.2024
▁như▁thế▁nào	-9.20252
▁quan▁điểm	-9.20296
▁lái▁xe	-9.20351
▁pha	-9.20402
▁thu▁nhập	-9.20424
▁của▁anh	-9.20528
▁thần	-9.20532
▁Thủy	-9.20543
▁dừng	-9.20619
▁Do▁đó	-9.20644
▁xấu	-9.20694
▁nội	-9.2076
▁cũng▁được	-9.20768
▁toàn▁cầu	-9.20892
▁Đình	-9.20994
▁kết	-9.21076
▁tiêu▁thụ	-9.2116
▁đàn	-9.21172
▁cát	-9.21231
▁Lan	-9.21327
▁dễ▁dàng	-9.21475
▁Sở	-9.21489
▁đang▁được	-9.21495
)▁-	-9.21504
▁Chương▁trình	-9.21545
▁năm▁trước	-9.21612
▁sân▁bay	-9.21683
▁ga	-9.21742
▁&	-9.21774
▁thịt	-9.21807
▁trong▁lĩnh▁vực	-9.22109
▁lửa	-9.22112
▁chú	-9.2222
▁tuyến▁đường	-9.22307
▁đa	-9.22323
▁khóa	-9.22332
▁Thanh▁Hóa	-9.22402
▁UBND▁TP	-9.22404
▁bền▁vững	-9.22461
▁Nhân	-9.22465
▁Chủ▁tịch▁UBND	-9.22486
▁trung	-9.22487
▁núi	-9.22595
▁cũng▁có	-9.22648
▁lẫn	-9.22735
▁hết▁sức	-9.22779
▁lượt	-9.22829
▁của▁Việt▁Nam	-9.22878
▁phóng	-9.22936
▁khách▁sạn	-9.22973
▁cả▁hai	-9.22996
▁khai	-9.23004
▁Quốc▁gia	-9.231
▁trái▁phép	-9.23101
▁là▁do	-9.23232
▁với▁giá	-9.23259
ang	-9.23333
▁Đặng	-9.23359
▁tư▁vấn	-9.23376
▁kiểu	-9.23403
▁ban▁hành	-9.23439
la	-9.23557
▁các▁chuyên▁gia	-9.23652
▁bộ▁phim	-9.23674
▁lo	-9.23676
▁tình▁cảm	-9.23707
▁nổi▁bật	-9.23802
▁đến▁năm	-9.23886
▁các▁dự▁án	-9.23973
▁nền	-9.24051
▁thua	-9.24088
▁Vĩnh	-9.24126
▁cứu	-9.24267
▁ha	-9.24304
năm	-9.24327
▁mang▁lại	-9.24372
▁con▁gái	-9.24388
▁con▁trai	-9.24396
▁sinh▁hoạt	-9.24399
▁trị▁giá	-9.24446
▁Ra	-9.24547
▁Đường	-9.24585
▁một▁phần	-9.24599
▁tấm	-9.24659
▁đội▁tuyển	-9.24665
▁ảnh▁hưởng	-9.2467
▁hành▁trình	-9.24736
TS	-9.2475
▁văn	-9.24851
▁máy▁tính	-9.24888
▁Cao	-9.24917
▁thuận▁lợi	-9.24978
▁ở▁Việt▁Nam	-9.25187
▁đề	-9.25244
TP	-9.25265
▁quan▁hệ	-9.25286
▁hiệu	-9.25324
▁lợi▁ích	-9.25324
Q	-9.25617
▁lo▁lắng	-9.25758
▁cử	-9.25761
▁nói▁rằng	-9.25787
▁Vi	-9.25828
▁phức▁tạp	-9.25842
▁Thành▁phố	-9.25894
▁chẳng	-9.25898
▁chụp	-9.2592
▁thứ▁hai	-9.25992
▁gia	-9.26
▁Như▁vậy	-9.26066
▁đèn	-9.2609
▁các▁nhà	-9.26267
lo	-9.26343
▁Facebook	-9.26344
▁mới▁đây	-9.2635
▁dành	-9.26394
▁quân▁đội	-9.2646
▁tranh	-9.26571
▁nghèo	-9.26575
▁camera	-9.26679
▁lũ	-9.26687
▁trong▁vòng	-9.26702
▁văn▁bản	-9.2674
▁phê▁duyệt	-9.26808
▁đổi	-9.26833
▁bên▁trong	-9.26882
▁tâm▁lý	-9.26961
▁phổ▁biến	-9.27042
▁công▁suất	-9.27143
▁suốt	-9.2718
▁thủ	-9.27268
▁vụ▁án	-9.2748
▁cầm	-9.27508
▁còn▁có	-9.27515
▁cơ	-9.2756
▁thành▁tích	-9.27566
▁hợp▁lý	-9.27696
▁ngôi▁nhà	-9.27711
▁hiện▁tượng	-9.27726
▁gia▁tăng	-9.27735
▁bức▁xúc	-9.27773
▁Phước	-9.27786
▁2016,	-9.27801
▁tương▁tự	-9.27823
▁lít	-9.27919
▁nhập	-9.27952
▁70	-9.27958
▁nhiều▁hơn	-9.27992
vn	-9.28132
▁đẩy	-9.28168
▁sửa▁chữa	-9.28272
▁cụ	-9.28311
▁hạ	-9.28368
19	-9.2837
▁sẽ▁là	-9.28384
▁thử	-9.28528
▁diễn▁viên	-9.28555
▁Chính	-9.28665
▁diện	-9.28681
▁Mi	-9.28792
▁Thế	-9.28851
▁súng	-9.28883
▁tái	-9.28963
▁Thế▁nhưng	-9.28996
▁hạng	-9.29092
na	-9.29216
▁y▁tế	-9.29227
▁thiệt▁hại	-9.29245
▁như▁một	-9.2935
▁quan▁sát	-9.29377
os	-9.29414
▁bất▁kỳ	-9.29488
▁danh▁sách	-9.29564
▁Z	-9.29775
▁tự▁do	-9.29853
▁tr	-9.29862
▁hạt	-9.29923
▁kém	-9.30007
▁ít▁nhất	-9.30017
▁nghỉ	-9.30119
▁Chiều	-9.3017
▁ý	-9.30374
▁Vào	-9.3042
▁trên▁thị▁trường	-9.30441
▁làm▁rõ	-9.30534
ic	-9.30647
as	-9.30766
▁cảng	-9.30848
▁căn▁cứ	-9.30936
▁uống	-9.30949
▁Trương	-9.31003
▁quan	-9.31017
▁ca▁khúc	-9.31136
com	-9.31147
do	-9.31198
▁tính▁năng	-9.31268
▁dựa▁trên	-9.31297
▁các▁nước	-9.31333
▁quảng▁cáo	-9.3136
▁tài	-9.31454
▁tội	-9.31542
▁đau	-9.31806
▁2011	-9.31951
▁sự▁nghiệp	-9.32038
▁Kết▁quả	-9.3206
▁con▁đường	-9.32109
▁may▁mắn	-9.32115
▁chứng▁kiến	-9.32137
▁doanh▁thu	-9.32166
▁thủ▁tục	-9.32267
▁2015	-9.32307
▁Thuận	-9.32359
▁cửa▁hàng	-9.32372
▁vài	-9.32375
▁nhiều▁lần	-9.32405
▁ca▁sĩ	-9.32428
ma	-9.32468
▁tại▁khu▁vực	-9.32506
▁kêu▁gọi	-9.32517
▁khổng▁lồ	-9.3253
▁không▁khí	-9.32589
▁lái	-9.32603
▁khảo▁sát	-9.32679
▁xăng	-9.32769
▁không▁hề	-9.32807
▁truyền▁hình	-9.3283
▁chỉ▁là	-9.32878
▁con▁số	-9.32961
▁Thứ▁trưởng	-9.33068
NG	-9.3313
▁địa▁điểm	-9.3313
▁bây▁giờ	-9.33133
▁trở▁về	-9.3316
▁giải▁thích	-9.33194
▁dịch	-9.33243
22	-9.33395
▁đời▁sống	-9.33542
▁gà	-9.3361
▁tử▁vong	-9.33648
▁chiến	-9.33649
▁sắc	-9.33691
▁có▁sự	-9.337
▁bên▁ngoài	-9.33726
▁thời▁tiết	-9.33742
▁sắp	-9.33949
▁Thanh▁tra	-9.3413
▁với▁nhau	-9.34148
▁ở▁các	-9.34218
▁chiến▁dịch	-9.34247
▁bắn	-9.34276
▁Kỳ	-9.34405
▁Internet	-9.34428
▁sẽ▁tiếp▁tục	-9.34489
▁sữa	-9.34527
▁nửa	-9.34583
▁lương	-9.34605
▁sức▁mạnh	-9.34614
▁hạ▁tầng	-9.34631
▁mối▁quan▁hệ	-9.34634
▁tại▁Hà▁Nội	-9.34713
▁kẻ	-9.34778
▁lên▁đến	-9.34789
▁sự▁việc	-9.34802
▁Hiện▁tại	-9.34841
▁thừa▁nhận	-9.34984
▁Cơ▁quan	-9.35021
▁Gia	-9.35128
▁lưu	-9.35155
▁mục▁đích	-9.35246
▁Malaysia	-9.35271
▁hàng▁chục	-9.35285
▁trao	-9.35285
VN	-9.3533
▁mã	-9.35331
▁chứ	-9.35341
▁31	-9.35459
▁nhân▁vật	-9.35473
▁Quân	-9.35549
▁quê	-9.35615
▁cô▁gái	-9.35691
▁lần▁này	-9.357
▁quanh	-9.35805
es	-9.35905
▁tình▁yêu	-9.35908
▁sự▁phát▁triển	-9.36091
▁nhưng▁không	-9.36189
▁dư▁luận	-9.3624
▁đồng▁chí	-9.36273
ai	-9.36352
▁tiêu	-9.3639
▁vệ▁sinh	-9.36501
▁nhà▁sản▁xuất	-9.36658
ta	-9.36689
▁vé	-9.36732
▁tiếp▁theo	-9.36771
▁sự▁cố	-9.36856
▁bất▁động▁sản	-9.37048
▁trao▁đổi	-9.37066
il	-9.3709
▁âm	-9.37102
▁vai	-9.37128
▁chưa▁được	-9.37167
▁định	-9.37191
▁phi	-9.3726
▁thông	-9.37317
▁phần▁mềm	-9.37322
▁các▁sản▁phẩm	-9.37331
▁bên▁cạnh	-9.37402
▁chiến▁tranh	-9.37418
▁đẩy▁mạnh	-9.3749
▁xuất	-9.37555
▁bất▁cứ	-9.37568
▁vật▁liệu	-9.37589
▁cho▁người▁dân	-9.37593
▁các▁tỉnh	-9.37605
▁lúa	-9.37608
▁rút	-9.3764
▁thư	-9.3777
▁giây	-9.37817
▁chấp▁nhận	-9.37831
▁các▁trường	-9.37895
▁đáp▁ứng	-9.37949
▁năm▁ngoái	-9.38022
▁kỷ▁niệm	-9.38024
▁cần▁thiết	-9.38072
▁đã▁làm	-9.38103
▁tập▁thể	-9.38208
▁như▁thế	-9.38238
▁Không▁chỉ	-9.38273
▁khô	-9.38319
▁thất▁bại	-9.3832
▁địa	-9.3834
▁Ngân▁hàng	-9.38577
▁tiếp▁nhận	-9.38582
▁rau	-9.38611
▁tìm▁hiểu	-9.38632
▁sóng	-9.38647
▁ưu▁tiên	-9.3865
▁một▁chiếc	-9.38659
▁áp▁lực	-9.3875
▁bờ	-9.38884
▁chế▁tạo	-9.38957
▁trong▁khu▁vực	-9.38975
▁Là	-9.38981
▁Tháng	-9.39011
▁tuyển	-9.39095
▁Nó	-9.39246
▁Ca	-9.39309
▁trông	-9.39327
▁kết▁hợp	-9.39402
▁giỏi	-9.39424
▁vỏ	-9.39628
▁và▁phát▁triển	-9.39654
▁Tâm	-9.39765
▁một▁người	-9.39769
▁viện	-9.39911
▁thủy	-9.40033
▁tầm	-9.40076
▁phong▁cách	-9.40109
▁phản▁ứng	-9.40132
▁bồi▁thường	-9.40261
▁Lào	-9.40273
ụ	-9.40281
▁hậu	-9.40398
▁rời	-9.4046
▁sợ	-9.40537
▁Viện	-9.40544
▁Hệ▁thống	-9.4057
▁bốn	-9.40576
ir	-9.40624
▁đấu	-9.40629
▁ghế	-9.40647
▁Co	-9.40755
▁Vụ	-9.40767
▁TP▁HCM	-9.40799
-5	-9.40853
▁kho	-9.40858
▁căng▁thẳng	-9.40881
▁tươi	-9.40921
▁Bệnh▁viện	-9.40984
▁đặt▁ra	-9.40992
▁tim	-9.40998
▁dây	-9.41097
▁Công▁ty▁TNHH	-9.41135
▁theo▁hướng	-9.41218
son	-9.41342
▁có▁giá	-9.41361
▁quy▁trình	-9.41454
▁Su	-9.41514
▁mạng▁xã▁hội	-9.41588
▁sàn	-9.41646
▁thị▁xã	-9.4166
▁nhìn▁thấy	-9.41757
▁tài▁khoản	-9.41768
▁bất	-9.41774
▁chỉ▁cần	-9.41901
▁pin	-9.41937
is	-9.41948
▁mắc	-9.4201
▁hình▁thành	-9.42088
▁rõ	-9.42141
▁nhiệt▁độ	-9.42146
▁bàn▁thắng	-9.42162
▁tạo▁điều▁kiện	-9.42231
▁di▁động	-9.42232
▁lộ	-9.42361
▁Hữu	-9.42383
▁quốc	-9.42458
▁phát▁huy	-9.42564
40	-9.42602
▁quán	-9.42638
▁tài▁liệu	-9.42767
ine	-9.42811
▁các▁địa▁phương	-9.42811
▁Quý	-9.4283
▁mức▁độ	-9.42848
▁đảng	-9.42887
▁nâng	-9.42964
▁ý▁tưởng	-9.43071
ph	-9.43209
▁Đỗ	-9.43221
▁kỹ▁năng	-9.4324
▁Iran	-9.43251
▁ngắn	-9.43339
▁bố▁mẹ	-9.43443
▁Ngô	-9.43556
▁Chiếc	-9.43587
▁thách▁thức	-9.43599
▁để▁làm	-9.4363
▁gói	-9.43701
▁liên▁tiếp	-9.4379
▁quyết▁tâm	-9.43794
▁khủng▁bố	-9.43823
▁cố	-9.4383
▁hệ	-9.43845
Th	-9.43864
▁ấm	-9.43895
▁xét	-9.43907
▁GS	-9.43928
▁này▁được	-9.43939
▁ngụ	-9.43943
▁khoa	-9.43967
▁yếu▁tố	-9.43977
▁tình▁huống	-9.44054
▁nhà▁ở	-9.44065
▁thay▁vì	-9.4409
▁thời▁gian▁qua	-9.44185
▁người▁lao▁động	-9.44211
▁có▁mặt	-9.4424
▁thăm	-9.44259
▁rác	-9.44276
▁tờ	-9.44344
▁của▁những	-9.44442
▁bình	-9.44462
▁trong▁những	-9.44645
ed	-9.44649
▁già	-9.44659
▁nhất▁thế▁giới	-9.44729
▁lâu	-9.44822
▁vua	-9.44837
▁người▁phụ▁nữ	-9.44857
▁buồn	-9.45141
▁Bởi	-9.45284
▁bậc	-9.45287
Y	-9.45407
▁tuyển▁sinh	-9.4545
▁tác▁giả	-9.45559
▁kênh	-9.45628
/5	-9.45669
▁PGS	-9.45771
▁miệng	-9.45836
▁sai▁phạm	-9.45842
▁tinh	-9.45922
▁các▁cầu▁thủ	-9.45942
▁hơn▁nữa	-9.45949
▁ô▁nhiễm	-9.45954
▁biện▁pháp	-9.46272
▁bạn▁bè	-9.46299
▁nêu	-9.46395
▁Đào	-9.464
▁mà▁không	-9.46406
▁thế▁hệ	-9.46474
▁Singapore	-9.46474
▁Bùi	-9.46479
▁IS	-9.46518
▁phẫu▁thuật	-9.46546
▁Mới▁đây	-9.46574
▁nhưng▁vẫn	-9.46632
▁câu▁hỏi	-9.46636
▁1.000	-9.46676
45	-9.46745
▁ung▁thư	-9.46754
▁động▁viên	-9.46811
▁tạo▁nên	-9.46821
▁bố▁trí	-9.46827
ar	-9.46893
at	-9.46901
▁căn▁hộ	-9.46947
▁vô▁địch	-9.46964
▁Ninh	-9.4697
▁họp	-9.47002
▁với▁nhiều	-9.47005
▁xưa	-9.47124
▁ở▁mức	-9.47136
▁sử▁dụng▁đất	-9.47191
▁kinh▁phí	-9.4723
▁Hội▁nghị	-9.47328
▁pháo	-9.47341
▁mặc▁dù	-9.4741
▁Bạn	-9.47516
MT	-9.47557
▁Thổ▁Nhĩ▁Kỳ	-9.47575
▁giải▁thưởng	-9.47592
▁bạc	-9.47592
▁Giải	-9.476
▁2010	-9.47604
▁giúp▁đỡ	-9.47682
ả	-9.4773
▁này▁cũng	-9.47746
▁ra▁khỏi	-9.4781
▁tiến	-9.47871
▁Hiền	-9.4789
▁y	-9.47912
▁mới▁nhất	-9.47939
▁nông▁dân	-9.48007
▁trừ	-9.48025
▁thả	-9.48043
▁Lưu	-9.48048
▁bãi	-9.48048
/9	-9.48091
▁rượu	-9.48118
▁khung	-9.48176
▁cách▁mạng	-9.48194
▁80	-9.48215
▁cảm	-9.48236
▁Uber	-9.48321
▁Phó▁Thủ▁tướng	-9.4834
▁th	-9.48359
tr	-9.48419
ị	-9.48433
▁độc▁đáo	-9.48457
▁trong▁tháng	-9.48476
▁Quỳnh	-9.48492
▁màn	-9.48619
▁Indonesia	-9.48632
▁thơ	-9.48635
▁các▁cấp	-9.48682
▁cười	-9.48746
▁Huỳnh	-9.48786
▁bao▁nhiêu	-9.48843
▁nhận▁thức	-9.48944
ur	-9.49091
▁Thậm▁chí	-9.49102
▁inch	-9.49234
▁thức	-9.4925
▁diễn▁biến	-9.49312
▁bày▁tỏ	-9.49333
/7	-9.49388
ton	-9.49454
▁Khoa	-9.49503
▁chuyên▁nghiệp	-9.49505
ad	-9.49536
▁công▁dân	-9.49537
▁thép	-9.49545
ơ	-9.49591
▁Trọng	-9.49649
▁biểu▁diễn	-9.49653
▁Hiệp	-9.49654
▁UBND▁huyện	-9.49658
▁Ng	-9.49687
▁Trong▁khi	-9.49715
▁ma▁túy	-9.4974
▁độc▁lập	-9.49781
80	-9.49952
▁Gi	-9.49952
▁hai▁bên	-9.49955
▁đạn	-9.49981
▁chuyến	-9.49997
▁được▁thiết▁kế	-9.50016
▁mỗi▁ngày	-9.50168
▁Re	-9.50235
60	-9.50249
▁của▁tôi	-9.50259
▁chế▁biến	-9.50361
▁tung	-9.50367
▁những▁gì	-9.5044
▁gần▁như	-9.50468
▁hậu▁quả	-9.50531
▁chặt▁chẽ	-9.50538
▁lý	-9.50643
▁có▁được	-9.507
▁coi	-9.5076
▁toàn▁diện	-9.50894
▁túi	-9.50912
▁gạo	-9.50918
▁phát▁hành	-9.50945
▁chuẩn	-9.50989
▁Ma	-9.51033
ne	-9.51046
▁Công▁nghệ	-9.51064
▁kg	-9.51086
▁từ▁đó	-9.51185
▁hẳn	-9.51208
▁giám▁đốc	-9.51218
▁Samsung	-9.51276
▁chỉ▁còn	-9.51328
▁Đội	-9.51333
▁thoát	-9.5149
▁cả▁nước	-9.51581
▁cho▁người	-9.51591
▁trong▁tương▁lai	-9.51618
▁ngôi▁sao	-9.51715
▁ở▁khu▁vực	-9.51812
▁một▁lần	-9.52005
▁100%	-9.52016
▁thế▁nào	-9.52034
▁tiềm▁năng	-9.521
▁Xây▁dựng	-9.52117
▁rà▁soát	-9.52168
to	-9.522
▁dịp	-9.52237
▁Riêng	-9.52327
▁buộc	-9.52383
▁Thông▁tin	-9.52392
ô	-9.52407
▁chuyển▁đổi	-9.52415
▁nền▁kinh▁tế	-9.52472
▁hiện▁đang	-9.52473
▁các▁bạn	-9.5257
▁đáng▁kể	-9.52586
▁phải▁có	-9.52622
▁Qatar	-9.52651
▁tưởng	-9.52663
▁món	-9.52676
▁thu▁phí	-9.52829
▁35	-9.52844
▁giống▁như	-9.5304
/8	-9.53072
▁video	-9.53091
▁45	-9.531
▁đồng▁ý	-9.53141
ông	-9.53236
▁Hàng	-9.53262
▁tai▁nạn	-9.53289
▁giải▁trí	-9.53354
▁Google	-9.53376
▁cảm▁xúc	-9.53412
▁Thi	-9.53429
▁cổ▁phiếu	-9.53435
▁phía▁sau	-9.53445
▁của▁U	-9.53495
gi	-9.53628
▁bàn▁giao	-9.53633
▁chỉ▁tiêu	-9.53645
▁vẫn▁đang	-9.53724
▁phong▁trào	-9.53739
▁giàu	-9.53756
▁quỹ	-9.53801
▁căn▁nhà	-9.53828
▁liệu	-9.53847
▁Cảnh▁sát	-9.53974
▁mã▁lực	-9.54016
▁giảm▁giá	-9.54026
▁tội▁phạm	-9.54065
▁người▁khác	-9.54087
▁sở	-9.54092
▁hộ▁dân	-9.54097
▁Người▁dân	-9.54101
▁anh▁em	-9.54125
▁mũi	-9.54132
▁định▁hướng	-9.54175
▁Thảo	-9.54178
QĐ	-9.54188
▁các▁biện▁pháp	-9.5423
▁chắc	-9.54265
▁mai	-9.54273
▁Li	-9.54326
▁thẻ	-9.5445
ia	-9.5453
▁của▁hãng	-9.54542
▁vợ▁chồng	-9.54573
▁Di	-9.54651
▁smartphone	-9.54741
▁vũ▁trụ	-9.54787
CN	-9.54863
▁dường▁như	-9.54928
▁cháy	-9.54986
▁điều▁đó	-9.55008
-10	-9.55028
▁Cả	-9.55033
▁Nói	-9.55084
▁màu▁sắc	-9.55091
▁rủi▁ro	-9.55104
▁Đây	-9.55182
▁BV	-9.55264
▁gấp	-9.55282
▁mong	-9.55357
▁Australia	-9.55399
▁cảm▁giác	-9.55412
▁Võ	-9.55427
▁đem	-9.55552
Hà▁Nội	-9.55601
▁đừng	-9.55621
w	-9.55624
▁cặp	-9.5565
▁không▁ít	-9.55661
▁cung	-9.55706
-3	-9.55734
▁não	-9.55745
▁xe▁tải	-9.5576
▁2014	-9.55771
▁liền	-9.55794
50	-9.55829
▁thiên▁nhiên	-9.5585
▁2018,	-9.55866
▁nghìn	-9.55929
▁đều▁có	-9.55946
▁tại▁đây	-9.55965
▁địa▁bàn	-9.56036
▁khuyến▁khích	-9.5606
▁hợp	-9.56083
▁hoạt▁động▁của	-9.56103
Nguồn	-9.56135
▁rơi	-9.56151
▁phủ	-9.56176
▁miễn▁phí	-9.56239
▁150	-9.56255
▁Cần▁Thơ	-9.56416
▁Được	-9.56549
▁quy▁mô	-9.56641
▁tòa▁nhà	-9.5666
▁bảo▁tồn	-9.56677
▁là▁điều	-9.56852
it	-9.56853
▁của▁nó	-9.56877
▁thú▁vị	-9.56877
▁bà▁con	-9.56917
▁Donald▁Trump	-9.56921
▁Phi	-9.56957
▁sĩ	-9.56965
▁quên	-9.57075
▁cha▁mẹ	-9.57115
▁p	-9.57133
▁đưa▁tin	-9.57147
▁phát▁biểu	-9.5722
15	-9.5722
▁nông▁thôn	-9.57283
▁mang▁tính	-9.57368
▁tích▁hợp	-9.57429
▁tiêu▁chí	-9.5746
▁Hoa▁Kỳ	-9.57484
▁ma	-9.57569
▁đã▁khiến	-9.57602
▁góc	-9.5769
▁pháp▁lý	-9.57735
▁tốt▁nghiệp	-9.57751
▁trận▁chung▁kết	-9.57863
▁Bộ▁GTVT	-9.5792
/6	-9.57927
▁Tất▁cả	-9.57971
▁tạm	-9.57972
▁ngư▁dân	-9.58024
▁cách▁đây	-9.5807
▁bầu	-9.58157
▁thời▁trang	-9.58209
▁từ▁chối	-9.58273
▁Tùng	-9.58342
▁nói▁trên	-9.58381
▁tuyệt▁vời	-9.58386
ie	-9.58426
▁xét▁tuyển	-9.58471
▁Quảng▁Nam	-9.58535
▁Đông▁Nam▁Á	-9.58579
▁bình▁luận	-9.58594
▁BMW	-9.58643
í	-9.58645
▁binh	-9.58692
▁Tú	-9.58777
▁chiếu	-9.58787
▁Hoa▁hậu	-9.58841
▁của▁bạn	-9.58899
ở	-9.58906
li	-9.58955
▁lễ▁hội	-9.58958
am	-9.58963
▁90	-9.58996
▁suy▁nghĩ	-9.5903
▁huy▁động	-9.59058
▁ý▁nghĩa	-9.59069
▁Công▁ty▁CP	-9.59074
▁luật▁sư	-9.59087
▁Na	-9.59101
▁lưu▁thông	-9.59127
▁đạo	-9.59184
▁người▁thân	-9.59257
▁Ford	-9.59273
y▁viên	-9.59299
ti	-9.59401
▁trực▁tuyến	-9.59475
ay	-9.59527
▁Điểm	-9.59538
▁của▁pháp▁luật	-9.59617
▁trường▁học	-9.59633
▁ánh▁sáng	-9.5975
▁ruột	-9.59764
▁không▁nên	-9.59775
▁chứ▁không▁phải	-9.59867
▁nổ	-9.59921
▁bò	-9.59967
▁đối▁tác	-9.59988
ung	-9.60009
▁động▁vật	-9.60027
▁than	-9.60052
▁chiến▁sĩ	-9.6007
▁Sa	-9.60084
▁Quảng	-9.60124
▁chia	-9.60211
▁Washington	-9.60227
▁hút	-9.60322
▁khóc	-9.60336
▁đội▁ngũ	-9.60397
▁Thọ	-9.60479
▁đo	-9.60496
▁những▁ngày	-9.60505
▁mm	-9.60516
▁vay	-9.6056
▁xóm	-9.60578
▁k	-9.60593
▁để▁lại	-9.60606
▁vụ▁tai▁nạn	-9.60659
▁tự▁tin	-9.60714
▁Cty	-9.60722
▁quốc▁phòng	-9.60937
▁Tổ▁chức	-9.60995
▁của▁Nga	-9.61007
▁cờ	-9.61048
▁được▁tổ▁chức	-9.61108
▁đầu▁tiên▁của	-9.61158
▁được▁sử▁dụng	-9.61161
▁Chu	-9.61293
J	-9.61316
▁Mercedes	-9.6132
▁hiệp	-9.61336
▁trong▁ngày	-9.61347
▁chụp▁ảnh	-9.61395
▁phần▁lớn	-9.61442
▁tương▁đương	-9.61445
▁lo▁ngại	-9.61458
▁Song	-9.61592
▁Văn▁phòng	-9.61604
▁thức▁ăn	-9.61713
▁cho▁con	-9.61775
League	-9.61783
▁nắng	-9.61788
▁đã▁từng	-9.61791
▁ngăn▁chặn	-9.61796
▁Bản	-9.61854
"▁-	-9.61945
▁đòi▁hỏi	-9.62007
▁cấp▁cứu	-9.62034
▁ngon	-9.62037
▁lịch	-9.62042
▁nhiệt	-9.62057
▁Đầu▁tư	-9.62088
▁Du	-9.62111
▁Cuộc	-9.62209
▁bến	-9.62272
▁ống	-9.62289
▁được▁coi▁là	-9.62331
▁bắt▁giữ	-9.62331
▁Ka	-9.62381
▁Cầu	-9.6245
▁tròn	-9.62519
huyện	-9.62678
▁dự▁báo	-9.62702
▁cổ▁phần	-9.62744
▁giá▁bán	-9.62776
▁lò	-9.62823
á	-9.62871
▁mét	-9.62897
▁Thủ▁đô	-9.62898
▁400	-9.62966
▁Kh	-9.63079
▁giáo	-9.63184
▁phóng▁viên	-9.63269
▁Quảng▁Ninh	-9.63269
▁kia	-9.63279
▁sơn	-9.63348
▁đại▁biểu	-9.63356
▁Campuchia	-9.63434
▁lưới	-9.63436
▁kín	-9.63436
▁bước▁vào	-9.63449
▁nhựa	-9.6351
▁Dân	-9.63576
à	-9.63635
mm	-9.6364
em	-9.63661
▁đe▁dọa	-9.63797
▁triển▁lãm	-9.63817
▁phạt	-9.63831
▁Tiên	-9.63948
▁mãi	-9.63964
▁EU	-9.63992
▁chứng	-9.64003
▁Đinh	-9.64011
▁thoải▁mái	-9.64045
▁đưa▁vào	-9.64051
▁mô	-9.64126
▁đỗ	-9.64176
▁tận	-9.64273
▁Quyết▁định	-9.64288
▁Thúy	-9.64299
▁mỗi▁năm	-9.64396
▁Hiếu	-9.64425
XH	-9.64449
▁xe▁ô▁tô	-9.64498
▁xương	-9.64498
▁cổng	-9.64549
▁các▁công▁ty	-9.64577
▁tiết	-9.64635
▁quyết	-9.64637
ak	-9.64665
▁dương	-9.64721
▁tín▁dụng	-9.6491
▁phản▁đối	-9.64931
▁luận	-9.64954
▁hạn	-9.6496
▁sinh▁sống	-9.65019
▁cuối▁năm	-9.65047
eo	-9.65075
▁Kinh▁tế	-9.65083
▁cải▁tiến	-9.65098
▁tập▁đoàn	-9.65203
▁tính▁toán	-9.65211
▁Cùng	-9.65226
▁tỏ▁ra	-9.65231
▁tiểu	-9.65248
▁cuốn	-9.65324
▁văn▁phòng	-9.65373
▁của▁Chính▁phủ	-9.65389
▁Thời▁gian	-9.65409
▁đập	-9.65459
▁vi	-9.655
▁từ▁tháng	-9.65571
▁Vương	-9.65594
▁Hyundai	-9.65689
▁từ▁các	-9.65749
▁Toàn	-9.65812
▁khởi▁nghiệp	-9.65833
▁Phát▁biểu	-9.65854
Tôi	-9.65861
▁nền▁tảng	-9.65955
▁Tuy	-9.65979
▁ngàn	-9.6598
▁dòng▁xe	-9.65983
▁Việt▁Nam▁đã	-9.66018
▁vẫn▁là	-9.66045
▁sửa▁đổi	-9.6605
▁Vậy	-9.66066
▁Ngay	-9.66155
▁trở▁lên	-9.6616
▁đậu	-9.66175
▁xu▁hướng	-9.66176
▁Bộ▁Tài▁chính	-9.66204
ard	-9.66331
▁Vì▁thế	-9.66381
▁cho▁việc	-9.66407
▁bang	-9.66415
▁cũng▁phải	-9.66419
▁tải	-9.66443
▁suất	-9.66448
▁tài▁năng	-9.66521
▁SEA▁Games	-9.66599
▁Video	-9.66662
da	-9.66694
▁có▁thêm	-9.66836
▁trong▁suốt	-9.66888
▁tường	-9.66927
▁kiếm	-9.66929
▁bán▁hàng	-9.67006
▁đăng	-9.67009
▁kỷ▁lục	-9.67069
▁Hiệp▁hội	-9.67096
▁liên	-9.67096
▁Nghị▁quyết	-9.67158
ly	-9.67165
▁phục	-9.67165
▁bị▁ảnh▁hưởng	-9.67217
óc	-9.67282
▁tích	-9.67299
▁nhà▁thầu	-9.67386
▁Đại▁diện	-9.67414
▁sinh▁học	-9.67426
▁chức	-9.67434
▁xả	-9.67493
25	-9.67533
▁gọi▁là	-9.6755
▁cáo▁buộc	-9.67607
▁vẽ	-9.67648
▁cam	-9.67673
▁nối	-9.67696
▁Số	-9.67727
▁phong	-9.67756
▁32	-9.67782
▁mặt▁trời	-9.67903
▁đòi	-9.67912
▁ông▁Nguyễn	-9.67949
▁chuyển▁nhượng	-9.67953
▁Quốc▁tế	-9.67991
▁trường▁đại▁học	-9.68081
%	-9.68115
▁trúng	-9.68128
▁trọng	-9.68135
▁Tài	-9.68181
▁của▁bà	-9.68197
▁thấp▁hơn	-9.68222
▁Hình▁ảnh	-9.68241
▁đi▁vào	-9.684
▁đạo▁diễn	-9.68404
-6	-9.68437
▁chứng▁minh	-9.68512
.6	-9.68526
▁yêu▁thích	-9.68588
▁được▁thực▁hiện	-9.68624
▁dọc	-9.68689
▁trú	-9.68764
Theo	-9.68781
▁đài	-9.68799
▁đốt	-9.68846
▁xác	-9.68879
▁sắt	-9.689
▁về▁nhà	-9.68955
▁ra▁ngoài	-9.68966
▁nhưng▁lại	-9.68979
▁mang▁tên	-9.69018
▁sẽ▁giúp	-9.69043
▁thuyền	-9.69123
▁nhảy	-9.69137
é	-9.69185
▁thông▁tin▁về	-9.69193
▁Nh	-9.69265
▁dẫn▁đầu	-9.69267
▁chó	-9.69268
▁mức▁giá	-9.69305
▁thời▁gian▁tới	-9.69311
▁cho▁những	-9.69326
▁sự▁quan▁tâm	-9.69382
ái	-9.69467
▁Lê▁Văn	-9.69476
▁Cần	-9.69495
▁thẳng	-9.69564
▁tai	-9.69576
▁tóc	-9.69617
▁đường▁bộ	-9.69617
▁thưởng	-9.69641
▁TT	-9.69643
▁cỏ	-9.69646
▁cập▁nhật	-9.69654
▁tin▁tưởng	-9.69684
▁các▁vấn▁đề	-9.69698
ết	-9.69744
▁Le	-9.69776
▁ngược	-9.69791
ăn	-9.69798
▁Quản▁lý	-9.69827
▁treo	-9.69922
▁giải▁đấu	-9.69975
▁mang▁đến	-9.69982
▁quá▁nhiều	-9.70097
▁Ukraine	-9.70222
▁Sinh	-9.70224
▁Bình▁Nhưỡng	-9.70253
ân	-9.70266
▁nghiêm▁túc	-9.70335
▁hầm	-9.70342
▁hiện▁trường	-9.70381
▁mê	-9.70404
▁đánh▁giá▁cao	-9.70428
▁của▁Trung▁Quốc	-9.70446
▁lệnh	-9.70489
▁chuyển▁sang	-9.70512
▁công▁chúng	-9.70562
▁phổ▁thông	-9.70572
▁làm▁cho	-9.70587
▁Giáo▁dục	-9.70597
▁Ph	-9.70655
▁chăn▁nuôi	-9.70688
▁De	-9.7073
▁cũng▁có▁thể	-9.70742
▁công▁chức	-9.70827
▁2016.	-9.70852
▁bộ▁phận	-9.70893
▁công▁nhận	-9.71009
▁trang▁phục	-9.71016
▁Cái	-9.71032
▁thông▁thường	-9.71045
▁được▁xem▁là	-9.71071
▁đấy	-9.71154
▁may	-9.71162
▁ngoại▁giao	-9.71219
▁nét	-9.71264
▁lần▁đầu	-9.71347
.7	-9.71368
▁nếu▁không	-9.71386
▁trộm	-9.7141
▁cải▁tạo	-9.71489
se	-9.7154
/4	-9.71639
70	-9.7164
▁vào▁khoảng	-9.71698
▁mua▁bán	-9.71748
▁âm▁thanh	-9.71765
▁đa▁dạng	-9.71875
▁Thạch	-9.71963
▁trưa	-9.72003
▁tổng▁hợp	-9.72027
▁Khoa▁học	-9.72043
▁đồng▁bộ	-9.72056
▁nạn	-9.72085
▁tiến▁độ	-9.72114
▁sắp▁tới	-9.72135
▁lợn	-9.72168
▁là▁nơi	-9.72175
▁nằm▁ở	-9.72199
ốt	-9.72206
▁tượng	-9.72237
▁rơi▁vào	-9.72269
▁sẽ▁phải	-9.72272
ngày	-9.7234
▁Lễ	-9.72341
▁bí▁mật	-9.72367
▁này▁có	-9.72403
▁Quỹ	-9.72411
▁Mạnh	-9.7252
▁Trà	-9.7252
▁nhà▁nghiên▁cứu	-9.72533
▁Tính	-9.72558
▁nơi▁đây	-9.72627
▁tư	-9.7265
▁bụng	-9.72701
▁Định	-9.72731
▁ưu▁đãi	-9.72767
▁Ho	-9.72833
▁taxi	-9.72834
▁hồng	-9.72851
▁Khoảng	-9.72871
▁Philippines	-9.72878
▁khâu	-9.72999
▁rộng▁rãi	-9.73009
▁phó	-9.73011
▁có▁dấu▁hiệu	-9.73017
▁dựng	-9.73029
▁phụ▁trách	-9.73084
▁nghi	-9.73092
▁đã▁phải	-9.73126
▁chủ▁đề	-9.73154
▁có▁lẽ	-9.73203
▁xác▁minh	-9.73208
▁danh▁hiệu	-9.73282
▁các▁công▁trình	-9.73294
▁hội▁nghị	-9.73325
▁Lực▁lượng	-9.73401
▁đâm	-9.73446
▁ngã	-9.73447
▁cú	-9.73454
▁nhiệm▁kỳ	-9.73508
▁các▁đối▁tượng	-9.73579
▁huấn▁luyện	-9.73591
▁đồng▁đội	-9.73595
▁sửa	-9.73599
1%	-9.73652
▁Reuters	-9.73673
▁sinh▁năm	-9.73702
▁trụ▁sở	-9.7371
▁Nghị▁định	-9.73819
▁thú	-9.73903
▁tại▁TP	-9.73971
▁di▁dời	-9.73989
▁đi▁học	-9.73993
▁với▁một	-9.74002
▁Hóa	-9.74008
▁đi▁qua	-9.74097
▁cạnh	-9.74176
▁chảy	-9.74177
▁gương▁mặt	-9.74179
▁hàng▁ngày	-9.742
▁Bắc▁Kinh	-9.74326
-9	-9.74345
ây	-9.74389
▁bảo▁hiểm	-9.74416
▁phân▁phối	-9.74424
▁tăng▁lên	-9.7455
▁ASEAN	-9.74561
▁tin▁rằng	-9.74573
▁chế	-9.74643
9%	-9.74698
▁lỗ	-9.74709
▁đã▁tổ▁chức	-9.7473
▁quyết▁liệt	-9.74755
▁dàn	-9.74837
▁phanh	-9.7484
▁Nhiều▁người	-9.74898
ấu	-9.74901
▁UBND▁xã	-9.74908
▁dự▁đoán	-9.74944
▁BHXH	-9.74975
▁Iraq	-9.74988
▁làm▁việc▁với	-9.75009
▁ho	-9.75033
▁nhất▁định	-9.75049
-7	-9.75162
▁đàm▁phán	-9.75251
▁nội▁thất	-9.75264
▁Thịnh	-9.75281
▁tiền▁vệ	-9.75412
▁bổ▁nhiệm	-9.75448
▁liên▁lạc	-9.75461
▁quản▁trị	-9.75484
▁chỉ▁trích	-9.75535
▁phiên	-9.75552
▁hầu▁hết	-9.75558
Z	-9.75586
▁nguyên▁tắc	-9.75591
▁lâu▁dài	-9.75662
▁nộp	-9.75762
▁TH	-9.75791
▁Chung	-9.75799
▁kiến▁trúc	-9.75803
▁Hơn	-9.75877
▁các▁phương▁tiện	-9.75893
▁xe▁buýt	-9.75963
▁công▁cộng	-9.75971
▁cuộc▁họp	-9.76015
/12	-9.76097
id	-9.76145
▁liên▁kết	-9.7616
▁đề▁án	-9.76187
pe	-9.76196
▁Liên▁quan	-9.76244
▁36	-9.76253
ù	-9.76315
▁Hãy	-9.76435
▁Nguồn	-9.7649
▁hòa▁bình	-9.76514
▁tù	-9.76537
▁cho▁mình	-9.76558
▁Chúng▁ta	-9.76584
▁Cho	-9.76619
âu	-9.76651
▁tranh▁chấp	-9.76659
▁phát▁sinh	-9.76665
▁đối	-9.76692
▁hồi▁tháng	-9.76719
▁ô	-9.76786
ương	-9.76852
▁HS	-9.76852
▁lớn▁hơn	-9.76877
▁trần	-9.76911
▁phương▁thức	-9.76936
▁vỉa▁hè	-9.77013
▁đề▁thi	-9.7703
▁nhận▁xét	-9.77054
▁lao	-9.77062
▁cuộc▁chiến	-9.77069
▁lãi	-9.77116
▁tiền▁đạo	-9.77246
▁Hậu	-9.77256
▁CĐ	-9.77275
▁Hiệu▁trưởng	-9.77324
ba	-9.77354
quận	-9.77359
▁nguyện▁vọng	-9.77365
▁cưới	-9.77368
▁niềm▁tin	-9.77373
-4	-9.77389
▁khổ	-9.77437
▁tập▁trung▁vào	-9.775
▁chấm▁dứt	-9.7753
▁Mo	-9.77638
▁chứ▁không	-9.7768
▁thị	-9.77774
▁thủ▁môn	-9.77804
▁clip	-9.77861
▁các▁tổ▁chức	-9.77898
▁In	-9.77902
▁lưng	-9.77948
▁trị	-9.7796
sa	-9.77985
▁đã▁trở▁thành	-9.77986
▁mộ	-9.78057
▁cấp▁cao	-9.78064
▁Nước	-9.78067
▁trong▁bối▁cảnh	-9.7811
▁mới▁được	-9.78126
▁một▁vài	-9.78171
▁chuỗi	-9.78193
▁trình▁độ	-9.78217
ầu	-9.78225
▁để▁đảm▁bảo	-9.78236
▁ruộng	-9.78238
▁đối▁với▁các	-9.78245
▁Tây▁Ban▁Nha	-9.78369
▁ôm	-9.78371
▁tại▁thị▁trường	-9.78379
▁của▁cô	-9.78407
ỏ	-9.78448
▁Qu	-9.7846
▁không▁muốn	-9.78514
▁Kiều	-9.78528
▁kỹ	-9.78595
▁tiếng▁Anh	-9.78718
▁rất▁khó	-9.78754
▁hình▁sự	-9.78759
▁các▁thành▁viên	-9.7881
▁thống▁kê	-9.7885
▁Phát	-9.78957
75	-9.78963
▁Du▁lịch	-9.78982
▁khoe	-9.78988
tháng	-9.79
▁khám▁phá	-9.79093
▁phẩm	-9.79105
▁TP▁Hồ▁Chí▁Minh	-9.79307
▁nguyên▁liệu	-9.7932
▁phía▁trước	-9.79344
▁trọng▁tài	-9.79388
▁ra▁đời	-9.79419
▁chung▁cư	-9.79459
▁i	-9.79462
▁tan	-9.79523
▁có▁tên	-9.79549
▁xử▁phạt	-9.79582
▁giữa▁các	-9.79603
ter	-9.79607
35	-9.79689
▁được▁xây▁dựng	-9.7971
▁Pro	-9.7976
▁đầu▁tư▁xây▁dựng	-9.79782
▁mạch	-9.79794
▁HAGL	-9.79797
ẻ	-9.79824
de	-9.79835
▁năm▁học	-9.79873
▁mua▁sắm	-9.79905
▁trên▁các	-9.79911
▁dưỡng	-9.79915
▁2012	-9.7998
▁ĐT	-9.79981
▁chống▁lại	-9.80007
▁về▁mặt	-9.80056
▁để▁tránh	-9.8006
▁Bí▁thư	-9.80087
▁Công▁ty▁cổ▁phần	-9.80087
▁thế▁kỷ	-9.80088
▁tân	-9.80142
▁tham▁nhũng	-9.80148
▁Trí	-9.8016
18	-9.8018
▁giới▁hạn	-9.80263
▁và▁có	-9.80272
▁Cách	-9.80284
▁ép	-9.80288
▁cơn	-9.80315
▁2013	-9.80318
▁tổng▁số	-9.80341
▁trong▁công▁tác	-9.80378
▁kỷ▁luật	-9.8038
▁các▁thiết▁bị	-9.80429
▁chặt	-9.8044
▁Dung	-9.80483
-2	-9.80484
▁tự▁hào	-9.80497
▁Bộ▁Quốc▁phòng	-9.80514
▁đăng▁tải	-9.80517
90	-9.80534
▁đã▁tiến▁hành	-9.80566
▁khác▁biệt	-9.80587
▁tòa	-9.80621
▁Chiến	-9.80627
▁minh▁bạch	-9.80689
▁chủ▁trì	-9.8069
12	-9.80709
ùng	-9.80793
▁tổng▁thể	-9.80805
▁Mẹ	-9.80923
▁Bằng	-9.8096
▁kỳ▁vọng	-9.81058
▁Quân▁đội	-9.8106
▁2009	-9.81082
ư	-9.81089
▁tuy	-9.81122
▁răng	-9.81134
▁lên▁tiếng	-9.81157
▁có▁giá▁trị	-9.81179
▁canh	-9.81217
▁dày	-9.81245
▁về▁những	-9.81296
▁cùng▁nhau	-9.81298
▁không▁ai	-9.81306
▁là▁một▁trong	-9.81306
▁khoảng▁cách	-9.81336
▁tức	-9.8136
▁St	-9.81365
▁trật▁tự	-9.81424
▁bom	-9.81468
▁khẩn▁cấp	-9.81473
▁xếp	-9.81475
▁Thư	-9.81486
▁cuộc▁đời	-9.81486
▁tận▁dụng	-9.81488
▁cà▁phê	-9.81507
▁Israel	-9.81538
▁khắp	-9.81565
ac	-9.81571
▁lối	-9.81598
▁tướng	-9.81614
át	-9.81649
▁cũng▁đang	-9.81682
▁GD	-9.81687
▁sân▁khấu	-9.81742
▁đều▁được	-9.8178
▁APEC	-9.81797
▁Lãnh▁đạo	-9.81799
▁pháp	-9.81812
▁bài▁viết	-9.81817
▁loạt	-9.81847
▁cứng	-9.81847
▁hành▁tinh	-9.81868
▁công▁cụ	-9.81873
▁những▁chiếc	-9.81944
▁có▁cơ▁hội	-9.81952
▁cơm	-9.8196
▁thuộc▁về	-9.81968
▁tâm▁sự	-9.81998
ov	-9.82031
▁tắm	-9.82054
▁hoàn▁cảnh	-9.82055
▁đạo▁đức	-9.82064
▁siêu▁xe	-9.82084
▁Uzbekistan	-9.82147
▁khiến▁cho	-9.82175
um	-9.82185
▁thật▁sự	-9.82217
▁đi▁lại	-9.82231
▁Huyền	-9.82365
▁Pa	-9.82476
▁Olympic	-9.82496
▁ph	-9.82498
▁Thường▁trực	-9.82511
▁THPT	-9.82537
▁sang▁trọng	-9.82558
▁Thực▁tế	-9.8257
▁chỉ▁huy	-9.82583
21	-9.82633
ổ	-9.82663
▁iPhone▁X	-9.82664
▁chú▁trọng	-9.82666
▁hàng▁không	-9.82669
▁Canada	-9.82684
▁du	-9.82713
▁thảo▁luận	-9.82719
ò	-9.828
▁kết▁hợp▁với	-9.82914
99	-9.82915
▁hương	-9.82941
▁của▁công▁ty	-9.8303
▁xứ	-9.83034
PTNT	-9.83173
▁để▁thực▁hiện	-9.832
▁uy▁tín	-9.8321
▁Trưởng	-9.83264
CP	-9.83314
▁đường▁sắt	-9.83359
▁cướp	-9.83376
▁cho▁học▁sinh	-9.83456
NĐ	-9.83529
▁cho▁biết▁thêm	-9.83569
▁lạc	-9.83631
ul	-9.83636
▁nhận▁thấy	-9.83669
▁Thương	-9.83819
▁Grab	-9.83931
▁chàng▁trai	-9.83943
▁ghép	-9.83967
▁giấy▁tờ	-9.84075
▁đi▁làm	-9.84123
▁nguồn▁vốn	-9.84192
Mỹ	-9.84217
im	-9.84293
▁Hoài	-9.843
▁kích▁thước	-9.84327
▁của▁Đảng	-9.84377
▁cái▁tên	-9.84383
▁qu	-9.84442
▁World▁Cup	-9.84469
▁lắp	-9.84478
▁mừng	-9.84484
▁bụi	-9.84504
▁Cũng▁theo	-9.84539
▁giải▁phóng	-9.84585
▁tiêu▁cực	-9.84645
▁chừng	-9.84654
▁Tam	-9.8469
▁yên	-9.84697
▁học▁trò	-9.84698
▁chỉ▁số	-9.84711
▁Đồng▁Nai	-9.84717
ăng	-9.84724
▁bật	-9.84746
▁Tổng▁công▁ty	-9.84813
▁cử▁tri	-9.84816
▁buộc▁phải	-9.84832
▁trở▁thành▁một	-9.84854
▁cấp▁phép	-9.84863
▁Bài	-9.84894
ce	-9.84927
▁đấu▁giá	-9.85048
-8	-9.85052
▁Học▁viện	-9.85126
▁vệ▁tinh	-9.85154
▁cậu	-9.85191
▁Thái▁Bình▁Dương	-9.85207
▁không▁bị	-9.85328
▁nói▁với	-9.85362
▁của▁gia▁đình	-9.85433
▁trong▁nhà	-9.85451
▁nặng▁nề	-9.8546
▁so▁với▁cùng▁kỳ	-9.85469
▁Lợi	-9.85545
▁f	-9.85561
▁mảng	-9.85583
▁So	-9.85587
▁tố▁cáo	-9.85618
▁ai▁cũng	-9.8566
▁tiên▁tiến	-9.85671
▁đến▁ngày	-9.85702
▁được▁nhiều	-9.8573
▁đến▁với	-9.85735
▁người▁đẹp	-9.85755
▁nghĩa	-9.85799
▁lợi	-9.85837
▁BOT	-9.85843
ến	-9.85878
▁thuyết▁phục	-9.85898
▁quê▁hương	-9.85909
▁chờ▁đợi	-9.8595
▁hưởng	-9.8595
▁50%	-9.8598
▁nhà▁lãnh▁đạo	-9.86026
▁hiện▁có	-9.86034
▁tham▁quan	-9.86065
▁Trịnh	-9.86087
▁vất▁vả	-9.86105
▁lợi▁thế	-9.86136
▁Android	-9.86171
▁đê	-9.86179
▁không▁bao▁giờ	-9.86218
/1	-9.86275
▁mối	-9.8628
▁chứng▁khoán	-9.86289
▁Thế▁giới	-9.863
▁đầu▁năm	-9.86321
▁Arsenal	-9.86336
/2017	-9.86386
▁xinh▁đẹp	-9.86438
ì	-9.86491
▁cuốn▁sách	-9.86509
▁hổ	-9.86534
▁có▁khoảng	-9.86542
▁Bên▁cạnh	-9.86568
▁hè	-9.86576
▁mổ	-9.86579
án	-9.86584
▁loa	-9.8668
▁kỳ▁thi	-9.86697
▁giảng▁dạy	-9.86715
▁lọc	-9.86778
▁Trước▁khi	-9.86798
Ch	-9.86804
▁giao▁lưu	-9.86842
▁ảo	-9.86847
▁cải▁cách	-9.86864
▁nhà▁báo	-9.86901
▁chạm	-9.86903
▁MV	-9.86941
▁trống	-9.86997
▁chùa	-9.87003
▁thí▁điểm	-9.87163
▁kể▁từ	-9.87211
17	-9.87238
ho	-9.87365
các▁nhà▁khoa▁học	-9.87382
▁cần▁có	-9.87478
▁để▁có▁thể	-9.87487
▁những▁vấn▁đề	-9.8766
▁ngừng	-9.87673
▁kèm	-9.87693
▁bức▁ảnh	-9.87709
▁trong▁giai▁đoạn	-9.87709
▁mỏ	-9.8771
▁nào▁đó	-9.87755
bo	-9.87781
▁Hạnh	-9.87792
người	-9.87805
▁gái	-9.87816
▁Á	-9.87832
▁Công▁Phượng	-9.87846
▁tìm▁thấy	-9.87846
▁Văn▁hóa	-9.8795
iêu	-9.87963
▁Hàn	-9.88034
▁Quan	-9.88172
▁Báo▁cáo	-9.88221
▁nêu▁trên	-9.88282
▁tại▁Mỹ	-9.88289
▁Nghiên▁cứu	-9.883
▁rắn	-9.88312
▁xe▁hơi	-9.88332
11	-9.88342
ải	-9.88346
▁trại	-9.88439
ni	-9.88441
▁va▁chạm	-9.88464
▁những▁điều	-9.8853
▁thì▁phải	-9.8855
▁trong▁số	-9.88591
▁Phó▁Giám▁đốc	-9.88593
▁Bộ▁GD	-9.88594
ã	-9.88606
ảnh	-9.88657
▁bám	-9.88757
▁Chelsea	-9.88776
▁tôi▁đã	-9.88785
▁tín▁hiệu	-9.88788
▁TP▁Hà▁Nội	-9.88827
▁voi	-9.88879
▁có▁rất▁nhiều	-9.8889
▁thai	-9.88892
▁tìm▁được	-9.88898
▁Nhóm	-9.88966
▁khối▁lượng	-9.88968
▁bình▁quân	-9.88986
▁bạn▁có▁thể	-9.89041
▁tổng▁thống	-9.89052
▁hàng▁năm	-9.89129
▁trưởng▁thành	-9.89144
ev	-9.89158
▁vỡ	-9.89202
▁hộp	-9.89215
▁tại▁một	-9.89223
▁Thượng	-9.89252
▁quần▁áo	-9.89254
▁sạt▁lở	-9.89306
3%	-9.8933
▁doanh▁số	-9.8934
▁quy	-9.89392
▁Sở▁GD	-9.89396
▁thừa	-9.89442
/11,	-9.89481
▁xóa	-9.89486
▁rất▁tốt	-9.89527
TTXVN	-9.89573
▁1,5	-9.89585
▁quen	-9.89628
▁sẵn	-9.89645
▁bất▁thường	-9.89673
▁độ▁C	-9.89688
▁sẽ▁bị	-9.89712
▁thủ▁đô	-9.89816
ao	-9.89844
▁nhà▁hàng	-9.89856
▁tết	-9.89886
▁Lo	-9.89932
▁bia	-9.89933
▁tư▁nhân	-9.89969
▁công▁nghệ▁cao	-9.90051
kh	-9.90057
▁Car	-9.90065
▁Tỉnh▁ủy	-9.90119
▁thói▁quen	-9.90122
▁chuột	-9.90133
▁với▁việc	-9.90137
ve	-9.90188
▁dự▁thảo	-9.90225
▁đua	-9.90245
▁tháng▁đầu▁năm	-9.90268
▁Quang▁Hải	-9.90345
▁sau▁này	-9.90394
▁Nhà▁máy	-9.90403
▁đất▁đai	-9.9042
▁cụm	-9.90423
▁biên	-9.90432
▁tìm▁cách	-9.90467
▁sinh▁ra	-9.90543
▁các▁quy▁định	-9.90544
2,	-9.9066
▁tụ	-9.90681
▁ngăn	-9.90731
▁MC	-9.90741
▁Trường▁ĐH	-9.90877
ẽ	-9.90899
▁quyền▁lợi	-9.90903
▁Chí	-9.90924
▁trứng	-9.90933
▁ngôn▁ngữ	-9.90941
▁dám	-9.91005
▁nông	-9.91062
▁thành▁phần	-9.91091
▁lành	-9.91201
▁Sao	-9.91214
▁hàng▁nghìn	-9.91241
▁rửa	-9.91296
▁viêm	-9.9131
▁thiết▁lập	-9.91369
▁Hãng	-9.91369
▁sản▁lượng	-9.91378
▁dân▁số	-9.91438
▁các▁giải▁pháp	-9.91442
):	-9.91444
▁vì▁vậy	-9.91532
-20	-9.91543
▁Việt▁Nam▁và	-9.91557
▁II	-9.91571
▁ông▁Trump	-9.9158
▁phấn▁đấu	-9.91588
▁Hoàn	-9.91592
▁giá▁rẻ	-9.91614
▁ngầm	-9.91643
▁nêu▁rõ	-9.91696
▁vẻ▁đẹp	-9.91716
▁Ga	-9.91731
▁ở▁nhà	-9.91731
▁phản	-9.91786
/2	-9.91855
▁mới▁của	-9.91857
▁tình▁dục	-9.91867
▁thái	-9.91883
▁cực▁kỳ	-9.9189
▁khẩu	-9.91915
▁Tàu	-9.91919
▁hài	-9.91932
▁phòng▁chống	-9.91958
▁cô▁giáo	-9.91983
▁Trần▁Văn	-9.9203
▁tung▁ra	-9.92048
▁bếp	-9.92057
▁buôn▁bán	-9.92059
▁nỗi	-9.92065
▁quen▁thuộc	-9.92073
▁hại	-9.92091
▁xét▁xử	-9.92105
▁người▁đứng▁đầu	-9.92113
▁kể▁cả	-9.92138
ế	-9.92209
▁khám	-9.92311
ina	-9.92345
▁điện▁ảnh	-9.92352
▁tu	-9.92451
▁thời▁kỳ	-9.92553
▁lưu▁ý	-9.9256
▁Tư	-9.92572
▁ước▁tính	-9.92585
▁trò	-9.92598
/12,	-9.92655
▁khi▁có	-9.92733
▁thời▁hạn	-9.92772
▁loại▁bỏ	-9.92778
▁Nhà▁Trắng	-9.92782
▁làm▁gì	-9.92785
▁thẩm▁định	-9.92815
▁gắn▁bó	-9.92839
▁của▁xe	-9.9286
▁trên▁sân	-9.92903
▁hướng▁tới	-9.92974
▁không▁đủ	-9.93013
▁VĐV	-9.93024
▁kích	-9.93027
▁tuyết	-9.93044
▁tìm▁ra	-9.93072
▁quần	-9.93109
▁kịp	-9.93117
▁có▁nguy▁cơ	-9.93156
▁xứng▁đáng	-9.93181
▁đồng▁hồ	-9.93215
ố	-9.93228
▁Nguyên▁nhân	-9.93246
▁Trao▁đổi	-9.93312
▁mật	-9.93344
op	-9.93362
▁này▁có▁thể	-9.93439
▁nào▁cũng	-9.93451
ủ	-9.93457
seo	-9.93539
▁chuẩn▁bị▁cho	-9.93556
/2016	-9.93628
▁cận	-9.93668
▁đỡ	-9.93727
▁đội▁tuyển▁U	-9.93751
▁Đây▁cũng▁là	-9.93764
▁trình▁diễn	-9.93765
▁doanh▁nhân	-9.93766
▁chào	-9.93789
▁Ngân	-9.93794
▁tiêu▁biểu	-9.93814
▁Hằng	-9.93913
▁mùa▁giải	-9.93923
▁ước	-9.93936
▁muối	-9.93955
▁chim	-9.9396
▁Ro	-9.93975
▁2.000	-9.93978
▁trưng▁bày	-9.94043
▁tôm	-9.94138
▁ngữ	-9.94168
▁Bo	-9.94176
▁lắp▁ráp	-9.94188
▁Hòa▁Bình	-9.94246
▁tài▁trợ	-9.94344
▁vào▁các	-9.94348
▁phân▁khúc	-9.94362
▁giáp	-9.94426
▁đi▁kèm	-9.94454
▁He	-9.94468
▁ngập	-9.94474
▁chấn▁thương	-9.94505
ca	-9.94508
▁và▁những	-9.94513
▁nói▁chung	-9.94514
za	-9.94535
▁địa▁chỉ	-9.94547
▁TAND	-9.94578
▁Dự▁kiến	-9.94596
▁Gia▁đình	-9.94623
▁tham▁mưu	-9.94639
▁lắp▁đặt	-9.94765
▁Trinh	-9.94816
▁01	-9.94876
▁bột	-9.94931
▁ngày▁nay	-9.94953
iz	-9.95011
▁được▁giao	-9.95023
▁Chủ	-9.95103
▁vùng▁biển	-9.95122
▁mùi	-9.95138
▁bài▁hát	-9.95156
▁chủ▁tịch	-9.95198
▁fan	-9.95289
áo	-9.953
▁đồng▁nghiệp	-9.95302
▁Chia▁sẻ	-9.95306
▁và▁Đào▁tạo	-9.95332
▁chín	-9.95348
om	-9.9549
vi	-9.95505
▁của▁Thủ▁tướng	-9.95567
est	-9.95593
▁cư▁dân	-9.95639
▁2015,	-9.95686
▁trụ	-9.95757
▁nhạc▁sĩ	-9.95791
▁33	-9.95828
▁của▁Triều▁Tiên	-9.95925
65	-9.95932
▁Ảnh▁minh▁họa	-9.95945
▁Nhìn	-9.96002
▁một▁ngày	-9.96009
▁rất▁cao	-9.96032
▁lộ▁trình	-9.96055
▁cặp▁đôi	-9.9608
▁muộn	-9.96093
▁Đăng	-9.96104
▁đem▁lại	-9.96113
▁được▁đánh▁giá	-9.96146
▁Paris	-9.96168
▁không▁đúng	-9.96185
ỳ	-9.9621
▁tốt▁đẹp	-9.96253
▁nguồn▁lực	-9.96279
▁Đạt	-9.9629
▁nở	-9.96307
▁áp	-9.96441
▁đảng▁viên	-9.9646
▁các▁nhà▁đầu▁tư	-9.96462
▁khẩn▁trương	-9.96491
▁đặc	-9.9654
▁sâu▁sắc	-9.96558
▁di▁tích	-9.96633
▁dinh▁dưỡng	-9.96639
▁thực▁tiễn	-9.96677
▁cho▁một	-9.96688
▁10.000	-9.96706
▁Phần	-9.96734
▁VFF	-9.96758
ần	-9.96786
▁thở	-9.9679
▁dấu▁hiệu	-9.96866
▁đánh▁bại	-9.96913
▁nguồn▁tin	-9.96942
▁trang▁trí	-9.96978
▁mục	-9.9699
▁bị▁thương	-9.97025
▁khởi▁động	-9.97031
▁vui▁vẻ	-9.97031
▁Thương▁mại	-9.97115
▁đại▁lý	-9.97176
▁niềm▁vui	-9.97203
7%	-9.97206
ất	-9.97209
ú	-9.97222
000	-9.97223
▁đảm▁bảo▁an▁toàn	-9.9725
▁vấn▁đề▁này	-9.97299
▁Tổng▁giám▁đốc	-9.97317
▁lô	-9.97352
▁thủy▁sản	-9.97361
▁sắp▁xếp	-9.97415
▁chị▁em	-9.97419
▁vết	-9.97446
▁đề▁ra	-9.97455
▁làm▁được	-9.97491
▁tách	-9.97627
▁dấu	-9.97635
▁miền▁Nam	-9.97642
▁đề▁tài	-9.97679
land	-9.97684
▁vận	-9.97712
▁thu▁hoạch	-9.97744
8%	-9.97748
▁chấm	-9.97792
▁hữu	-9.97797
▁không▁quá	-9.9787
ật	-9.97956
▁Tổng▁thống▁Mỹ	-9.9797
▁che	-9.98046
▁bí▁ẩn	-9.9805
▁Tự	-9.98052
▁trừng▁phạt	-9.9817
▁chú▁ý	-9.98254
▁hứa▁hẹn	-9.98363
▁sản	-9.98391
▁phải▁chịu	-9.98453
▁lãi▁suất	-9.98524
▁kinh	-9.98541
▁trong▁lịch▁sử	-9.98554
▁chủ▁yếu▁là	-9.9856
▁Cá	-9.98589
▁của▁ngành	-9.98625
▁đam▁mê	-9.98691
▁nhất▁của	-9.98715
▁căn	-9.98795
▁giảng▁viên	-9.98834
ối	-9.9891
13	-9.98965
▁giao▁cho	-9.9897
▁nhận▁ra	-9.98971
▁công▁viên	-9.99009
▁trí	-9.99022
▁chuyến▁bay	-9.99084
ut	-9.99095
▁Nissan	-9.991
▁quyền▁lực	-9.99109
▁khu▁dân▁cư	-9.9913
ley	-9.99147
▁kim	-9.99192
▁người▁bệnh	-9.99262
▁đã▁không	-9.99276
▁xúc▁động	-9.99288
▁và▁Môi▁trường	-9.99318
▁tập▁luyện	-9.99344
▁tràn	-9.99373
▁khác▁như	-9.9943
▁120	-9.99434
▁có▁thẩm▁quyền	-9.99437
▁hoàng	-9.995
▁Ar	-9.99514
▁của▁chúng▁tôi	-9.99572
▁Làm	-9.99612
▁khá▁nhiều	-9.99618
▁Si	-9.9962
▁đoàn▁kết	-9.99638
▁chuyên▁ngành	-9.9964
ắc	-9.99646
▁top	-9.99657
▁Phó▁chủ▁tịch	-9.99757
▁Bình▁Dương	-9.99758
▁Đến▁nay	-9.99774
go	-9.99782
▁ngực	-9.99796
▁BS	-9.99802
▁khiến▁nhiều	-9.99832
▁cổ▁vũ	-9.99873
▁Ko	-9.99896
▁bắt▁buộc	-9.99908
▁Ai	-9.99918
▁đông▁đảo	-9.99928
▁Cảnh	-9.99958
▁Tin	-10.0004
▁Ha	-10.0004
▁CSGT	-10.0008
▁Thầy	-10.0018
01	-10.0018
di	-10.0018
▁Plus	-10.0023
▁Liên▁Xô	-10.0026
▁cũng▁cho▁biết	-10.0027
ập	-10.0028
▁mặt▁bằng	-10.0038
▁có▁trách▁nhiệm	-10.0046
▁tại▁sao	-10.0047
▁Ri	-10.005
ate	-10.0056
▁Có▁thể	-10.0063
▁trải▁qua	-10.0066
▁phương	-10.0071
▁chặn	-10.0075
▁thượng	-10.0082
▁ứng	-10.0082
▁bán▁ra	-10.0082
bi	-10.0083
▁(19	-10.0089
▁tiến▁sĩ	-10.0092
▁Công▁ty▁Cổ▁phần	-10.0093
▁kì	-10.0094
ăm	-10.0095
▁đoạt	-10.0097
2.	-10.0103
▁đóng▁cửa	-10.0106
▁Triệu	-10.0116
-2017	-10.0122
▁bác	-10.0123
▁Hạ	-10.0127
▁nước▁Mỹ	-10.0128
▁thiết▁thực	-10.013
con	-10.0132
▁điệu	-10.0133
▁nhé	-10.0134
▁Đại▁hội	-10.0137
▁đúng▁quy▁định	-10.0137
▁người▁chết	-10.0141
▁Giáo▁sư	-10.0143
▁Tiến▁sĩ	-10.0148
▁thứ▁ba	-10.0156
▁bảo▁mật	-10.016
▁động▁thái	-10.0162
▁đàn▁ông	-10.0163
▁nghiệp▁vụ	-10.017
ôn	-10.0171
6%	-10.0173
ắt	-10.0173
▁quy▁định▁về	-10.0179
▁nghề▁nghiệp	-10.0179
▁ở▁Hà▁Nội	-10.0181
ỉ	-10.0182
▁ngược▁lại	-10.0187
▁đà	-10.019
▁600	-10.0191
▁co	-10.0191
▁mang▁theo	-10.0193
▁các▁ngành	-10.0197
▁Những▁người	-10.0199
▁cân▁bằng	-10.0201
▁Phát▁triển	-10.0212
▁duyên	-10.0213
▁cắm	-10.0215
ka	-10.022
▁số▁liệu	-10.0221
▁trai	-10.0222
▁nghi▁ngờ	-10.0225
▁tên▁tuổi	-10.0225
▁dậy	-10.0234
▁cây▁xanh	-10.0235
▁NS	-10.0237
▁rùa	-10.0241
▁nhiều▁nhất	-10.0244
95	-10.0245
▁sư	-10.0245
▁gan	-10.0251
▁nhiều▁năm	-10.0254
▁bờ▁biển	-10.0255
▁ông▁Nguyễn▁Văn	-10.0256
▁hoàn▁hảo	-10.0261
▁la	-10.0265
▁ăn▁uống	-10.0265
▁biệt	-10.0267
▁tư▁tưởng	-10.0269
▁trình▁bày	-10.027
▁trái▁tim	-10.0271
▁ngay▁lập▁tức	-10.0272
▁cân▁nhắc	-10.0273
ron	-10.0275
▁di	-10.0275
▁không▁ngừng	-10.0278
▁2007	-10.028
▁hạng▁mục	-10.0282
▁Danh	-10.0284
▁lúc▁đó	-10.0289
▁đợi	-10.029
▁một▁chút	-10.029
▁chia▁tay	-10.0302
▁của▁chúng▁ta	-10.0303
▁ở▁xã	-10.0306
▁2.0	-10.0307
▁mọi▁thứ	-10.0308
▁Kinh	-10.0309
▁được▁đưa▁ra	-10.0313
▁cục	-10.0316
▁2020	-10.0318
▁bán▁lẻ	-10.032
▁và▁cả	-10.032
▁cho▁đến	-10.0326
▁miền	-10.0328
▁đỉnh	-10.0331
▁mạng▁lưới	-10.0335
▁Phải	-10.0337
▁đang▁có	-10.0339
▁chút	-10.0342
▁Tu	-10.0343
▁quan▁tâm▁đến	-10.0345
▁chìm	-10.0349
▁các▁lực▁lượng	-10.0351
▁Đi	-10.0353
▁miếng	-10.0359
-12	-10.0359
▁cổ▁đông	-10.036
▁Sông	-10.0363
▁Trưởng▁phòng	-10.0364
▁tỉ	-10.0369
▁hiếm	-10.0371
▁tương▁đối	-10.0371
▁Từ▁đó	-10.0371
▁Bá	-10.0373
▁thảm	-10.0374
▁My	-10.0379
▁Đã	-10.0383
▁tiên	-10.0384
theo	-10.039
▁đa▁số	-10.039
▁những▁năm	-10.039
▁Cha	-10.039
16	-10.0395
▁non	-10.0399
▁nói▁về	-10.0403
▁lan	-10.0404
▁Nguyễn▁Hữu	-10.0406
út	-10.0408
▁trà	-10.0418
va	-10.0421
▁mâu▁thuẫn	-10.0423
▁xuân	-10.0423
up	-10.0426
▁Mỹ▁và	-10.0428
h▁ngày	-10.0432
ận	-10.0432
▁đã▁giúp	-10.0435
▁chuyển▁giao	-10.0441
▁Thời	-10.0442
Tổng▁thống▁Trump	-10.0443
▁xin▁lỗi	-10.0455
▁Quyết▁định▁số	-10.0464
▁Do▁vậy	-10.0468
▁Mar	-10.0469
▁sa	-10.047
▁Nhân▁dân	-10.0473
▁từ▁khi	-10.0478
▁Ja	-10.0482
▁Mẫu	-10.0484
▁Park	-10.0486
▁có▁liên▁quan	-10.0486
▁mốc	-10.0496
▁Vietnam	-10.0501
▁thông▁điệp	-10.0506
▁dẫn▁tới	-10.0507
▁New▁York	-10.0509
▁của▁nhiều	-10.052
ver	-10.0534
▁được▁công▁bố	-10.0535
▁ùn▁tắc	-10.054
▁đã▁thực▁hiện	-10.0541
▁thùng	-10.0543
▁dính	-10.0545
▁vướng▁mắc	-10.0548
▁nắm	-10.0553
▁ly	-10.0555
▁38	-10.0565
▁Xuân▁Trường	-10.0566
▁dốc	-10.0566
▁với▁sự	-10.0566
▁Lao▁động	-10.0568
▁2019	-10.0568
▁lục	-10.0569
▁Mazda	-10.0571
▁vẻ	-10.0576
▁dụng	-10.0576
▁thầu	-10.0579
▁Xuyên	-10.0584
▁đấu▁tranh	-10.0591
▁nhưng▁cũng	-10.0596
▁gi	-10.0596
▁sáng▁tác	-10.0597
▁đối▁mặt▁với	-10.0599
▁phiếu	-10.0603
▁người▁mẫu	-10.0605
ào	-10.0605
▁nấu	-10.0605
▁chưa▁bao▁giờ	-10.0611
▁chưa▁thể	-10.0614
▁Nhi	-10.0614
ers	-10.0616
▁trường▁THPT	-10.062
▁giáo▁sư	-10.0623
ez	-10.0627
▁gạch	-10.0627
▁của▁trường	-10.0629
▁trên▁biển	-10.0629
▁củng▁cố	-10.0632
▁Tổng▁cục	-10.0636
▁Yamaha	-10.0636
▁yêu▁thương	-10.0637
▁Nha▁Trang	-10.0637
▁hơn▁so▁với	-10.0638
▁tỉ▁lệ	-10.0638
te	-10.064
▁kịch	-10.0642
▁năm▁sau	-10.0645
▁tàu▁ngầm	-10.0648
▁kiêm	-10.0649
4%	-10.066
▁Trạm	-10.066
io	-10.067
▁Cây	-10.0681
▁Tình	-10.0685
ấn	-10.0691
▁toàn▁quốc	-10.0692
Bộ	-10.0692
▁một▁lần▁nữa	-10.0693
▁Ánh	-10.0698
▁Go	-10.0704
/5,	-10.0708
▁37	-10.0708
▁Nhờ	-10.0709
ạc	-10.0711
▁ghi▁lại	-10.0712
▁ý▁thức	-10.0713
▁4.0	-10.0715
▁biệt▁thự	-10.0716
▁Nữ	-10.0717
▁sáng▁nay	-10.0717
▁ấp	-10.0718
▁mặt▁hàng	-10.072
▁bạn▁sẽ	-10.0721
▁10%	-10.0725
▁không▁cần	-10.0726
▁Ta	-10.0727
▁công▁bằng	-10.0728
▁lần▁lượt	-10.0729
▁trách▁nhiệm▁của	-10.0731
▁lợi▁dụng	-10.0734
▁các▁quốc▁gia	-10.0736
▁đã▁chính▁thức	-10.0738
GB	-10.0748
▁lúc▁này	-10.0752
▁Cẩm	-10.0753
▁robot	-10.0755
▁rẻ	-10.0765
chịu▁trách▁nhiệm	-10.077
▁Thạnh	-10.0771
▁minh	-10.0785
▁niêm▁yết	-10.0785
▁người▁yêu	-10.0785
▁dáng	-10.0786
▁đứa▁con	-10.0788
55	-10.0788
der	-10.0788
▁địch	-10.0789
▁ký▁kết	-10.0792
/2018	-10.0804
▁khúc	-10.0804
▁dừng▁lại	-10.081
▁suối	-10.0811
khoảng	-10.0813
▁chàng	-10.0814
▁vùng▁đất	-10.0816
▁những▁hình▁ảnh	-10.0821
▁thu▁được	-10.0822
▁động▁lực	-10.0828
▁Bộ▁Chính▁trị	-10.0828
▁giấy▁chứng▁nhận	-10.083
▁sơ	-10.0831
▁so▁với▁năm	-10.0833
▁buổi▁làm▁việc	-10.084
▁tôn▁trọng	-10.0841
▁tham▁gia▁vào	-10.0845
▁đồi	-10.0846
▁Tiền	-10.0852
▁vừa▁được	-10.0856
▁các▁con	-10.0858
▁Châu▁Á	-10.0863
▁John	-10.0865
▁Tô	-10.0867
▁cơ▁sở▁hạ▁tầng	-10.0867
▁dung▁tích	-10.0867
500	-10.087
▁thái▁độ	-10.087
▁thời▁gian▁dài	-10.0871
▁quà	-10.0872
▁tùy	-10.0881
/9,	-10.0881
▁lông	-10.0883
▁khu▁đất	-10.0883
▁tuần▁tra	-10.0886
▁vào▁cuộc	-10.0887
ts	-10.0888
▁hàng▁ngàn	-10.0889
▁MU	-10.0891
▁Da	-10.0891
▁nghĩa▁vụ	-10.0896
IC	-10.0906
▁QL	-10.0908
▁thời▁điểm▁này	-10.0915
▁biên▁chế	-10.0916
all	-10.0923
▁Bích	-10.0937
▁Trường▁THPT	-10.094
ình	-10.0941
▁ở▁những	-10.0944
▁ra▁quyết▁định	-10.0946
▁bằng▁chứng	-10.0948
▁sổ	-10.095
▁cho▁vay	-10.0954
▁hy▁sinh	-10.0955
/19	-10.0957
▁Đài▁Loan	-10.0958
▁viên▁chức	-10.0962
▁nhân▁sự	-10.0962
▁các▁bác▁sĩ	-10.0963
▁bơi	-10.0963
▁Bitcoin	-10.0965
▁trả▁lại	-10.0965
▁tuân▁thủ	-10.0967
ỷ	-10.0967
▁Kiên	-10.0969
▁tăng▁thêm	-10.0972
▁hãng▁xe	-10.0974
▁mệt▁mỏi	-10.098
▁Môi▁trường	-10.0985
▁Trái▁đất	-10.0985
xã	-10.0996
▁giấy▁phép	-10.0996
ry	-10.0997
▁Se	-10.0997
▁Đại▁sứ	-10.0999
▁Hơn▁nữa	-10.1002
▁nguồn▁gốc	-10.1003
PC	-10.1007
▁heo	-10.1009
▁miền▁Bắc	-10.101
/7,	-10.1011
▁Tấn	-10.1015
▁mực	-10.1021
▁chuyến▁đi	-10.1022
▁Quảng▁Trị	-10.1025
▁đĩa	-10.1027
▁tại▁xã	-10.1028
▁liên▁quan▁tới	-10.1028
▁phục▁hồi	-10.1031
▁Sở▁Xây▁dựng	-10.1035
▁giành▁được	-10.1035
▁mơ	-10.1036
▁cảm▁ơn	-10.1036
▁mái	-10.1037
▁Đà▁Lạt	-10.1038
▁đồng▁bào	-10.1039
▁Tiến▁Dũng	-10.1042
▁mát	-10.1047
▁có▁ý▁nghĩa	-10.1049
▁VI	-10.105
▁và▁không	-10.1053
▁hội▁đồng	-10.1054
▁cơ▁sở▁vật▁chất	-10.1063
▁Ly	-10.1066
ap	-10.1068
▁đang▁bị	-10.1069
▁đẻ	-10.1072
lu	-10.1072
net	-10.1074
▁góp	-10.1076
▁sáu	-10.1076
▁nhẹ▁nhàng	-10.1079
▁ngõ	-10.1083
▁có▁người	-10.1088
▁Khánh▁Hòa	-10.1089
▁khủng	-10.109
▁đã▁quyết▁định	-10.1097
ác	-10.1098
▁Tuyết	-10.1101
▁các▁bộ	-10.1104
▁đã▁phát▁hiện	-10.1105
▁mở▁cửa	-10.1106
me	-10.1108
▁tập▁huấn	-10.111
▁theo▁đuổi	-10.1117
▁trong▁gia▁đình	-10.1117
▁mầm▁non	-10.1119
cm	-10.1125
▁Phía	-10.1125
▁hầu▁hết▁các	-10.1125
▁thiên	-10.1135
▁một▁năm	-10.1142
▁mềm	-10.1145
▁thấp▁nhất	-10.1145
▁mảnh	-10.1148
không	-10.1148
▁sử	-10.1149
▁mùa▁đông	-10.115
▁qua▁đó	-10.1156
▁sinh▁vật	-10.1157
▁kỹ▁sư	-10.1158
▁34	-10.1161
▁hiến	-10.1162
▁sốt	-10.1162
▁dựa▁vào	-10.1164
▁từ▁phía	-10.1168
▁chấp▁thuận	-10.1173
▁nội▁bộ	-10.1173
▁tư▁duy	-10.1174
▁khai▁mạc	-10.1175
biến▁đổi▁khí▁hậu	-10.1177
▁quảng▁bá	-10.1182
▁thầy▁trò	-10.1183
▁tông	-10.1187
▁xử	-10.119
▁nghiệp	-10.1196
▁trọng▁lượng	-10.1202
▁Công▁an▁TP	-10.1207
▁mỏng	-10.1214
/3	-10.1214
▁về▁phía	-10.1217
▁2008	-10.1218
▁250	-10.1222
▁chuyến▁thăm	-10.1224
▁chủ▁nhân	-10.123
▁quan▁chức	-10.1231
▁Phạm▁Văn	-10.1234
han	-10.124
▁hóa▁chất	-10.1243
Ph	-10.1245
▁và▁một▁số	-10.1246
▁khách▁du▁lịch	-10.1246
▁Một▁trong▁những	-10.125
37	-10.1255
▁liệt▁sĩ	-10.1262
▁Top	-10.1265
▁tắt	-10.1266
SA	-10.1267
▁ngọt	-10.1271
▁Lạc	-10.1272
▁Bộ▁Y▁tế	-10.1276
▁cân	-10.1276
▁bị▁bắt	-10.1278
▁phía▁Bắc	-10.128
▁Thiện	-10.1281
ạo	-10.1283
▁sai▁lầm	-10.1283
▁trợ	-10.1286
▁Mexico	-10.1287
▁Đài	-10.1291
▁mất▁tích	-10.1292
-19	-10.1295
▁Tại▁đây	-10.1296
▁miễn	-10.1301
▁ngay▁từ	-10.1302
▁dạy▁học	-10.1303
▁về▁tội	-10.1305
▁30%	-10.1306
▁sự▁thật	-10.1306
▁của▁hai	-10.1307
49	-10.1308
▁khiếu▁nại	-10.131
▁họ▁đã	-10.1311
ầm	-10.1313
▁vũ	-10.1318
▁kể▁từ▁khi	-10.1321
▁nhiễm	-10.1321
▁trâu	-10.1322
ũ	-10.1325
lin	-10.1325
▁vũ▁trang	-10.1331
▁qua▁đời	-10.1332
▁đeo	-10.1333
▁Quảng▁Bình	-10.1333
▁ở▁Mỹ	-10.1334
▁chữa▁bệnh	-10.1335
▁GT	-10.134
▁Học	-10.1342
▁khói	-10.1346
▁Đó	-10.1346
q	-10.1349
▁toán	-10.1349
Tr	-10.1349
▁Luật▁sư	-10.135
-11	-10.1351
▁sẽ▁làm	-10.1351
▁kèm▁theo	-10.1352
▁Microsoft	-10.1355
anh	-10.1358
▁tiểu▁học	-10.1361
▁của▁thành▁phố	-10.1369
▁hộ▁gia▁đình	-10.137
▁Tài▁chính	-10.137
▁vốn▁đầu▁tư	-10.137
▁trọng▁điểm	-10.1371
▁London	-10.1371
ua	-10.1373
▁HĐXX	-10.1375
▁hợp▁tác▁với	-10.1376
▁có▁tác▁dụng	-10.1381
▁đáp▁ứng▁được	-10.1382
▁Man	-10.1382
▁bạo▁lực	-10.1388
▁thi▁đua	-10.1391
▁chữa	-10.1402
▁kịch▁bản	-10.1406
▁Tối	-10.1411
▁tố	-10.1412
ực	-10.1412
▁lai	-10.1413
▁Nghi	-10.1416
▁do▁đó	-10.1418
▁Cùng▁với	-10.142
▁hài▁lòng	-10.1424
▁tả	-10.1432
▁Bi	-10.1433
▁Thái▁Nguyên	-10.1436
iêm	-10.1438
▁được▁xác▁định	-10.1438
▁khuôn▁mặt	-10.1441
▁khuyến▁cáo	-10.1444
▁City	-10.1444
▁năng▁suất	-10.1445
▁cứu▁hộ	-10.1445
▁Lam	-10.1449
▁quét	-10.1452
▁nút	-10.1454
▁cột	-10.1455
▁lãnh▁thổ	-10.146
▁trách	-10.1461
▁ra▁sao	-10.1461
▁tổng▁cộng	-10.1462
ham	-10.1465
CC	-10.1466
▁Tuấn▁Anh	-10.1467
14	-10.1467
▁cùng▁các	-10.1471
▁Chúng	-10.1477
▁Lee	-10.148
▁gian	-10.1482
▁chất▁lượng▁cao	-10.1483
▁chúc▁mừng	-10.1488
guyễn▁Xuân▁Phúc	-10.149
▁bao▁giờ	-10.1491
ốc	-10.1496
▁an	-10.1497
▁Bộ▁Công▁an	-10.1499
▁tối▁thiểu	-10.1501
▁20%	-10.1501
▁khắc	-10.1503
st	-10.1506
▁cơn▁bão	-10.1507
▁Thái▁Bình	-10.1509
▁Sỹ	-10.1509
▁ven▁biển	-10.1512
▁Bộ▁Ngoại▁giao	-10.1518
05	-10.1519
▁Trước▁đây	-10.1519
▁thích▁hợp	-10.152
▁của▁tỉnh	-10.1521
▁thải	-10.1521
▁lính	-10.1522
▁Nguyễn▁Xuân	-10.1523
▁có▁mặt▁tại	-10.1524
▁bồi▁dưỡng	-10.1527
▁của▁Công▁ty	-10.153
▁Vận▁tải	-10.153
▁Giao	-10.1533
▁Cát	-10.1537
ằng	-10.1538
▁Hồi▁giáo	-10.1539
▁thiệt▁mạng	-10.1545
▁này▁còn	-10.1548
▁nàng	-10.1549
▁kháng	-10.1555
▁Bu	-10.1557
▁Vàng	-10.1557
▁Theo▁thông▁tin	-10.1558
ow	-10.1565
▁cho▁thuê	-10.1566
▁để▁phục▁vụ	-10.1567
ên	-10.1568
▁trực▁thuộc	-10.1578
▁vật▁chất	-10.1579
▁mở▁ra	-10.1581
▁kim▁loại	-10.1581
▁bớt	-10.1583
▁Đá	-10.1583
▁của▁dự▁án	-10.1584
▁khách▁quan	-10.1589
▁trong▁lòng	-10.1592
▁thiết	-10.1595
▁này▁không	-10.1596
▁bản▁đồ	-10.1597
▁lớp▁học	-10.1598
▁trượt	-10.1599
▁hai▁nước	-10.1603
▁vi▁khuẩn	-10.1604
▁chai	-10.1607
▁cảm▁biến	-10.1607
▁đại▁gia	-10.1608
▁đói	-10.1616
ab	-10.1631
▁ở▁vùng	-10.1632
▁Tổ	-10.1633
TV	-10.1633
▁HTX	-10.1634
/8,	-10.1636
▁bù	-10.1636
▁tuyệt▁đối	-10.1637
▁Moscow	-10.1644
▁Tổng▁Giám▁đốc	-10.1648
▁cùng▁ngày	-10.1649
▁Bác	-10.1649
▁Thông	-10.1649
▁cao▁tốc	-10.1657
▁San	-10.1657
46	-10.1661
Qu	-10.1663
▁Trong▁một	-10.1671
▁tuyển▁dụng	-10.1674
▁bức▁tranh	-10.1675
▁Quốc▁phòng	-10.1676
▁anh▁ta	-10.1681
▁chí	-10.1684
▁Mã	-10.1685
▁Kế▁hoạch	-10.1685
▁tủ	-10.1686
ki	-10.1687
▁tôi▁cũng	-10.1695
▁giữa▁hai	-10.1703
▁khuyên	-10.1708
▁bát	-10.1713
▁những▁lời	-10.1714
▁xuống▁cấp	-10.1716
TB	-10.1722
▁mỗi▁khi	-10.1722
▁nấm	-10.1726
▁hoàn▁tất	-10.1726
▁CEO	-10.1728
ài	-10.1729
▁ngựa	-10.1732
ell	-10.1736
▁làm▁sao	-10.1737
▁là▁sự	-10.1742
▁của▁Nhà▁nước	-10.1743
▁nát	-10.1749
▁Bước	-10.1753
▁bút	-10.1757
ứ	-10.1757
▁đầu▁tư▁vào	-10.1757
▁họa	-10.1759
è	-10.1759
▁3.000	-10.1759
▁của▁Tổng▁thống	-10.1762
▁tài▁nguyên	-10.1765
▁Audi	-10.1765
▁mỗi▁người	-10.177
CO	-10.177
▁đủ▁điều▁kiện	-10.1775
▁thưởng▁thức	-10.1776
▁Vấn▁đề	-10.1776
▁tiêm	-10.1777
▁trên▁cơ▁sở	-10.1778
▁bức	-10.1779
▁cuối▁tháng	-10.1779
▁trong▁khoảng	-10.178
by	-10.1785
▁PC	-10.1786
▁Man▁City	-10.1789
▁Chuyện	-10.1797
▁ghi▁bàn	-10.1799
ồng	-10.18
▁Hồi	-10.1801
▁dự▁kiến▁sẽ	-10.1803
▁tôn	-10.1803
▁thi▁thể	-10.1811
▁tạm▁thời	-10.1814
▁Yến	-10.1816
▁anh▁hùng	-10.1818
ran	-10.182
ợ	-10.1822
▁KH	-10.1827
▁lốp	-10.183
▁trung▁ương	-10.1832
▁5.000	-10.1832
▁sinh▁thái	-10.1834
▁đấu▁thầu	-10.1835
▁Gu	-10.1837
▁nhà▁văn	-10.1839
▁chiều▁cao	-10.1841
▁Bùi▁Tiến▁Dũng	-10.1841
▁hội▁thảo	-10.1857
▁tiết▁mục	-10.1861
▁và▁Phát▁triển	-10.1862
▁về▁các	-10.1862
▁thủy▁điện	-10.1864
▁El	-10.1864
▁đáp▁ứng▁nhu▁cầu	-10.1865
▁xếp▁hạng	-10.1869
▁trực	-10.187
▁Ai▁Cập	-10.1872
▁AFP	-10.1876
▁hiển▁thị	-10.1878
▁bi	-10.1885
ya	-10.1898
ề	-10.19
ru	-10.1903
▁quá▁tải	-10.1906
▁Suzuki	-10.1907
▁Trong▁số	-10.1908
ke	-10.1909
▁hố	-10.1912
▁NH	-10.1917
▁phun	-10.1917
▁thổi	-10.1919
▁Brazil	-10.1921
▁quan▁trọng▁nhất	-10.1928
▁Trưởng▁ban	-10.1928
▁đã▁có▁những	-10.1929
ảng	-10.1934
▁cho▁khách▁hàng	-10.1935
▁(1	-10.1935
▁tổ▁hợp	-10.1941
▁Cơ	-10.1942
▁có▁quyền	-10.1944
▁tạp▁chí	-10.1946
▁Tăng	-10.1946
▁tiêu▁diệt	-10.1948
▁trú▁tại	-10.1949
▁các▁hộ▁dân	-10.1951
our	-10.1952
▁đến▁mức	-10.1957
▁để▁phát▁triển	-10.1959
▁kiện	-10.1959
▁of	-10.196
▁đột▁phá	-10.1969
▁bất▁chấp	-10.1974
▁hai▁người	-10.1974
▁Trái▁Đất	-10.1981
▁linh▁hoạt	-10.1982
▁trùng	-10.1984
▁đến▁trường	-10.1986
▁Bạch	-10.1986
▁đã▁đến	-10.1987
▁ngại	-10.1989
▁phái	-10.1993
▁cơ▁cấu	-10.1994
▁tham▁khảo	-10.1994
▁ước▁mơ	-10.1996
▁trang▁thiết▁bị	-10.1996
ara	-10.1998
▁Sport	-10.2004
▁Quảng▁Ngãi	-10.2005
▁trục	-10.201
▁Viet	-10.2011
▁điều▁hòa	-10.2014
▁người▁sử▁dụng	-10.2016
▁làm▁ăn	-10.2017
▁xuất▁phát▁từ	-10.2019
▁55	-10.2019
▁cũng▁chỉ	-10.2019
▁như▁sau	-10.2025
▁đã▁xảy▁ra	-10.2025
oi	-10.2026
ạ	-10.2034
▁khoảnh▁khắc	-10.2034
▁đám▁cưới	-10.2035
ừng	-10.2039
▁to▁lớn	-10.204
áng	-10.204
▁bê▁tông	-10.2042
▁Bộ▁Công▁Thương	-10.2046
mo	-10.205
▁lùi	-10.2055
▁Ni	-10.2057
▁chốt	-10.2057
▁ổ	-10.2061
ệ	-10.2063
▁trích	-10.2064
▁Wi	-10.2066
▁Tường	-10.2066
▁Doanh▁nghiệp	-10.2071
24	-10.2072
ion	-10.2076
▁CĐV	-10.2079
▁Thành▁ủy	-10.208
▁Đề▁án	-10.2082
▁ngắm	-10.2082
▁mờ	-10.2086
▁phát▁hiện▁ra	-10.2086
▁cống▁hiến	-10.2089
▁bạn▁đọc	-10.209
▁được▁hưởng	-10.2091
▁tìm▁đến	-10.2093
/10,	-10.2096
▁đã▁nhận▁được	-10.21
67	-10.2106
▁cần▁được	-10.2106
▁linh	-10.2107
▁Ferrari	-10.2111
▁Hay	-10.2115
/6,	-10.2118
▁cuộc▁tấn▁công	-10.2119
▁trang▁trại	-10.2119
▁thế▁hệ▁mới	-10.2122
▁danh▁mục	-10.2122
▁thử▁thách	-10.2123
▁truyện	-10.2125
▁máy▁móc	-10.2126
▁đến▁tháng	-10.2127
▁xăng▁dầu	-10.2131
▁một▁mình	-10.2132
▁game	-10.2132
▁Ben	-10.2134
▁diệt	-10.2134
▁lẽ	-10.2141
▁hợp▁pháp	-10.2144
▁đứa	-10.2146
▁người▁Việt	-10.2149
▁Chưa	-10.2149
▁xét▁nghiệm	-10.2151
▁vụ▁tấn▁công	-10.2156
▁TV	-10.2177
▁Ngay▁sau▁khi	-10.2177
47	-10.2182
▁ao	-10.2184
▁của▁những▁người	-10.2186
▁đoàn▁viên	-10.2188
▁chủ▁nhà	-10.2191
ee	-10.2193
▁đã▁đưa	-10.2196
▁trong▁cuộc▁sống	-10.2198
▁yên▁tâm	-10.2199
36	-10.22
▁chiến▁trường	-10.2201
▁Thăng▁Long	-10.2202
▁a	-10.2204
▁mây	-10.2206
and	-10.2206
▁công▁văn	-10.221
▁để▁giải▁quyết	-10.2212
▁Quận	-10.2217
▁trong▁ngành	-10.2219
▁trọng▁tâm	-10.2224
▁dẫn▁dắt	-10.2226
▁vải	-10.2231
▁để▁xây▁dựng	-10.2232
ick	-10.2242
▁có▁hiệu▁quả	-10.2243
▁Auto	-10.2244
▁phía▁Nam	-10.2244
▁dán	-10.2247
▁việc▁thực▁hiện	-10.2247
▁vọng	-10.2249
▁Máy	-10.225
▁Tiếp	-10.226
▁tiến▁bộ	-10.226
▁Viên	-10.2262
▁chi▁trả	-10.2262
▁48	-10.2264
IS	-10.2265
▁Năm▁nay	-10.2266
▁Công▁an▁huyện	-10.2267
▁phạm	-10.2277
.12	-10.2279
54	-10.228
ấm	-10.2281
▁liệt	-10.2287
▁lãng▁phí	-10.2287
▁Kỹ▁thuật	-10.2288
▁Liverpool	-10.2289
▁nước▁mắt	-10.2289
▁dứt▁điểm	-10.229
▁món▁ăn	-10.2295
ge	-10.2296
▁của▁chị	-10.2296
▁Lúc	-10.2298
▁cải	-10.23
▁quản	-10.2303
▁thì▁sẽ	-10.2307
▁News	-10.2307
▁Phượng	-10.2309
▁các▁lĩnh▁vực	-10.2311
▁Vũng▁Tàu	-10.2315
▁42	-10.232
▁và▁sự	-10.233
▁đình	-10.2333
▁quang	-10.2333
▁tắc	-10.2334
▁dâu	-10.2334
▁có▁hoàn▁cảnh	-10.2335
07	-10.2335
▁dồn	-10.2342
▁mới▁chỉ	-10.2343
▁có▁thể▁làm	-10.2343
sh	-10.2344
26	-10.2345
▁bảo▁quản	-10.2347
▁quy▁chế	-10.2348
▁Kia	-10.2348
▁việc▁sử▁dụng	-10.2353
▁miền▁Trung	-10.2353
▁tốc	-10.2355
▁bà▁Nguyễn▁Thị	-10.2355
▁cậu▁bé	-10.2358
▁Tỉnh	-10.2359
ster	-10.2361
▁Myanmar	-10.2364
▁theo▁đúng	-10.2364
▁vai▁diễn	-10.2364
▁trực▁thăng	-10.2367
▁Trường▁Đại▁học	-10.237
▁một▁cuộc	-10.2371
▁khu▁vực▁này	-10.2374
▁trò▁chơi	-10.2374
▁đi▁bộ	-10.2377
▁Khu▁vực	-10.2377
▁của▁nhân▁dân	-10.2378
▁làm▁việc▁tại	-10.2378
▁2000	-10.2379
▁từ▁những	-10.2391
▁ví	-10.2394
▁cơ▁quan▁quản▁lý	-10.2405
từ	-10.2405
ner	-10.2406
▁hẹn	-10.2406
úp	-10.241
▁Sang	-10.2413
▁nghị▁quyết	-10.2414
.11	-10.2417
▁cấu▁trúc	-10.2428
▁của▁chúng	-10.2434
▁năm▁tù	-10.2435
▁thực▁thi	-10.2439
▁bùn	-10.244
▁toàn▁thế▁giới	-10.2441
▁các▁cơ▁sở	-10.2441
▁Hạ▁Long	-10.2445
▁phụ▁thuộc▁vào	-10.2446
▁quay▁lại	-10.2449
▁virus	-10.2451
08	-10.2452
▁cây▁trồng	-10.2457
▁tính▁đến	-10.2458
▁HLV▁Park▁Hang	-10.2462
▁Long▁An	-10.2463
▁Cảng	-10.2465
▁nội▁địa	-10.2473
▁trong▁danh▁sách	-10.2475
▁gọn	-10.2478
▁vì▁thế	-10.2478
▁hiệu▁trưởng	-10.2479
▁từng▁bước	-10.2481
▁chung▁của	-10.2494
,5%	-10.2495
▁Công▁nghiệp	-10.2496
▁đầm	-10.25
▁hành▁lang	-10.2501
▁Vị	-10.2504
▁trong▁lúc	-10.2507
▁bông	-10.2508
▁tái▁định▁cư	-10.2511
▁kế	-10.2512
▁800	-10.2513
▁UBND▁phường	-10.2514
-2016	-10.2519
pa	-10.252
▁hoàn	-10.2523
▁một▁con	-10.2527
▁di▁sản	-10.2528
▁trên▁mạng	-10.2533
▁phạm▁vi	-10.2533
ast	-10.2536
▁Biển	-10.2541
▁Tây▁Nguyên	-10.2541
▁Hợp	-10.2544
▁học▁viên	-10.2544
▁từ▁lâu	-10.255
▁điểm▁thi	-10.2554
▁niên	-10.2557
▁lên▁kế▁hoạch	-10.256
▁Phiên▁bản	-10.2563
▁gia▁đình▁ông	-10.2564
▁nhất▁trong	-10.2566
ồ	-10.2566
▁Lu	-10.2566
▁ở▁đâu	-10.2567
▁rất▁quan▁trọng	-10.2572
▁giật	-10.2574
▁quốc▁lộ	-10.2575
▁Lê▁Thị	-10.2576
▁chỉnh	-10.2577
▁nông▁thôn▁mới	-10.2581
▁Yên▁Bái	-10.2585
ẩn	-10.2586
▁màu▁xanh	-10.2587
▁có▁điều▁kiện	-10.2588
▁cô▁ấy	-10.259
CB	-10.2591
▁chip	-10.2593
▁Xin	-10.2593
ack	-10.2594
:▁'	-10.2595
▁dư	-10.2599
▁phong▁phú	-10.2599
▁siêu▁thị	-10.26
▁chỉ▁ra	-10.2602
▁biểu▁tượng	-10.2603
▁trốn	-10.2606
5.000	-10.2606
▁phát▁động	-10.2608
▁BĐBP	-10.261
▁hàm	-10.2614
▁nhân▁tạo	-10.2627
▁hủy	-10.263
▁một▁loại	-10.2632
ới	-10.2632
▁tầm▁nhìn	-10.2637
▁vươn▁lên	-10.2637
▁GM	-10.2641
▁Jo	-10.2642
▁bài▁thi	-10.2643
ồn	-10.2645
▁can▁thiệp	-10.2646
▁thiên▁tai	-10.2647
lan	-10.2648
▁110	-10.2652
▁thợ	-10.2652
▁Đại▁tá	-10.2656
ường	-10.2656
▁đuổi	-10.2656
▁màu▁đen	-10.2657
▁dân▁cư	-10.2664
▁tùy▁chọn	-10.2664
▁125	-10.2665
09	-10.2665
▁So▁với	-10.2666
▁thất▁vọng	-10.2667
▁rèn▁luyện	-10.2668
▁khi▁được	-10.2669
29	-10.2671
▁de	-10.2673
▁trang▁web	-10.2675
▁của▁con▁người	-10.2676
▁tốn	-10.2677
▁từ▁thiện	-10.2679
▁giấu	-10.2679
per	-10.2682
ek	-10.2684
▁hiện▁hành	-10.2686
▁cuộc▁bầu▁cử	-10.2687
▁tăng▁cao	-10.2688
▁Nông	-10.2689
▁giảm▁thiểu	-10.269
▁thực▁hiện▁các	-10.2692
▁huyền▁thoại	-10.2692
▁về▁sự	-10.2693
▁tin▁đồn	-10.2695
▁nhắc▁nhở	-10.2701
▁Diễn	-10.2702
▁AP	-10.2704
▁bọc	-10.2704
▁hào	-10.2705
▁chi▁nhánh	-10.2712
▁lồng	-10.2712
▁mỗi▁lần	-10.2715
▁UBND▁thành▁phố	-10.2718
▁so▁sánh	-10.2718
NH	-10.272
▁thực▁vật	-10.2723
▁tới▁đây	-10.2726
▁gia▁nhập	-10.2727
▁Windows	-10.2729
ại	-10.2729
Các▁nhà▁khoa▁học	-10.2738
phút	-10.2744
be	-10.2745
▁loại▁hình	-10.2748
▁nhìn▁nhận	-10.2749
▁đồn	-10.2755
▁phải▁làm	-10.2759
▁hồn	-10.2759
▁Chiếc▁xe	-10.276
▁cũng▁bị	-10.2764
▁lập▁tức	-10.2765
Benz	-10.2771
▁ngôi	-10.2771
▁Cửa	-10.2775
▁vượt▁trội	-10.2775
▁đáy	-10.2777
▁BTC	-10.2777
ah	-10.2778
▁Gần	-10.2782
▁đẳng▁cấp	-10.2784
▁chè	-10.2784
▁một▁thời▁gian	-10.2791
▁ông▁đã	-10.2792
▁được▁phát▁hiện	-10.2794
▁xuyên	-10.2795
▁hướng▁đến	-10.2799
▁cho▁đến▁khi	-10.28
▁ông▁Trần	-10.2801
▁Trong▁quá▁trình	-10.2804
▁Mức	-10.2813
▁gặp▁gỡ	-10.282
▁niềm	-10.2821
▁Chính▁vì▁vậy	-10.2822
▁Triển▁lãm	-10.2827
▁học▁hỏi	-10.2829
▁Trump	-10.283
▁trên▁xe	-10.2835
▁kích▁thích	-10.2837
▁bạn▁gái	-10.2838
▁mỡ	-10.2839
▁đã▁và▁đang	-10.2842
▁để▁có	-10.2844
▁Thông▁tư	-10.2849
ler	-10.2849
39	-10.2851
▁hoang	-10.2855
▁có▁tính	-10.2855
▁Loan	-10.2859
ny	-10.2859
▁Hy	-10.286
▁dự▁thi	-10.2861
▁các▁dịch▁vụ	-10.2861
▁mắc▁bệnh	-10.2864
▁đuôi	-10.2868
▁vị▁thế	-10.2882
▁anh▁ấy	-10.2888
▁đền▁bù	-10.2892
▁chinh▁phục	-10.2893
▁Be	-10.2894
▁khớp	-10.2896
iền	-10.2896
▁tăng▁giá	-10.2897
▁mới▁có	-10.2898
▁o	-10.2904
▁những▁thông▁tin	-10.2904
▁săn	-10.2906
▁sạc	-10.291
▁Công▁tác	-10.291
▁con▁cái	-10.2911
▁Hải▁quân	-10.2919
▁của▁đất▁nước	-10.292
▁nguồn▁nước	-10.292
▁các▁DN	-10.2922
/2016,	-10.2924
so	-10.2931
▁về▁hành▁vi	-10.2934
▁Galaxy▁S	-10.2935
▁64	-10.2935
▁mượn	-10.2939
▁chắn	-10.2943
▁được▁sản▁xuất	-10.2943
02	-10.2945
giờ	-10.2947
ời	-10.2954
▁vào▁lúc	-10.2954
▁ngô	-10.2956
iệt	-10.2963
▁đã▁hoàn▁thành	-10.2965
▁được▁biết▁đến	-10.2966
cc	-10.2969
▁Thật	-10.297
▁To	-10.2971
CS	-10.2971
ation	-10.2972
▁thảo	-10.2977
▁được▁triển▁khai	-10.2984
▁thẩm▁mỹ	-10.2986
▁Cuối▁cùng	-10.2989
2%	-10.2992
▁đối▁đầu	-10.2992
▁Barca	-10.2995
▁viễn▁thông	-10.2995
▁tiêu▁dùng	-10.2997
▁khỏe▁mạnh	-10.3001
▁bơm	-10.3002
▁đây▁là▁một	-10.3003
▁cỡ	-10.3005
▁Bác▁sĩ	-10.3006
▁người▁bị▁thương	-10.301
▁Đáng▁chú▁ý	-10.301
▁THCS	-10.301
▁tàn	-10.3011
▁hôm▁qua	-10.3012
▁al	-10.3019
▁đền	-10.302
▁tên▁lửa▁đạn▁đạo	-10.3021
▁nhí	-10.3021
▁Đất	-10.3025
▁nhiều▁khó▁khăn	-10.3027
▁rét	-10.3028
▁đối▁thoại	-10.3029
▁Nm	-10.3029
▁xuất▁sắc▁nhất	-10.303
34	-10.3031
▁kể▁lại	-10.3035
▁tình▁nguyện	-10.3036
▁ra▁đi	-10.3037
▁lý▁giải	-10.3037
▁Điện	-10.3038
ana	-10.3041
▁đặc▁trưng	-10.3044
▁xưởng	-10.305
▁Real	-10.3052
▁đậm	-10.3052
▁thích▁thú	-10.3053
▁chúng▁tôi▁đã	-10.3054
▁43	-10.3055
▁Bình▁Định	-10.3055
lanh	-10.3055
▁Lúc▁này	-10.3058
ễ	-10.3058
▁Tôn	-10.3058
▁thu▁giữ	-10.3059
ục	-10.306
▁vẫn▁không	-10.306
58	-10.3067
▁khi▁đó	-10.3069
▁đô	-10.307
▁mối▁đe▁dọa	-10.3073
he	-10.3075
▁cách▁thức	-10.3077
▁Chủ▁tịch▁nước	-10.3077
▁đoán	-10.3077
▁biểu	-10.3078
▁chung▁kết	-10.3078
▁vận▁động▁viên	-10.3082
▁trong▁cuộc	-10.3084
▁làm▁giảm	-10.3084
▁lệ	-10.3086
ạn	-10.3091
▁phương▁Tây	-10.3092
▁vẫn▁tiếp▁tục	-10.3101
▁như▁hiện▁nay	-10.3103
▁tỉnh▁Quảng▁Ninh	-10.3109
▁hoang▁dã	-10.311
▁văn▁học	-10.3112
▁hư▁hỏng	-10.3112
▁Cựu	-10.3113
▁Tử	-10.3115
CT	-10.3117
▁Tuy▁vậy	-10.3122
59	-10.3125
▁sáng▁kiến	-10.3129
▁kiến	-10.3129
▁tổn▁thương	-10.313
97	-10.313
▁của▁Apple	-10.3131
▁gặp▁phải	-10.3132
no	-10.3133
MS	-10.3135
one	-10.3135
▁xi	-10.3139
EC	-10.314
▁ở▁nước▁ngoài	-10.3141
▁Real▁Madrid	-10.3147
▁đã▁đạt▁được	-10.3148
▁Venezuela	-10.3149
▁nói▁riêng	-10.3149
▁Am	-10.3151
▁hôn	-10.3151
04	-10.3153
▁trạm▁thu▁phí	-10.3156
31	-10.3158
▁tin▁nhắn	-10.3158
▁không▁chịu	-10.3159
▁Phùng	-10.3162
▁bàn▁tay	-10.3163
▁Lập	-10.3163
▁Lào▁Cai	-10.3166
▁văn▁minh	-10.3167
vo	-10.3173
▁được▁các	-10.3175
▁khỏe	-10.3175
▁Liên▁đoàn	-10.3179
▁cơ▁quan▁công▁an	-10.3181
▁Khê	-10.3182
▁giường	-10.3189
▁băn▁khoăn	-10.3193
▁giết	-10.3204
ex	-10.3205
▁nước▁ta	-10.3205
▁tặng▁quà	-10.3207
ọc	-10.3208
▁700	-10.321
oài	-10.3211
▁e	-10.3212
▁đã▁đưa▁ra	-10.3217
▁được▁phép	-10.3217
▁nói▁chuyện	-10.3218
▁mới▁có▁thể	-10.3218
▁tiếng▁Việt	-10.322
▁bị▁mất	-10.3222
KT	-10.3222
▁cuối▁tuần	-10.3224
▁được▁cấp	-10.3227
▁bữa	-10.3229
▁cất	-10.3229
▁những▁con	-10.3231
▁cắt▁giảm	-10.3231
▁Me	-10.3233
▁Hiển	-10.3233
▁thậm▁chí▁còn	-10.3235
▁bán▁được	-10.3241
▁trường▁Đại▁học	-10.3241
▁cũng▁là▁một	-10.3241
48	-10.3248
▁có▁phần	-10.325
▁u	-10.325
▁Tây▁Bắc	-10.3251
▁sự▁thay▁đổi	-10.3261
▁thì▁không	-10.3263
▁mù	-10.3264
men▁xoắn▁cực▁đại	-10.3264
ức	-10.3266
▁khắp▁nơi	-10.3269
▁cái▁chết	-10.3272
▁bí	-10.3273
38	-10.3275
▁đầu▁tháng	-10.3275
ou	-10.3278
ỗ	-10.3278
▁Nguyễn▁Ngọc	-10.3285
▁bài▁học	-10.3287
▁cũng▁rất	-10.329
85	-10.3291
▁Có▁lẽ	-10.3291
ồi	-10.3292
▁nhịp	-10.3294
▁Bé	-10.3296
▁lý▁tưởng	-10.3298
▁UBND▁quận	-10.3298
AM	-10.3302
▁Lệ	-10.3305
▁bó	-10.3307
▁cổ▁phần▁hóa	-10.3313
▁có▁vẻ	-10.3314
▁Tương▁tự	-10.3316
▁51	-10.3317
▁kiểu▁dáng	-10.3321
▁các▁sở	-10.3322
▁Độ	-10.3328
ể	-10.3331
▁Quốc▁lộ	-10.3331
▁tháp	-10.3333
▁Trần▁Thị	-10.3334
▁vết▁thương	-10.3337
▁cho▁gia▁đình	-10.3339
▁khủng▁hoảng	-10.3339
▁dược	-10.3341
ắp	-10.3342
▁người▁mua	-10.3343
▁làm▁thủ▁tục	-10.3348
▁đóng▁vai▁trò	-10.335
ass	-10.3351
▁một▁nhóm	-10.3354
▁điển▁hình	-10.3356
▁tệ	-10.3358
▁chắc▁chắn▁sẽ	-10.3358
▁của▁cơ▁quan	-10.3364
▁rất▁ít	-10.3365
ko	-10.3365
ôi	-10.3366
32	-10.3367
▁100.000	-10.3368
▁tán	-10.337
ỡ	-10.3376
▁đội▁hình	-10.3378
▁năm▁gần▁đây	-10.338
▁tây	-10.338
ấp	-10.338
▁rối▁loạn	-10.3382
MA	-10.3382
▁chẩn▁đoán	-10.3382
▁bữa▁ăn	-10.3385
▁củ	-10.3387
06	-10.3389
▁ẩn	-10.3391
▁ứng▁viên	-10.3397
▁Tiểu	-10.3398
▁để▁bảo▁vệ	-10.3398
100	-10.3398
▁phát▁sóng	-10.3399
▁2006	-10.3401
▁khoang	-10.3401
▁gần▁gũi	-10.3404
êu	-10.3404
▁diễn▁đàn	-10.3408
▁triệu▁người	-10.3409
▁thêm▁một	-10.3411
▁vui▁mừng	-10.3417
▁tháo	-10.3422
uyền	-10.3423
▁2,5	-10.3423
▁lành▁mạnh	-10.3424
▁trái▁đất	-10.343
▁thu▁thập	-10.3431
▁Công▁an▁tỉnh	-10.3431
ử	-10.3432
▁có▁kế▁hoạch	-10.3439
▁phối	-10.3439
▁đang▁là	-10.3442
▁ơi	-10.3443
▁khoản▁tiền	-10.3445
▁thực▁hiện▁dự▁án	-10.3446
▁gói▁thầu	-10.3446
▁thang	-10.3449
dy	-10.3454
▁hàng▁triệu	-10.3455
▁sợi	-10.3456
▁phép	-10.3457
▁Hải▁Dương	-10.3459
88	-10.3465
▁Sha	-10.3466
68	-10.3466
lon	-10.3466
▁HĐND	-10.3466
▁cách▁làm	-10.3473
▁mang▁thai	-10.3486
▁cá▁tính	-10.3487
▁HCV	-10.3488
▁và▁nhiều	-10.3494
▁nữ▁sinh	-10.3494
▁tác	-10.3495
▁Hà▁Lan	-10.3496
âm	-10.3497
▁về▁vấn▁đề	-10.3504
▁cố▁tình	-10.3505
▁đường▁dây	-10.3505
▁không▁quân	-10.3506
▁Trung▁Đông	-10.3507
▁lâm	-10.3507
▁không▁làm	-10.3507
▁việc▁này	-10.3507
▁Đêm	-10.3508
▁bầu▁cử	-10.3508
▁trao▁đổi▁với	-10.3509
▁Cộng▁hòa	-10.351
▁nắm▁giữ	-10.3511
57	-10.3513
▁tiền▁mặt	-10.3516
▁trăm	-10.3516
▁các▁nội▁dung	-10.3522
▁hậu▁vệ	-10.3522
▁dự▁định	-10.3523
▁Quả	-10.3526
▁mới▁là	-10.3531
▁năm▁mới	-10.3536
▁Toán	-10.354
▁có▁nhu▁cầu	-10.3544
▁vì▁sao	-10.355
ĩ	-10.3553
▁huyết	-10.3558
▁Porsche	-10.3559
▁câu▁trả▁lời	-10.356
▁khu▁đô▁thị	-10.356
DL	-10.3572
▁hộ▁nghèo	-10.3575
▁Giới	-10.3576
▁CT	-10.3577
▁lưu▁trữ	-10.3581
▁nhan▁sắc	-10.3582
▁39	-10.3586
▁có▁nghĩa▁là	-10.3588
▁tự▁nguyện	-10.3594
▁chênh▁lệch	-10.3597
▁ông▁Lê	-10.36
▁giác	-10.3603
▁thực▁hành	-10.3605
▁nghi▁phạm	-10.3606
▁dải	-10.3607
gu	-10.3615
▁các▁xã	-10.3618
▁khoan	-10.362
▁Phật	-10.3621
▁hỏng	-10.3625
ó	-10.3629
▁có▁thể▁là	-10.3631
si	-10.3634
▁cô▁nàng	-10.3637
▁Nên	-10.3638
▁ngay▁cả	-10.3641
▁Tết▁Nguyên▁đán	-10.3645
▁đã▁chỉ▁đạo	-10.3646
Ng	-10.365
▁trong▁phim	-10.3653
▁giao▁tiếp	-10.3653
▁trí▁tuệ	-10.3653
▁nghệ	-10.3655
▁được▁đưa▁vào	-10.3655
▁Thực▁hiện	-10.3657
▁luồng	-10.3658
Chúng▁tôi	-10.3659
▁ở▁lại	-10.366
▁2014,	-10.3662
▁tiếc	-10.3662
▁Cả▁hai	-10.3669
▁dùng▁để	-10.3669
▁Theo▁báo▁cáo	-10.3672
▁Hội▁thảo	-10.3673
▁các▁cháu	-10.3675
▁căn▁bệnh	-10.3678
▁khoáng▁sản	-10.3682
▁Bị	-10.3691
▁xà	-10.3692
▁món▁quà	-10.3694
▁nghĩ▁rằng	-10.3694
▁20.000	-10.3702
▁dự▁phòng	-10.3703
▁Cổ	-10.3704
03	-10.3716
▁rời▁khỏi	-10.372
▁cho▁trẻ	-10.3727
▁mà▁chỉ	-10.3728
▁diện▁tích▁đất	-10.3731
▁đòn	-10.3732
▁ký▁hợp▁đồng	-10.3732
▁Đa	-10.3735
▁thắc▁mắc	-10.374
▁kép	-10.3742
▁Super	-10.3742
▁TP▁Đà▁Nẵng	-10.3742
▁Phát▁hiện	-10.3743
▁phong▁độ	-10.3745
▁Rồi	-10.3749
▁đứng▁đầu	-10.3752
▁Trung▁ương▁Đảng	-10.3752
▁học▁bổng	-10.3752
▁thần▁kinh	-10.3753
▁Phố	-10.3757
▁cốt	-10.3757
▁việc▁xây▁dựng	-10.3759
▁sỹ	-10.3759
▁sôi▁động	-10.3759
41	-10.3765
▁khăn	-10.3766
▁cống	-10.3768
ộ	-10.3771
▁tại▁chỗ	-10.3779
ách	-10.3781
▁sân▁chơi	-10.3782
▁nhạy▁cảm	-10.3783
▁tại▁nhà	-10.3784
▁theo▁hình▁thức	-10.3788
▁cao▁su	-10.3789
ik	-10.3789
▁màu▁đỏ	-10.3789
▁Ngoại▁trưởng	-10.379
TC	-10.3793
▁Bí▁thư▁Thành▁ủy	-10.3793
▁chức▁vụ	-10.3794
▁Công▁đoàn	-10.3795
èo	-10.3795
UBND	-10.38
▁đáp	-10.3803
▁sự▁hỗ▁trợ	-10.3805
▁Tuyến	-10.381
▁không▁dám	-10.381
▁bãi▁biển	-10.3811
▁Chi▁cục	-10.3811
▁đặc▁thù	-10.3813
▁dự▁án▁này	-10.3815
▁Group	-10.3819
▁bao▁gồm▁cả	-10.3821
▁mọc	-10.3823
▁Sở▁GTVT	-10.3824
▁đặc▁điểm	-10.3825
▁cho▁cả	-10.383
▁đều▁là	-10.3832
▁Cùng▁với▁đó	-10.3834
▁tin▁tức	-10.3835
▁chỉ▁được	-10.3836
▁đối▁phương	-10.3836
ty	-10.3837
▁bốc	-10.3839
▁ngoại▁hình	-10.3839
▁chiến▁thuật	-10.384
▁đạt▁chuẩn	-10.3842
▁đã▁yêu▁cầu	-10.3843
▁CH	-10.3844
▁làm▁tốt	-10.3851
▁biến▁động	-10.3861
▁Bảo▁vệ	-10.3863
▁tiện▁ích	-10.3864
▁Argentina	-10.3867
▁nghị	-10.3868
▁tỉnh▁Nghệ▁An	-10.3869
▁ứng▁phó	-10.3876
▁lại▁không	-10.388
▁giải▁tỏa	-10.3881
▁có▁tới	-10.3884
▁ngạc▁nhiên	-10.3884
▁sập	-10.3885
▁Ne	-10.3886
▁nước▁thải	-10.3887
▁Trường▁hợp	-10.3888
▁sedan	-10.3889
ản	-10.3889
ẩy	-10.389
▁hiểu▁biết	-10.389
▁BHYT	-10.3894
ạng	-10.3902
▁động▁đất	-10.3904
▁phòng▁thủ	-10.3905
▁thực▁chất	-10.3905
▁TN	-10.3908
▁Barcelona	-10.3908
▁các▁cuộc	-10.3908
▁học▁phí	-10.3912
▁không▁có▁gì	-10.3916
44	-10.3916
▁nước▁sạch	-10.3918
▁không▁nhỏ	-10.3924
▁nhanh▁hơn	-10.3926
▁xe▁khách	-10.3926
▁những▁khó▁khăn	-10.393
▁xung▁đột	-10.3932
▁khi▁nào	-10.3937
▁CNTT	-10.3944
▁các▁thủ▁tục	-10.3945
28	-10.3947
▁phạm▁tội	-10.3949
▁dung	-10.3951
ắn	-10.3952
▁SUV	-10.3952
▁đáng▁chú▁ý	-10.3953
▁TR	-10.3954
▁Amazon	-10.3955
▁vây	-10.3956
▁41	-10.3957
▁Vạn	-10.396
▁thẳng▁thắn	-10.3962
▁ý▁kiến▁của	-10.3962
▁tòa▁án	-10.3963
▁xuất▁bản	-10.3966
▁tế▁bào	-10.3967
òng	-10.3967
gen	-10.3971
▁HCM	-10.3974
▁New	-10.3978
ura	-10.3979
ầy	-10.3985
▁rực▁rỡ	-10.3987
▁về▁một	-10.3988
▁tổng▁kết	-10.3989
▁đã▁bắt▁đầu	-10.399
▁ăn▁mừng	-10.3991
/2014	-10.3991
ix	-10.3993
▁Khang	-10.3993
▁khi▁đang	-10.3996
▁thực▁hiện▁tốt	-10.3999
▁Thủ▁tướng▁N	-10.4001
▁Việt▁Nam▁sẽ	-10.4002
▁Cup	-10.4002
▁điểm▁chuẩn	-10.4005
▁kêu	-10.4006
▁thầy▁cô	-10.4009
▁phi▁công	-10.4009
▁những▁sản▁phẩm	-10.4012
▁vũ▁khí▁hạt▁nhân	-10.4013
▁ác	-10.4018
▁gen	-10.4019
▁xử▁lý▁nghiêm	-10.4019
▁nông▁sản	-10.4023
sen	-10.4023
▁quyến▁rũ	-10.4023
▁được▁đặt	-10.4027
▁người▁xem	-10.4028
▁dân▁gian	-10.4031
▁đã▁công▁bố	-10.4033
▁Chương	-10.4039
▁các▁khoản	-10.404
▁đón▁nhận	-10.404
▁52	-10.4041
ino	-10.4042
63	-10.4044
▁hẹp	-10.4044
▁xe▁đạp	-10.4044
▁Nguyễn▁Minh	-10.4044
▁02	-10.4047
▁làm▁nên	-10.4049
▁Viettel	-10.4059
ist	-10.406
▁tinh▁tế	-10.4063
▁giờ▁đây	-10.4063
▁còn▁được	-10.4063
▁nữ▁diễn▁viên	-10.4067
▁sống▁trong	-10.4068
▁cua	-10.4069
▁bão▁số	-10.4069
/4,	-10.407
az	-10.4072
▁Đúng	-10.4075
▁rác▁thải	-10.4075
▁Đừng	-10.4075
▁Cung	-10.4076
ành	-10.4078
▁biển▁số	-10.4078
▁chất▁liệu	-10.4084
▁Cứ	-10.4087
▁tiền▁ảo	-10.4089
▁gây▁thiệt▁hại	-10.4089
AS	-10.4089
▁70%	-10.409
▁Air	-10.409
▁các▁em▁học▁sinh	-10.4091
▁các▁đối▁thủ	-10.4093
ơi	-10.4094
▁internet	-10.4095
OS	-10.4099
▁Bộ▁Giáo▁dục	-10.4099
▁khu▁công▁nghiệp	-10.4107
▁được▁một	-10.4108
▁iOS	-10.4108
▁còn▁là	-10.4115
56	-10.4118
▁James	-10.4123
▁con▁tàu	-10.4124
▁hữu▁cơ	-10.4126
▁điểm▁nhấn	-10.4127
▁thận	-10.4132
▁Bị▁cáo	-10.4134
▁Các▁chuyên▁gia	-10.4135
-0	-10.4137
▁trước▁ngày	-10.4138
▁sự▁xuất▁hiện	-10.4141
▁Sở▁Y▁tế	-10.4141
▁được▁biết	-10.4142
▁tựa	-10.4143
▁dấu▁ấn	-10.4143
▁mặn	-10.4145
▁người▁Mỹ	-10.4147
▁trạng▁thái	-10.4147
▁thị▁phần	-10.4147
33	-10.415
▁của▁khách▁hàng	-10.4151
▁gặp▁khó▁khăn	-10.4151
▁the	-10.4154
car	-10.4164
89	-10.4165
▁đột▁ngột	-10.4166
▁được▁tìm▁thấy	-10.4169
▁VNPT	-10.4172
ói	-10.4173
▁Phụ▁nữ	-10.4175
▁David	-10.4182
▁phân▁bón	-10.4182
▁dao	-10.4186
▁Vina	-10.4188
▁khôi▁phục	-10.4189
▁trọn	-10.419
hu	-10.4192
▁khí▁hậu	-10.4195
▁nhà▁cửa	-10.4197
ger	-10.4201
tỉnh	-10.4201
79	-10.4202
▁trước▁mắt	-10.4209
▁phần▁nào	-10.4209
▁thường▁trực	-10.4215
▁vắng	-10.4218
▁Đô	-10.4219
▁tham▁vọng	-10.422
▁đầu▁vào	-10.422
▁độc▁giả	-10.4222
.000.000	-10.423
▁lăng	-10.4232
▁chủ▁quyền	-10.4232
▁nhiều▁khả▁năng	-10.4232
▁Mỹ▁Donald▁Trump	-10.4233
▁cùng▁một	-10.4235
43	-10.4235
▁Ví▁dụ	-10.4236
▁Mặt▁khác	-10.4238
▁có▁đủ	-10.4239
▁nhôm	-10.424
▁Ban▁tổ▁chức	-10.4242
▁California	-10.4242
▁kè	-10.4244
▁nghỉ▁hưu	-10.4246
▁trong▁điều▁kiện	-10.4248
▁Cà▁Mau	-10.425
▁dân▁chủ	-10.4254
▁Mọi	-10.4254
▁Mùa	-10.4254
▁khí▁thải	-10.4255
mon	-10.4256
▁thể▁lực	-10.4256
▁diễn▁xuất	-10.4257
▁Euro	-10.4257
TN	-10.4259
▁và▁nhân▁dân	-10.4262
▁LG	-10.4263
▁2005	-10.4265
▁trái▁cây	-10.4265
▁địa▁hình	-10.4266
▁qua▁các	-10.4269
▁cộng	-10.427
▁chứng▁tỏ	-10.4273
▁căng	-10.4274
▁CA	-10.4276
▁Với▁những	-10.428
▁Điền	-10.4283
▁dẫn▁lời	-10.4284
ệt	-10.4284
▁hàng▁xóm	-10.4289
▁Xem	-10.4293
▁đồng▁tiền	-10.4296
▁Ad	-10.4296
▁người▁đã	-10.4296
▁nam▁giới	-10.43
▁chấp▁hành	-10.43
▁gương	-10.4301
▁Thủ	-10.4303
▁thảm▁họa	-10.4304
▁sự▁tham▁gia▁của	-10.4309
▁còn▁nhiều	-10.431
▁chào▁đón	-10.4313
▁Tiếng	-10.4315
tương▁đương	-10.4318
▁mà▁họ	-10.4318
▁thập▁niên	-10.4322
▁Kha	-10.4322
▁có▁hai	-10.4323
▁Chevrolet	-10.4324
▁46	-10.4328
▁khả▁thi	-10.4328
▁giám▁khảo	-10.433
▁vui▁chơi	-10.4331
▁cấp▁ủy	-10.4335
▁phân▁biệt	-10.4339
▁CP	-10.4341
▁Tân▁Sơn▁Nhất	-10.4341
▁Tín	-10.4343
▁một▁cái	-10.4345
▁chăm	-10.4346
▁tại▁thành▁phố	-10.4353
▁bảng▁xếp▁hạng	-10.4355
▁làm▁nhiệm▁vụ	-10.4355
▁nếu▁có	-10.4355
▁vẫn▁phải	-10.4363
▁Anh▁Tuấn	-10.4364
▁khởi▁công	-10.4367
ẩu	-10.4367
▁buôn	-10.4369
▁vẫn▁chưa▁được	-10.4375
▁khó▁chịu	-10.4376
▁đã▁có▁nhiều	-10.4377
▁kỳ▁lạ	-10.4378
xe	-10.438
▁cũng▁cho▁rằng	-10.4382
▁men	-10.4384
▁vương	-10.4385
▁mô▁tả	-10.4386
▁một▁nửa	-10.4386
▁trao▁tặng	-10.4387
▁đối▁diện	-10.4389
▁75	-10.4391
▁Chủ▁tịch▁HĐQT	-10.4392
▁Ge	-10.4396
▁cẩn▁thận	-10.4396
▁trôi	-10.4397
▁thân▁thiện	-10.4399
▁Điều▁đó	-10.4401
▁ở▁TP	-10.4401
▁bưởi	-10.4402
▁bỏ▁qua	-10.4403
▁Mường	-10.4405
▁mới▁cho	-10.4408
▁49	-10.4411
▁đắt	-10.4415
▁xuống▁còn	-10.4422
po	-10.4423
ự	-10.4424
▁vực	-10.4426
shi	-10.4432
▁lại▁có	-10.4432
▁mua▁lại	-10.4434
▁Hôm	-10.4434
▁về▁vấn▁đề▁này	-10.4434
▁lọt▁vào	-10.4436
▁gác	-10.4439
▁ủy	-10.4439
▁Bảo▁tàng	-10.4441
▁năng▁động	-10.4446
▁tính▁mạng	-10.445
▁đã▁diễn▁ra	-10.4451
ửa	-10.4455
▁cảnh▁quan	-10.4457
▁biến▁mất	-10.4458
óng	-10.4458
▁facebook	-10.4459
▁bổ	-10.4459
ạch	-10.446
BS	-10.446
sk	-10.4461
TM	-10.4462
▁mâm	-10.4464
ok	-10.4465
▁Paul	-10.4467
▁thăm▁dò	-10.4468
▁kết▁hôn	-10.447
▁nhãn	-10.4475
▁bắt▁đầu▁từ	-10.4477
HS	-10.4478
▁các▁đại▁biểu	-10.4478
▁cho▁ông	-10.4481
52	-10.4486
▁Việt▁Nam▁tại	-10.4489
VT	-10.4489
▁1,2	-10.4489
▁cán	-10.449
ag	-10.4493
▁tiếp▁xúc▁với	-10.4496
77	-10.4496
▁đẹp▁nhất	-10.4505
▁hoàn▁toàn▁mới	-10.4505
▁Dòng	-10.4506
▁Vin	-10.451
▁Không▁có	-10.451
▁có▁xu▁hướng	-10.4511
▁phụ▁kiện	-10.4512
▁ngay▁trong	-10.4512
▁những▁chiếc▁xe	-10.4513
ide	-10.4514
▁tỉ▁USD	-10.4518
▁Can	-10.452
▁Trường▁Giang	-10.4521
trên▁mạng▁xã▁hội	-10.4522
▁trong▁năm▁nay	-10.4523
▁múa	-10.4529
▁họa▁sĩ	-10.4529
▁mảnh▁đất	-10.4531
▁ra▁sân	-10.4536
▁ảnh▁hưởng▁tới	-10.4538
-2017,	-10.4539
▁cảm▁nhận	-10.4541
▁phản▁hồi	-10.4543
▁đến▁khi	-10.4546
▁thí▁nghiệm	-10.4549
▁Đại▁biểu	-10.455
▁của▁cả	-10.4551
▁châu▁Phi	-10.4556
▁nguồn▁nhân▁lực	-10.456
▁đau▁đớn	-10.4563
▁tự▁chủ	-10.4565
▁nắm▁bắt	-10.4565
ước	-10.4567
▁phải▁trả	-10.4567
▁như▁thế▁này	-10.4568
▁tàu▁sân▁bay	-10.4572
▁phục▁vụ▁cho	-10.4572
▁lại▁được	-10.4573
▁tuyệt	-10.4578
▁giải▁phóng▁mặt	-10.458
▁An▁ninh	-10.458
▁tàu▁cá	-10.4582
oc	-10.4582
▁Lục	-10.4583
▁nhưng▁chưa	-10.4584
▁Tri	-10.4584
▁đôi▁khi	-10.4584
▁giải▁U	-10.4585
▁mẫu▁xe▁này	-10.4588
▁No	-10.459
▁Tờ	-10.459
▁Bar	-10.4591
▁vài▁ngày	-10.4591
▁lật	-10.4592
▁Nguyễn▁Đức	-10.4594
▁Cương	-10.4603
▁có▁một▁số	-10.4606
▁Clip	-10.461
▁cá▁thể	-10.4612
▁vẫn▁được	-10.4614
▁Ki	-10.4615
▁thuốc▁lá	-10.4616
▁đánh▁dấu	-10.4617
69	-10.4619
▁Tập	-10.462
▁trò▁chuyện	-10.4621
qu	-10.4623
▁cuộc▁đua	-10.4624
▁bộ▁máy	-10.4626
▁tiệm	-10.4629
▁trộn	-10.4631
▁Bộ▁Giao▁thông	-10.4634
▁65	-10.4635
▁trên▁cả▁nước	-10.4642
▁FPT	-10.4643
ore	-10.4645
▁chiếm▁đoạt	-10.4645
▁Thực	-10.4646
▁để▁giúp	-10.4646
pp	-10.4647
▁chuối	-10.4647
▁Cục▁trưởng	-10.4649
▁có▁hơn	-10.4655
▁nghiêm	-10.4657
ổi	-10.4658
▁mạ	-10.4659
▁Nokia	-10.4661
wa	-10.4666
▁cuộc▁gặp	-10.4671
▁phiên▁tòa	-10.4671
iềm	-10.4673
▁vướng	-10.4681
▁Quá▁trình	-10.4682
iển	-10.4683
iên	-10.4686
▁diễn▁ra▁tại	-10.4686
▁Tòa▁án	-10.4686
▁thi▁hành	-10.4686
▁mang▁về	-10.4687
ian	-10.4687
▁dừa	-10.4688
▁Đảng▁bộ	-10.4689
ker	-10.4689
▁trên▁sân▁khấu	-10.469
▁Giải▁thưởng	-10.469
▁Loại	-10.4691
▁gắn▁liền▁với	-10.4693
▁Sáu	-10.4695
▁phỏng▁vấn	-10.4699
▁Afghanistan	-10.4699
▁tổng▁mức▁đầu▁tư	-10.4699
▁gọi▁điện	-10.47
▁dân▁sự	-10.4701
▁Xanh	-10.4704
▁bại	-10.4705
▁Cam	-10.4705
úc	-10.4708
▁ở▁thành▁phố	-10.4708
▁cm	-10.471
▁lát	-10.4711
▁mưa▁lũ	-10.4711
▁Sam	-10.4712
▁1.5	-10.4712
▁Mon	-10.4713
27	-10.4714
▁Môn	-10.4714
▁xây▁dựng▁và	-10.4714
▁tỉnh▁Thanh▁Hóa	-10.4717
▁để▁đưa	-10.4718
▁Po	-10.4719
▁Oanh	-10.4719
▁Dưới▁đây▁là	-10.472
▁VTV	-10.4722
ip	-10.4727
▁ném	-10.4731
▁tăng▁tốc	-10.4732
▁lão	-10.4734
▁điều▁gì	-10.4734
▁với▁mức▁giá	-10.4736
▁giọng	-10.4738
▁với▁tốc▁độ	-10.4738
▁một▁công▁ty	-10.4741
▁đánh▁bắt	-10.4742
▁mặt▁đất	-10.4746
▁từ▁bỏ	-10.4746
▁để▁mua	-10.4746
SC	-10.4747
▁mạnh▁nhất	-10.4748
▁Sun	-10.4748
▁ngọn	-10.475
▁hội▁nhập	-10.4751
▁thực▁trạng	-10.4753
▁Đại▁sứ▁quán	-10.4755
▁hãng▁hàng▁không	-10.4755
▁ví▁dụ	-10.4757
▁hầu▁như	-10.4757
▁binh▁sĩ	-10.4758
▁dạ▁dày	-10.476
▁cô▁bé	-10.476
tin	-10.476
▁giá▁cả	-10.4763
▁Đồng▁chí	-10.4764
ôm	-10.4764
▁không▁khỏi	-10.4766
▁đường▁phố	-10.477
▁này▁đang	-10.4771
▁nhắc▁đến	-10.4772
▁Tứ	-10.4776
▁Phú▁Yên	-10.4783
▁Dịch▁vụ	-10.4784
▁quý▁hiếm	-10.4787
▁hư	-10.4788
ính	-10.4789
▁cung▁cấp▁cho	-10.479
▁để▁xử▁lý	-10.4792
▁phủ▁nhận	-10.4794
▁Chuyên▁gia	-10.4799
▁Star	-10.4801
▁chỉ▁định	-10.4801
▁Ronaldo	-10.4805
▁hơn▁là	-10.4807
ga	-10.4812
▁lăn	-10.4813
▁luyện	-10.4813
▁Siêu	-10.4814
▁đến▁tận	-10.4815
▁một▁loạt	-10.4819
▁bình▁chọn	-10.482
ẹ	-10.482
▁giờ▁ngày	-10.4822
▁SLNA	-10.4823
▁Quy▁hoạch	-10.4824
▁má	-10.4824
▁ở▁một	-10.4827
▁vào▁thời▁điểm	-10.4829
▁Ô	-10.483
▁Bảng	-10.4832
▁váy	-10.4833
▁Các▁nhà	-10.4833
▁gây▁ô▁nhiễm	-10.4835
▁Ban▁Quản▁lý	-10.4836
▁Lễ▁hội	-10.4837
▁80%	-10.4837
▁suy	-10.4837
▁ngưỡng	-10.4838
▁chưa▁đủ	-10.4838
ội	-10.4843
▁CN	-10.4845
▁đối▁phó	-10.4846
▁Quyền	-10.4851
ten	-10.4852
▁trả▁tiền	-10.4852
▁xe▁tăng	-10.4853
▁bé▁gái	-10.4854
▁người▁bạn	-10.4858
▁người▁mẹ	-10.486
▁hà	-10.4863
▁Giáng▁sinh	-10.4864
▁cắn	-10.4864
chi	-10.4864
▁biết▁đến	-10.4865
/2015	-10.4867
▁làm▁chủ	-10.4872
▁Lăng	-10.4872
▁của▁học▁sinh	-10.4872
▁hộp▁số	-10.4873
▁cố▁định	-10.4884
▁dữ▁dội	-10.4889
▁Công▁trình	-10.4891
▁hải▁quân	-10.4897
/2010	-10.4898
▁Giao▁thông	-10.49
▁hơn▁cả	-10.4901
Anh	-10.4901
▁Ban▁Thường▁vụ	-10.4901
▁núi▁lửa	-10.4903
▁90%	-10.4906
ọ	-10.491
▁phù	-10.4912
▁đã▁ban▁hành	-10.4912
den	-10.4916
▁xác▁định▁được	-10.4916
▁cuộc▁điều▁tra	-10.4925
▁tương▁tác	-10.4928
▁quy▁định▁tại	-10.4933
▁là▁các	-10.4935
▁Thiết▁kế	-10.4941
▁quy▁mô▁lớn	-10.4942
Champions▁League	-10.4943
▁đứa▁trẻ	-10.4952
▁môi	-10.4954
MP	-10.4958
▁tại▁Trung▁Quốc	-10.4958
▁tục	-10.4959
▁thơm	-10.496
▁đến▁thời▁điểm	-10.4963
▁Or	-10.4964
▁bùng▁nổ	-10.4966
▁các▁ngân▁hàng	-10.4977
ét	-10.4977
▁đoạn▁đường	-10.4982
▁ẩm▁thực	-10.4983
▁44	-10.4983
▁Làng	-10.4986
94	-10.4986
▁thế▁nhưng	-10.4988
▁anh▁đã	-10.4995
▁Nếu▁như	-10.4997
▁có▁hiệu▁lực	-10.5002
▁triệu▁bảng	-10.5002
▁thuận▁tiện	-10.5002
▁bước▁đầu	-10.5003
LĐ	-10.5004
▁theo▁học	-10.5004
▁màng	-10.5005
▁thậm▁chí▁là	-10.5005
ig	-10.5008
▁có▁hành▁vi	-10.5011
▁năm▁tới	-10.5014
SD	-10.5014
▁thứ▁nhất	-10.5017
▁nghỉ▁ngơi	-10.5018
▁liên▁minh	-10.5018
▁người▁lái	-10.5021
àng	-10.5027
▁bản▁quyền	-10.5038
▁Sơn▁La	-10.504
▁Mình	-10.5043
age	-10.5046
▁sẽ▁khiến	-10.5048
▁Bàn	-10.5052
▁cổ▁động▁viên	-10.5052
▁công▁đoàn	-10.5054
▁lấn▁chiếm	-10.5056
▁Khương	-10.5058
▁hóa▁đơn	-10.506
▁lẻ	-10.5061
▁tranh▁cử	-10.5061
▁miền▁núi	-10.5061
▁Premier▁League	-10.5061
▁người▁nhà	-10.5061
▁KT	-10.5064
▁Mỹ▁Đình	-10.507
▁rất▁khó▁khăn	-10.507
ata	-10.5072
▁Thấy	-10.5072
▁phải▁được	-10.5078
▁đùa	-10.5078
▁nhận▁diện	-10.5079
▁Đảng▁ủy	-10.5079
▁tiếp▁xúc	-10.5081
▁Lamborghini	-10.5082
▁giấc▁mơ	-10.5083
su	-10.5083
92	-10.5083
▁tác▁dụng	-10.5085
▁tỷ▁phú	-10.5085
ye	-10.5087
▁Min	-10.5088
▁xoay	-10.5088
▁tưới	-10.5089
▁phơi	-10.5091
▁tại▁Trung▁tâm	-10.5093
ber	-10.5094
▁cho▁tới	-10.5096
▁Phú▁Quốc	-10.5097
▁đại▁diện▁cho	-10.5101
▁cho▁tôi	-10.5102
▁giày	-10.5102
▁của▁từng	-10.5103
ưu	-10.5106
▁thất	-10.5106
/12/2017	-10.5109
▁giúp▁cho	-10.5109
▁kiểm▁điểm	-10.511
▁Sc	-10.5113
▁nói▁thêm	-10.5114
▁với▁số▁tiền	-10.5115
VOV	-10.5118
▁Mourinho	-10.5118
▁2030	-10.512
iết	-10.512
▁gấu	-10.5121
▁đồng▁loạt	-10.5122
▁đã▁ký	-10.5124
▁NSND	-10.5125
▁có▁diện▁tích	-10.5126
▁giữ▁nguyên	-10.5127
▁Động▁cơ	-10.5127
▁rơi▁xuống	-10.5127
▁hải	-10.5128
▁show	-10.5136
▁tạo▁thành	-10.5138
▁hải▁sản	-10.5138
cho	-10.5139
▁của▁Quốc▁hội	-10.514
▁thu▁hồi▁đất	-10.514
▁thân▁thiết	-10.5142
▁màu▁trắng	-10.5143
▁được▁gọi▁là	-10.5143
▁tôn▁vinh	-10.5146
▁ở▁vị▁trí	-10.5147
▁mỹ	-10.5147
▁truy	-10.515
▁năng	-10.5151
▁bọn	-10.5153
▁được▁thành▁lập	-10.5159
▁sốc	-10.5159
▁tình▁báo	-10.5161
▁tộc	-10.5168
▁ngày▁hôm▁nay	-10.5174
ance	-10.5174
▁(3	-10.5176
▁Giờ	-10.5182
có	-10.5182
▁Khanh	-10.5183
▁chỉ▁có▁thể	-10.5184
▁kiên▁quyết	-10.5186
▁1-2	-10.5187
▁quái	-10.5189
▁này▁đã▁được	-10.5198
▁Galaxy▁Note	-10.5201
▁Nghe	-10.5204
▁góp▁mặt	-10.5207
▁hô	-10.5208
▁vào▁lớp	-10.5212
▁các▁khu▁vực	-10.5214
▁Motor	-10.5214
▁phòng▁không	-10.5214
▁Thể▁thao	-10.5215
▁Nhung	-10.5217
▁nhất▁trí	-10.5218
▁vitamin	-10.5223
▁Sơn▁Trà	-10.5224
▁bất▁cập	-10.5228
▁xã▁hội▁hóa	-10.523
▁huấn▁luyện▁viên	-10.5232
▁tranh▁thủ	-10.5232
▁từ▁chức	-10.5235
úng	-10.5239
ear	-10.5242
▁Pakistan	-10.5243
▁nạp	-10.5245
▁Theo▁thống▁kê	-10.5246
▁thờ	-10.5246
▁NATO	-10.5248
▁cũng▁cần	-10.5248
▁chi▁tiêu	-10.5257
▁vững▁chắc	-10.5259
▁võ	-10.5262
▁cửa▁sổ	-10.5263
▁hỏa	-10.5267
▁bộ▁đội	-10.5268
▁tiện	-10.5272
NN	-10.5274
▁mệnh	-10.5274
▁lại▁là	-10.5275
Trung▁Quốc	-10.528
▁của▁nhóm	-10.5282
▁nghiện	-10.5282
▁lừa▁đảo	-10.5282
▁bài▁toán	-10.5288
▁giới▁trẻ	-10.5288
▁thể▁hiện▁sự	-10.5293
▁say	-10.5293
▁các▁tuyến▁đường	-10.5294
▁vốn▁điều▁lệ	-10.5294
▁lân▁cận	-10.5297
▁bề▁mặt	-10.5299
▁giá▁thành	-10.5299
▁biết▁rằng	-10.5302
▁kể▁từ▁ngày	-10.5303
▁sai▁sót	-10.5306
▁khuyết▁tật	-10.5306
▁thuật	-10.5306
▁4.000	-10.5308
▁đẩy▁nhanh	-10.531
▁Xã▁hội	-10.5311
ren	-10.5311
▁ngộ▁độc	-10.5312
▁tuyên	-10.5312
▁người▁tham▁gia	-10.5317
▁Tokyo	-10.5321
▁của▁chính▁quyền	-10.5322
▁Thân	-10.5322
hi	-10.5327
▁điểm▁đến	-10.5329
▁được▁nhận	-10.5329
▁lạm▁dụng	-10.5333
▁và▁sử▁dụng	-10.5343
▁sẽ▁diễn▁ra	-10.5345
▁loạn	-10.5345
▁Công▁viên	-10.5346
▁mèo	-10.5346
ft	-10.5346
▁chưa▁từng	-10.5348
▁môtô	-10.5353
▁lan▁tỏa	-10.5355
▁bẩn	-10.5362
▁nghỉ▁dưỡng	-10.5362
ậu	-10.5362
▁các▁nhóm	-10.5363
▁oan	-10.5363
▁Pe	-10.5365
ớt	-10.5368
▁Zing	-10.5369
▁trúng▁tuyển	-10.537
▁47	-10.5372
▁tăng▁mạnh	-10.5373
▁với▁tổng	-10.5378
ze	-10.5381
▁chỗ▁ngồi	-10.5381
5%	-10.5381
▁Phim	-10.5384
▁Á▁hậu	-10.5385
▁đám	-10.5393
▁cơ▁sở▁giáo▁dục	-10.5397
Vietnam	-10.5401
▁huy▁chương	-10.5401
▁so	-10.5402
▁09	-10.5403
▁cưỡng▁chế	-10.5405
▁các▁trường▁hợp	-10.5405
▁đường▁cao▁tốc	-10.5405
▁về▁công▁tác	-10.5406
▁đành	-10.5407
▁Chủ▁nhiệm	-10.5408
▁dọn	-10.5408
ice	-10.5409
▁về▁quê	-10.5411
▁nhập▁viện	-10.5411
▁Ngành	-10.5413
66	-10.5417
▁khống▁chế	-10.5419
▁hôn▁nhân	-10.5419
▁kiểm▁định	-10.5419
▁AT	-10.5422
▁giữ▁gìn	-10.5423
▁bỏ▁phiếu	-10.5425
cơ▁quan▁điều▁tra	-10.5427
▁Trong▁thời▁gian	-10.5429
▁Bí▁thư▁Tỉnh▁ủy	-10.5429
▁xúc	-10.5429
▁phân▁loại	-10.5433
▁Thời▁điểm	-10.5439
▁thoát▁nước	-10.544
▁nhân▁lực	-10.544
▁giàu▁có	-10.544
▁NLĐ	-10.544
▁Huyện	-10.5442
▁67	-10.5442
ele	-10.5443
▁sự▁ủng▁hộ	-10.5445
▁lắng▁nghe	-10.5446
▁đỉnh▁cao	-10.5446
▁Ru	-10.5447
▁trong▁đêm	-10.5447
▁Mỹ▁đã	-10.545
▁Khi▁đó	-10.5451
▁giám▁định	-10.5455
▁triệt▁để	-10.5456
phường	-10.5463
▁tỉnh▁Quảng▁Nam	-10.5466
▁với▁mức	-10.5467
▁tạo▁ra▁một	-10.5469
▁tác▁chiến	-10.5469
▁Cuba	-10.547
▁tháo▁dỡ	-10.547
▁Nguyễn▁Đình	-10.5474
▁khác▁là	-10.5474
▁van	-10.548
▁với▁người	-10.548
▁tại▁triển▁lãm	-10.548
▁cúp	-10.5481
▁thoát▁khỏi	-10.5483
▁cạn	-10.5486
▁Lại	-10.5492
▁trên▁sông	-10.5497
▁Mitsubishi	-10.5498
▁vẫn▁có	-10.5499
▁trân▁trọng	-10.5501
▁Hàm	-10.5503
▁tức▁là	-10.5504
▁CS	-10.5505
▁mất▁đi	-10.5505
▁Nam▁Định	-10.5506
▁phải▁đi	-10.5507
▁dịch▁bệnh	-10.5509
tu	-10.5516
▁Volkswagen	-10.552
ite	-10.5522
▁đáng▁tiếc	-10.5523
▁của▁nước▁này	-10.5524
▁rất▁dễ	-10.5525
▁mặt▁đường	-10.5526
▁chức▁danh	-10.5526
▁ánh	-10.5528
▁nằm▁trên	-10.553
▁ngoại▁ngữ	-10.5531
▁túi▁khí	-10.5535
ấc	-10.5537
▁40%	-10.5539
▁đến▁các	-10.554
42	-10.5542
TH	-10.5543
96	-10.5543
▁san	-10.5543
▁hệ▁sinh▁thái	-10.5544
▁Michael	-10.5545
▁từ▁đầu	-10.5545
▁tre	-10.5547
▁biểu▁hiện	-10.5549
▁tiêu▁hóa	-10.5549
▁đồng▁minh	-10.555
▁Italy	-10.5551
▁Câu▁chuyện	-10.5556
art	-10.5557
▁nhưng▁khi	-10.5557
▁nên▁không	-10.556
▁tỉnh▁Hà▁Tĩnh	-10.556
▁Lý▁do	-10.556
▁LHQ	-10.5561
▁mới▁nhất▁của	-10.5562
▁Hành	-10.5562
▁các▁gia▁đình	-10.5562
▁hào▁hứng	-10.5563
▁tím	-10.5563
▁truy▁cập	-10.5565
▁tứ	-10.5565
▁nhằm▁vào	-10.5565
▁EVN	-10.5566
▁hỗn▁hợp	-10.5566
▁Lần	-10.5573
▁ốc	-10.5575
▁ngành▁nghề	-10.5578
%)	-10.5579
▁Gần▁đây	-10.5581
.200	-10.5583
▁Kim▁Jong	-10.5583
▁lập▁biên▁bản	-10.5589
▁Khải	-10.559
▁của▁thị▁trường	-10.5593
▁nghĩ▁đến	-10.5593
▁Mu	-10.5595
▁ẩm	-10.5596
▁sau▁một	-10.5598
▁không▁thấy	-10.56
3/	-10.56
▁Za	-10.5601
▁nếp	-10.5602
▁Không▁quân	-10.5603
▁người▁lớn	-10.5603
▁trên▁đất	-10.5603
▁thương▁vụ	-10.5607
▁không▁chỉ▁là	-10.5608
▁thu▁tiền	-10.5609
▁thẩm▁quyền	-10.561
▁tương	-10.5613
▁trẻ▁trung	-10.5615
▁tái▁tạo	-10.5617
▁Viết	-10.5617
AD	-10.562
àn	-10.5623
▁cáp	-10.5623
▁Toàn▁bộ	-10.5627
▁Chính▁quyền	-10.5628
▁Trúc	-10.5632
▁tranh▁cãi	-10.5634
▁Núi	-10.5635
▁đang▁ở	-10.5635
▁liên▁hệ	-10.5636
▁này▁đều	-10.564
▁mong▁đợi	-10.5641
▁trong▁hoạt▁động	-10.5643
▁Tới	-10.5643
LV▁Park▁Hang▁Seo	-10.5644
ake	-10.5645
▁2003	-10.5646
▁63	-10.5647
yn	-10.5647
▁sứ	-10.5649
▁1990	-10.5651
▁phổi	-10.5651
▁khai▁nhận	-10.5654
min	-10.5657
▁Trả▁lời	-10.5659
▁Nếu▁bạn	-10.5661
▁xu	-10.5662
▁Liên▁Hợp▁Quốc	-10.5664
▁Nguyệt	-10.5669
▁tâm▁huyết	-10.567
line	-10.5672
HC	-10.5673
▁dung▁lượng	-10.5673
▁mua▁xe	-10.5674
▁trải	-10.5677
▁để▁tiếp▁tục	-10.5679
▁tiến▁trình	-10.5682
▁vào▁một	-10.5682
iện	-10.5687
▁CNN	-10.5691
▁Chẳng▁hạn	-10.5691
▁nghìn▁đồng	-10.5692
▁nhiệt▁tình	-10.5692
▁Chánh	-10.5693
▁Sản▁phẩm	-10.5693
▁vô▁tình	-10.5694
▁kê▁khai	-10.5697
▁1.0	-10.5698
▁nhì	-10.5698
▁vật▁lý	-10.57
▁giết▁người	-10.5704
▁mùa▁hè	-10.5712
▁ở▁Trung▁Quốc	-10.5713
98	-10.5714
▁các▁điều▁kiện	-10.5715
▁đến▁việc	-10.5719
▁ngờ	-10.5719
▁Quyết	-10.5721
▁môn▁học	-10.5722
▁Huệ	-10.5722
▁là▁việc	-10.5723
▁Học▁sinh	-10.5726
ps	-10.5728
▁buổi▁sáng	-10.5728
▁2004	-10.5737
▁ni	-10.5741
▁người▁bị	-10.5743
▁khuất	-10.5745
▁Nguồn▁ảnh	-10.5746
▁trồng▁cây	-10.5749
▁dài▁hạn	-10.5749
IA	-10.5757
▁nhầm	-10.5758
▁từ▁một	-10.576
▁kiến▁tạo	-10.5761
▁(2	-10.5765
▁là▁vấn▁đề	-10.5765
õ	-10.5769
ec	-10.5771
▁2015.	-10.5773
▁phiến▁quân	-10.5775
ữ	-10.5778
▁đi▁đến	-10.5779
▁vẫn▁chưa▁có	-10.5779
▁hot	-10.5779
ble	-10.578
▁HD	-10.578
▁đích	-10.5782
▁trường▁ĐH	-10.5783
▁bè	-10.5783
▁Seoul	-10.5786
▁thế▁mạnh	-10.5786
▁Kiến	-10.5787
▁các▁bên	-10.5789
▁gửi▁đến	-10.5792
▁học▁sinh▁lớp	-10.5792
▁các▁điểm	-10.5793
▁mòn	-10.5795
▁chậu	-10.5795
▁ngâm	-10.5802
▁tự▁ý	-10.5805
▁Mục▁tiêu	-10.5805
▁cành	-10.5809
res	-10.581
▁Chủ▁tịch▁Hội	-10.581
▁Nội▁dung	-10.5812
▁vòng▁loại	-10.5812
/2009	-10.5816
▁chôn	-10.5821
▁vụ▁nổ	-10.5821
▁chuyển▁biến	-10.5822
▁Hu	-10.5822
ud	-10.5822
▁bác▁sỹ	-10.5824
▁tờ▁báo	-10.5825
▁nạo▁vét	-10.5826
▁hoàn▁chỉnh	-10.5829
▁anh▁chàng	-10.583
▁viền	-10.5831
▁Dự	-10.5832
▁vệ	-10.5832
▁đựng	-10.5832
▁Liên▁hợp▁quốc	-10.5833
▁trường▁mầm▁non	-10.5833
▁tạ	-10.5837
▁Ban▁quản▁lý	-10.5838
▁cài▁đặt	-10.5841
64	-10.5842
▁trinh▁sát	-10.5858
▁bắt▁được	-10.5859
▁Fa	-10.586
▁nhiệm	-10.5862
▁khách▁mời	-10.5864
▁tay▁vợt	-10.5865
▁ở▁Syria	-10.5867
▁AI	-10.5867
▁Chợ	-10.5867
▁vạn	-10.5868
▁còi	-10.5872
▁Thứ	-10.5875
▁hàm▁lượng	-10.5878
GD	-10.588
▁mà▁ông	-10.5882
▁của▁con	-10.5882
62	-10.5882
▁liều	-10.5882
▁bản▁lĩnh	-10.5885
▁Thụy▁Điển	-10.5886
▁Vừa	-10.5887
▁72	-10.5887
▁Thí▁sinh	-10.5887
▁Y▁tế	-10.5888
▁tha	-10.5889
thuộc	-10.5901
▁đồng▁hành	-10.5902
▁Bắc▁Ninh	-10.5903
▁tư▁liệu	-10.5908
▁bà▁mẹ	-10.5909
▁Bây▁giờ	-10.591
▁theo▁ông	-10.5911
▁Trong▁năm	-10.5913
▁vá	-10.5914
▁sự▁khác▁biệt	-10.5916
▁Messi	-10.5917
▁ngôi▁mộ	-10.5918
▁trên▁thực▁tế	-10.5918
▁kế▁toán	-10.5919
▁hài▁hước	-10.5921
▁sư▁phạm	-10.5924
▁về▁nước	-10.5924
▁Bản▁thân	-10.5924
▁tiếp▁thu	-10.5928
▁tạm▁dừng	-10.5931
▁Han	-10.5934
▁chủ▁nghĩa	-10.5937
ích	-10.5939
▁thầy▁giáo	-10.594
▁lưu▁giữ	-10.5943
▁May	-10.5944
▁Van	-10.5944
▁trở	-10.5947
▁đồng▁tình	-10.5948
▁chúng▁tôi▁sẽ	-10.5949
một	-10.5952
▁thì▁việc	-10.5956
ếp	-10.5956
▁và▁ngoài▁nước	-10.5959
▁Ju	-10.5961
-15	-10.5962
▁Buổi	-10.5963
▁đặt▁câu▁hỏi	-10.5967
▁nếu▁như	-10.5967
▁cố▁vấn	-10.5968
▁có▁kích▁thước	-10.5968
ống	-10.5969
▁30.000	-10.5971
▁những▁kết▁quả	-10.5971
▁khắc▁nghiệt	-10.5972
▁những▁kẻ	-10.5974
▁đình▁chỉ	-10.5974
▁suy▁giảm	-10.5976
▁đưa▁vào▁sử▁dụng	-10.5977
▁Hôm▁nay	-10.598
▁Nguyễn▁Thanh	-10.5981
▁chục	-10.5982
▁ứng▁xử	-10.5983
▁hiệu▁ứng	-10.5988
▁đúc	-10.5988
▁Trường▁Sa	-10.5992
▁vinh▁dự	-10.5993
▁Thị▁trường	-10.5994
▁Động	-10.5995
▁người▁Kurd	-10.5999
▁nhiệt▁đới	-10.6
▁thuyết	-10.6
▁linh▁kiện	-10.6002
tra	-10.6003
▁thấm	-10.6007
▁độ▁phân▁giải	-10.6008
▁dãy	-10.6009
▁Tạ	-10.6009
tan	-10.6011
▁Bảy	-10.6015
▁đoàn▁công▁tác	-10.6017
▁Sen	-10.6018
▁Per	-10.6021
▁cản	-10.6021
.700	-10.6021
▁nên▁đã	-10.6022
▁cung▁ứng	-10.6023
▁của▁địa▁phương	-10.6024
▁đáp▁ứng▁yêu▁cầu	-10.6024
72	-10.6025
ill	-10.6026
▁Ngay▁cả	-10.6027
▁công▁ty▁này	-10.6028
▁an▁ninh▁trật▁tự	-10.6032
▁danh▁tiếng	-10.6033
.1,	-10.6034
▁LED	-10.6034
ium	-10.6035
▁người▁nghèo	-10.6036
iếm	-10.6036
▁bảy	-10.6037
Trịnh▁Xuân▁Thanh	-10.6041
▁bảo▁tàng	-10.6043
▁bạn▁trai	-10.6044
▁của▁dân▁tộc	-10.6045
▁cuộc▁cách▁mạng	-10.6047
▁tỏa▁sáng	-10.6048
▁khai▁thác▁cát	-10.6048
▁Tình▁trạng	-10.6048
▁chất▁thải	-10.605
-23	-10.605
▁GTVT	-10.6051
▁lối▁chơi	-10.6052
▁Har	-10.6054
▁đều▁phải	-10.6054
▁Ninh▁Bình	-10.6054
▁đại▁dương	-10.6054
▁tang	-10.6055
▁để▁được	-10.6055
▁bệnh▁tật	-10.6056
▁rò▁rỉ	-10.6059
▁chủng	-10.606
ash	-10.6066
▁biết▁được	-10.6071
▁chăn	-10.6072
▁dây▁chuyền	-10.6073
:▁-	-10.6077
▁mãn	-10.6077
▁ngay▁tại	-10.608
▁lặng	-10.6081
sco	-10.6082
▁bảo▁dưỡng	-10.6083
len	-10.6084
▁dụng▁cụ	-10.6086
TO	-10.6087
ưng	-10.6088
▁thụ	-10.6089
▁đang▁diễn▁ra	-10.609
▁no	-10.6092
▁dị	-10.6093
ane	-10.6093
▁thăm▁hỏi	-10.6095
▁và▁có▁thể	-10.6103
br	-10.6103
86	-10.6104
▁Tất▁nhiên	-10.6106
▁của▁nhà	-10.6113
che	-10.6113
▁cánh▁đồng	-10.6113
/100	-10.6118
▁UBND▁TP▁Hà▁Nội	-10.6119
▁Trận	-10.612
▁kích▁hoạt	-10.612
▁phòng▁ngừa	-10.6121
▁Cấp	-10.6121
▁Tổng▁thống▁Nga	-10.6121
▁tương▁tự▁như	-10.6122
▁Hoạt▁động	-10.6124
▁PH	-10.6125
▁nhiều▁nước	-10.6126
▁sinh▁con	-10.6126
▁Nga▁và	-10.6128
▁thành▁công▁của	-10.6129
▁đã▁triển▁khai	-10.613
▁dự▁án▁đầu▁tư	-10.6131
▁Nông▁nghiệp	-10.6131
áy	-10.6134
▁lý▁thuyết	-10.6136
▁Nguyễn▁Thành	-10.6136
▁số▁phận	-10.6136
▁Tạo	-10.6139
▁thận▁trọng	-10.6139
▁Lộ	-10.614
▁kiểm▁toán	-10.6142
QG	-10.6142
▁hoa▁hậu	-10.6144
▁nén	-10.6144
▁Dược	-10.6144
▁vừa▁có	-10.6146
▁ngũ	-10.6147
▁nụ▁cười	-10.615
▁xá	-10.6152
▁chức▁vô▁địch	-10.6153
▁hành▁vi▁vi▁phạm	-10.6153
▁thu▁gom	-10.6154
▁nữ▁ca▁sĩ	-10.6157
▁khu▁phố	-10.6157
▁làm▁chủ▁đầu▁tư	-10.6161
▁NV	-10.6166
▁kinh▁hoàng	-10.6166
▁công▁lập	-10.6168
ờ	-10.6169
uk	-10.6172
▁hòn▁đảo	-10.6173
61	-10.6173
▁trả▁nợ	-10.6174
▁được▁bán	-10.6174
▁cân▁đối	-10.6177
▁làm▁đẹp	-10.6181
▁Lexus	-10.6186
▁các▁thí▁sinh	-10.6186
▁lừa	-10.6186
▁đăng▁quang	-10.6189
▁theo▁kiểu	-10.6191
▁NHNN	-10.6191
ảo	-10.6192
▁là▁những▁người	-10.6197
▁1.2	-10.62
▁trợ▁lý	-10.6203
▁Thụy	-10.6203
▁giải▁cứu	-10.6204
▁Khắc	-10.6206
BC	-10.621
ess	-10.6213
▁Sẽ	-10.6213
▁chứng▁cứ	-10.6216
▁về▁chất▁lượng	-10.6218
ằm	-10.6218
▁mã▁độc	-10.6225
▁2013,	-10.6225
▁quần▁đảo	-10.6226
▁vật▁thể	-10.623
▁3,5	-10.623
▁chủ▁quan	-10.6231
▁nhiều▁loại	-10.6233
▁đối▁ngoại	-10.6233
▁quá▁lớn	-10.6236
▁để▁điều▁tra	-10.6236
▁quyền▁sử▁dụng	-10.6236
▁Miss	-10.6239
▁xuất▁xứ	-10.6239
▁luôn▁là	-10.6239
iều	-10.624
▁Trên▁thực▁tế	-10.624
▁điều▁động	-10.6244
▁Mẫu▁xe	-10.6245
▁một▁chiếc▁xe	-10.6246
▁đình▁đám	-10.6254
▁đất▁liền	-10.6254
▁1.500	-10.6255
▁có▁ý▁định	-10.6257
▁áo▁dài	-10.6258
▁sự▁sống	-10.6258
▁cồn	-10.626
76	-10.6261
▁đi▁theo	-10.6264
▁phe	-10.6266
▁chanh	-10.6271
▁có▁thể▁thấy	-10.6272
gan	-10.6273
▁làm▁tăng	-10.6274
▁câu▁lạc▁bộ	-10.6277
▁Bệnh	-10.628
▁khỉ	-10.628
▁của▁việc	-10.6281
▁hệ▁điều▁hành	-10.6285
▁ổn	-10.6288
▁Fu	-10.6289
▁trung▁vệ	-10.6289
▁luật▁pháp	-10.629
▁Muốn	-10.6298
▁Bắt	-10.6298
▁We	-10.6301
▁bồi	-10.6302
▁đẹp▁mắt	-10.6302
▁50.000	-10.6304
▁mưa▁lớn	-10.6305
▁phá▁vỡ	-10.6306
▁dại	-10.6306
▁công▁sức	-10.6307
▁quay▁trở▁lại	-10.6308
▁Biển▁Đông	-10.6308
▁Bắc▁Giang	-10.6308
▁cấy	-10.6309
▁không▁tốt	-10.6311
▁hiệu▁suất	-10.6312
▁Vy	-10.6313
▁Người▁ta	-10.6315
▁cá▁mập	-10.6317
AT	-10.6318
▁tối▁ưu	-10.6319
▁giữ▁được	-10.6323
▁RAM	-10.6324
▁mới▁mẻ	-10.6327
ity	-10.6328
▁nghi▁vấn	-10.6328
CI	-10.633
▁Bình▁Thuận	-10.633
▁canh▁tác	-10.6332
▁tôi▁không	-10.6333
▁hết▁mình	-10.6334
▁giếng	-10.6335
▁mía	-10.6335
▁Gia▁Lai	-10.6341
▁Phó▁giám▁đốc	-10.6342
▁tới▁nay	-10.6345
▁xảy▁ra▁tại	-10.6346
▁LĐLĐ	-10.6346
▁nướng	-10.635
CV	-10.635
▁Mer	-10.6355
▁thành▁một	-10.6357
▁tương▁ứng	-10.6358
▁góp▁ý	-10.636
▁ATGT	-10.6363
▁54	-10.6366
▁mức▁lương	-10.6369
▁làn▁da	-10.6371
ằn	-10.6372
▁Dan	-10.6375
▁chiều▁nay	-10.6376
▁các▁quan▁chức	-10.638
▁móng	-10.6387
▁định▁kỳ	-10.639
▁sợ▁hãi	-10.639
▁Chú	-10.6392
▁nuôi▁dưỡng	-10.6398
▁thời▁gian▁ngắn	-10.64
out	-10.6402
NA	-10.6402
ment	-10.6404
▁được▁áp▁dụng	-10.6405
▁đế	-10.6408
▁Thường	-10.6408
▁Khoản	-10.6408
▁đất▁nông▁nghiệp	-10.6409
▁lặn	-10.641
KH	-10.641
▁các▁huyện	-10.6412
▁BKS	-10.6416
▁đến▁gần	-10.6417
▁các▁chính▁sách	-10.6418
▁vay▁vốn	-10.6418
▁thập▁kỷ	-10.6426
▁tổng▁diện▁tích	-10.6428
▁mì	-10.6429
▁đoạt▁giải	-10.6432
Đà▁Nẵng	-10.6439
▁đã▁nhiều▁lần	-10.6446
▁tỏ	-10.6447
kin	-10.6447
▁làm▁nghề	-10.6451
▁biên▁bản	-10.6456
▁Dù▁vậy	-10.6465
",▁"	-10.6467
▁cáo	-10.6468
▁thời▁đại	-10.6469
▁hơn▁khi	-10.6471
gr	-10.6471
rin	-10.6471
▁Đối▁tượng	-10.6474
▁Thần	-10.6475
▁Robert	-10.6479
▁khe	-10.6481
▁Hiệp▁định	-10.6483
▁khai▁trương	-10.6483
ạm	-10.6485
▁khó▁có▁thể	-10.6487
▁Biên	-10.6489
▁trong▁khi▁đó	-10.649
▁so▁với▁các	-10.649
▁hybrid	-10.6493
▁điều▁tiết	-10.6493
ạt	-10.6493
▁thánh	-10.6496
ES	-10.6496
▁Rất	-10.6498
▁làm▁mát	-10.6503
▁chỉnh▁sửa	-10.6504
▁cho▁những▁người	-10.6506
▁ở▁một▁số	-10.651
▁bán▁đảo	-10.651
▁nhánh	-10.6512
▁Sh	-10.6515
▁các▁đồng▁chí	-10.6515
▁mi	-10.6517
▁Tuổi	-10.6523
▁nồi	-10.6526
▁Kể	-10.6526
▁đã▁sử▁dụng	-10.6528
▁Vùng	-10.6529
▁trang▁cá▁nhân	-10.6529
▁Liệu	-10.6531
▁một▁thời	-10.6533
▁bạn▁nên	-10.6534
▁hóa▁học	-10.6534
▁sách▁giáo▁khoa	-10.6535
▁khen▁thưởng	-10.6535
▁Có▁thể▁nói	-10.6538
▁nhớ▁lại	-10.6538
▁hài▁hòa	-10.6539
▁Nếu▁không	-10.6543
▁SV	-10.6544
▁chiến▁binh	-10.6546
▁một▁tháng	-10.6549
▁YouTube	-10.6551
▁CTCP	-10.6551
▁giảng	-10.6556
▁Rất▁nhiều	-10.6556
▁song▁phương	-10.6557
▁tô	-10.6557
▁Bác▁Hồ	-10.6557
BA	-10.6558
▁ủy▁quyền	-10.6561
▁trăng	-10.6564
▁lấn	-10.6567
▁tưởng▁tượng	-10.657
▁Bra	-10.6574
▁sốt▁xuất▁huyết	-10.6574
▁bản▁chất	-10.6575
▁với▁mục▁đích	-10.6576
▁Sách	-10.6576
▁chủ▁nhiệm	-10.6579
▁cao▁đẳng	-10.6584
▁vươn	-10.6585
▁Tuần	-10.659
▁các▁mẫu▁xe	-10.659
▁hang	-10.6591
▁Diệu	-10.6593
▁chỉ▁sau	-10.6596
▁giọng▁hát	-10.6599
▁phê▁bình	-10.66
▁trong▁khuôn▁khổ	-10.66
▁gầm	-10.6601
▁dã	-10.6604
▁Tổ▁quốc	-10.6611
▁đang▁làm	-10.6613
▁được▁phê▁duyệt	-10.6614
▁bỏ▁ra	-10.6619
▁là▁phải	-10.6619
▁không▁để	-10.6621
▁Palestine	-10.6622
▁bến▁xe	-10.6624
▁gian▁lận	-10.6628
▁bể	-10.6629
▁GB	-10.663
▁tại▁địa▁phương	-10.663
▁Saudi▁Arabia	-10.6631
▁Tòa	-10.6634
▁thủ▁công	-10.6639
▁ngoại▁thất	-10.6639
▁nhà▁dân	-10.664
▁chém	-10.6642
▁thủy▁lợi	-10.6643
▁duyệt	-10.6648
▁trạng	-10.665
▁hàng▁hải	-10.6651
ắm	-10.6651
▁hiếu	-10.6651
▁xuất▁hiện▁trên	-10.6655
▁Nhận	-10.6659
▁đến▁thăm	-10.6661
▁dọa	-10.6663
▁ôn	-10.6664
▁vẫn▁có▁thể	-10.6666
▁giữ▁lại	-10.6668
▁của▁em	-10.6669
▁với▁hơn	-10.667
▁tạo▁được	-10.6671
ND	-10.6674
▁leo	-10.6677
▁người▁vợ	-10.6679
▁5%	-10.6679
▁nó▁sẽ	-10.6682
▁chỉ▁biết	-10.6687
▁ly▁hôn	-10.6689
▁tranh▁luận	-10.6691
▁quỹ▁đất	-10.6696
ặc	-10.6696
▁Vật▁lý	-10.67
▁New▁Zealand	-10.6703
▁của▁Nhật▁Bản	-10.6703
ull	-10.6704
▁hình▁phạt	-10.6705
▁Sóc▁Trăng	-10.6708
▁Italia	-10.6713
▁quan▁niệm	-10.6714
▁thì▁có	-10.6714
▁Hoa▁hậu▁Hoàn▁vũ	-10.6715
▁thì▁bị	-10.6717
▁Đạo	-10.6718
▁03	-10.6718
▁Hà▁Giang	-10.672
▁Kết▁thúc	-10.672
▁khi▁bị	-10.6722
▁tế	-10.6723
▁từ▁việc	-10.6724
▁người▁này	-10.6725
▁bị▁thiệt▁hại	-10.6725
▁gần▁nhất	-10.6727
▁Lời	-10.6728
▁nhiều▁năm▁qua	-10.6728
▁nhiên	-10.6729
▁thì▁cũng	-10.6729
▁BT	-10.6729
▁lãng▁mạn	-10.6733
▁thắng▁lợi	-10.6734
▁sức▁ép	-10.6734
éo	-10.6735
▁cổ▁điển	-10.6735
▁có▁thể▁giúp	-10.6738
▁dâng	-10.6739
▁khai▁quật	-10.674
▁bằng▁việc	-10.6742
▁Tạp▁chí	-10.6745
▁và▁Đầu▁tư	-10.6745
://	-10.6746
▁triệu▁tập	-10.6747
▁lọt	-10.6752
▁ngọt▁ngào	-10.6752
les	-10.6753
▁hắn	-10.6757
▁đèo	-10.676
▁chủ▁sở▁hữu	-10.6761
▁chính▁hãng	-10.6761
▁rất▁nhanh	-10.6763
▁Khối	-10.6766
▁nhãn▁hiệu	-10.6767
▁2-3	-10.6767
▁Trường▁THCS	-10.6769
▁bạo▁hành	-10.677
nes	-10.6771
▁nào▁khác	-10.6777
▁nghĩa▁trang	-10.6778
▁trầm	-10.6778
▁gánh	-10.6778
▁từng▁là	-10.6779
▁56	-10.6779
▁phải▁đối▁mặt	-10.678
▁Sở▁Tài▁nguyên	-10.678
▁quá▁khứ	-10.6781
fa	-10.6785
▁cái▁gì	-10.6785
▁phát▁ngôn	-10.6785
▁200.000	-10.6787
▁Duyên	-10.6791
ens	-10.6792
▁gieo	-10.6793
▁thống	-10.6794
▁Những▁ngày	-10.6797
▁gấp▁đôi	-10.6797
▁của▁lực▁lượng	-10.6798
aw	-10.6798
▁thuộc▁diện	-10.6798
ơn	-10.6799
▁dịp▁Tết	-10.6801
▁Thứ▁hai	-10.6802
▁gợi▁cảm	-10.6802
▁của▁Toyota	-10.6803
▁làn	-10.6807
▁táo	-10.6807
▁chỉ▁trong	-10.6808
▁nên▁việc	-10.6812
▁bày▁tỏ▁sự	-10.6813
▁pháp▁luật▁về	-10.6813
▁CB	-10.6813
▁Mà	-10.6815
wi	-10.6815
▁mới▁này	-10.6816
▁tôi▁thấy	-10.6817
▁rạp	-10.6818
▁mũ	-10.6822
▁liên▁doanh	-10.6825
▁chúc	-10.6827
▁các▁thông▁tin	-10.6828
▁chính▁mình	-10.683
▁trên▁toàn▁quốc	-10.6832
▁bước▁đi	-10.6834
.2017	-10.684
▁của▁bản▁thân	-10.6843
▁chê	-10.6843
▁Je	-10.6846
ịch	-10.6847
▁trường▁tiểu▁học	-10.6848
▁các▁hộ	-10.6849
▁Bộ▁Xây▁dựng	-10.6851
▁Bỉ	-10.6854
▁theo▁cách	-10.6856
ven	-10.6856
ome	-10.6857
▁kiếm▁tiền	-10.6862
▁một▁số▁người	-10.6866
▁của▁HLV	-10.6867
▁Mal	-10.6867
▁màu▁vàng	-10.6867
▁bị▁phạt	-10.687
ốn	-10.6876
▁KCN	-10.688
▁hoạt	-10.6881
▁PVN	-10.6882
▁cửa▁khẩu	-10.6883
▁các▁hệ▁thống	-10.6884
▁ong	-10.6885
que	-10.6885
▁Hưng▁Yên	-10.6886
▁đang▁phát▁triển	-10.6886
▁béo	-10.6889
▁nhân▁văn	-10.689
▁đồng▁nghĩa▁với	-10.6891
▁thêm▁nhiều	-10.6894
▁nứt	-10.6894
▁Vo	-10.6901
▁1968	-10.6903
▁một▁điều	-10.6905
▁xé	-10.6907
▁VCK▁U	-10.691
▁triều	-10.6913
▁Ke	-10.6914
▁cấp▁trên	-10.6914
▁tơ	-10.6917
▁Lượng	-10.6919
▁trận▁động▁đất	-10.692
▁tôn▁giáo	-10.6921
▁Cách▁đây	-10.6929
▁Hòn	-10.693
▁đứt	-10.6934
▁khuôn▁viên	-10.6939
PV	-10.6939
ừ	-10.6941
▁mà▁không▁cần	-10.6941
cuộc▁khủng▁hoảng	-10.6941
▁58	-10.6943
▁Điện▁Biên	-10.6946
▁đội▁trưởng	-10.6947
▁sinh▁sản	-10.6947
74	-10.6948
IN	-10.6948
▁tổ▁công▁tác	-10.6951
▁tuyển▁thủ	-10.6956
▁đặc▁sắc	-10.6956
▁đề▁cập	-10.6958
▁ở▁nhiều	-10.6959
▁đỗ▁xe	-10.696
.600	-10.6966
▁bẫy	-10.6969
▁đệm	-10.697
▁ở▁thôn	-10.6972
▁Tôi▁nghĩ	-10.6973
▁cuộc▁tập▁trận	-10.6976
▁cho▁các▁em	-10.698
▁chúa	-10.6981
▁Grand	-10.6984
▁nhân▁chứng	-10.6984
▁Lai	-10.6987
▁lấy▁ý▁kiến	-10.6989
▁lí	-10.6989
▁khởi▁đầu	-10.6989
▁hiện▁trạng	-10.699
▁rạng▁sáng	-10.6991
▁GDP	-10.6993
▁quỹ▁đạo	-10.6993
▁Mark	-10.6998
▁thu▁mua	-10.6998
▁Áo	-10.7
▁vội	-10.7
▁Sal	-10.7
▁bởi▁vì	-10.7001
▁album	-10.7001
▁hằng▁ngày	-10.7001
▁online	-10.7009
▁khái▁niệm	-10.7009
▁vận▁dụng	-10.701
▁vạch	-10.701
▁của▁TP	-10.7022
▁hoang▁mang	-10.7024
▁trong▁vùng	-10.7025
▁đủ▁để	-10.7028
▁bị▁can	-10.7031
ano	-10.7031
▁thì▁mới	-10.7033
▁Kar	-10.7036
▁màn▁trình▁diễn	-10.7041
▁tháng▁tuổi	-10.7043
▁Cu	-10.7046
▁tất	-10.7048
▁thân▁xe	-10.705
▁có▁thể▁bị	-10.7051
▁radar	-10.7052
▁xúc▁tiến	-10.7053
▁bác▁bỏ	-10.7053
▁thuần	-10.7055
▁chứng▁nhận	-10.7056
▁Trường▁Sơn	-10.7057
▁triệu▁hồi	-10.7061
▁đoàn▁thể	-10.7062
▁thường▁niên	-10.7067
▁Vẫn	-10.7073
▁Phạm▁Thị	-10.7074
▁chiếc▁máy▁bay	-10.7075
▁vừa▁công▁bố	-10.7075
▁thuận	-10.7078
▁60%	-10.708
,7%	-10.7082
▁quê▁nhà	-10.7083
▁đức	-10.7084
▁được▁công▁nhận	-10.7085
▁tàu▁thuyền	-10.7085
▁Quế	-10.7085
▁hữu▁nghị	-10.7086
▁hạ▁cánh	-10.7087
6.000	-10.7091
▁giận	-10.7094
▁đè	-10.7095
▁Home	-10.7096
▁chả	-10.7096
▁lắng	-10.7097
▁trọ	-10.7098
▁tri▁ân	-10.7098
ico	-10.7098
▁bạch	-10.7098
▁hẹn▁hò	-10.7099
▁kê	-10.7102
ẫm	-10.7104
▁trên▁toàn▁cầu	-10.7104
▁NASA	-10.7105
▁Thiếu	-10.7106
▁trong▁sự▁nghiệp	-10.711
▁500.000	-10.7111
▁các▁mục▁tiêu	-10.7112
▁này▁vẫn	-10.7116
▁sen	-10.7117
▁tạm▁giữ	-10.7118
▁đến▁nhà	-10.7121
▁ốp	-10.7125
▁and	-10.7127
▁ra▁đường	-10.7127
▁tuần▁trước	-10.7128
▁tiên▁phong	-10.7129
▁bán▁kết	-10.7129
▁giải▁trình	-10.7131
▁đề▁cử	-10.7131
▁trọn▁vẹn	-10.7132
▁cũng▁như▁các	-10.7132
▁móc	-10.7133
▁bỏ▁trốn	-10.7135
▁bận	-10.7135
▁tập▁hợp	-10.7136
▁về▁Việt▁Nam	-10.7138
0%	-10.714
▁các▁ứng▁dụng	-10.714
78	-10.7142
AN	-10.7143
▁sống▁ở	-10.7144
.400	-10.7147
▁con▁cá	-10.715
▁xe▁điện	-10.715
▁HĐQT	-10.715
▁thông▁tin▁từ	-10.7151
▁dầu▁khí	-10.7153
▁Thanh▁niên	-10.7153
▁Quán	-10.7157
▁chung▁tay	-10.7157
▁rút▁ngắn	-10.7161
▁hoãn	-10.7163
▁thương▁binh	-10.7167
ier	-10.7169
▁hạng▁sang	-10.7178
▁can	-10.718
▁người▁lính	-10.7181
▁sự▁lựa▁chọn	-10.7182
ữa	-10.7183
ock	-10.7184
▁Tôi▁đã	-10.7189
8.000	-10.7189
▁bấm	-10.7189
▁hùng	-10.719
▁Đồng▁Tháp	-10.7191
▁57	-10.7192
▁nho	-10.7192
▁làng▁nghề	-10.7193
▁được▁giới▁thiệu	-10.7194
▁ngoài▁việc	-10.7198
▁Vì▁sao	-10.7198
▁Thông▁qua	-10.72
▁thác	-10.7201
▁huyết▁áp	-10.7201
▁là▁gì	-10.7202
▁Cuộc▁thi	-10.7204
▁cháu▁bé	-10.7206
▁Nhơn	-10.7206
/2011	-10.7207
▁cà	-10.7207
▁cỡ▁nhỏ	-10.7209
▁nhạt	-10.7211
▁khi▁họ	-10.7211
▁rồng	-10.7213
▁cản▁trở	-10.7214
▁Hong▁Kong	-10.7215
▁thẳng▁vào	-10.7215
▁Vụ▁việc	-10.7216
▁05	-10.7217
▁website	-10.7218
▁ngọc	-10.7218
▁cúng	-10.7219
▁ồn▁ào	-10.722
du	-10.7221
▁Hai▁Bà▁Trưng	-10.7226
▁(4	-10.7227
▁kỹ▁lưỡng	-10.7232
▁thu▁về	-10.7237
▁rủ	-10.7238
▁ở▁đó	-10.7239
▁tiền▁lương	-10.7243
▁có▁thể▁xảy▁ra	-10.7243
▁cấp▁tỉnh	-10.7243
▁Dưới	-10.7243
▁ông▁chủ	-10.7243
▁Tiêu	-10.7245
/10/2017	-10.7248
▁đã▁gửi	-10.7248
▁Sự▁việc	-10.7248
▁Mười	-10.7249
▁tại▁trường	-10.7249
▁TP▁Cần▁Thơ	-10.725
▁cư	-10.7251
ấy	-10.7253
cer	-10.7253
▁để▁kiểm▁tra	-10.7253
▁ngăn▁ngừa	-10.7254
▁Hội▁An	-10.7259
▁hưởng▁ứng	-10.7266
▁trên▁một	-10.7268
▁vật▁dụng	-10.7269
▁này▁chỉ	-10.7269
▁Tài▁nguyên	-10.7272
▁lúc▁nào▁cũng	-10.7275
▁hàn	-10.7275
▁cây▁cầu	-10.7275
▁đứng▁thứ	-10.7275
▁liên▁ngành	-10.7276
▁mỗi▁tháng	-10.7276
▁Tiền▁Phong	-10.728
▁độc▁hại	-10.728
▁ấm▁áp	-10.7283
▁miền▁Tây	-10.7285
▁trình▁làng	-10.7288
▁53	-10.7288
▁mặt▁nước	-10.7294
▁cúm	-10.7295
▁lưỡi	-10.7298
▁tính▁cách	-10.7299
▁lạc▁quan	-10.73
▁ý▁chí	-10.7302
hiên	-10.7307
▁cho▁dự▁án	-10.731
▁lớn▁như	-10.7311
▁Nội	-10.7313
▁Uyên	-10.7316
▁ấn	-10.7317
▁Nghệ▁sĩ	-10.7317
▁để▁hỗ▁trợ	-10.7318
▁có▁thể▁gây	-10.7321
ug	-10.7322
▁sân▁vận▁động	-10.7323
▁chấn▁chỉnh	-10.7325
CK	-10.7326
▁trên▁địa▁bàn▁TP	-10.7327
qua	-10.7327
▁bộ▁môn	-10.7329
▁nghiêng	-10.7329
▁Mông	-10.733
▁đã▁xuất▁hiện	-10.7332
▁sẽ▁trở▁thành	-10.7332
▁Mới	-10.7334
▁sườn	-10.7334
▁đã▁xây▁dựng	-10.7338
▁Giữa	-10.7341
▁nương	-10.7341
▁chủ▁lực	-10.7341
▁của▁huyện	-10.7341
mar	-10.7341
▁Cư	-10.7341
▁kết▁cấu	-10.7342
▁Đầu	-10.7342
win	-10.7343
▁kem	-10.7345
▁nhi	-10.7349
▁các▁vùng	-10.7349
2.000	-10.735
▁(20	-10.7352
▁các▁nghệ▁sĩ	-10.7352
▁trên▁đảo	-10.7353
▁nhà▁thơ	-10.7354
▁gây▁ấn▁tượng	-10.7355
▁về▁tình▁hình	-10.7356
▁Black	-10.7357
▁đơn▁vị▁này	-10.7358
▁sinh▁nhật	-10.7359
▁cả▁một	-10.7359
▁phân▁bổ	-10.736
▁khu▁du▁lịch	-10.7362
▁Sony	-10.7363
▁đề▁cập▁đến	-10.7363
▁hiện▁vật	-10.7365
▁chân▁thành	-10.7365
số	-10.7365
▁nguồn▁cung	-10.7366
▁Ku	-10.7367
▁sáp▁nhập	-10.737
▁dưới▁đây	-10.7371
▁tín	-10.7371
▁với▁diện▁tích	-10.7373
▁khởi	-10.7376
▁triệu▁chứng	-10.7379
▁FLC▁Thanh▁Hóa	-10.738
▁ra▁thị▁trường	-10.7382
▁là▁loại	-10.7382
▁cũng▁từng	-10.7384
▁tháo▁gỡ	-10.7385
▁phóng▁xạ	-10.7386
84	-10.7387
▁Cúp	-10.7388
▁khủng▁khiếp	-10.7391
▁gãy	-10.7392
▁An▁Giang	-10.7392
▁tia	-10.7392
▁bảo▁hành	-10.7395
▁Ban▁đầu	-10.7396
▁thực▁hiện▁việc	-10.7397
▁chua	-10.7398
▁những▁nỗ▁lực	-10.7398
▁sẽ▁tiến▁hành	-10.7399
▁Nhiệt▁độ	-10.7401
▁68	-10.7405
▁của▁hệ▁thống	-10.7406
▁dự▁toán	-10.7408
▁đi▁cùng	-10.7408
▁điều▁tra▁làm▁rõ	-10.7409
▁đi▁tìm	-10.7409
▁bỗng	-10.7409
▁lướt	-10.7412
▁thâm	-10.7413
▁phát▁biểu▁tại	-10.7415
▁trầm▁trọng	-10.7418
▁cấu▁hình	-10.7419
▁su	-10.742
▁tuyệt▁đẹp	-10.7421
▁bài▁tập	-10.7422
▁tỉnh▁Đồng▁Nai	-10.7423
▁Bất	-10.7425
▁khi▁đi	-10.743
.800	-10.7433
▁nguyện	-10.7433
▁Ver	-10.7433
cung▁cấp▁dịch▁vụ	-10.7434
▁thiếu▁nhi	-10.7434
▁bắc	-10.7441
▁Từ▁ngày	-10.7441
▁Long▁Thành	-10.7442
▁vượt▁quá	-10.7446
▁1.1	-10.7449
▁trong▁những▁năm	-10.745
▁model	-10.7452
▁gặp▁nhiều	-10.7452
▁nhân▁loại	-10.7452
▁hở	-10.7455
▁hồi▁phục	-10.7456
▁ông▁Phạm	-10.7458
▁để▁tạo	-10.746
▁tấm▁gương	-10.7466
iếc	-10.7468
▁Đánh▁giá	-10.7468
▁2010,	-10.7472
▁thù	-10.7478
▁để▁tìm	-10.7478
▁nam▁thanh▁niên	-10.7478
ser	-10.748
▁rẽ	-10.7484
▁Tại▁sao	-10.7484
▁báo▁động	-10.7491
▁kỹ▁thuật▁số	-10.7492
▁nắp	-10.7494
▁thành▁quả	-10.7495
▁theo▁yêu▁cầu	-10.7498
▁nhắc	-10.7501
▁hứa	-10.7501
▁trường▁THCS	-10.7503
▁hải▁quan	-10.7504
▁lấp	-10.7506
▁Nhất	-10.7507
▁World	-10.7508
▁có▁giá▁bán	-10.7508
▁TTXVN	-10.7511
rus	-10.7515
▁lao▁vào	-10.7515
▁độ▁cao	-10.7516
▁giữ▁chức	-10.7518
▁gây▁ảnh▁hưởng	-10.7519
▁Mc	-10.752
▁đồ▁chơi	-10.752
▁văn▁nghệ	-10.752
/1/2018	-10.752
▁muỗi	-10.7523
▁ân	-10.7524
▁Neymar	-10.7524
we	-10.7527
▁độc▁quyền	-10.7527
▁nhà▁giáo	-10.7528
▁và▁gia▁đình	-10.7528
▁Ban▁Chỉ▁đạo	-10.7529
▁tiến▁tới	-10.7532
▁Thừa▁Thiên▁Huế	-10.7533
▁bình▁tĩnh	-10.7536
▁Ngay▁sau▁đó	-10.7537
▁giữ▁vững	-10.7537
ặng	-10.7539
▁mà▁các	-10.7546
▁Qua▁đó	-10.7547
ớ	-10.7547
▁mật▁độ	-10.7548
▁bồn	-10.7553
ặt	-10.7554
▁liên▁hệ▁với	-10.7555
▁Mac	-10.7555
▁ứng▁cử▁viên	-10.7556
▁w	-10.7558
▁rút▁kinh▁nghiệm	-10.7561
▁dưa	-10.7564
▁Lúc▁đó	-10.7564
▁Căn▁cứ	-10.7565
chống▁tham▁nhũng	-10.7567
(	-10.757
▁với▁chủ▁đề	-10.7572
▁concept	-10.7572
▁thổ	-10.7576
▁nhà▁cung▁cấp	-10.758
▁công▁nghệ▁mới	-10.7583
ci	-10.7584
▁nghệ▁nhân	-10.7584
▁gắn▁kết	-10.7587
▁cho▁họ	-10.7587
▁bắt▁mắt	-10.7588
▁tiệc	-10.759
NT	-10.7591
▁email	-10.7595
▁Ngoại▁giao	-10.7595
▁tính▁chất	-10.7598
▁phòng▁ngự	-10.76
▁phân▁công	-10.7602
▁ban▁tổ▁chức	-10.7604
87	-10.7605
CĐ	-10.7606
▁ái	-10.7607
4.000	-10.7608
▁tại▁Bệnh▁viện	-10.7608
EM	-10.7609
▁phá▁hủy	-10.761
▁Hoàng▁Văn	-10.7611
▁có▁thời▁gian	-10.7612
▁vở	-10.7613
▁lối▁sống	-10.7622
▁ngưng	-10.7622
▁đèn▁pha	-10.7627
▁chữa▁trị	-10.7627
▁qua▁lại	-10.7629
▁người▁con	-10.7632
ami	-10.7633
AC	-10.7633
▁2002	-10.7635
▁logo	-10.764
▁62	-10.7642
▁sơ▁tán	-10.7643
ắng	-10.7646
▁6.000	-10.765
▁bánh▁xe	-10.7651
▁ngành▁giáo▁dục	-10.7658
▁nguồn▁thu	-10.7661
▁350	-10.7662
▁nghĩa▁là	-10.7663
▁những▁mẫu▁xe	-10.7665
ds	-10.7665
▁yêu▁mến	-10.7666
▁tâm▁thần	-10.7669
▁gỡ	-10.767
▁khen	-10.7679
▁Vịnh	-10.7679
▁Ba▁Lan	-10.768
▁nhỏ▁hơn	-10.768
▁ván	-10.7681
▁Cuộc▁sống	-10.7682
▁có▁thiết▁kế	-10.7683
▁ngày▁một	-10.7684
▁Hà▁Đông	-10.7688
▁lứa	-10.769
▁lụa	-10.769
▁lời▁khai	-10.7691
▁An▁toàn	-10.7694
▁không▁đảm▁bảo	-10.7695
▁đã▁nhanh▁chóng	-10.7696
▁từng▁được	-10.7698
▁giảm▁bớt	-10.7698
▁nhặt	-10.7701
▁lấy▁lại	-10.7701
▁đúng▁đắn	-10.7702
ền	-10.7707
▁gia▁súc	-10.7709
▁chuyên▁đề	-10.7709
▁Phú▁Thọ	-10.7711
▁ngay▁sau	-10.7715
▁khá▁cao	-10.7718
▁im▁lặng	-10.7719
▁bắt▁tay	-10.772
▁của▁Bộ	-10.7722
▁ngôn	-10.7723
▁của▁chiếc	-10.7724
kov	-10.7724
▁nói▁gì	-10.7727
▁mệt	-10.773
▁Chính▁vì▁thế	-10.7732
ID	-10.7733
▁tại▁hội▁nghị	-10.7733
▁người▁có▁công	-10.7735
▁lãnh	-10.7736
▁đến▁lúc	-10.7738
▁1-1	-10.7738
▁92	-10.7738
▁Chính▁trị	-10.7742
▁cũng▁không▁thể	-10.7743
▁One	-10.7745
▁sâu▁vào	-10.7747
▁Không▁phải	-10.775
▁Xã	-10.7754
51	-10.7754
/11/2017	-10.7756
ris	-10.7757
▁tốn▁kém	-10.7761
▁góc▁độ	-10.7762
▁trong▁tay	-10.7768
▁giống▁với	-10.7768
▁trong▁phòng	-10.777
▁Dự▁thảo	-10.7774
▁Phụ	-10.7776
▁rất▁nhiều▁người	-10.7779
▁hoành▁tráng	-10.7779
▁lỗ▁hổng	-10.7779
tal	-10.778
▁Trường▁Tiểu▁học	-10.7783
▁rung	-10.779
▁lương▁thực	-10.779
▁59	-10.7793
▁son	-10.7794
▁bạn▁trẻ	-10.7794
ub	-10.7796
▁bộ▁sưu▁tập	-10.7796
▁Thứ▁nhất	-10.7796
▁Chiến▁lược	-10.7799
▁bỏ▁chạy	-10.78
▁nhiều▁thời▁gian	-10.7802
▁các▁chất	-10.7807
pi	-10.7811
▁nhà▁thờ	-10.7811
▁yếu▁kém	-10.7811
▁phải▁mất	-10.7814
▁vịt	-10.7814
▁Bên	-10.7814
SP	-10.7815
▁sứ▁mệnh	-10.7818
▁chưa▁đầy	-10.7819
đi▁vào▁hoạt▁động	-10.7819
▁các▁hãng	-10.782
▁độ▁tuổi	-10.782
▁TX	-10.7822
AR	-10.7825
DI	-10.7827
▁ông▁ấy	-10.7828
▁Nằm	-10.7831
▁cường	-10.7832
▁đấu▁trường	-10.7832
▁năm▁trở▁lại▁đây	-10.7834
CH	-10.7835
▁xử▁lý▁vi▁phạm	-10.7836
▁của▁cán▁bộ	-10.7839
▁xu▁thế	-10.7839
.300	-10.7839
▁1975	-10.7842
▁nhiều▁người▁dân	-10.7845
▁Biết	-10.7845
▁đoạn▁qua	-10.7846
▁Cũng▁theo▁ông	-10.785
▁cư▁dân▁mạng	-10.7853
▁nhóm▁nghiên▁cứu	-10.7854
▁2012,	-10.7855
▁không▁người▁lái	-10.7855
▁bị▁bệnh	-10.7856
▁đã▁giảm	-10.7858
ứa	-10.7858
▁Tổng▁Công▁ty	-10.7862
▁Sch	-10.7862
▁định▁vị	-10.7868
▁có▁ý▁kiến	-10.7868
▁đất▁ở	-10.7869
▁luôn▁được	-10.7869
▁Hướng	-10.7872
ound	-10.7873
▁88	-10.7879
▁giọng▁ca	-10.788
▁các▁đại▁lý	-10.7884
▁Bồ	-10.7884
▁III	-10.7887
▁cùng▁nhiều	-10.7887
▁đạp	-10.7889
▁hộp▁số▁tự▁động	-10.7897
▁tương▁đương▁với	-10.7898
▁nổi▁lên	-10.7898
▁Hi	-10.7899
▁Twitter	-10.79
▁mà▁vẫn	-10.79
▁bạt	-10.79
▁Sáng▁nay	-10.7902
▁các▁yếu▁tố	-10.7903
▁và▁Công▁nghệ	-10.7904
▁các▁học▁trò	-10.7907
▁tiềm▁ẩn	-10.7907
▁Chân	-10.7907
▁đặc▁sản	-10.7907
▁khởi▁tố▁vụ▁án	-10.7908
▁thế▁này	-10.7909
▁triệu▁tấn	-10.7911
▁nhìn▁vào	-10.7913
ọi	-10.7913
▁bê	-10.7916
▁chiều▁dài	-10.7918
▁mụn	-10.7918
▁Thanh▁Niên	-10.7918
bu	-10.7923
▁tôi▁sẽ	-10.7925
▁ông▁Vũ	-10.7928
▁khi▁thấy	-10.793
▁nơi▁có	-10.7932
▁cho▁đến▁nay	-10.7933
▁chỉ▁là▁một	-10.7934
▁ngoài▁trời	-10.7935
▁cong	-10.7937
▁Đến▁năm	-10.7937
▁Tottenham	-10.7937
▁mộng	-10.794
▁tay▁lái	-10.7943
▁va	-10.7943
▁có▁biện▁pháp	-10.7944
▁trên▁tàu	-10.7947
▁đặt▁hàng	-10.7947
▁nói▁chung▁và	-10.7948
▁giờ▁sáng	-10.7951
SE	-10.7952
ít	-10.7952
▁Diễn▁đàn	-10.7953
ếu	-10.7957
▁giữa▁hai▁nước	-10.7957
▁dạ	-10.7957
▁làm▁phim	-10.7959
':	-10.796
▁từ▁đầu▁năm	-10.796
▁vĩ▁đại	-10.796
▁Ngoài▁việc	-10.7961
▁Theo▁kế▁hoạch	-10.7961
▁hai▁năm	-10.7962
▁rõ▁rệt	-10.7962
▁Trong▁lúc	-10.7963
▁Vua	-10.7966
▁đối▁lập	-10.7966
ũng	-10.7967
▁đánh▁giá▁là	-10.7967
▁ưu▁điểm	-10.7968
▁1999	-10.7968
▁phụ▁tùng	-10.7969
▁căn▁cứ▁vào	-10.7969
-30	-10.7969
▁một▁tuần	-10.7971
▁đem▁đến	-10.7972
▁Ngọc▁Sơn	-10.7972
▁sơ▁thẩm	-10.7972
▁Khá	-10.7973
▁xích	-10.7975
▁xe▁ôtô	-10.7976
▁năm▁tuổi	-10.7979
▁kim▁ngạch	-10.7979
▁ai▁đó	-10.798
▁có▁chứa	-10.7982
▁được▁đầu▁tư	-10.7986
▁cấp▁độ	-10.7989
▁nộp▁thuế	-10.799
▁vài▁năm	-10.799
▁quan▁trọng▁của	-10.7995
Công▁ty▁TNHH▁MTV	-10.7996
▁bài▁báo	-10.7997
ep	-10.7997
▁sử▁dụng▁các	-10.7999
▁vịnh	-10.8
▁gợi▁ý	-10.8002
▁Nghị▁định▁số	-10.8002
▁để▁lấy	-10.8006
▁nhiều▁ý▁kiến	-10.8006
▁sỏi	-10.8007
▁chưa▁biết	-10.8009
▁vốn▁là	-10.8011
▁HO	-10.8012
▁khối▁u	-10.8013
▁hữu▁ích	-10.8013
▁Vòng	-10.8015
▁tá	-10.8015
▁ròng	-10.8016
▁đại▁hội	-10.8016
▁giao▁đất	-10.8017
▁khởi▁tố	-10.8024
▁Ông▁Nguyễn▁Văn	-10.8024
ish	-10.8026
▁đầu▁mối	-10.8027
▁130	-10.803
▁biến▁thành	-10.8032
▁họng	-10.8035
ind	-10.8035
▁bài▁bản	-10.8036
▁sét	-10.8039
▁hẻm	-10.8041
▁bằng▁một	-10.8042
▁Big	-10.8044
od	-10.8044
▁Ed	-10.8045
▁các▁bị▁cáo	-10.8048
▁Diễm	-10.805
▁đắp	-10.8052
▁Pen	-10.8054
▁ở▁phút	-10.8055
▁bổ▁sung▁thêm	-10.806
▁2020,	-10.8061
▁bền	-10.8062
hẳng	-10.8062
▁ý▁kiến▁cho▁rằng	-10.8062
▁dễ▁bị	-10.8065
▁khéo▁léo	-10.8067
▁ông▁bà	-10.8067
▁doanh	-10.8068
▁thời▁gian▁để	-10.8068
▁khép▁lại	-10.8069
ica	-10.807
▁Tiếp▁tục	-10.8075
▁xẻ	-10.8078
▁rào▁cản	-10.808
▁phần▁thi	-10.808
▁nhà▁ga	-10.8082
▁bề	-10.8082
▁tráng	-10.8084
▁hiểu▁được	-10.8086
ổng	-10.8089
▁sút	-10.809
Fi	-10.8091
▁được▁cấp▁phép	-10.8091
XD	-10.8101
▁hiện▁là	-10.8103
▁và▁hệ▁thống	-10.8104
▁tại▁bệnh▁viện	-10.8109
▁gánh▁nặng	-10.8112
▁nỗi▁đau	-10.8112
▁tại▁Syria	-10.8114
▁1,3	-10.8115
▁Nhằ	-10.8116
▁tứ▁kết	-10.812
▁Dân▁Việt	-10.8121
▁lót	-10.8124
▁Ac	-10.8127
▁PCCC	-10.8127
▁phẩm▁chất	-10.8127
▁nghỉ▁học	-10.8128
▁gã	-10.813
▁BĐS	-10.8133
▁niềm▁đam▁mê	-10.8138
▁biết▁cách	-10.8141
▁1.6	-10.8141
▁tình▁trạng▁này	-10.8145
▁Theo▁các	-10.8145
▁phía▁Tây	-10.8146
▁hiểu▁rõ	-10.8147
▁hàng▁rào	-10.8151
▁thề	-10.8152
▁Triều	-10.8152
▁nghị▁sĩ	-10.8152
ạp	-10.8153
▁của▁cộng▁đồng	-10.8155
sinh▁năm	-10.8155
▁của▁thế▁giới	-10.8156
▁chặng▁đường	-10.8157
▁Sở▁TN	-10.8158
▁lâu▁nay	-10.8158
▁ngo	-10.8159
▁Bộ▁Tư▁pháp	-10.8159
▁có▁công▁suất	-10.8159
▁xăng▁E	-10.816
▁mười	-10.816
▁và▁khả▁năng	-10.816
▁học▁sinh▁giỏi	-10.816
▁máy▁ảnh	-10.8161
▁các▁quận	-10.8164
▁tuyệt▁chủng	-10.8164
▁đầu▁ra	-10.8164
▁bào	-10.8166
▁Thiếu▁tướng	-10.8167
▁Trung▁Quốc▁và	-10.8168
af	-10.8168
▁các▁đối▁tác	-10.8169
▁Hào	-10.8174
▁này▁thì	-10.8174
▁biến▁đổi	-10.8177
▁Note	-10.8178
▁giảm▁nhẹ	-10.8178
▁về▁quản▁lý	-10.8178
▁đáng▁yêu	-10.8179
-2015	-10.8182
▁vòng▁bảng	-10.8184
▁nữa▁là	-10.8185
▁thời▁điểm▁đó	-10.8187
▁Khôi	-10.8187
▁rao▁bán	-10.8188
▁2009,	-10.8191
ẹt	-10.8192
▁cương▁vị	-10.8194
▁lậu	-10.8194
▁tại▁Đại▁học	-10.8195
▁Ya	-10.8196
▁nợ▁xấu	-10.8196
▁áp▁đặt	-10.8197
▁tỉnh▁Yên▁Bái	-10.8198
▁Bắc▁Mỹ	-10.8199
▁của▁ông▁Trump	-10.8202
▁phế	-10.8203
▁hội▁viên	-10.8203
▁được▁tiến▁hành	-10.8208
▁có▁thể▁sử▁dụng	-10.8208
▁bày	-10.8212
▁phà	-10.8213
▁Ngọ	-10.8216
▁dắt	-10.8217
▁bước▁tiến	-10.822
ax	-10.8224
▁ốm	-10.8231
Á	-10.8231
▁hộ▁khẩu	-10.8233
AG	-10.8236
▁xã▁Tân	-10.8238
▁CR	-10.8242
fe	-10.8252
▁15%	-10.8252
las	-10.8256
▁phiên▁họp	-10.8258
▁có▁biểu▁hiện	-10.8259
▁chữa▁cháy	-10.826
▁việc▁triển▁khai	-10.8262
▁nhường	-10.8263
▁kỳ▁họp	-10.8264
▁ở▁huyện	-10.8268
▁thông▁số	-10.8268
73	-10.8269
▁nhắn▁tin	-10.827
▁180	-10.8271
uyến	-10.8271
▁rộng▁lớn	-10.8279
▁đáp▁trả	-10.8279
▁ngay▁khi	-10.828
▁tám	-10.8282
▁trong▁dịp	-10.8283
▁sở▁thích	-10.8284
▁gay▁gắt	-10.8285
▁Quy	-10.8286
▁chân▁sút	-10.829
▁Cầu▁thủ	-10.829
▁thoại	-10.8291
▁ban▁ngày	-10.8291
▁sôi	-10.8291
▁và▁sau▁đó	-10.8292
ace	-10.8292
▁cũng▁chính▁là	-10.8293
▁Địa	-10.8293
▁đều▁không	-10.8296
▁chiếc▁xe▁máy	-10.8297
▁Sử▁dụng	-10.8299
▁cay	-10.8299
▁ở▁tuổi	-10.8301
,4%	-10.8303
▁cho▁bệnh▁nhân	-10.8306
▁tước	-10.8312
ain	-10.8313
▁Kết▁luận	-10.8313
▁nhiều▁nơi	-10.8316
▁chiêu	-10.8316
▁dòng▁sông	-10.8317
▁tầm▁quan▁trọng	-10.8318
▁lâu▁năm	-10.8323
▁đặc▁trưng▁của	-10.8324
▁Truyền▁thông	-10.8325
san	-10.8325
▁Sở▁NN	-10.8327
▁chìa▁khóa	-10.8328
▁nhận▁được▁nhiều	-10.8329
▁đến▁đây	-10.8329
▁là▁nguyên▁nhân	-10.8333
au	-10.8334
▁cước	-10.8335
▁Times	-10.834
▁lên▁án	-10.8345
▁là▁chuyện	-10.8349
▁tĩnh	-10.8349
▁99	-10.835
7.000	-10.8352
▁các▁văn▁bản	-10.8354
▁không▁thể▁thiếu	-10.8355
▁Sinh▁viên	-10.8356
▁Về▁phía	-10.8357
▁có▁văn▁bản	-10.8357
▁và▁xử▁lý	-10.8359
▁các▁vụ	-10.8361
ánh	-10.8362
▁trầm▁cảm	-10.8364
▁ớt	-10.8365
▁phòng▁học	-10.8367
▁con▁em	-10.8367
▁Cor	-10.8368
▁các▁bạn▁trẻ	-10.8372
▁ngưỡng▁mộ	-10.8373
▁Quy▁định	-10.8375
▁hóa▁thạch	-10.8375
tion	-10.8375
▁mẹ▁chồng	-10.8375
▁tự▁tử	-10.8376
▁lệnh▁trừng▁phạt	-10.8379
▁Bạc▁Liêu	-10.838
▁có▁độ	-10.8383
▁bị▁hại	-10.8385
▁Bức	-10.8386
▁tại▁Hội▁nghị	-10.8387
▁từ▁xa	-10.8387
▁triển▁vọng	-10.8389
▁đầu▁tư▁cho	-10.839
/2013	-10.8391
▁phát▁ra	-10.8395
▁Pi	-10.8396
ive	-10.8397
▁nơi▁khác	-10.8398
▁loài▁động▁vật	-10.8399
▁Người▁đẹp	-10.8401
▁mà▁thôi	-10.8404
▁đau▁đầu	-10.8405
93	-10.8406
▁Đơn▁vị	-10.8408
end	-10.8408
ight	-10.8409
▁giải▁ngân	-10.841
DN	-10.841
▁tại▁huyện	-10.841
▁nhấn	-10.8412
▁đô▁la	-10.8414
ust	-10.8414
▁Thể▁thao▁và	-10.8415
▁phá▁sản	-10.8416
▁định▁giá	-10.8417
nia	-10.8418
71	-10.8423
▁phận	-10.8423
,6%	-10.8425
▁của▁B	-10.8425
Gi	-10.8428
▁Tố	-10.8428
▁minh▁họa	-10.8428
▁tò▁mò	-10.843
▁giàn	-10.843
▁không▁kém	-10.8431
▁vành	-10.8431
▁Quang▁Trung	-10.8431
▁chì	-10.8435
▁nhân▁tố	-10.8436
▁ra▁vào	-10.8436
▁PSG	-10.8439
AP	-10.8439
-35	-10.8439
▁container	-10.8439
▁cả▁về	-10.844
▁nên▁tôi	-10.844
▁ngư	-10.844
▁Cán▁bộ	-10.8442
▁để▁nâng▁cao	-10.8443
▁có▁thành▁tích	-10.8443
▁được▁chọn	-10.8443
▁của▁UBND▁tỉnh	-10.8445
▁của▁Tập▁đoàn	-10.8446
▁Cô▁gái	-10.8449
▁mini	-10.845
▁thất▁nghiệp	-10.8451
▁nhiều▁vấn▁đề	-10.8452
▁vì▁nó	-10.8452
▁vững	-10.8453
▁nghiệm	-10.8454
▁Văn▁Thanh	-10.8454
▁tái▁cơ▁cấu	-10.8455
▁Dùng	-10.8456
▁phấn▁khởi	-10.8459
▁ĐB	-10.846
▁Wal	-10.8461
▁Đỏ	-10.8463
▁vẫn▁luôn	-10.8465
▁nam▁ca▁sĩ	-10.8465
▁Xá	-10.8467
▁Nhà▁hát	-10.8467
▁Bùi▁Văn	-10.8472
▁Cụm	-10.8472
▁Innova	-10.8474
Class	-10.8474
▁lứa▁tuổi	-10.8476
▁VKSND	-10.848
▁thể▁loại	-10.848
▁loại▁thuốc	-10.8485
▁với▁tỷ▁số	-10.8486
▁Bố	-10.8489
▁đồ▁ăn	-10.849
▁khám▁chữa▁bệnh	-10.8492
▁lệch	-10.8493
men▁xoắn	-10.8494
▁chứng▁chỉ	-10.8496
▁thiện	-10.85
▁của▁bóng▁đá	-10.85
▁1995	-10.8502
▁sụt▁giảm	-10.8502
▁số▁điện▁thoại	-10.8503
▁tâm▁hồn	-10.8504
▁nghiên▁cứu▁về	-10.8505
fi	-10.8508
▁còn▁phải	-10.8512
▁hé▁lộ	-10.8516
▁trợ▁cấp	-10.8516
▁kiếm▁được	-10.8517
▁trên▁trang	-10.852
▁Tim	-10.852
▁Trưởng▁Ban	-10.852
▁As	-10.8527
▁trong▁cả▁nước	-10.8531
▁thuê▁bao	-10.8531
▁Nguyễn▁Hoàng	-10.8533
▁cẩu	-10.8533
▁hơn▁rất▁nhiều	-10.8535
ost	-10.8537
▁Quân▁khu	-10.8537
▁trao▁giải	-10.8538
▁Phân	-10.8538
▁Hán	-10.8539
iệu	-10.8542
▁gian▁hàng	-10.8543
▁với▁U	-10.8543
▁về▁kinh▁tế	-10.8546
▁Mấy	-10.8547
▁thương▁vong	-10.8549
▁đang▁rất	-10.8554
PA	-10.8554
▁Chính▁sách	-10.8556
ng▁dụng	-10.8556
▁giảm▁cân	-10.8557
▁tỉnh▁Quảng▁Trị	-10.8558
▁điều▁khoản	-10.8561
▁vùng▁cao	-10.8561
,8%	-10.8563
▁Lang	-10.857
▁trái▁phiếu	-10.8571
▁đội▁ngũ▁cán▁bộ	-10.8574
▁giới▁tính	-10.8575
▁đã▁có▁văn▁bản	-10.8576
▁Phó▁Bí▁thư	-10.8581
▁tri▁thức	-10.8582
▁bắt▁gặp	-10.8584
▁phúc	-10.8585
▁hai▁lần	-10.8586
▁đang▁hoạt▁động	-10.8587
▁Ca▁sĩ	-10.859
▁nhưng▁tôi	-10.859
▁1.3	-10.8592
▁thoái▁vốn	-10.8592
TD	-10.8592
▁Đề	-10.8594
▁tại▁Đà▁Nẵng	-10.8595
▁bối▁cảnh	-10.8595
▁cộng▁đồng▁mạng	-10.8596
▁lưới▁tản▁nhiệt	-10.8596
▁Gra	-10.8597
▁tẩy	-10.8602
▁các▁tuyến	-10.8604
▁là▁một▁phần	-10.861
,3%	-10.861
hờ	-10.861
▁Nguyễn▁Quang	-10.8612
▁đứng▁ra	-10.8612
tic	-10.8613
▁với▁hai	-10.8613
▁Bãi	-10.8617
▁Thượng▁Hải	-10.8617
▁Anh▁hùng	-10.8617
▁khởi▁kiện	-10.8622
▁kháng▁chiến	-10.8625
▁Vĩnh▁Phúc	-10.863
rông	-10.8634
▁300.000	-10.8634
▁theo▁đó	-10.8638
▁cũng▁khẳng▁định	-10.8638
khủng	-10.8639
▁lưu▁lượng	-10.864
▁chăm▁lo	-10.8641
▁Jordan	-10.8641
▁dặm	-10.8641
▁vùng▁núi	-10.8642
▁quy▁chuẩn	-10.8643
▁bị▁cấm	-10.8647
▁tang▁vật	-10.8648
▁Ông▁Trần	-10.8651
▁ngắn▁hạn	-10.8651
▁để▁người▁dân	-10.8655
▁Mua	-10.8658
▁và▁yêu▁cầu	-10.8658
▁Thay▁vì	-10.8659
▁đục	-10.8664
▁Khu▁đô▁thị	-10.8664
zi	-10.8666
▁tải▁trọng	-10.8667
▁79	-10.867
▁Sputnik	-10.8671
▁Tỷ▁lệ	-10.8674
▁HĐND▁TP	-10.8674
▁diện▁mạo	-10.8674
▁hi▁vọng	-10.8677
▁Tiếp▁đó	-10.868
▁ngôi▁trường	-10.8681
▁trong▁số▁đó	-10.8682
▁cùng▁lúc	-10.8687
▁các▁hạng▁mục	-10.8688
-12,	-10.8688
ent	-10.8689
▁đang▁tiến▁hành	-10.869
mer	-10.8691
▁bất▁hợp▁pháp	-10.8693
my	-10.8694
▁Ban▁Chấp▁hành	-10.8694
▁rối	-10.8695
▁nước▁nhà	-10.8698
▁Đào▁tạo	-10.8699
▁Bank	-10.8701
ant	-10.8701
ợn	-10.8701
▁Cú	-10.8701
▁Liên▁hiệp	-10.8704
▁lúc▁nào	-10.8705
▁2.5	-10.8708
▁tưởng▁niệm	-10.871
53	-10.871
▁tổng▁giá▁trị	-10.871
▁làm▁sạch	-10.8712
cy	-10.8712
▁mạnh▁dạn	-10.8714
▁do▁các	-10.8715
▁tua	-10.8716
▁gia▁hạn	-10.8716
▁giả▁mạo	-10.8718
▁mỹ▁phẩm	-10.872
▁Tập▁Cận▁Bình	-10.8725
▁dành▁riêng▁cho	-10.8725
▁gối	-10.8727
▁vài▁chục	-10.8728
▁bất▁lợi	-10.8729
▁Rõ▁ràng	-10.8731
▁Hollywood	-10.8731
▁tri	-10.8732
▁2017-2018	-10.8732
lus	-10.8733
▁Thường▁Châu	-10.8733
Hà	-10.8734
▁vài▁tháng	-10.8734
▁chui	-10.8736
IT	-10.8737
/6/2017	-10.8737
▁về▁khả▁năng	-10.8737
▁khoác▁áo	-10.8742
▁li	-10.8742
uyên	-10.8744
▁thô	-10.8746
II	-10.8753
▁Thơ	-10.8755
▁phẳng	-10.8756
▁tốc▁độ▁cao	-10.8759
▁lỏng	-10.8759
ei	-10.8759
▁sao▁cho	-10.876
▁2020.	-10.8764
▁khuyết▁điểm	-10.8765
▁tem	-10.877
▁Thời▁gian▁qua	-10.8773
▁với▁số▁lượng	-10.8774
▁sống▁sót	-10.8774
▁lưu▁niệm	-10.8774
▁bảo▁hộ	-10.8777
▁lòng▁đường	-10.8778
▁đến▁đâu	-10.8779
▁ĐBQH	-10.8783
▁nhà▁thiết▁kế	-10.8785
iro	-10.8787
▁trình▁báo	-10.879
▁thư▁viện	-10.8794
▁cỡ▁lớn	-10.8796
▁địa▁chất	-10.8796
▁1997	-10.8797
▁các▁bệnh	-10.8797
▁1.4	-10.8802
▁thầy▁cô▁giáo	-10.8806
▁đảm▁nhận	-10.8809
▁SE	-10.8809
nam	-10.881
▁các▁mẫu	-10.8813
▁của▁nhà▁trường	-10.8815
▁Đắk▁Lắk	-10.8816
▁Sở▁Giáo▁dục	-10.8816
▁gia▁cầm	-10.8819
▁của▁Hàn▁Quốc	-10.882
▁số▁người	-10.8821
▁ghi▁nhớ	-10.8823
▁AFC	-10.883
▁Sanchez	-10.8834
ột	-10.8835
▁Dự▁báo	-10.8836
▁buổi▁họp▁báo	-10.8837
▁mã▁lực▁và▁mô	-10.8839
▁những▁thay▁đổi	-10.8841
▁Pan	-10.8842
▁chủ▁chốt	-10.8842
▁chiếc▁áo	-10.8842
▁ra▁trường	-10.8844
▁Hiện▁trường	-10.8845
▁để▁xảy▁ra	-10.8847
▁Diệp	-10.8847
▁GV	-10.8848
▁kích▁cỡ	-10.8849
▁Mô▁hình	-10.885
▁xám	-10.885
▁Chỉ▁cần	-10.8851
▁tiền▁bạc	-10.8851
▁minh▁chứng	-10.8851
▁Phút	-10.8851
300	-10.8852
▁Biên▁Hòa	-10.8852
▁lệnh▁cấm	-10.8852
▁rễ	-10.8856
▁thực▁sự▁là	-10.8864
▁gốm	-10.8864
▁Võ▁Văn	-10.8871
▁có▁nơi	-10.8871
▁dập	-10.8873
▁Điện▁lực	-10.8873
▁chuyển▁đến	-10.8874
▁Trấn▁Thành	-10.8874
▁Vườn	-10.8874
▁trên▁không	-10.8876
▁trong▁xã▁hội	-10.8878
▁bản▁án	-10.8879
▁không▁đồng▁ý	-10.8879
▁đa▁phần	-10.888
iss	-10.888
ott	-10.888
▁Dinh	-10.8882
▁Thêm	-10.8882
▁Lĩnh	-10.8882
▁Trung▁Quốc▁đã	-10.8883
▁gây▁nên	-10.8889
▁điều▁mà	-10.889
▁đã▁chết	-10.889
▁kỷ	-10.8895
/7/2017	-10.8898
▁với▁phóng▁viên	-10.8898
CA	-10.8898
▁LS	-10.8906
▁đồng▁bằng	-10.8906
▁chiêm▁ngưỡng	-10.8908
▁cao▁điểm	-10.8908
▁những▁năm▁qua	-10.8909
▁trữ	-10.8909
▁xoay▁quanh	-10.8909
▁Hoàng▁Thị	-10.8911
▁biểu▁tình	-10.8911
▁Ea	-10.8913
▁các▁nạn▁nhân	-10.8913
▁Hạt	-10.8917
▁buổi▁lễ	-10.8919
▁giải▁quyết▁được	-10.8919
▁dữ	-10.8921
▁chuông	-10.8922
▁của▁lãnh▁đạo	-10.8925
▁FC	-10.8926
▁đã▁đạt	-10.8926
▁khiêm▁tốn	-10.893
▁hầu	-10.893
eng	-10.8934
rs	-10.8935
▁Nghị	-10.8936
,2%	-10.8938
▁phối▁hợp▁cùng	-10.8939
▁sản▁sinh	-10.894
▁04	-10.8941
▁nhẫn	-10.8941
▁đơn▁thuần	-10.8941
▁của▁Honda	-10.8943
▁châu▁lục	-10.8943
▁chuyển▁động	-10.8943
83	-10.8944
▁bỏ▁đi	-10.8945
▁những▁ai	-10.8947
▁vặt	-10.8949
▁kiên▁trì	-10.8954
▁danh▁dự	-10.8955
▁do▁ông	-10.8956
▁đang▁tiếp▁tục	-10.8958
▁liệt▁sỹ	-10.8958
▁Ngoại	-10.8959
▁Lịch▁sử	-10.8959
▁trung▁học	-10.896
91	-10.8962
/01	-10.8963
▁ở▁trường	-10.8964
▁đằng▁sau	-10.8964
▁nhượng	-10.8965
50.000	-10.8966
▁Hệ	-10.8966
▁bận▁rộn	-10.8967
ướng	-10.897
▁tháng▁qua	-10.897
▁ký▁ức	-10.8971
▁không▁sử▁dụng	-10.8975
▁nước▁ngọt	-10.8977
▁thao▁tác	-10.8978
▁85	-10.8978
▁ngăn▁cản	-10.8978
▁gai	-10.8979
▁nhưng▁chỉ	-10.8979
▁cuộc▁họp▁báo	-10.8981
▁Pha	-10.8982
▁mua▁vé	-10.8982
▁kéo▁theo	-10.8986
▁xuôi	-10.8986
▁tàu▁chiến	-10.8991
▁giam	-10.8993
▁Chứng▁khoán	-10.8996
▁Máy▁bay	-10.8998
▁nhanh▁nhất	-10.8999
▁các▁cầu▁thủ▁U	-10.9
▁trôi▁qua	-10.9001
▁này▁lại	-10.9002
▁Nguyễn▁Quốc	-10.9003
▁thay▁cho	-10.9003
▁mồ▁hôi	-10.9004
▁làn▁sóng	-10.9006
/5/2017	-10.9006
òn	-10.9006
▁thua▁lỗ	-10.9007
▁để▁bán	-10.9007
▁tên▁gọi	-10.9007
tor	-10.9008
▁đại▁diện▁của	-10.9008
▁động▁cơ▁V	-10.901
MC	-10.901
▁cá▁sấu	-10.901
▁Tông	-10.9012
▁Chi▁Pu	-10.9017
ưa	-10.9018
▁HLV▁trưởng	-10.9019
▁tránh▁khỏi	-10.902
▁lẫn▁nhau	-10.9021
RT	-10.9022
▁thạch	-10.9023
▁Điện▁Biên▁Phủ	-10.9024
▁nguyên▁bản	-10.9026
▁trước▁hết	-10.9027
▁tiện▁nghi	-10.9027
▁mày	-10.9029
▁trẻ▁nhỏ	-10.9029
▁kể▁trên	-10.9031
▁tàn▁phá	-10.9031
stan	-10.9032
▁bảo▁đảm▁an▁toàn	-10.9037
▁tranh▁tài	-10.9038
har	-10.9041
lít	-10.9041
▁lê	-10.9046
▁giãn	-10.9047
▁Hàng▁không	-10.9047
▁vắng▁mặt	-10.9048
▁bên▁dưới	-10.905
▁và▁hỗ▁trợ	-10.9051
yl	-10.9053
sta	-10.9053
▁Quyên	-10.9062
▁Thông▁báo	-10.9063
▁Hỗ▁trợ	-10.9063
▁Green	-10.9064
▁Tăng▁cường	-10.9064
▁tốp	-10.9064
oy	-10.9064
▁Mặt▁trận	-10.9064
▁bá	-10.9066
▁các▁dân▁tộc	-10.9067
▁tội▁danh	-10.9072
▁Vệ	-10.9073
▁SH	-10.9073
▁vào▁chiều	-10.9075
▁cô▁đã	-10.9078
▁Đàn	-10.9078
▁En	-10.9079
▁nhiễm▁trùng	-10.9079
▁giảm▁mạnh	-10.908
▁(5	-10.9081
▁Trẻ	-10.9084
▁VKS	-10.9085
▁hằng▁năm	-10.9085
▁Asia	-10.9088
▁Đồ	-10.909
▁những▁điểm	-10.9091
▁tập▁kết	-10.9092
▁tốc▁độ▁tối▁đa	-10.9096
▁lỡ	-10.9096
ược	-10.9098
trái	-10.9103
uri	-10.9103
▁đính	-10.9105
▁Báo▁chí	-10.9106
▁với▁mục▁tiêu	-10.9107
▁em▁bé	-10.9109
▁hàng▁tháng	-10.9109
bon	-10.911
▁ĐBSCL	-10.911
▁chiến▁sỹ	-10.9112
▁tâm▁trạng	-10.9112
▁Khởi	-10.9115
▁động▁cơ▁xăng	-10.9118
ẩm	-10.9119
▁dao▁động▁từ	-10.9119
▁Truyền	-10.9123
▁ông▁ta	-10.9124
▁khoảng▁hơn	-10.9127
▁dòng▁chảy	-10.9128
▁mọi▁việc	-10.9128
▁Nga▁đã	-10.913
▁có▁sức	-10.9131
▁MT	-10.9131
▁1980	-10.9133
▁Tuyên	-10.9135
▁Bộ▁NN	-10.9137
▁chịu▁đựng	-10.914
▁và▁hiệu▁quả	-10.9141
▁Bắc▁Bộ	-10.9141
▁HP	-10.9142
▁Sử	-10.9142
▁đã▁tăng	-10.9142
▁nam▁diễn▁viên	-10.9142
▁tiện▁lợi	-10.9144
▁xóa▁bỏ	-10.9146
▁lau	-10.9152
▁nắm▁được	-10.9155
▁nồng▁độ	-10.9157
h▁sáng	-10.9158
tre	-10.9159
▁Cách▁mạng	-10.9159
▁chu	-10.916
eb	-10.9161
▁Bùi▁Thị	-10.9161
▁trên▁phố	-10.9171
▁là▁hai	-10.9171
▁ở▁địa▁phương	-10.9171
▁Giáp	-10.9172
▁Nghiêm	-10.9173
▁đã▁trải▁qua	-10.9174
200	-10.9175
▁Đàm	-10.9176
▁bất▁ổn	-10.9177
▁chính▁đáng	-10.9177
▁âm▁mưu	-10.9177
▁có▁sẵn	-10.9178
▁ảnh▁hưởng▁của	-10.9178
▁truy▁tố	-10.918
▁bệnh▁nhi	-10.9181
▁đã▁nhận	-10.9183
▁tư▁thế	-10.9183
▁Ngược▁lại	-10.9183
▁Liên▁minh	-10.9183
▁cho▁xe	-10.9186
▁từ▁nay	-10.9187
▁gạt	-10.9194
▁qua▁đường	-10.9195
▁sáng▁sớm	-10.9198
TA	-10.9199
▁ngày▁mai	-10.92
▁mẹ▁con	-10.92
▁nghiệm▁thu	-10.9201
▁sóng▁thần	-10.9202
▁lo▁sợ	-10.9203
▁đây▁cũng▁là	-10.9203
▁và▁bảo▁vệ	-10.9204
▁tour	-10.9205
▁lên▁đường	-10.9207
▁khẩu▁súng	-10.9208
▁cạnh▁tranh▁với	-10.921
▁Nguyễn▁Hồng	-10.9211
bin	-10.9212
ban	-10.9216
▁PVC	-10.9218
ade	-10.9219
▁vào▁cuối▁năm	-10.922
▁tại▁hiện▁trường	-10.9221
▁toàn▁tỉnh	-10.9222
▁Vừa▁qua	-10.9223
y▁ban▁Kiểm▁tra	-10.9223
▁160	-10.9224
▁hiện▁đại▁hóa	-10.9225
▁của▁tác▁giả	-10.9227
▁toàn▁thể	-10.9228
▁chuyên▁dụng	-10.9229
▁mà▁còn▁là	-10.923
▁bình▁đẳng	-10.9231
TW	-10.9232
▁AN	-10.9234
.2017,	-10.9236
Xét	-10.9239
▁các▁mặt▁hàng	-10.9239
▁nha	-10.924
▁của▁A	-10.9242
▁biến▁chứng	-10.9243
▁xuất▁phát	-10.9244
Bình	-10.9246
▁bức▁tường	-10.9246
▁Đắc	-10.9246
▁Đảo	-10.9246
▁của▁các▁cơ▁quan	-10.9248
▁lô▁đất	-10.9253
▁trong▁cơ▁thể	-10.9258
▁làm▁quen	-10.926
▁nhân▁rộng	-10.9261
▁họ▁không	-10.9264
▁chặt▁chẽ▁với	-10.9266
▁đống	-10.9267
▁vừa▁rồi	-10.9269
▁quan▁trắc	-10.9269
▁tỷ▁số	-10.927
▁bội	-10.9271
▁kiềm▁chế	-10.9272
▁nói▁đến	-10.9272
▁Sở▁Giao▁thông	-10.9273
▁và▁dịch▁vụ	-10.9273
▁con▁cháu	-10.9273
▁của▁chính▁phủ	-10.9274
▁đang▁sử▁dụng	-10.9275
▁Khác	-10.9275
▁lan▁truyền	-10.9277
▁đi▁chơi	-10.9277
▁Bạn▁có▁thể	-10.9278
▁Ti	-10.9278
▁để▁xác▁định	-10.928
▁lở	-10.928
▁cho▁rằng▁việc	-10.9281
▁người▁chồng	-10.9281
xin	-10.9282
hen	-10.9282
▁Lô	-10.9285
▁đổ▁bộ	-10.9286
▁sâm	-10.9286
▁làm▁thế▁nào	-10.9288
▁khi▁mà	-10.9289
▁thủ▁thành	-10.9289
▁thân▁thiện▁với	-10.929
▁đã▁thu▁hút	-10.929
▁dài▁hơn	-10.9291
▁quãng▁đường	-10.9293
▁Đại▁tướng	-10.9293
▁vòng▁đấu	-10.9293
▁Thới	-10.9293
EF	-10.9294
▁cuộc▁đàm▁phán	-10.9296
▁của▁Samsung	-10.9296
ff	-10.9297
▁buông	-10.9301
▁dọn▁dẹp	-10.9301
▁61	-10.9302
▁trùm	-10.9302
▁lớn▁lên	-10.9303
▁trong▁làng	-10.9303
hế	-10.9304
▁Tiền▁vệ	-10.9304
▁bán▁chạy▁nhất	-10.9305
▁tạo▁hình	-10.9306
▁kể▁về	-10.931
▁Thánh	-10.9311
▁phía▁Đông	-10.9311
▁DA	-10.9311
▁đã▁qua	-10.9313
▁BBC	-10.9315
▁những▁bức▁ảnh	-10.9315
▁mạnh▁hơn	-10.9316
qui	-10.9317
▁thỏa▁mãn	-10.9319
▁tiêm▁kích	-10.9319
▁NGUY	-10.9323
▁gặp▁nhau	-10.9324
▁quần▁chúng	-10.9324
▁giới▁chức	-10.9325
▁cho▁trẻ▁em	-10.9326
EP	-10.9326
▁dành▁thời▁gian	-10.9327
▁mà▁không▁có	-10.9327
▁Luân	-10.9328
trong	-10.9329
ĩnh	-10.9329
▁ngành▁chức▁năng	-10.933
▁năm▁học▁mới	-10.9331
▁triệu▁lượt	-10.9331
▁như▁trên	-10.9332
▁bởi▁các	-10.9332
▁thì▁tôi	-10.9334
▁Fi	-10.9336
▁Kiên▁Giang	-10.9337
▁hướng▁về	-10.9338
era	-10.9341
▁tiền▁tệ	-10.9343
▁tận▁hưởng	-10.9347
▁bắp	-10.9348
▁thể▁chế	-10.935
▁USS	-10.935
▁tiếng▁nói	-10.9352
▁1/2	-10.9353
▁Mậu▁Tuất	-10.9359
▁tuyến▁phố	-10.936
▁trên▁tuyến	-10.9363
bank	-10.9365
▁hiện▁nay▁là	-10.9365
▁đủ▁sức	-10.9366
▁Blue	-10.9367
▁Theo▁quy▁định	-10.9368
▁tố▁tụng	-10.937
▁thành▁tựu	-10.9372
eon	-10.9373
▁khắp▁thế▁giới	-10.9373
▁95	-10.9374
▁nắng▁nóng	-10.9376
▁tôi▁nghĩ	-10.9377
▁xếp▁hàng	-10.9379
▁đã▁mất	-10.9382
▁tại▁Hàn▁Quốc	-10.9383
▁Tuyển	-10.9383
tel	-10.9383
▁tốt▁cho	-10.9387
▁đoạn▁video	-10.9387
▁Intel	-10.9388
▁cho▁bạn	-10.9389
▁loại▁xe	-10.939
▁Sky	-10.939
▁Cục▁Quản▁lý	-10.9392
▁dũng▁cảm	-10.9394
ada	-10.9395
▁Lạng▁Sơn	-10.9396
erry	-10.9396
3.000	-10.9397
▁thỏa	-10.9397
▁các▁sự▁kiện	-10.9397
▁của▁H	-10.9397
▁trang▁điểm	-10.9398
▁hai▁vợ▁chồng	-10.94
▁đã▁trao	-10.9401
ew	-10.9401
▁ức	-10.9402
▁mạo▁hiểm	-10.9404
▁tấm▁lòng	-10.9404
▁Hà▁Nam	-10.9404
SI	-10.9406
lam	-10.9407
ence	-10.9407
▁Bồ▁Đào▁Nha	-10.941
▁tuyển▁chọn	-10.9411
▁chà	-10.9411
▁ống▁kính	-10.9412
▁vận▁tốc	-10.9416
▁Daily▁Mail	-10.9417
▁em▁gái	-10.9417
▁trường▁hợp▁này	-10.9418
▁xơ	-10.942
▁Sacombank	-10.942
▁giá▁khởi▁điểm	-10.9421
▁Lịch	-10.9423
olo	-10.9428
▁Bởi▁vậy	-10.9428
▁vào▁lưới	-10.9429
▁và▁Truyền▁thông	-10.9429
▁của▁Luật	-10.943
▁Te	-10.9431
▁công▁thức	-10.9431
▁nhưng▁đến▁nay	-10.9432
▁chuẩn▁mực	-10.9433
▁chán	-10.9433
▁khi▁tham▁gia	-10.9433
▁đội▁chủ▁nhà	-10.9434
150	-10.9435
▁cường▁độ	-10.9437
▁đã▁dùng	-10.9438
▁mà▁tôi	-10.9439
/8/2017	-10.944
▁thứ▁tư	-10.9442
▁thịt▁lợn	-10.9443
▁mới▁về	-10.9443
▁Kiểm▁tra	-10.9444
▁1992	-10.9444
▁Chỉ▁có	-10.9446
ệnh▁viện▁Đa▁khoa	-10.9446
▁2-1	-10.9446
▁khung▁thành	-10.9447
▁hai▁ngày	-10.9449
▁Ste	-10.9449
▁của▁tổ▁chức	-10.9451
▁xi▁măng	-10.9452
▁liệu▁có	-10.9454
▁lĩnh	-10.9455
▁cả▁năm	-10.9457
DS	-10.9458
▁các▁môn	-10.9458
▁cũng▁chưa	-10.9461
▁diễn▁ra▁vào	-10.9461
▁Trị	-10.9462
"▁(	-10.9462
▁HLV▁Hữu▁Thắng	-10.9462
▁không▁phù▁hợp	-10.9463
▁nan	-10.9464
▁người▁Pháp	-10.9464
ria	-10.9464
▁ngay▁cả▁khi	-10.9466
▁luyện▁tập	-10.9467
▁văng	-10.947
▁nhận▁biết	-10.9472
burg	-10.9474
▁chương	-10.9474
▁Trân	-10.9474
▁con▁mình	-10.9475
▁được▁bổ▁nhiệm	-10.9475
▁Nguyễn▁Trọng	-10.9478
▁đến▁giờ	-10.948
ạnh	-10.9481
ord	-10.9481
▁ám▁ảnh	-10.9482
▁của▁Trung▁tâm	-10.9484
▁Hầu▁hết	-10.9487
▁phụ▁thuộc	-10.9487
▁không▁hiểu	-10.9488
ép	-10.9491
▁có▁chiều▁dài	-10.9491
▁tiếc▁nuối	-10.9495
/9/2017	-10.9497
port	-10.9498
▁danh▁tính	-10.95
▁Phù	-10.9501
▁Vladimir▁Putin	-10.9501
▁Son	-10.9504
▁Tesla	-10.9505
▁Số▁lượng	-10.9505
▁thửa▁đất	-10.9506
▁nốt	-10.9508
aka	-10.9509
▁rẻ▁hơn	-10.951
▁cầu▁vượt	-10.9512
▁Chinh	-10.9513
▁được▁cải▁thiện	-10.9513
▁tình▁tiết	-10.9514
▁tích▁lũy	-10.9514
▁gây▁khó▁khăn	-10.9515
▁các▁đội	-10.9518
▁sẽ▁tổ▁chức	-10.9521
▁gây▁hậu▁quả	-10.9521
▁2008,	-10.9522
ùa	-10.9523
▁trực▁tiếp▁đến	-10.9523
▁chóng▁mặt	-10.9523
▁dò	-10.9523
▁giúp▁bạn	-10.9524
▁các▁cửa▁hàng	-10.9525
▁mươi	-10.9527
từ▁trước▁đến▁nay	-10.953
iễn	-10.953
▁Lâm▁Đồng	-10.9531
▁có▁thể▁khiến	-10.9531
▁Trực	-10.9531
▁các▁nhà▁máy	-10.9531
▁địa▁lý	-10.9531
▁HIV	-10.9533
tô	-10.9536
ect	-10.9538
▁số▁lượng▁lớn	-10.9538
▁THPT▁quốc▁gia	-10.9538
▁bậc▁nhất	-10.9538
▁góc▁nhìn	-10.9539
▁chiếu▁sáng	-10.954
▁Thiết▁bị	-10.9541
▁sĩ▁quan	-10.9542
▁1994	-10.9545
▁Theo▁bà	-10.9546
▁giữa▁tháng	-10.9547
▁coi▁trọng	-10.9548
dan	-10.9548
▁kẻ▁thù	-10.955
▁chơi▁bóng	-10.9551
▁ý▁định	-10.9551
▁tụt	-10.9552
▁đều▁là▁những	-10.9552
▁đồng▁hành▁cùng	-10.9553
▁sư▁tử	-10.9557
▁Vũ▁Văn	-10.9559
▁ra▁lệnh	-10.956
▁Bạch▁Mai	-10.9561
Huế	-10.9562
FC	-10.9564
ning	-10.9564
▁phía▁bắc	-10.9565
▁trận▁bán▁kết	-10.9565
▁bắt▁quả▁tang	-10.9567
▁Đang	-10.9567
▁bán▁đấu▁giá	-10.9567
▁bị▁bắt▁giữ	-10.9568
des	-10.9569
▁Kho	-10.957
▁Cụ	-10.9571
▁ngày▁đêm	-10.9573
2/	-10.9573
▁nóc	-10.9574
▁thủng	-10.9575
▁Obama	-10.9578
▁thọ	-10.9579
▁các▁tiêu▁chí	-10.958
▁Ông▁Lê	-10.9585
▁giá▁đất	-10.959
▁Giấy▁chứng▁nhận	-10.9593
▁triệu▁euro	-10.9594
▁nhậu	-10.9599
▁nhá	-10.9599
▁nội▁thành	-10.96
▁những▁nội▁dung	-10.9603
ook	-10.9603
▁Pra	-10.9603
▁vứt	-10.9604
Chủ▁tịch▁UBND▁xã	-10.9604
▁người▁phát▁ngôn	-10.9604
▁Mộc	-10.9604
▁thông▁qua▁các	-10.9606
LA	-10.9606
can	-10.9607
NV	-10.9609
/2012	-10.961
▁trăn▁trở	-10.9612
▁Từ▁khi	-10.9614
▁tivi	-10.9618
▁công▁tác▁tại	-10.9619
▁khá▁lớn	-10.962
▁25%	-10.9621
▁Hy▁Lạp	-10.9623
▁phá▁hoại	-10.9623
▁Hải▁quân▁Mỹ	-10.9629
▁riêng▁biệt	-10.963
▁đã▁lên▁tiếng	-10.963
▁xếp▁thứ	-10.963
▁chưa▁từng▁có	-10.963
▁tư▁pháp	-10.9633
▁Quy▁Nhơn	-10.9633
ý	-10.9633
ther	-10.9635
▁cho▁anh	-10.9636
▁tháng▁trước	-10.9644
▁hò	-10.9644
▁nước▁Anh	-10.9647
▁thông▁qua▁việc	-10.9647
▁đấm	-10.9649
▁đếm	-10.9649
▁để▁ý	-10.965
▁Lần▁đầu▁tiên	-10.9652
▁quá▁cao	-10.9652
▁hành▁nghề	-10.9653
awa	-10.9654
▁Tôi▁không	-10.9654
▁tầm▁trung	-10.9657
▁mua▁được	-10.9657
▁người▁chơi	-10.9659
▁đám▁mây	-10.9661
▁bán▁vé	-10.9663
Nếu	-10.9663
▁hiệu▁lực	-10.9665
▁Thanh▁Bình	-10.9666
▁tuyên▁phạt	-10.9667
▁điên	-10.9668
▁chỉ▁mới	-10.9668
▁nâu	-10.9669
▁dù▁có	-10.9671
▁sử▁dụng▁động▁cơ	-10.9671
▁1,6	-10.9673
▁tất▁cả▁đều	-10.9674
▁kẹt	-10.9675
▁Điều▁đáng▁nói	-10.9676
▁đóng▁tàu	-10.9676
▁cho▁dù	-10.9677
▁không▁ít▁người	-10.968
▁bờ▁sông	-10.968
▁dày▁đặc	-10.9681
▁đội▁U	-10.9681
▁với▁nội▁dung	-10.9681
▁UNESCO	-10.9683
▁có▁lúc	-10.9684
▁bỏng	-10.9684
▁đôi▁mắt	-10.9685
▁Phường	-10.9689
▁không▁mấy	-10.969
▁vị▁trí▁thứ	-10.9693
▁đó▁là▁một	-10.9696
▁trên▁cao	-10.9697
▁Đàm▁Vĩnh▁Hưng	-10.9699
▁cơ▁sở▁sản▁xuất	-10.97
▁truyền▁tải	-10.97
▁trong▁vụ	-10.9701
▁bãi▁đỗ▁xe	-10.9701
▁dở	-10.9705
▁Nam▁Bộ	-10.9706
xi	-10.971
▁trên▁mặt	-10.9712
▁Trao▁đổi▁với▁PV	-10.9713
▁Phụng	-10.9714
▁IP	-10.9715
PS	-10.9719
▁Yu	-10.972
▁Mọi▁người	-10.9722
▁gây▁tranh▁cãi	-10.9723
▁Tp	-10.9724
▁sừng	-10.9725
▁Lực	-10.9726
▁Phó▁trưởng	-10.9726
▁Con▁đường	-10.9726
▁xỉ	-10.9728
▁chỉ▁vì	-10.9728
▁có▁cả	-10.9728
▁MP	-10.9729
▁thì▁họ	-10.9729
▁quốc▁tịch	-10.973
▁Bộ▁Tư▁lệnh	-10.973
▁thế▁hệ▁thứ	-10.973
▁cơ▁quan▁báo▁chí	-10.9731
▁khoa▁học▁và	-10.9731
▁ngã▁tư	-10.9731
▁Chuyên	-10.9733
▁chào▁mừng	-10.9734
LS	-10.9734
▁em▁trai	-10.9735
▁Cầu▁Giấy	-10.9736
▁hiện▁hữu	-10.9736
▁900	-10.9738
▁cho▁tất▁cả	-10.9738
▁bạn▁thân	-10.9739
oz	-10.9739
▁Ái	-10.974
▁Dân▁chủ	-10.9742
▁chia▁sẻ▁về	-10.9743
▁niềm▁tự▁hào	-10.9744
▁đã▁có▁mặt	-10.9744
▁gia▁đình▁tôi	-10.9748
cha	-10.9749
▁mang▁BKS	-10.9754
▁vẻ▁ngoài	-10.9755
▁bán▁cho	-10.9757
▁Phòng▁Cảnh▁sát	-10.9758
▁thất▁thoát	-10.9758
▁Chiến▁thắng	-10.976
▁Ber	-10.9762
▁Show	-10.9763
▁soạn▁thảo	-10.9763
▁Khách▁hàng	-10.9764
▁bán▁trú	-10.9765
▁lách	-10.9769
▁không▁thực▁hiện	-10.9772
▁các▁tác▁phẩm	-10.9774
▁hình▁ảnh▁của	-10.9774
▁For	-10.9775
▁xy	-10.9778
▁có▁gì	-10.9781
▁tràn▁lan	-10.9782
▁nhân▁dịp	-10.9783
▁nóng▁bỏng	-10.9784
▁Bộ▁phim	-10.9785
▁dự▁trữ	-10.9785
▁hòa▁giải	-10.9789
▁bùng▁phát	-10.9789
▁2001	-10.979
▁nhằm▁mục▁đích	-10.979
▁showbiz	-10.9791
82	-10.9792
▁tiểu▁thương	-10.9794
▁tùy▁theo	-10.9796
Bank	-10.98
▁xử▁lý▁nước▁thải	-10.98
▁vào▁cuối▁tháng	-10.98
▁hơn▁hẳn	-10.9801
▁Tham	-10.9802
▁1.8	-10.9805
▁bài▁phát▁biểu	-10.9807
▁những▁thứ	-10.9808
▁lơ	-10.9808
▁để▁triển▁khai	-10.9812
▁viện▁trợ	-10.9813
▁đáng▁sợ	-10.9817
▁rất▁mạnh	-10.9817
▁màn▁ảnh	-10.9818
▁mộc	-10.9818
▁kiểm	-10.9819
ậy	-10.9822
▁Bí▁thư▁Đảng▁ủy	-10.9824
USD	-10.9825
▁laptop	-10.9827
▁nhiều▁năm▁nay	-10.9828
▁George	-10.983
▁các▁phòng	-10.9831
▁chữ▁ký	-10.9835
▁môi▁trường▁sống	-10.9836
Trong	-10.9838
▁rộng▁hơn	-10.984
▁mô▁tô	-10.9842
▁phát▁minh	-10.9843
▁2025	-10.9844
▁mến	-10.9844
▁Trình	-10.9845
▁đều▁bị	-10.9845
▁để▁tạo▁ra	-10.9847
▁châm	-10.9848
▁thoáng	-10.9848
▁dạo	-10.985
▁những▁loại	-10.9851
▁Không▁thể	-10.9852
▁bộ▁đôi	-10.9854
▁tim▁mạch	-10.9857
▁tổn▁thất	-10.9857
▁có▁tiền	-10.9858
▁nuôi▁con	-10.9859
▁bảo▁trì	-10.9859
▁phía▁nam	-10.986
▁phiên▁bản▁mới	-10.986
▁các▁nhiệm▁vụ	-10.9861
▁protein	-10.9861
▁và▁cũng▁là	-10.9861
▁nhắc▁lại	-10.9861
▁All	-10.9861
▁QH	-10.9862
▁bóp	-10.9863
▁nôn	-10.9863
▁cô▁dâu	-10.9865
▁xâm▁phạm	-10.9865
▁15.000	-10.9868
▁bên▁phải	-10.9868
▁rắc▁rối	-10.9874
▁Mặt▁trời	-10.9875
▁International	-10.9877
▁xâm▁nhập	-10.9877
▁thiệt	-10.9878
▁hạm	-10.9879
▁cưỡng	-10.9879
DC	-10.988
▁bán▁với▁giá	-10.988
▁tăng▁tốc▁từ	-10.9881
▁mặt▁trăng	-10.9882
▁tôi▁có	-10.9883
▁thuyền▁viên	-10.9888
▁cánh▁tay	-10.9889
▁nhiều▁hoạt▁động	-10.9889
▁tai▁nghe	-10.9892
▁Sa▁Pa	-10.9893
▁lần▁lượt▁là	-10.9894
▁mặc▁áo	-10.9895
▁tỉnh▁Khánh▁Hòa	-10.9895
▁theo▁tiêu▁chuẩn	-10.9896
▁khía▁cạnh	-10.9898
▁một▁bộ▁phận	-10.9898
▁FBI	-10.9901
▁Bầu	-10.9902
▁theo▁từng	-10.9902
▁kẹt▁xe	-10.9903
▁1996	-10.9903
oạt	-10.9903
▁mơ▁ước	-10.9904
▁Thụy▁Sĩ	-10.9905
▁mua▁nhà	-10.9905
▁khi▁sử▁dụng	-10.9908
▁gì▁đó	-10.991
▁vòm	-10.9912
▁cài	-10.9912
▁140	-10.9913
▁tuổi▁thọ	-10.9914
▁cương	-10.9914
▁nhận▁tiền	-10.9914
▁có▁lợi▁cho	-10.9915
▁Che	-10.9915
▁hôm▁sau	-10.9916
▁bitcoin	-10.9919
▁Đầu▁tiên	-10.9919
▁đạt▁tiêu▁chuẩn	-10.9921
▁Kinh▁doanh	-10.9921
Người	-10.9927
▁đâm▁vào	-10.9927
▁trước▁U	-10.993
òi	-10.9932
▁lõi	-10.9934
▁khánh▁thành	-10.9935
▁đắm	-10.9937
gue	-10.9937
▁quan▁ngại	-10.9938
▁chuồng	-10.9938
▁các▁cán▁bộ	-10.9938
▁tiếp▁tục▁được	-10.9939
▁giản▁dị	-10.9941
▁Trong▁bối▁cảnh	-10.9946
▁bóc	-10.9948
▁Mặt	-10.9955
▁sạch▁sẽ	-10.9956
▁axit	-10.9956
▁Chi▁nhánh	-10.9957
▁Quá	-10.9957
-11,	-10.9957
81	-10.9957
▁nói▁riêng▁và	-10.9958
▁hương▁vị	-10.996
Nam	-10.9963
▁86	-10.9963
▁thường▁được	-10.9963
▁đang▁phải	-10.9963
▁Mor	-10.9964
▁bị▁thương▁nặng	-10.9967
▁Moto	-10.9967
ama	-10.9968
▁66	-10.9969
▁lưu▁hành	-10.9969
▁khảo	-10.997
ox	-10.9973
▁Mong	-10.9973
▁Phủ	-10.9975
▁sự▁hiện▁diện	-10.9976
▁kỳ▁thi▁THPT	-10.9978
▁tạo▁sự	-10.9979
▁đương▁nhiên	-10.998
▁đơn▁vị▁thi▁công	-10.9982
▁soi	-10.9985
▁sẽ▁tăng	-10.9985
▁Đông▁Bắc	-10.9986
▁trở▁ngại	-10.9987
▁các▁dòng▁xe	-10.9988
▁cần▁phải▁có	-10.999
▁đã▁chọn	-10.9991
▁để▁tăng	-10.9991
▁bình▁yên	-10.9993
▁giọt	-10.9994
ĐH	-10.9994
▁ngón▁tay	-10.9994
▁mới▁biết	-10.9994
▁cứu▁nạn	-10.9994
quản▁lý▁nhà▁nước	-10.9996
▁kí	-10.9996
▁trái▁chiều	-10.9997
▁vạ	-10.9999
▁cộng▁với	-10.9999
▁trụ▁cột	-11
▁một▁nhà	-11.0003
▁Thống▁Nhất	-11.0003
▁gặp▁nạn	-11.0004
▁rút▁khỏi	-11.0005
▁chèo	-11.0005
▁chủ▁xe	-11.0006
▁Pháp▁luật	-11.0006
▁gom	-11.0007
▁gửi▁tới	-11.0007
▁cực▁đoan	-11.0007
▁cấp▁bách	-11.0007
PG	-11.0008
▁sát▁hại	-11.0009
▁khắp▁các	-11.0011
▁đổ▁về	-11.0012
▁chưa▁rõ	-11.0012
▁chất▁vấn	-11.0012
▁hiệu▁quả▁hơn	-11.0013
▁đôn▁đốc	-11.0014
▁đã▁tạo▁ra	-11.0015
▁bảo▁lãnh	-11.0015
▁chiếc▁máy	-11.0016
▁đinh	-11.0017
▁BIDV	-11.0018
▁bộ▁ảnh	-11.0018
▁được▁bán▁ra	-11.0019
gar	-11.0023
▁cũng▁chẳng	-11.0024
▁Tháp	-11.0025
▁nhưng▁do	-11.0025
hận▁được▁tin▁báo	-11.0028
▁gần▁đó	-11.0029
▁theo▁phong▁cách	-11.003
▁căn▁phòng	-11.0031
▁vinh▁danh	-11.0034
▁thông▁tin▁trên	-11.0035
▁chỉ▁ra▁rằng	-11.0035
▁Biểu	-11.0037
▁nhà▁phân▁tích	-11.0038
▁bỏ▁hoang	-11.0039
▁của▁chiếc▁xe	-11.0039
▁cục▁bộ	-11.004
▁chỉ▁khoảng	-11.004
▁ngộ	-11.0042
▁tín▁nhiệm	-11.0042
▁hướng▁đi	-11.0044
▁thân▁hình	-11.0046
▁điểm▁số	-11.0046
▁là▁một▁người	-11.005
ari	-11.005
▁lưu▁trú	-11.0051
▁Hình	-11.0051
▁cò	-11.0052
▁lộn	-11.0055
▁đọc▁sách	-11.0055
▁có▁chất▁lượng	-11.0056
▁dì	-11.0056
▁Đứng	-11.0057
▁đó▁chính▁là	-11.0057
▁cảm▁nhận▁được	-11.0058
▁chết▁người	-11.0059
▁lâm▁nghiệp	-11.006
▁khoáng	-11.0062
▁cơ▁động	-11.0063
▁chuyển▁hóa	-11.0064
OC	-11.0068
▁của▁Đức	-11.0072
▁chỉ▁có▁một	-11.0073
▁08	-11.0074
▁công▁cuộc	-11.0078
▁thảo▁luận▁về	-11.0079
▁đò	-11.0082
▁trưng	-11.0087
ỏi	-11.0087
▁Hợp▁tác	-11.009
▁thằng	-11.0092
▁những▁nơi	-11.0096
▁rẫy	-11.0098
▁vào▁đầu	-11.0099
▁Instagram	-11.0101
▁Tom	-11.0101
uộc	-11.0103
▁phản▁cảm	-11.0105
▁cơ▁khí	-11.0106
▁Ji	-11.0109
▁ki	-11.0112
▁và▁đặc▁biệt▁là	-11.0114
IM	-11.0114
▁Chúng▁tôi▁đã	-11.0115
▁RS	-11.0117
▁bên▁kia	-11.0117
▁Km	-11.0119
▁Trái	-11.012
Ảnh▁minh▁họa	-11.012
ey	-11.0123
▁Shi	-11.0124
▁để▁trở▁thành	-11.0124
Royce	-11.0125
▁anh▁trai	-11.0126
▁hiếm▁hoi	-11.0129
Các	-11.0129
▁học▁đường	-11.0131
▁câu▁nói	-11.0134
▁mưu	-11.0134
▁được▁bố▁trí	-11.0135
▁bản▁thân▁mình	-11.0136
▁dừng▁xe	-11.0136
ỉnh	-11.0142
▁gia▁đình▁anh	-11.0142
▁Điển▁hình	-11.0142
iêng	-11.0143
▁quầy	-11.0143
▁du▁học	-11.0143
▁Tám	-11.0144
dân▁tộc▁thiểu▁số	-11.0145
▁cao▁tầng	-11.0147
▁khởi▁tố▁bị▁can	-11.0147
▁tổng▁vốn▁đầu▁tư	-11.0147
▁tương▁đồng	-11.0148
▁vì▁lý▁do	-11.0151
▁có▁dịp	-11.0153
▁nhật	-11.0154
▁làm▁thay▁đổi	-11.0156
▁Jerusalem	-11.0157
nguyên	-11.0157
▁thành▁phố▁lớn	-11.0161
▁At	-11.0162
ượng	-11.0163
▁bị▁phát▁hiện	-11.0163
▁Thổ	-11.0163
▁Số▁tiền	-11.0164
▁SIM	-11.0164
▁Mai▁Linh	-11.0164
▁trong▁hệ▁thống	-11.0168
▁các▁cá▁nhân	-11.017
▁của▁đội	-11.017
tức	-11.017
guyễn▁Thiện▁Nhân	-11.0174
▁Vốn	-11.0175
▁lầm	-11.0175
▁1.200	-11.0176
▁Lò	-11.0177
red	-11.0177
oo	-11.0179
òa	-11.0181
▁sông▁Hồng	-11.0185
▁Tinh	-11.0186
ram	-11.0187
▁Nguyễn▁Thế	-11.0188
▁đa▁khoa	-11.0188
▁Viện▁Nghiên▁cứu	-11.0189
▁ghét	-11.0189
▁thu▁hẹp	-11.019
▁đảm▁nhiệm	-11.019
▁Tên	-11.019
ặn	-11.0195
▁Sự▁kiện	-11.0197
▁địa▁phận	-11.0201
▁Alibaba	-11.0202
▁Hóa▁học	-11.0202
▁ơn	-11.0203
▁Bến	-11.0208
▁Bộ▁Văn▁hóa	-11.0209
BT	-11.021
rey	-11.021
▁Chế	-11.0211
▁Tây▁Ninh	-11.0213
▁côn▁trùng	-11.0214
▁tuổi▁trẻ	-11.0214
▁một▁hệ▁thống	-11.0215
ita	-11.0215
▁Kiệt	-11.0215
▁đặt▁mục▁tiêu	-11.0218
▁mặt▁trận	-11.0222
y▁ban▁nhân▁dân	-11.0222
▁của▁phóng▁viên	-11.0222
▁tên▁là	-11.0223
▁anh▁chị	-11.0223
▁1993	-11.0223
▁để▁có▁được	-11.0224
▁cho▁cán▁bộ	-11.0226
▁thư▁giãn	-11.0228
▁Huyện▁ủy	-11.0229
tăng	-11.0229
▁xôn▁xao	-11.0231
▁Cận▁cảnh	-11.0234
▁vuông	-11.0234
▁soạn	-11.0235
▁giảm▁xuống	-11.0239
▁Tour	-11.0239
▁sự▁góp▁mặt▁của	-11.024
▁Hoàng▁gia	-11.024
▁con▁số▁này	-11.0242
▁và▁nâng▁cao	-11.0243
▁ghi▁hình	-11.0244
▁biên▁phòng	-11.0249
▁phúc▁thẩm	-11.025
▁vòng▁chung▁kết	-11.0251
▁rõ▁nét	-11.0252
▁Đã▁có	-11.0252
ượt	-11.0257
▁Mặc▁dù▁vậy	-11.0257
▁có▁kết▁quả	-11.0257
âng	-11.0258
book	-11.0261
/2015,	-11.0263
oot	-11.027
▁Chất	-11.0271
ựu	-11.0273
▁thấy▁rằng	-11.0279
▁loài▁cá	-11.0282
▁biện	-11.0284
▁nhưng▁ông	-11.0286
▁đứng▁trước	-11.0286
▁ghế▁ngồi	-11.0287
▁sẽ▁còn	-11.0289
▁sẽ▁là▁một	-11.029
▁oxy	-11.029
▁hái	-11.0291
▁liên▁bang	-11.0291
ẹp	-11.0292
▁(18	-11.0296
.900	-11.0296
▁chấn	-11.0297
▁Pu	-11.03
▁tái▁hiện	-11.0301
▁Chùa	-11.0305
▁hình▁dáng	-11.0308
▁Bánh	-11.0309
▁bị▁đánh	-11.0309
▁thích▁ứng	-11.0311
▁trên▁báo	-11.0312
trí▁tuệ▁nhân▁tạo	-11.0313
▁Tiền▁Giang	-11.0316
ẳng	-11.0317
▁lu	-11.0319
▁Trời	-11.0321
▁truy▁nã	-11.0322
▁hủy▁diệt	-11.0322
▁Không▁gian	-11.0324
▁Đôi	-11.0326
▁đạm	-11.033
star	-11.0331
▁Đặc	-11.0332
▁học▁lớp	-11.0334
7,5	-11.0337
▁tối▁cao	-11.0339
▁Lê▁Minh	-11.034
▁1,1	-11.0344
▁chân▁dung	-11.0344
▁rất▁thấp	-11.0344
▁xử▁phạt▁vi▁phạm	-11.0345
▁1/3	-11.0348
▁ông▁nói	-11.0349
CE	-11.0351
▁quý▁giá	-11.0351
▁bị▁nhiễm	-11.0352
▁cabin	-11.0352
▁AMG	-11.0354
▁trên▁sân▁nhà	-11.0355
▁tro	-11.0356
▁quyền▁sở▁hữu	-11.0357
▁bài▁thơ	-11.0358
▁War	-11.0361
▁kiệt	-11.0361
▁của▁đơn▁vị	-11.0362
▁Red	-11.0362
▁những▁đứa▁trẻ	-11.0363
▁Bộ▁Nội▁vụ	-11.0365
▁Chuyển	-11.0365
▁úy	-11.0366
▁trực▁tiếp▁với	-11.0366
▁với▁vai▁trò	-11.0367
▁rất▁đông	-11.037
▁một▁thành▁viên	-11.0371
▁Eco	-11.0372
EA	-11.0372
▁giặc	-11.0372
▁Binh	-11.0373
▁một▁bên	-11.0376
▁Bao	-11.0377
▁1,4	-11.0377
▁THA	-11.038
▁Tưởng	-11.0381
hâm	-11.0381
▁nghiêm▁ngặt	-11.0382
▁phía▁đông	-11.0383
▁hoài	-11.0383
▁thì▁có▁thể	-11.0384
▁mầm	-11.0384
▁chụp▁hình	-11.0389
▁phải▁thực▁hiện	-11.0391
▁đã▁không▁còn	-11.0391
1.000	-11.0394
▁tại▁thời▁điểm	-11.0397
▁trong▁trận▁đấu	-11.0398
▁thiệt▁thòi	-11.04
▁đai	-11.0402
▁xe▁ôm	-11.0404
▁đặt▁tên	-11.0405
▁chấu	-11.0405
▁dần▁dần	-11.0406
▁Sea	-11.0409
▁nhằm▁đảm▁bảo	-11.0409
▁Nghệ▁thuật	-11.041
▁lại▁tiếp▁tục	-11.041
▁Hiểu	-11.0413
▁Vợ▁chồng	-11.0414
▁Nội▁thất	-11.0414
▁Bộ▁TT	-11.0415
▁nói▁chuyện▁với	-11.0417
▁Av	-11.0417
▁nếu▁muốn	-11.0417
▁Tìm	-11.0423
▁cất▁cánh	-11.0424
▁Danh▁sách	-11.0427
▁đồng▁phạm	-11.0427
▁Điệp	-11.0427
▁bị▁hư▁hỏng	-11.0428
▁biểu▁dương	-11.0429
▁Bộ▁Tài▁nguyên	-11.0429
▁đạt▁giải	-11.043
▁Thuế	-11.0431
▁phím	-11.0432
▁trên▁Facebook	-11.0433
▁các▁phiên▁bản	-11.0438
▁Phổ	-11.0438
▁các▁loài	-11.0441
▁40.000	-11.0441
▁mực▁nước	-11.0442
▁Suốt	-11.0443
▁được▁kỳ▁vọng	-11.0445
▁cho▁U	-11.0449
▁nảy	-11.0452
▁những▁giải▁pháp	-11.0453
▁ăn▁thịt	-11.0454
▁thể▁chất	-11.0454
▁Vượng	-11.0455
▁7.000	-11.0457
▁để▁xem	-11.0457
▁coi▁như	-11.0457
▁Vân▁Đồn	-11.0457
▁cốt▁lõi	-11.0458
▁có▁thể▁đạt	-11.0458
▁đăng▁trên	-11.0458
▁cho▁ra▁mắt	-11.046
▁Bệnh▁nhân	-11.0463
9.000	-11.0466
▁những▁hành▁động	-11.047
way	-11.0473
▁toàn▁dân	-11.0474
▁xây▁nhà	-11.0474
▁Phạm▁Công▁Danh	-11.0476
▁manh	-11.0476
▁Ye	-11.0479
▁thèm	-11.0479
▁nguy▁kịch	-11.048
▁1,8	-11.048
ene	-11.0482
Không	-11.0484
▁vang	-11.0489
▁tư▁cách	-11.0492
▁với▁hệ▁thống	-11.0492
▁triệu▁đồng▁cho	-11.0492
NQ	-11.0492
ith	-11.0494
▁trong▁trận	-11.0495
▁xe▁chở	-11.0495
▁chọc	-11.0496
ani	-11.0501
▁uống▁rượu	-11.0501
▁Ký	-11.0502
ovic	-11.0502
▁Chuyến	-11.0502
▁Cầm	-11.0505
▁Đến▁ngày	-11.0505
▁quay▁về	-11.0506
▁của▁mẹ	-11.051
▁Bên▁trong	-11.0511
ins	-11.0513
▁chăm▁chỉ	-11.0514
▁Thiết	-11.0515
▁euro	-11.0515
▁ở▁thủ▁đô	-11.0517
▁Thùy	-11.0518
▁nổi▁tiếng▁của	-11.0518
▁vú	-11.0519
▁dược▁liệu	-11.0521
▁Đề▁nghị	-11.0523
▁đầy▁đủ▁các	-11.0523
▁Phần▁lớn	-11.0524
▁chính▁quy	-11.0527
▁bán▁tải	-11.0527
▁được▁hỗ▁trợ	-11.0531
▁ND	-11.0532
▁cải▁lương	-11.0532
amp	-11.0532
ST	-11.0535
▁Pri	-11.0537
▁môi▁giới	-11.0539
▁háo▁hức	-11.0541
▁sao▁Hỏa	-11.0542
▁dòng▁sản▁phẩm	-11.0545
▁đã▁gây	-11.0547
▁Phấn	-11.0548
▁xạ	-11.0548
▁có▁cảm▁giác	-11.0551
▁hồ▁chứa	-11.0552
▁nảy▁sinh	-11.0553
▁bì	-11.0554
▁quy▁tụ	-11.0557
▁doanh▁số▁bán	-11.0557
▁môn▁thi	-11.056
▁làm▁công▁tác	-11.056
ym	-11.0562
▁ngoài▁hành▁tinh	-11.0566
▁diễu▁hành	-11.0566
▁Ô▁tô	-11.0566
▁lọ	-11.0568
▁Bộ▁TN	-11.0569
top	-11.057
▁Hàng▁loạt	-11.0572
SS	-11.0572
▁Cháu	-11.0574
rd	-11.0575
▁từ▁thời	-11.0575
▁trận▁thắng	-11.0576
▁Chiến▁tranh	-11.0576
▁tuần▁này	-11.0577
▁cốc	-11.0578
▁vượt▁lên	-11.0579
▁quạt	-11.0579
▁tra	-11.0584
▁78	-11.0586
▁rạch	-11.0587
Những	-11.0587
▁Chồng	-11.0587
▁thạc▁sĩ	-11.0588
▁xin▁phép	-11.0588
▁Qualcomm	-11.0588
▁sơ▁bộ	-11.0589
▁Thanh▁Tùng	-11.0591
▁dục	-11.0591
▁lời▁khuyên	-11.0591
▁sự▁hợp▁tác	-11.0591
▁Vĩnh▁Long	-11.0592
▁sâu▁rộng	-11.0592
▁FDI	-11.0593
▁tiến▁công	-11.0594
▁06	-11.0595
▁các▁trung▁tâm	-11.0595
▁hủy▁bỏ	-11.0602
▁sáng▁ngày	-11.0603
▁hiến▁máu	-11.0604
▁mang▁đến▁cho	-11.0605
/4/2017	-11.0606
▁bản▁địa	-11.0607
▁nhái	-11.0608
▁của▁Chủ▁tịch	-11.0609
ED	-11.061
▁mô▁phỏng	-11.0614
▁Bạc	-11.0615
▁đưa▁về	-11.0616
▁có▁quy▁mô	-11.0616
/2017/	-11.0616
▁ra▁quân	-11.0616
▁Vị▁trí	-11.0618
▁chưa▁kể	-11.0618
▁Rolls	-11.062
hành	-11.062
đã	-11.0621
▁sắm	-11.0622
▁Tuyên▁bố	-11.0622
▁phòng▁khám	-11.0624
▁quả▁bom	-11.063
▁bị▁ngập	-11.0631
▁con▁vật	-11.0632
▁ca▁ngợi	-11.0633
-2018	-11.0636
ato	-11.0638
iếng	-11.0639
▁phấn	-11.0639
EU	-11.064
▁thu▁hút▁được	-11.0644
▁viếng	-11.0655
▁các▁nguồn	-11.0656
▁gây▁tai▁nạn	-11.0656
▁với▁thiết▁kế	-11.0658
▁cổ▁vũ▁cho	-11.0658
▁cho▁bà	-11.0658
▁1998	-11.0659
▁Nơi	-11.0661
▁Wat	-11.0662
iếu	-11.0666
▁hoa▁quả	-11.0667
▁450	-11.067
▁không▁may	-11.0673
▁cú▁sút	-11.068
▁Đường▁sắt	-11.0683
▁buôn▁lậu	-11.0685
▁khảo▁cổ	-11.069
DA	-11.0695
▁về▁môi▁trường	-11.0695
▁không▁phép	-11.0696
▁Bốn	-11.0696
▁thiết▁yếu	-11.0697
▁đêm▁nhạc	-11.0697
▁có▁mức	-11.0697
▁69	-11.0698
▁có▁thể▁dễ▁dàng	-11.0698
▁Cơ▁sở	-11.0699
▁Nam▁Phi	-11.07
▁lộc	-11.0701
▁trung▁thành	-11.0701
▁hệ▁lụy	-11.0701
▁hoá	-11.0704
▁Mang	-11.0705
▁mặt▁nạ	-11.0705
LC	-11.0705
▁sụp▁đổ	-11.0706
▁xo	-11.0706
▁trì	-11.0708
▁FIFA	-11.0709
▁bị▁chết	-11.071
▁Giai▁đoạn	-11.0712
▁thực▁hiện▁theo	-11.0716
▁cực▁đại	-11.0717
▁360	-11.0718
ves	-11.0718
▁bất▁ngờ▁khi	-11.0719
▁vụ▁cháy	-11.072
▁mọi▁chuyện	-11.072
▁ít▁hơn	-11.0722
tis	-11.0722
lor	-11.0723
▁dẫn▁đường	-11.0725
▁kiên▁cố	-11.0731
▁đùi	-11.0731
▁Vợ	-11.0733
ộng	-11.0733
sau	-11.0734
▁của▁Google	-11.0735
▁thủ▁đoạn	-11.0735
▁phú	-11.0739
▁lâu▁đời	-11.0746
▁3-4	-11.0748
▁Thêm▁vào▁đó	-11.075
▁Dàn	-11.075
▁chửi	-11.0751
▁ngá	-11.0751
▁học▁hành	-11.0754
▁cá▁voi	-11.0755
▁xoa	-11.0758
▁Liên▁minh▁châu	-11.0759
▁tê	-11.076
▁Kiến▁trúc	-11.076
▁Nạn▁nhân	-11.0761
▁kỳ▁tích	-11.0762
▁Biên▁phòng	-11.0764
▁cổ▁đại	-11.0764
▁sân▁golf	-11.0765
▁xe▁tay▁ga	-11.0766
▁Hợp▁đồng	-11.0766
▁dự▁luật	-11.0766
▁Nhà▁báo	-11.0768
▁Giảm	-11.0769
▁giấc▁ngủ	-11.0769
EN	-11.077
MI	-11.077
▁khá▁tốt	-11.077
ple	-11.0771
▁tín▁đồ	-11.0772
▁Chile	-11.0778
▁đám▁đông	-11.0778
▁trung▁thực	-11.0779
▁Thông▁thường	-11.0785
▁giống▁nhau	-11.0785
▁Theo▁số▁liệu	-11.0787
▁học▁phổ▁thông	-11.0788
▁VP	-11.079
▁chế▁tài	-11.0791
▁dẫn▁đến▁việc	-11.0791
▁với▁chúng▁tôi	-11.0791
▁nhằm▁nâng▁cao	-11.0793
▁web	-11.0793
▁Thị▁Kim▁Ngân	-11.0793
▁khốc▁liệt	-11.0794
HN	-11.0794
▁ngành▁liên▁quan	-11.0795
▁bám▁sát	-11.0795
▁trong▁tổng▁số	-11.0796
▁giải▁đáp	-11.0796
▁ngoài▁khơi	-11.0796
▁Thống▁kê	-11.0796
▁với▁những▁người	-11.0797
▁Cơ▁quan▁CSĐT	-11.0798
▁Mạc	-11.08
▁người▁nông▁dân	-11.0801
▁được▁người▁dân	-11.0801
▁nhưng▁họ	-11.0801
▁hợp▁kim	-11.0803
▁Ninh▁Thuận	-11.0803
▁27/1	-11.0803
▁với▁lý▁do	-11.0804
▁sản▁phụ	-11.0807
▁hợp▁nhất	-11.0809
▁thần▁tượng	-11.0811
▁Đáng	-11.0813
▁bí▁quyết	-11.0814
▁bầu▁Đức	-11.0815
RO	-11.0816
sky	-11.082
▁một▁cô▁gái	-11.0824
▁đảm	-11.0826
▁thế▁trận	-11.0827
▁hội▁tụ	-11.0827
▁Tư▁vấn	-11.0827
ue	-11.0829
▁gia▁đình▁bà	-11.0832
▁vớt	-11.0833
▁tỉnh▁Quảng▁Bình	-11.0834
▁đường▁kính	-11.0836
pô	-11.0838
▁bắt▁cóc	-11.0838
▁Thể	-11.0839
▁Mưa	-11.084
ủng	-11.084
▁những▁tác▁phẩm	-11.0842
▁diễn▁tập	-11.0846
▁có▁kinh▁nghiệm	-11.0851
▁khát	-11.0853
▁Đảng▁Cộng▁sản	-11.0853
▁trá	-11.0854
▁selfie	-11.0854
▁gây▁chú▁ý	-11.0854
▁của▁quân▁đội	-11.0855
▁đoàn▁kiểm▁tra	-11.0856
▁Đạo▁diễn	-11.0856
▁vào▁sáng	-11.0857
▁Rùa	-11.0857
▁tại▁khu	-11.0862
▁thương▁lái	-11.0866
oss	-11.0867
▁út	-11.0868
▁công▁trường	-11.0869
ựa	-11.087
?".	-11.087
if	-11.0871
▁đi▁xe▁máy	-11.0874
▁trợ▁giúp	-11.0875
▁GP	-11.088
▁Martin	-11.0884
▁đã▁chủ▁động	-11.0888
BV	-11.0888
2)	-11.0892
▁Mas	-11.0893
▁của▁Bộ▁GD	-11.0895
▁Los▁Angeles	-11.0899
▁hiệu▁năng	-11.09
▁quân▁đội▁Syria	-11.09
▁Chan	-11.0901
▁(6	-11.0907
▁Lân	-11.0907
▁người▁học	-11.0908
▁đã▁vượt▁qua	-11.0909
▁Dầu	-11.0911
▁Ban▁Tổ▁chức	-11.0912
▁vật▁tư	-11.0914
▁cần▁thiết▁để	-11.0914
▁thích▁nghi	-11.0916
▁xa▁lạ	-11.092
▁họ▁có▁thể	-11.0922
▁ngang▁nhiên	-11.0923
.2016	-11.0924
▁nhập▁học	-11.0925
▁đồng▁thuận	-11.0926
▁người▁đi▁bộ	-11.0929
▁Sở▁hữu	-11.093
▁những▁giá▁trị	-11.0931
GP	-11.0934
▁Tà	-11.0935
▁nếu▁không▁có	-11.0935
-22	-11.0936
▁ủ	-11.0939
▁tiếng▁đồng▁hồ	-11.094
▁của▁khán▁giả	-11.094
lay	-11.0942
▁phải▁đảm▁bảo	-11.0944
▁sớm▁nhất	-11.0945
▁phần▁đầu	-11.0948
▁1991	-11.0949
▁biến▁thể	-11.0949
▁trên▁đường▁phố	-11.0951
▁tâm▁điểm	-11.0951
▁xuống▁đường	-11.0952
ail	-11.0954
▁Ap	-11.0956
▁Tham▁gia	-11.0956
▁phao	-11.0956
▁các▁nhân▁viên	-11.0957
▁115	-11.0963
▁Trong▁ảnh	-11.0963
▁tiền▁thưởng	-11.0964
▁không▁rõ	-11.0968
▁người▁cha	-11.0969
▁bên▁trái	-11.0971
▁khiến▁người▁dân	-11.0972
▁còn▁lại▁là	-11.0972
▁nhã	-11.0974
▁cũng▁yêu▁cầu	-11.0975
▁để▁chuẩn▁bị	-11.0976
▁thuế▁nhập▁khẩu	-11.0979
▁khả	-11.0979
▁cày	-11.0981
▁vóc▁dáng	-11.0982
chiếm	-11.0982
▁của▁nền▁kinh▁tế	-11.0983
▁nhà▁vệ▁sinh	-11.0983
▁gây▁bức▁xúc	-11.0987
▁quý▁I	-11.0988
▁đã▁quá	-11.0988
▁của▁người▁dùng	-11.0989
▁thiên▁văn	-11.0989
▁Mô	-11.099
▁1000	-11.0991
▁87	-11.0991
▁Hoàng▁Sa	-11.0991
▁NN	-11.0992
▁y▁học	-11.0993
▁mức▁phí	-11.0994
are	-11.0996
▁vợ▁con	-11.0999
▁Già	-11.1001
▁Rồng	-11.1001
▁khiến▁khán▁giả	-11.1002
▁cấp▁nước	-11.1003
▁Huân▁chương	-11.1004
▁carbon	-11.1005
▁quy▁tắc	-11.1005
▁vã	-11.1007
▁Trạch	-11.1008
▁Thăng	-11.1008
▁công▁đoạn	-11.1008
▁rất▁có▁thể	-11.1009
▁để▁giảm	-11.101
▁Hải▁quan	-11.101
▁phòng▁ngủ	-11.1013
▁thì▁lại	-11.1014
▁mùa▁xuân	-11.1015
▁Hoàng▁Anh▁Tuấn	-11.1016
▁võ▁thuật	-11.102
▁đang▁thực▁hiện	-11.102
▁quất	-11.1021
▁không▁thích	-11.1021
▁được▁nâng▁cấp	-11.1022
▁nó▁có▁thể	-11.1022
▁các▁mô▁hình	-11.1023
▁an▁toàn▁cho	-11.1023
▁Ky	-11.1025
▁sẽ▁bắt▁đầu	-11.1025
▁còn▁hạn▁chế	-11.1026
▁giấc	-11.103
▁qua▁mạng	-11.1031
▁chống▁khủng▁bố	-11.1035
▁trẻ▁tuổi	-11.1036
▁sôi▁nổi	-11.104
▁bệnh▁lý	-11.1042
▁lên▁cao	-11.1042
▁Vài	-11.1043
▁Kính	-11.1044
như	-11.1044
▁vài▁trăm	-11.1044
▁Giải▁pháp	-11.1045
▁với▁gia▁đình	-11.1046
▁Hoặc	-11.1047
▁Thanh▁Hà	-11.1048
▁83	-11.1049
▁cào	-11.1049
▁xin▁ý▁kiến	-11.105
▁nhân▁đạo	-11.105
▁đương	-11.105
▁hấp▁thụ	-11.1051
ọt	-11.1052
▁riêng▁tư	-11.1052
▁Trần▁Đại▁Quang	-11.1054
▁Ag	-11.1057
▁Fox	-11.1058
▁răn▁đe	-11.1058
▁rụng	-11.1058
▁Thành▁Công	-11.1058
▁ngôi▁làng	-11.1059
▁ngày▁càng▁tăng	-11.106
▁AS	-11.1062
▁ông▁Hải	-11.1065
phải	-11.1065
cent	-11.1065
▁77	-11.1066
▁phát▁tán	-11.1066
▁Đa▁khoa	-11.1066
orn	-11.1072
▁ông▁Đặng	-11.1073
▁tập▁trận	-11.1073
▁đã▁tử▁vong	-11.1073
ừa	-11.1074
▁Công▁việc	-11.1074
▁Inter	-11.1075
▁Lai▁Châu	-11.1076
▁Her	-11.1077
▁cháo	-11.1078
▁Than	-11.1079
▁rào	-11.1079
▁hiền	-11.108
▁nổi▁tiếng▁với	-11.1081
▁đắt▁tiền	-11.1083
▁Vận	-11.1083
▁2.4	-11.1084
▁leo▁thang	-11.1085
▁mức▁tăng	-11.1086
▁trộm▁cắp	-11.1087
▁Putin	-11.1087
▁là▁mẫu▁xe	-11.1088
ale	-11.109
▁cấu	-11.1091
▁cọc	-11.1092
▁Dịch	-11.1092
▁Kế	-11.1092
VTC▁News	-11.1092
▁đã▁thể▁hiện	-11.1092
úa	-11.1093
▁đụng	-11.1094
▁với▁tên▁gọi	-11.1094
người▁thiệt▁mạng	-11.1095
▁các▁thế▁hệ	-11.1095
▁trong▁phạm▁vi	-11.1096
▁Cùng▁ngày	-11.11
▁ngỡ▁ngàng	-11.11
▁ca▁hát	-11.1101
▁ngập▁nước	-11.1101
▁về▁công▁nghệ	-11.1102
▁trạm▁BOT	-11.1104
▁Ducati	-11.1104
▁Thống▁đốc	-11.1104
▁ngay▁sau▁đó	-11.1104
rt	-11.1107
▁tỉnh▁thành	-11.1109
▁Bán	-11.1109
▁Hường	-11.1109
▁tin▁cậy	-11.111
▁tất▁nhiên	-11.1112
▁góp▁vốn	-11.1113
▁các▁khu	-11.1114
▁82	-11.1114
▁không▁kịp	-11.1115
▁quân▁đội▁Mỹ	-11.1115
▁Ham	-11.1117
▁chuyền	-11.1118
▁xúc▁phạm	-11.1121
250	-11.1122
▁Chúa	-11.1126
▁HĐND▁tỉnh	-11.1127
Nghệ▁An	-11.1127
▁rất▁cần	-11.1128
▁Thế▁vận▁hội	-11.1131
ộc	-11.1131
▁On	-11.1133
Ả	-11.1133
▁đi▁đâu	-11.1133
▁nước▁Nga	-11.1133
▁tổ▁chức▁lễ	-11.1134
▁73	-11.1134
▁Power	-11.1141
▁nhỏ▁gọn	-11.1141
▁Max	-11.1142
▁võ▁sĩ	-11.1143
▁tác▁động▁đến	-11.1145
▁ranh▁giới	-11.1145
▁về▁tình▁trạng	-11.1146
▁Hoàng▁Minh	-11.1148
▁Tham▁dự	-11.1152
▁họa▁tiết	-11.1153
▁tuần▁qua	-11.1153
▁có▁lẽ▁là	-11.1153
▁trong▁buổi	-11.1155
▁nhiếp▁ảnh▁gia	-11.1155
lia	-11.1157
sia	-11.1157
▁một▁lúc	-11.1159
▁món▁đồ	-11.116
▁đàn▁anh	-11.116
▁CO	-11.1161
▁sa▁mạc	-11.1166
▁bạn▁hãy	-11.1168
▁được▁tích▁hợp	-11.1168
▁nhắn	-11.1169
▁105	-11.1172
giá	-11.1175
▁sau▁thuế	-11.1175
▁chỉ▁đạt	-11.1176
▁Agribank	-11.1176
▁bọc▁da	-11.1178
▁Nữ▁diễn▁viên	-11.1179
▁gõ	-11.1179
▁phân▁luồng	-11.118
▁ngân	-11.118
▁giã	-11.118
▁người▁già	-11.1182
▁thủy▁thủ	-11.1183
▁sự▁đồng▁thuận	-11.1184
▁hãm	-11.1185
▁ông▁Hùng	-11.1185
▁buổi▁tập	-11.1187
▁Tra	-11.119
▁phố▁đi▁bộ	-11.1192
▁quốc▁gia▁này	-11.1194
▁ngả	-11.1195
▁ven	-11.1196
▁Pixel	-11.12
▁phía▁trên	-11.1203
▁ướt	-11.1203
ric	-11.1204
▁rực	-11.1205
▁đèn▁LED	-11.1205
▁tin▁vào	-11.1207
▁sẽ▁giảm	-11.1208
▁đi▁du▁lịch	-11.1208
▁cấp▁huyện	-11.121
▁khám▁nghiệm	-11.121
▁Ngày▁nay	-11.1211
▁Diễn▁viên	-11.1212
▁bo	-11.1214
độ	-11.1214
▁tạng	-11.1215
▁với▁nghề	-11.1217
▁Liên▁bang	-11.1218
▁êm	-11.1218
▁đọng	-11.1223
▁Khi▁được▁hỏi	-11.1224
▁Ram	-11.1226
▁ban▁ngành	-11.123
▁hoan▁nghênh	-11.1231
▁Tư▁lệnh	-11.1232
▁đậm▁chất	-11.1232
▁Liêm	-11.1233
lis	-11.1236
▁Đen	-11.1238
▁sương	-11.1242
▁tại▁phường	-11.1245
▁người▁thầy	-11.1245
▁Andre	-11.1246
▁quán▁cà▁phê	-11.1247
▁táo▁bạo	-11.1247
▁những▁dự▁án	-11.1247
▁được▁quan▁tâm	-11.1248
▁hãng▁tin	-11.1249
▁Khuê	-11.1249
▁keo	-11.125
▁điểm▁trường	-11.125
▁cánh▁cửa	-11.1251
▁vào▁nhà	-11.1253
▁4,5	-11.1253
▁Cúc	-11.1254
UBND▁ngày	-11.1254
▁Trung▁đoàn	-11.1259
▁giá▁vàng	-11.1259
▁tỉnh▁Bình▁Dương	-11.1261
▁Trong▁suốt	-11.1261
▁ưa▁chuộng	-11.1263
▁Ngày▁hội	-11.1263
▁quán▁triệt	-11.1264
ys	-11.1265
▁Vũ▁Đức▁Đam	-11.1266
▁lạm▁phát	-11.1266
▁Hiến▁pháp	-11.1267
▁Thanh▁Hải	-11.1274
▁Honda▁CR	-11.1275
▁Tuyên▁Quang	-11.1275
FI	-11.1276
kho	-11.1278
▁ông▁Hoàng	-11.1279
▁túc	-11.1284
▁vào▁vai	-11.1288
▁gặp▁mặt	-11.1291
▁yêu▁nước	-11.1291
▁hoa▁hồng	-11.1295
berg	-11.1295
▁vào▁sân	-11.1297
▁phán▁quyết	-11.1298
▁gập	-11.1298
▁báo▁giới	-11.1299
▁Giờ▁đây	-11.1299
CL	-11.1301
▁cho▁công▁suất	-11.1302
▁nhiều▁lĩnh▁vực	-11.1303
▁tổng▁số▁tiền	-11.1304
▁thực▁hiện▁đúng	-11.1307
▁Hồng▁Kông	-11.1309
▁của▁DN	-11.1309
▁giò	-11.1309
▁khẳng▁định▁rằng	-11.131
▁(10	-11.1311
/01/2018	-11.1313
▁tại▁Nhật▁Bản	-11.1313
▁bắt▁nguồn▁từ	-11.1313
▁bộc▁lộ	-11.1317
▁dễ▁thương	-11.1317
▁là▁thành▁viên	-11.1319
▁việc▁phát▁triển	-11.1321
▁Jun	-11.1322
▁Long▁Biên	-11.1323
▁Nay	-11.1327
▁thấu	-11.1328
▁khai▁báo	-11.1328
▁cho▁khách	-11.1329
▁GPMB	-11.1333
▁đã▁thay▁đổi	-11.1333
đa▁dạng▁sinh▁học	-11.1336
▁buổi▁chiều	-11.1336
▁cho▁khán▁giả	-11.1337
▁của▁tập▁đoàn	-11.1339
▁76	-11.1339
▁Kon▁Tum	-11.1339
▁Văn▁bản▁số	-11.134
uốc	-11.134
▁mác	-11.1341
▁Hiến	-11.1343
▁Bình▁Minh	-11.1343
▁vấn	-11.1344
tes	-11.1347
▁cổ▁truyền	-11.1347
▁khung▁cảnh	-11.1349
▁trú▁tại▁xã	-11.1349
▁đắng	-11.1351
▁thẩm	-11.1352
▁ngoạn▁mục	-11.1352
▁Yêu	-11.1353
▁phong▁tỏa	-11.1353
▁có▁trình▁độ	-11.1353
▁cũng▁vậy	-11.1353
▁quyết▁toán	-11.1354
▁mật▁khẩu	-11.1354
▁dâng▁cao	-11.1355
▁vốn▁vay	-11.1358
▁họp▁báo	-11.1358
▁mỹ▁nhân	-11.1359
▁an▁ninh▁mạng	-11.1361
▁gây▁án	-11.1364
▁có▁vai▁trò	-11.1366
▁khiến▁dư▁luận	-11.1367
▁Sản	-11.1369
▁làm▁ra	-11.1369
iếp	-11.1369
▁Is	-11.137
▁sự▁phối▁hợp	-11.1371
▁PT	-11.1372
▁Đinh▁La▁Thăng	-11.1372
▁nhận▁dạng	-11.1373
US	-11.1374
▁các▁tính▁năng	-11.1377
▁sa▁thải	-11.1377
▁Chúc	-11.1377
▁ra▁nước▁ngoài	-11.1377
▁trong▁nhóm	-11.1378
▁xảy▁ra▁ở	-11.1379
▁đã▁mua	-11.1379
▁Tác▁phẩm	-11.138
▁dân▁mạng	-11.1381
▁đặt▁mua	-11.1382
▁gia▁vị	-11.1383
▁FA	-11.1385
▁đại▁chúng	-11.1387
▁Young	-11.1389
▁đuối	-11.1389
▁Vietcombank	-11.1392
▁Edition	-11.1392
▁Juventus	-11.1392
▁West	-11.1392
▁chảy▁máu	-11.1393
▁nghiêm▁khắc	-11.1394
▁Đống▁Đa	-11.1395
▁Theo▁đánh▁giá	-11.1395
▁cô▁đơn	-11.1396
▁sức▁hút	-11.1396
▁vững▁mạnh	-11.1397
▁mồi	-11.1399
▁hiệp▁định	-11.14
▁Khả▁năng	-11.14
▁được▁thể▁hiện	-11.14
▁hiện▁đã	-11.1402
▁nhưng▁nó	-11.1403
▁mái▁tóc	-11.1405
▁cự	-11.1406
▁Giáo	-11.1407
▁VIDEO	-11.1409
▁đã▁đề▁nghị	-11.1409
90.000	-11.141
▁các▁lớp	-11.141
▁91	-11.1412
▁có▁mưa	-11.1413
▁Bến▁Tre	-11.1414
▁đất▁đá	-11.1414
▁đực	-11.1415
▁từng▁bị	-11.1416
▁vẫn▁giữ	-11.1417
▁3.0	-11.1419
▁tràng	-11.142
▁Đậu	-11.142
▁chu▁kỳ	-11.1422
▁rất▁lâu	-11.1422
▁71	-11.1422
▁lũ▁quét	-11.1422
▁Đặc▁biệt▁là	-11.1424
▁nhiễu	-11.1424
▁xâm▁hại	-11.1424
▁81	-11.1425
▁mã▁lực▁tại	-11.1425
▁Giống▁như	-11.1425
▁người▁Anh	-11.1425
▁sướng	-11.1427
▁nhờ▁vào	-11.1427
▁Khu▁du▁lịch	-11.1428
▁Căn	-11.1429
▁không▁có▁nhiều	-11.1429
van	-11.1431
▁ngọn▁lửa	-11.1434
▁trên▁bán▁đảo	-11.1435
▁vô▁số	-11.1438
▁Khó	-11.1438
▁Thượng▁viện	-11.1442
▁bé▁trai	-11.1443
▁giây▁phút	-11.1443
▁Ban▁chỉ▁đạo	-11.1444
▁nguyên▁chiếc	-11.1444
▁đại▁sứ	-11.1445
▁việc▁quản▁lý	-11.1445
▁hối	-11.1445
▁long	-11.1445
▁dưới▁nước	-11.1446
▁cầm▁quyền	-11.1446
▁cơ▁sở▁y▁tế	-11.145
▁nhà▁chức▁trách	-11.1451
▁dặn	-11.1454
ĐK	-11.1454
▁Phóng▁viên	-11.1455
▁Tướng	-11.1455
bar	-11.1459
▁cuộc▁gọi	-11.1459
ola	-11.146
▁sự▁kết▁hợp	-11.1461
▁UB	-11.1461
▁TAND▁TP	-11.1461
▁Sĩ	-11.1462
▁thay▁mặt	-11.1465
▁cho▁em	-11.1467
▁Khách	-11.1468
▁còn▁chưa	-11.1468
▁cho▁người▁dùng	-11.1468
▁đăng▁kiểm	-11.1469
▁Hạ▁viện	-11.147
▁Đối	-11.1471
▁trong▁quản▁lý	-11.1471
▁mưa▁to	-11.1474
Hà▁Tĩnh	-11.1475
▁8.000	-11.1476
▁xem▁xét▁lại	-11.1476
▁tùng	-11.1476
illa	-11.1478
▁yêu▁nhau	-11.148
▁Chất▁lượng	-11.148
▁đệ	-11.148
▁nhả	-11.1483
▁xăm	-11.1484
row	-11.1484
▁ạ	-11.1484
▁0,5	-11.1487
▁lấy▁chồng	-11.1489
▁thế▁chấp	-11.1491
▁74	-11.1491
ef	-11.1491
▁tỉnh▁Bình▁Định	-11.1493
▁chở▁hàng	-11.1497
▁Play	-11.1498
▁loại▁cây	-11.1499
Nguyễn▁Đức▁Chung	-11.15
▁tỉnh▁Bắc▁Giang	-11.1501
▁rất▁nguy▁hiểm	-11.1503
▁Mazda▁CX	-11.1503
▁Thái▁Sơn	-11.1504
▁của▁Pháp	-11.1505
▁Alex	-11.1506
▁với▁sự▁tham▁gia	-11.1506
▁sau▁hơn	-11.1506
▁loại▁vũ▁khí	-11.1509
▁loài▁người	-11.151
▁bao▁phủ	-11.1511
▁khuẩn	-11.1512
▁xuất▁hiện▁tại	-11.1513
▁Ex	-11.1514
▁môn▁Toán	-11.1514
▁dạy▁và▁học	-11.1515
▁Brexit	-11.1515
▁tất▁yếu	-11.1517
gần	-11.1517
▁220	-11.1518
▁rước	-11.1519
▁đều▁đặn	-11.1519
▁vấp▁phải	-11.152
▁rách	-11.1522
▁Bay	-11.1524
▁bạn▁cần	-11.1524
WD	-11.1525
▁chỉ▁rõ	-11.1527
▁tại▁thủ▁đô	-11.1529
-18	-11.153
▁cố▁ý	-11.153
▁bị▁loại	-11.153
▁tử▁vong▁tại▁chỗ	-11.1531
QH	-11.1536
▁lòng▁tin	-11.1536
▁dòng▁nhạc	-11.1538
▁Giá▁bán	-11.1538
▁nhị	-11.1539
▁cuộn	-11.154
▁chất▁béo	-11.1541
▁cụ▁thể▁là	-11.1541
▁hoàn▁thành▁tốt	-11.1541
▁giữ▁chức▁vụ	-11.1542
▁các▁chi▁tiết	-11.1542
▁iPad	-11.1543
▁NXB	-11.1543
▁lối▁đi	-11.1546
▁còn▁thiếu	-11.1547
▁bầu▁trời	-11.1548
▁King	-11.1551
▁ham	-11.1553
▁nhỏ▁bé	-11.1553
▁các▁quy▁định▁về	-11.1553
▁những▁ngày▁qua	-11.1554
▁Hà▁Nội▁cho▁biết	-11.1555
▁Ty	-11.1556
▁ngày▁hội	-11.1557
▁rất▁thích	-11.1559
▁cuốn▁trôi	-11.1559
▁trào	-11.1561
▁với▁Triều▁Tiên	-11.1561
▁nguội	-11.1563
▁Hồ▁Gươm	-11.1567
▁Bộ▁Kế▁hoạch	-11.1569
▁GĐ	-11.157
▁Hải▁Vân	-11.1571
▁ươm	-11.1571
AI	-11.1571
▁trễ	-11.1572
▁đơn▁xin	-11.1572
▁vụ▁việc▁này	-11.1573
▁cũng▁đã▁có	-11.1573
▁dọc▁theo	-11.1573
ob	-11.1575
▁12/2017	-11.1575
▁nước▁uống	-11.1577
▁ngửa	-11.1577
▁Bộ▁KH	-11.1579
▁cặp▁vợ▁chồng	-11.1579
FTA	-11.158
▁đắt▁đỏ	-11.1582
ova	-11.1583
▁tăng▁từ	-11.1584
▁Es	-11.1584
▁mất▁mát	-11.1586
▁thuế▁suất	-11.1587
▁Mặt▁Trời	-11.1587
▁mang▁tới	-11.1587
hay	-11.1589
▁các▁bộ▁phận	-11.159
▁chung▁với	-11.159
▁trong▁giới	-11.1591
▁uốn	-11.1591
▁mới▁lạ	-11.1592
▁gửi▁về	-11.1593
▁ông▁Putin	-11.1601
▁tử▁cung	-11.1603
▁1/2018	-11.1604
▁nộp▁hồ▁sơ	-11.1604
▁trên▁con▁đường	-11.1605
▁thu▁ngân▁sách	-11.1607
▁nuôi▁tôm	-11.1608
▁tại▁SEA▁Games	-11.1608
▁cảm▁hứng	-11.161
▁của▁dòng	-11.1611
▁ông▁Phan	-11.1612
don	-11.1613
▁với▁mong▁muốn	-11.1616
▁mối▁tình	-11.1617
▁các▁phương▁án	-11.1619
▁chiếc▁ô▁tô	-11.162
▁là▁cơ▁hội	-11.162
▁khuya	-11.1621
▁rể	-11.1623
▁xông	-11.1623
▁Lê▁Đình	-11.1624
▁giết▁mổ	-11.1625
▁đường▁thủy	-11.1626
▁23/1	-11.1626
▁khám▁bệnh	-11.1627
wan	-11.1627
▁vừa▁phải	-11.1629
▁trong▁thời▁kỳ	-11.1631
▁2-0	-11.1632
▁TMV	-11.1632
▁ngay▁từ▁đầu	-11.1632
▁vào▁trường	-11.1632
▁phổ	-11.1633
óa	-11.1634
▁rất▁vui	-11.1635
▁hao	-11.1636
▁chùm	-11.1636
▁Smart	-11.1641
▁bế▁tắc	-11.1644
▁hiện▁diện	-11.1645
-25	-11.1647
▁khích▁lệ	-11.1648
▁một▁bộ	-11.1648
▁chiên	-11.1648
▁âm▁thầm	-11.1648
▁định▁cư	-11.165
▁đội▁khách	-11.1654
▁của▁ngân▁hàng	-11.1656
ển	-11.1657
▁không▁ngờ	-11.1658
ER	-11.1659
▁nuốt	-11.166
▁Tùy	-11.166
▁một▁sự▁kiện	-11.166
▁chủ▁đạo	-11.1662
▁Noel	-11.1662
news	-11.1664
▁đột▁biến	-11.1665
▁giết▁chết	-11.1668
▁Type	-11.1669
▁cứng▁rắn	-11.1674
Thanh▁Hóa	-11.1675
▁ánh▁mắt	-11.1675
▁ở▁phường	-11.1676
▁sào	-11.1676
▁Boeing	-11.1676
▁thay▁vào▁đó	-11.1679
▁vùng▁lãnh▁thổ	-11.168
ling	-11.1681
▁bón	-11.1682
▁cuốn▁hút	-11.1683
▁tại▁thôn	-11.1684
▁xe▁gắn▁máy	-11.1684
lăng	-11.1685
▁dồi▁dào	-11.1688
▁TNGT	-11.1689
▁Năng	-11.1689
▁hai▁con	-11.1691
rie	-11.1693
▁có▁nội▁dung	-11.1696
▁ở▁chỗ	-11.1697
▁trắc	-11.1698
▁chốn	-11.1702
▁hận	-11.1705
▁sinh▁động	-11.1706
▁cũng▁đề▁nghị	-11.1706
▁Hol	-11.1708
▁Táo	-11.1713
▁là▁đơn▁vị	-11.1713
zz	-11.1714
▁Ali	-11.1719
▁ngày▁xưa	-11.1719
▁đúng▁là	-11.172
▁chia▁thành	-11.172
▁sự▁chú▁ý	-11.172
▁làm▁giàu	-11.1722
▁Trận▁đấu	-11.1725
▁với▁khả▁năng	-11.1727
▁đã▁biết	-11.1728
▁kỳ▁họp▁thứ	-11.1729
▁Đan	-11.173
▁tức▁giận	-11.173
▁lưới▁điện	-11.1731
▁khi▁bạn	-11.1731
eta	-11.1733
▁giá▁vé	-11.1734
▁tí	-11.1735
▁điện▁năng	-11.1735
▁Dong	-11.1737
▁nhưng▁sau▁đó	-11.1739
▁cù	-11.1739
▁xem▁như	-11.174
▁mưu▁sinh	-11.1741
▁các▁dòng	-11.1742
RI	-11.1745
fo	-11.1748
ơm	-11.1748
▁chống▁thiên▁tai	-11.1749
mail	-11.1749
▁mạc	-11.1751
▁khéo	-11.1751
▁lời▁mời	-11.1752
▁lượt▁đi	-11.1753
▁thông▁tin▁này	-11.1754
▁đã▁thông▁báo	-11.1755
▁ngày▁nào	-11.1756
▁những▁đóng▁góp	-11.1756
▁Trâm	-11.1756
▁Bang	-11.1758
▁nhà▁vô▁địch	-11.1759
▁chị▁Nguyễn▁Thị	-11.1762
▁25/1	-11.1763
▁Dậu	-11.1763
▁di▁truyền	-11.1763
▁Camry	-11.1763
▁khoản▁vay	-11.1765
▁Bảo▁tồn	-11.1767
▁những▁hoạt▁động	-11.1768
▁bức▁thư	-11.1768
▁sáng▁chế	-11.1769
▁nhà▁mạng	-11.1772
▁tại▁buổi▁lễ	-11.1772
▁cu	-11.1774
▁tỉnh▁Quảng▁Ngãi	-11.1775
▁các▁vị	-11.1776
▁tỉnh▁Hải▁Dương	-11.1776
▁Theo▁báo	-11.1777
▁Đền	-11.178
▁sưng	-11.1783
▁Thế▁nên	-11.1783
▁đại▁trà	-11.1784
▁Quản▁trị	-11.1785
▁MTTQ▁Việt▁Nam	-11.1785
ture	-11.1786
VA	-11.179
▁hoàn▁toàn▁không	-11.1792
▁máy▁chủ	-11.1795
▁tinh▁vi	-11.1796
MO	-11.1798
▁Chiến▁dịch	-11.1798
▁Thừa▁Thiên	-11.1799
TS▁Nguyễn	-11.1799
▁gì▁để	-11.1799
val	-11.1799
▁khu▁nhà	-11.18
▁Xa	-11.18
ero	-11.18
▁phá▁rừng	-11.1802
▁câu▁chuyện▁về	-11.1803
▁tỉnh▁Hòa▁Bình	-11.1804
pop	-11.1806
%3	-11.1807
▁ống▁xả	-11.1808
▁quỷ	-11.1809
▁dòng▁chữ	-11.1809
ude	-11.1809
hành▁vi▁phạm▁tội	-11.1811
▁Kawasaki	-11.1811
▁chiến▁đấu▁cơ	-11.1811
▁đang▁chuẩn▁bị	-11.1812
▁phải▁nộp	-11.1814
▁Tịnh	-11.1814
▁triệu▁cổ▁phiếu	-11.1815
▁thai▁nhi	-11.1817
▁quyền▁hạn	-11.1817
▁bạo	-11.1817
▁kháng▁sinh	-11.1818
▁ngàn▁đồng	-11.1819
sse	-11.1819
▁tảo	-11.182
▁Vũ▁Thị	-11.182
▁bản▁hợp▁đồng	-11.1821
▁rất▁nhỏ	-11.1822
▁NG	-11.1823
▁đến▁hết▁ngày	-11.1823
▁xô	-11.1824
▁Văn▁Toàn	-11.1824
▁VNCB	-11.1827
▁khiến▁bạn	-11.1832
▁lớn▁tuổi	-11.1832
▁khu▁rừng	-11.1832
HO	-11.1833
▁các▁đồng▁đội	-11.1833
▁thỏa▁đáng	-11.1833
▁rớt	-11.1839
▁cảnh▁giác	-11.1841
▁Trần▁Phú	-11.1841
▁0-100	-11.1842
alo	-11.1843
▁lấy▁cảm▁hứng	-11.1843
và	-11.1846
▁rõ▁nguồn▁gốc	-11.1849
▁ưu▁thế	-11.185
▁vào▁chung▁kết	-11.1851
▁Hoàng▁Mai	-11.1852
▁dân▁sinh	-11.1853
▁07	-11.1854
▁quay▁phim	-11.1854
▁Ven	-11.1855
▁tỏa	-11.1855
▁động▁tác	-11.1855
▁chén	-11.1857
▁ghé	-11.1859
iệp	-11.1859
▁tác▁hại	-11.1859
▁kim▁cương	-11.186
hat	-11.186
▁sánh	-11.1861
▁MW	-11.1861
▁đã▁có▁mặt▁tại	-11.1864
▁cớ	-11.1864
▁Cty▁TNHH	-11.1865
▁Youtube	-11.1865
▁được▁trao	-11.1868
▁Nghị▁quyết▁số	-11.1868
▁Nhà▁trường	-11.1868
▁khối▁động▁cơ	-11.1868
▁nọ	-11.187
▁các▁vị▁trí	-11.1871
▁Duy▁Mạnh	-11.1875
▁tâm▁linh	-11.1875
▁Vang	-11.1875
▁Bóng▁đá	-11.1878
▁Tên▁lửa	-11.1878
CP▁ngày	-11.1878
▁me	-11.188
▁gầy	-11.188
▁dễ▁hiểu	-11.1881
TX	-11.1882
ET	-11.1883
▁dự▁án▁xây▁dựng	-11.1885
▁Bất▁động▁sản	-11.1885
▁Camera	-11.1886
▁chúng▁ta▁có▁thể	-11.1887
▁trên▁tay	-11.1887
▁tăm	-11.1889
▁bí▁thư	-11.189
Index	-11.1891
▁dự▁bị	-11.1892
▁Mỗi▁lần	-11.1894
▁nung	-11.1896
▁cựu▁Tổng▁thống	-11.1896
▁phải▁đóng	-11.1896
▁Yemen	-11.1898
▁cho▁sức▁khỏe	-11.1899
▁các▁bệnh▁viện	-11.1899
▁tồn	-11.1899
▁phải▁kể▁đến	-11.1899
▁lần▁nữa	-11.19
▁trong▁vụ▁án	-11.1902
▁Bloomberg	-11.1902
▁vu	-11.1903
▁rải▁rác	-11.1903
hai	-11.1904
▁ở▁thời▁điểm	-11.1906
▁ru	-11.1908
▁vân	-11.1908
▁89	-11.191
▁học▁thêm	-11.1914
▁vs	-11.1914
▁năm▁nữa	-11.1916
▁với▁quy▁mô	-11.1916
▁Chủ▁đầu▁tư	-11.1917
▁chất▁độc	-11.1918
▁lập▁trình	-11.1918
ark	-11.1919
▁tuyên▁bố▁sẽ	-11.1919
▁Wil	-11.1921
▁các▁cuộc▁thi	-11.1922
▁Dựa	-11.1922
▁tại▁phiên▁tòa	-11.1923
▁chót	-11.1923
ode	-11.1924
▁giọng▁nói	-11.1926
▁Bách	-11.1927
▁NTK	-11.1927
▁chất▁ma▁túy	-11.1931
▁Ireland	-11.1935
▁đã▁đồng▁ý	-11.1936
▁nhà▁nghỉ	-11.1937
▁nhầm▁lẫn	-11.1937
▁Tại▁Việt▁Nam	-11.1937
▁ê	-11.1938
▁ấn▁định	-11.1938
▁ABS	-11.1939
▁thỏ	-11.194
▁trường▁Tiểu▁học	-11.1941
VP	-11.1941
▁cho▁sinh▁viên	-11.1943
▁thu▁hút▁đầu▁tư	-11.1946
▁1989	-11.1946
▁chạy▁bằng	-11.1946
ởi	-11.1947
▁hàng▁giả	-11.1949
▁5,5	-11.195
▁tháng▁tù	-11.195
▁Phan▁Thị	-11.1951
▁sản▁phẩm▁này	-11.1951
▁nhà▁tài▁trợ	-11.1953
rom	-11.1955
dd	-11.1955
▁gò	-11.1958
aba	-11.1961
ùi	-11.1963
▁khả▁quan	-11.1965
Tổng▁hợp	-11.1966
▁mạch▁máu	-11.1967
▁mo	-11.1968
▁được▁lựa▁chọn	-11.197
▁trung▁gian	-11.1971
▁hệ▁số	-11.1972
▁là▁ai	-11.1974
tter	-11.1974
▁ước▁đạt	-11.1974
▁hòa▁nhập	-11.1977
amin	-11.1977
▁Khả	-11.1977
▁bên▁nhau	-11.1977
▁pháo▁hoa	-11.1978
▁chiếc▁xe▁này	-11.1979
▁dấu▁vết	-11.1983
▁buổi▁tối	-11.1985
▁và▁phát▁huy	-11.1987
▁Park▁Hang▁Seo	-11.1987
▁nhập▁cư	-11.1991
▁đặt▁vấn▁đề	-11.1992
▁Câu	-11.1993
▁Trần▁Ngọc	-11.1993
▁Nhã	-11.1994
▁đơn▁thư	-11.1994
▁Phó▁thủ▁tướng	-11.1995
▁ghi▁được	-11.1995
▁sang▁Trung▁Quốc	-11.1996
▁Hồi▁tháng	-11.1997
▁số▁điểm	-11.2
▁đều▁có▁thể	-11.2
▁thủ▁phạm	-11.2001
▁Bộ▁Nông▁nghiệp	-11.2002
▁Sau▁hơn	-11.2003
▁tái▁chế	-11.2005
▁bao▁quanh	-11.2006
▁dưới▁dạng	-11.2006
▁ghen	-11.2007
▁chuyên▁viên	-11.2011
▁thuyền▁trưởng	-11.2014
▁Hiệu	-11.2015
▁có▁cơ▁sở	-11.2016
▁có▁thu▁nhập	-11.2017
ead	-11.202
off	-11.202
▁sau▁đây	-11.2023
▁giao▁diện	-11.2023
▁hiểm	-11.2023
▁Dream	-11.2023
▁bơ	-11.2023
▁luôn▁luôn	-11.2025
▁giảm▁chi▁phí	-11.2025
▁chi▁bộ	-11.2027
▁Catalonia	-11.2028
▁Bentley	-11.2028
▁SX	-11.2028
▁tư▁thục	-11.2032
▁di▁sản▁văn▁hóa	-11.2033
▁những▁ngày▁đầu	-11.2035
▁ngay▁trên	-11.2036
▁tấu	-11.2037
▁sẽ▁không▁thể	-11.2038
▁khóa▁học	-11.2042
▁lời▁nói	-11.2042
▁Spi	-11.2044
▁170	-11.2045
▁tiễn	-11.2046
▁Trung▁tá	-11.2048
▁Thích	-11.2048
▁Lớp	-11.2049
lock	-11.2049
▁ếch	-11.2051
ùm	-11.2051
▁Tấm	-11.2052
▁set	-11.2053
▁dẫn▁trước	-11.2055
kV	-11.2058
▁đã▁thành▁lập	-11.2058
ula	-11.2058
▁phía▁tây	-11.2059
▁suy▁thoái	-11.2061
lượng	-11.2063
▁thiếu▁thốn	-11.2063
▁giảm▁từ	-11.2064
▁đường▁ống	-11.2065
▁rà▁soát▁lại	-11.2066
▁Mộc▁Châu	-11.2068
▁Sina	-11.2068
▁chu▁đáo	-11.2071
▁Ngọc▁Anh	-11.2073
▁chú▁chó	-11.2074
▁giai▁điệu	-11.2074
áp	-11.2075
lim	-11.2076
▁trúng▁thầu	-11.2076
▁đã▁sẵn▁sàng	-11.2077
▁không▁cần▁thiết	-11.2078
▁ông▁Bùi	-11.2079
▁đang▁chờ	-11.2079
▁cái▁nhìn	-11.208
▁xì	-11.2081
▁khang▁trang	-11.2082
▁bôi	-11.2083
▁TC	-11.2084
▁Cục▁Thuế	-11.2084
▁của▁các▁em	-11.2085
org	-11.2085
▁cho▁biết▁họ	-11.2087
eck	-11.2087
▁thủ▁lĩnh	-11.2089
▁giành▁vé	-11.209
▁di▁cư	-11.209
▁đặc▁tính	-11.2093
let	-11.2095
▁đặc▁nhiệm	-11.2096
èn	-11.2097
▁Tranh	-11.2099
▁Daniel	-11.2103
▁ưu▁ái	-11.2104
▁Tiền▁đạo	-11.2104
▁tịch	-11.2104
▁đã▁gây▁ra	-11.2105
▁911	-11.2105
▁tỷ▁trọng	-11.2106
lash	-11.2106
▁ông▁Dũng	-11.2107
aya	-11.2107
▁các▁hành▁vi	-11.2107
▁Daily	-11.2108
▁trong▁công▁việc	-11.2108
▁trong▁sáng	-11.211
▁chung▁cuộc	-11.2115
▁bẩm▁sinh	-11.2116
▁được▁đào▁tạo	-11.2116
▁Tài▁xế	-11.2117
▁hàng▁ghế	-11.2118
▁chạy▁theo	-11.2119
▁việc▁học	-11.212
din	-11.212
▁Rạch	-11.2121
▁Hy▁vọng	-11.2122
▁vòi	-11.2122
▁cây▁cảnh	-11.2124
▁ngoan	-11.2124
▁chứa▁nhiều	-11.2125
▁chỉ▁bằng	-11.2125
tha	-11.2126
▁Hàng▁trăm	-11.2127
▁khách▁tham▁quan	-11.213
▁Peter	-11.2131
▁còn▁nhỏ	-11.2131
▁2.500	-11.2131
dar	-11.2131
▁ATM	-11.2132
▁hãng▁này	-11.2133
▁có▁tiếng	-11.2133
old	-11.2134
▁kỳ▁diệu	-11.2135
▁nhiều▁quốc▁gia	-11.2136
▁Bạch▁Đằng	-11.2137
▁béo▁phì	-11.2138
▁tổ▁dân▁phố	-11.2138
▁đang▁làm▁việc	-11.2138
▁Cho▁đến	-11.2139
▁suýt	-11.2139
▁bế	-11.2139
▁thay▁thế▁cho	-11.214
▁ông▁Tuấn	-11.214
▁đoạn▁clip	-11.214
ml	-11.2142
▁11/2017	-11.2142
▁Vespa	-11.2145
▁Tống	-11.2147
▁chỉ▁thị	-11.2147
▁ra▁biển	-11.2147
▁cúc	-11.2148
▁phóng▁tên▁lửa	-11.2149
dro	-11.215
▁nhất▁là▁khi	-11.215
▁Tổng▁hợp	-11.215
▁1-0	-11.2151
▁bà▁nội	-11.2156
▁đội▁nhà	-11.216
▁Thu▁Trang	-11.216
▁rút▁ra	-11.2162
▁chất▁dinh▁dưỡng	-11.2162
1)	-11.2163
▁(7	-11.2166
▁những▁lần	-11.2167
▁phần▁cứng	-11.2168
▁mua▁hàng	-11.217
▁mùa▁này	-11.217
▁golf	-11.2171
▁Đan▁Mạch	-11.2172
▁(27	-11.2174
▁Lá	-11.2174
▁cho▁bà▁con	-11.2174
▁Càng	-11.2175
▁gây▁sốc	-11.2176
▁She	-11.2176
▁cơ▁sở▁dữ▁liệu	-11.2178
▁bảo▁hiểm▁y▁tế	-11.218
▁Dao	-11.218
▁tránh▁được	-11.218
▁cả▁gia▁đình	-11.2182
▁đến▁nơi	-11.2182
▁chuyển▁về	-11.2183
ure	-11.2188
▁của▁Đại▁học	-11.2189
▁ST	-11.219
▁đã▁chuyển	-11.2191
▁ngoài▁ra	-11.2192
▁Phu	-11.2194
ella	-11.2197
▁nước▁biển	-11.2197
▁Chưa▁kể	-11.2198
▁chúng▁tôi▁cũng	-11.2198
▁Gar	-11.2198
▁Huy▁chương	-11.2199
▁cơ▁quan▁này	-11.2201
GH	-11.2201
▁quá▁mức	-11.2201
▁để▁tiến▁hành	-11.2203
▁phản▁biện	-11.2203
kha	-11.2204
▁chân▁dài	-11.2206
PK	-11.2209
▁của▁nhà▁nước	-11.2209
▁các▁trường▁ĐH	-11.2209
▁dè	-11.221
▁dệt	-11.2213
▁Nguyễn▁Huệ	-11.2213
uất	-11.2214
▁Sư▁phạm	-11.2215
▁điều▁quan▁trọng	-11.2215
8,5	-11.2216
▁Người▁đàn▁ông	-11.2218
▁một▁phụ▁nữ	-11.2219
▁nhắc▁tới	-11.2221
▁gây▁nguy▁hiểm	-11.2226
▁Mù▁Cang▁Chải	-11.2227
▁Afrin	-11.2228
▁cho▁dân	-11.2229
▁gậy	-11.2229
of	-11.223
▁ráo	-11.2231
▁thủy▁tinh	-11.2232
▁do▁chính	-11.2233
▁với▁công▁suất	-11.2237
▁các▁tiêu▁chuẩn	-11.2242
▁kêu▁cứu	-11.2242
▁trận▁thua	-11.2243
▁cho▁bé	-11.2243
▁Richard	-11.2244
▁đang▁ngày▁càng	-11.2244
▁lên▁ngôi	-11.2245
▁lấy▁tiền	-11.2245
▁Doãn	-11.2248
▁kháng▁cáo	-11.225
▁Thông▁tư▁số	-11.225
ush	-11.2251
shop	-11.2251
▁Ngôi▁nhà	-11.2253
▁bắt▁tạm▁giam	-11.2255
dge	-11.2259
ise	-11.2259
▁những▁cầu▁thủ	-11.226
▁nước▁lũ	-11.2261
▁trên▁nền	-11.2262
▁thống▁trị	-11.2262
▁đang▁triển▁khai	-11.2262
▁gợi	-11.2263
▁ngày▁càng▁nhiều	-11.2264
▁Hành▁trình	-11.2264
▁hôm▁đó	-11.2265
▁se	-11.2266
IP	-11.2267
▁để▁ngăn▁chặn	-11.2267
ngụ	-11.2268
▁Ken	-11.2269
▁Bà▁Rịa	-11.227
▁Tổ▁công▁tác	-11.2272
▁Land	-11.2272
▁phát▁ngôn▁viên	-11.2272
▁khơi	-11.2274
▁Rock	-11.2275
▁ngạch	-11.2276
▁kịch▁tính	-11.2276
▁mà▁anh	-11.2277
▁hang▁động	-11.2277
▁rừng▁phòng▁hộ	-11.2277
▁cọ	-11.2277
▁đồ▁dùng	-11.2279
▁an▁sinh▁xã▁hội	-11.2279
▁xem▁lại	-11.2281
▁Hội▁đồng▁Bảo▁an	-11.2283
▁tiêu▁hủy	-11.2284
NS	-11.2284
▁mạnh▁mẽ▁hơn	-11.2285
gân▁hàng▁TMCP	-11.2286
▁kíp	-11.2288
uz	-11.2288
▁công▁vụ	-11.2289
▁Conte	-11.229
▁để▁khắc▁phục	-11.229
▁dùng▁thuốc	-11.2291
▁tỉnh▁táo	-11.2291
▁sớm▁hơn	-11.2291
▁Hoan	-11.2293
▁bộ▁nhớ	-11.2293
ign	-11.2293
▁nhiều▁dự▁án	-11.2294
▁Việc▁này	-11.2294
▁bộ▁trưởng	-11.2295
ala	-11.2296
▁có▁giải▁pháp	-11.2299
▁Ngã	-11.2299
▁tầm▁bắn	-11.23
py	-11.2304
▁Những▁hình▁ảnh	-11.2304
▁thám▁hiểm	-11.2305
▁1970	-11.2306
▁đánh▁cắp	-11.2309
▁trước▁thềm	-11.231
▁là▁đúng	-11.2311
▁chưa▁kịp	-11.2311
▁Đà	-11.2312
▁cường▁quốc	-11.2313
▁hộ▁kinh▁doanh	-11.2316
▁lên▁xe	-11.2317
▁của▁các▁tổ▁chức	-11.2317
▁xây▁dựng▁NTM	-11.2318
▁cho▁mọi▁người	-11.2318
▁mà▁bạn	-11.232
▁xung	-11.2321
▁đường▁lối	-11.2321
▁nợ▁công	-11.2322
▁vách	-11.2323
▁cuồng	-11.2323
:▁1.	-11.2323
▁đóng▁băng	-11.2324
▁không▁hề▁có	-11.2324
▁đáng▁nhớ	-11.2324
▁chọn▁lựa	-11.2325
▁hiện▁thực	-11.2326
▁run	-11.2328
▁Im	-11.2329
▁mức▁án	-11.2329
▁Sở▁Văn▁hóa	-11.233
▁Sau▁này	-11.2331
▁bảo▁hiểm▁xã▁hội	-11.2331
▁mùa▁thu	-11.2331
ien	-11.2333
▁USB	-11.2333
hỉ	-11.2334
iti	-11.2334
▁Câu▁lạc▁bộ	-11.2335
▁hỏa▁lực	-11.2336
▁về▁số▁lượng	-11.2337
▁Don	-11.2338
ose	-11.2339
▁những▁yếu▁tố	-11.2341
▁khen▁ngợi	-11.2341
▁cảnh▁cáo	-11.2345
▁quãng▁thời▁gian	-11.2346
▁tỉnh▁Phú▁Yên	-11.2347
▁Os	-11.2347
▁đốc	-11.2347
▁hi	-11.2347
▁lam	-11.2348
▁ông▁Trần▁Văn	-11.2349
▁dẻo	-11.2351
▁(30	-11.2351
▁ghi▁chép	-11.2353
▁tiền▁nhiệm	-11.2355
Lấy	-11.2355
▁những▁cái▁tên	-11.2355
▁nặng▁hơn	-11.2356
▁vết▁nứt	-11.2356
▁theo▁thời▁gian	-11.2356
▁tỉnh▁Lào▁Cai	-11.2357
/2008	-11.2357
▁mở▁đường	-11.2358
▁tình▁cờ	-11.2359
▁Dần	-11.2361
▁Cánh	-11.2361
▁của▁đội▁tuyển	-11.2361
▁được▁ghi▁nhận	-11.2362
▁lãng	-11.2363
▁phản▁công	-11.2363
▁Lao	-11.2364
▁để▁làm▁rõ	-11.2367
▁Công▁Vinh	-11.2367
▁để▁giữ	-11.2368
▁trơn	-11.2375
▁con▁chó	-11.2376
▁xinh	-11.2377
▁Du▁khách	-11.2378
▁hạt▁giống	-11.238
▁thường▁trú	-11.2382
▁lễ▁trao▁giải	-11.2384
▁tham	-11.2385
uống	-11.2386
▁Cậu	-11.2388
▁thi▁tuyển	-11.2389
▁thế▁hệ▁trẻ	-11.2391
▁lưỡng	-11.2392
▁có▁tên▁gọi	-11.2392
tru	-11.2395
▁ngoại▁tình	-11.2396
▁tăng▁áp	-11.2397
▁Như▁Quỳnh	-11.2398
▁tỉnh▁Gia▁Lai	-11.2399
▁HĐ	-11.2399
▁Dar	-11.24
vin	-11.2402
▁Trần▁Hưng▁Đạo	-11.2403
▁biệt▁danh	-11.2403
▁cơn▁mưa	-11.2406
▁giúp▁họ	-11.2409
▁98	-11.2413
▁lây▁nhiễm	-11.2414
▁nguy▁hại	-11.2414
▁chuyển▁từ	-11.2414
RE	-11.2415
▁cấp▁giấy▁phép	-11.2415
▁cho▁nhân▁dân	-11.2417
ku	-11.2418
▁Đoạn	-11.2418
▁Đồn	-11.2418
▁chỉ▁muốn	-11.2422
▁phần▁thưởng	-11.2424
▁Các▁em	-11.2425
▁khống	-11.2425
▁tần	-11.2427
▁phải▁trải▁qua	-11.2427
ẫn	-11.2431
ath	-11.2431
▁tôi▁muốn	-11.2432
▁đường▁hầm	-11.2432
▁Kon	-11.2433
▁HTC	-11.2435
▁những▁cái	-11.2436
▁mà▁cả	-11.2436
▁Đây▁chính▁là	-11.2436
▁kinh▁điển	-11.2437
▁căn▁bản	-11.2439
▁tràn▁ngập	-11.2439
road	-11.244
▁của▁người▁khác	-11.244
▁Trần▁Đình	-11.2441
▁gh	-11.2441
oke	-11.2441
▁vật▁nuôi	-11.2443
▁Cũng▁như	-11.2443
▁cuộc▁phỏng▁vấn	-11.2446
▁vậy▁mà	-11.2447
▁thiếu▁hụt	-11.2448
hất	-11.2448
▁về▁hưu	-11.2448
▁quy▁luật	-11.2449
▁nút▁giao	-11.2449
▁trung▁cấp	-11.2449
▁tay▁đua	-11.245
▁nhưng▁không▁có	-11.2452
▁sả	-11.2455
▁thân▁nhân	-11.2455
▁các▁tàu	-11.2456
▁sinh▁trưởng	-11.2457
▁xem▁video	-11.2458
▁trong▁quá▁khứ	-11.2459
▁hình▁dung	-11.2459
▁Dân▁tộc	-11.246
▁đêm▁chung▁kết	-11.2461
▁dễ▁dàng▁hơn	-11.2462
▁trong▁và▁ngoài	-11.2464
▁xứ▁sở	-11.2465
▁của▁bà▁con	-11.2466
▁làm▁bài	-11.2466
▁một▁vụ	-11.2466
▁Bông	-11.247
▁khoán	-11.2472
▁xe▁chạy	-11.2474
▁Nhạc▁sĩ	-11.2475
▁đề▁cao	-11.2476
▁nấu▁ăn	-11.2477
form	-11.2479
▁suy▁yếu	-11.2482
▁BCH	-11.2482
▁tỷ▁giá	-11.2483
gram	-11.2483
▁đi▁khám	-11.2484
▁phương▁châm	-11.2484
▁tho	-11.2484
▁hiếp▁dâm	-11.2485
▁dịu	-11.2486
▁bởi▁sự	-11.249
▁Nhã▁Phương	-11.2491
▁Tan	-11.2492
▁Vũ▁trụ	-11.2492
▁chi▁phối	-11.2492
▁Tác▁giả	-11.2492
▁tiến▁vào	-11.2497
▁muôn	-11.2498
ary	-11.2499
▁Trưởng▁đoàn	-11.2502
▁Hoài▁Linh	-11.2504
▁lặp▁lại	-11.2504
▁Tổng▁Bí▁thư	-11.2504
▁Honda▁Việt▁Nam	-11.2505
▁tại▁sân▁bay	-11.2505
▁có▁nghĩa	-11.2507
▁Cao▁Bằng	-11.2507
▁khôn	-11.2507
▁Hoàn▁Kiếm	-11.2511
▁quyên▁góp	-11.2512
▁dê	-11.2512
▁túi▁xách	-11.2513
ủa	-11.2513
▁chấm▁thi	-11.2514
▁nghệ▁sỹ	-11.2515
▁phía▁dưới	-11.2516
▁mắng	-11.2517
▁Win	-11.2519
▁Mat	-11.2524
▁Pol	-11.2524
men	-11.2525
▁ngập▁lụt	-11.2526
▁tủ▁lạnh	-11.2527
▁sản▁xuất▁ô▁tô	-11.2528
sion	-11.2528
▁sung	-11.253
▁danh▁giá	-11.2531
▁Jan	-11.2532
▁ngập▁úng	-11.2533
▁đến▁cuối▁năm	-11.2536
▁Nậm	-11.2537
nay▁là	-11.2538
▁thuộc▁Đại▁học	-11.2539
▁Tượng	-11.254
▁thao	-11.2541
▁Thomas	-11.2542
▁lục▁địa	-11.2543
▁Arab	-11.2545
▁hồi▁năm	-11.2547
▁Bóng	-11.2547
▁sâu▁hơn	-11.2548
▁từ▁nguồn	-11.2548
▁của▁đội▁bóng	-11.255
▁scandal	-11.255
Ba	-11.2551
▁thăng	-11.2552
▁điểm▁nóng	-11.2552
▁xa▁xôi	-11.2553
▁ngẫu▁nhiên	-11.2555
▁uống▁nước	-11.2555
▁trù	-11.2555
▁của▁Hội▁đồng	-11.2556
▁VTC	-11.2556
bra	-11.2557
▁một▁lượng	-11.2559
▁dị▁ứng	-11.256
▁hơn▁bao▁giờ▁hết	-11.256
▁hậu▁cần	-11.256
▁tiếng▁ồn	-11.256
▁đây▁sẽ▁là	-11.2561
ỹ	-11.2562
▁Formosa	-11.2563
▁Mike	-11.2564
▁VOV	-11.2564
▁những▁biện▁pháp	-11.2565
▁nằm▁ngoài	-11.2565
▁sẽ▁thấy	-11.2566
▁lì	-11.2567
Phú	-11.2567
▁ngơ	-11.2568
▁hoài▁nghi	-11.2569
▁chặng	-11.2569
▁không▁được▁phép	-11.2571
▁bậc▁phụ▁huynh	-11.2573
▁MB	-11.2575
▁Phiên	-11.2575
▁1,7	-11.2575
Việt▁Nam	-11.2576
▁đắc	-11.2577
▁Uni	-11.2577
sport	-11.2577
▁cả▁nhà	-11.2578
▁ngỏ	-11.2579
rô	-11.258
▁Thanh▁Xuân	-11.258
▁rạng▁rỡ	-11.2581
▁Thai	-11.2582
▁tuyển▁Việt▁Nam	-11.2582
▁đối▁xử	-11.2582
▁làn▁đường	-11.2584
▁mái▁nhà	-11.2585
▁nhọn	-11.2586
▁nang	-11.2587
▁lương▁hưu	-11.2587
▁rồi▁mới	-11.2588
▁có▁phương▁án	-11.259
▁chấp	-11.2591
▁Điều▁tra	-11.2592
▁giặt	-11.2594
AV	-11.2594
▁cuộc▁xung▁đột	-11.2595
▁Del	-11.2596
▁cỗ	-11.2597
▁Bkav	-11.2597
▁giờ▁đồng▁hồ	-11.2598
▁Trần▁Quốc	-11.2598
▁Pre	-11.2598
▁siết▁chặt	-11.2599
▁84	-11.26
▁Tuyền	-11.2601
▁các▁khoản▁thu	-11.2601
▁Sta	-11.2601
▁thi▁hành▁án	-11.2602
▁Thức	-11.2604
▁lượng▁khách	-11.2604
▁ĐTQG	-11.2605
▁lây▁lan	-11.2605
▁mã▁hóa	-11.2608
▁điều▁khiển▁xe	-11.2608
▁đa▁năng	-11.2611
▁Nguyễn▁Duy	-11.2611
▁đề▁phòng	-11.2611
▁chuyên▁trách	-11.2612
▁nghị▁định	-11.2613
▁sự▁nỗ▁lực	-11.2613
▁Người▁dùng	-11.2614
▁đông▁người	-11.2615
▁đàm	-11.2615
▁dàn▁dựng	-11.2615
▁tân▁binh	-11.2615
▁gừng	-11.2617
▁để▁bảo▁đảm	-11.2617
▁của▁bé	-11.2617
bao▁gồm	-11.2618
▁tập▁thể▁dục	-11.2619
các	-11.262
▁xa▁hơn	-11.2625
▁khát▁vọng	-11.2626
▁Gold	-11.2629
▁AR	-11.263
HL	-11.263
▁Oscar	-11.263
▁Vụ▁trưởng▁Vụ	-11.2632
▁giao▁nhiệm▁vụ	-11.2632
óp	-11.2633
ean	-11.2634
▁Tây▁Nam	-11.2634
▁im	-11.2636
Một	-11.2636
ting	-11.2639
▁Post	-11.264
▁là▁cần▁thiết	-11.264
▁Liệt	-11.264
▁bệnh▁ung▁thư	-11.2644
▁cơn▁sốt	-11.2644
▁Hùng▁Vương	-11.2644
▁quà▁tặng	-11.2647
▁Nam▁Mỹ	-11.2647
Book	-11.2647
▁Thay▁vào▁đó	-11.2648
▁vành▁đai	-11.265
▁thông▁thoáng	-11.2652
▁so▁với▁mức	-11.2652
▁đường▁nét	-11.2654
▁giả▁thuyết	-11.2654
▁lôi	-11.2655
▁Năng▁lượng	-11.2656
▁vào▁danh▁sách	-11.2656
▁nhục	-11.2656
▁ăn▁cơm	-11.2657
hơn	-11.2658
▁cột▁mốc	-11.2661
ito	-11.2662
▁Tổng▁thư▁ký	-11.2662
▁dẹp	-11.2663
▁toán▁học	-11.2664
▁sử▁dụng▁dịch▁vụ	-11.2664
▁Bolero	-11.2666
▁đã▁tạo▁nên	-11.2671
▁bú	-11.2671
▁Chi▁phí	-11.2671
▁đã▁huy▁động	-11.2674
▁Lý▁giải	-11.2679
▁tao	-11.2681
▁giống▁lúa	-11.2682
▁Nguyễn▁Anh	-11.2683
▁26/1	-11.2685
▁phát▁thanh	-11.2686
▁nổi▁dậy	-11.2687
áu	-11.2689
▁hứng▁thú	-11.2692
▁trục▁trặc	-11.2693
tech	-11.2695
▁các▁yêu▁cầu	-11.2696
▁hủy▁hoại	-11.2698
▁Phục	-11.27
▁do▁vậy	-11.2705
▁trời▁mưa	-11.2707
▁thuộc▁sở▁hữu	-11.2707
▁Hành▁động	-11.2707
▁bọt	-11.2709
▁cách▁biệt	-11.271
▁tỉnh▁Thừa▁Thiên	-11.271
▁cảm▁ứng	-11.271
▁trên▁quốc▁lộ	-11.2711
iểu	-11.2711
▁với▁tỷ▁lệ	-11.2711
▁dệt▁may	-11.2712
▁Sắc	-11.2712
▁có▁vấn▁đề	-11.2715
▁Đồn▁Biên▁phòng	-11.2716
▁tự▁sát	-11.2717
▁2.2	-11.2717
LX	-11.2717
▁tiểu▁thuyết	-11.2718
▁Lớn	-11.2719
▁tại▁giải	-11.2719
▁trên▁diện▁tích	-11.2721
▁em▁học▁sinh	-11.2721
▁cầu▁thủ▁trẻ	-11.2723
▁bỏ▁tiền	-11.2724
▁Không▁ít	-11.2724
▁có▁tỷ▁lệ	-11.2725
▁đột▁qu	-11.2725
PO	-11.2726
▁mồ	-11.2728
▁Il	-11.2732
iya	-11.2733
▁té	-11.2734
▁đánh▁bạc	-11.2735
▁xuất▁nhập▁khẩu	-11.2735
▁tự▁chế	-11.2736
▁nắm▁quyền	-11.2737
▁sẽ▁đưa	-11.2737
▁startup	-11.2739
▁phải▁tự	-11.274
▁quan▁tâm▁tới	-11.274
▁Nguyễn▁Tiến	-11.2743
tổng▁hợp	-11.2743
▁tại▁TPHCM	-11.2747
PL	-11.2747
▁không▁thay▁đổi	-11.2748
▁sông▁Cửu▁Long	-11.2748
▁ngất	-11.2751
▁ồ▁ạt	-11.2752
▁sáng▁lập	-11.2753
▁http	-11.2753
▁để▁giành	-11.2756
▁Cảm	-11.2756
ett	-11.2756
▁có▁lợi	-11.2757
▁tuổi▁thơ	-11.2757
▁nghịch	-11.2757
▁của▁CLB	-11.2758
▁dao▁động	-11.2759
▁2021	-11.2763
▁vắt	-11.2765
FA	-11.2766
▁phần▁quà	-11.2766
▁lần▁thứ▁hai	-11.2766
▁Series	-11.2768
▁Coupe	-11.277
▁tiến▁triển	-11.2774
▁Vietnamnet	-11.2776
▁cởi▁mở	-11.2776
▁bị▁thu▁hồi	-11.2777
▁việc▁xử▁lý	-11.2777
▁đi▁đầu	-11.2777
▁Bỏ	-11.2778
▁gìn▁giữ	-11.2778
▁lội	-11.278
/11.	-11.2781
▁Oh	-11.2784
▁Nhàn	-11.2784
▁ăn▁mặc	-11.2785
ười	-11.2785
▁phòng▁thi	-11.2785
▁xảy▁ra▁sự▁cố	-11.2786
▁khuôn	-11.2787
▁ngọn▁núi	-11.2788
▁1982	-11.2788
▁bình▁dân	-11.2788
▁hảo	-11.2789
▁Về▁việc	-11.279
▁trong▁bộ▁phim	-11.2791
lic	-11.2791
▁từ▁nhỏ	-11.2793
▁mỏi	-11.2794
cher	-11.2795
OM	-11.2797
▁La▁Liga	-11.2797
▁đau▁lòng	-11.2798
▁dự▁án▁BOT	-11.2799
▁Hậu▁quả	-11.28
▁trước▁mặt	-11.2801
▁sẽ▁không▁còn	-11.2803
▁Bur	-11.2803
▁cảng▁biển	-11.2804
▁chiêu▁mộ	-11.2805
▁trên▁bầu▁trời	-11.2809
▁quần▁thể	-11.2809
▁trong▁phân▁khúc	-11.281
▁rất▁rõ	-11.281
▁xâm▁lược	-11.2811
▁trào▁lưu	-11.2811
▁Mag	-11.2812
▁chứng▁từ	-11.2812
▁đóng▁BHXH	-11.2813
▁25.000	-11.2814
▁vì▁họ	-11.2814
▁Bộ▁Công▁thương	-11.2815
▁còn▁sống	-11.2815
▁bồ	-11.2815
▁Gặp	-11.2818
▁Trước▁mắt	-11.2819
▁Giả	-11.282
▁phấn▁khích	-11.282
▁Chánh▁Văn▁phòng	-11.2821
▁để▁thu▁hút	-11.2821
▁cưng	-11.2822
▁được▁làm▁từ	-11.2823
▁chuyên▁khoa	-11.2823
▁âm▁lịch	-11.2824
▁Đăk	-11.2825
omp	-11.2825
▁trong▁mắt	-11.2825
▁khoản▁nợ	-11.2825
▁phiền	-11.2826
▁một▁người▁bạn	-11.2826
▁ủy▁ban	-11.2828
▁Bình▁Phước	-11.2829
▁Món	-11.2832
▁khi▁biết	-11.2833
▁không▁cần▁phải	-11.2835
▁chiếc▁xe▁tải	-11.2838
ous	-11.2838
▁lan▁rộng	-11.2839
▁đánh▁chặn	-11.2841
MD	-11.2841
▁đất▁nền	-11.2842
▁1.7	-11.2844
chủ	-11.2845
Tổng▁thống▁Putin	-11.2847
▁có▁trọng▁lượng	-11.2849
ững	-11.285
▁đàn▁em	-11.285
▁BĐ	-11.2853
▁sự▁việc▁xảy▁ra	-11.2855
▁Mỹ▁Linh	-11.2858
▁Séc	-11.2861
-400	-11.2861
▁gas	-11.2861
▁cộng▁sự	-11.2865
▁Đô▁thị	-11.2866
▁nòng	-11.2867
▁bốc▁cháy	-11.287
▁của▁đạo▁diễn	-11.2871
▁tuyến▁đường▁sắt	-11.2872
▁XK	-11.2873
▁lề▁đường	-11.2874
▁tỉnh▁Bắc▁Ninh	-11.2875
▁nỗi▁lo	-11.2877
▁tạm▁giam	-11.2878
▁cha▁mẹ▁học▁sinh	-11.2879
▁cẩn▁trọng	-11.2884
▁nhậm▁chức	-11.2884
▁bù▁đắp	-11.2884
▁Màn▁hình	-11.2886
▁có▁quan▁hệ	-11.2886
▁đám▁cháy	-11.2887
▁đến▁bệnh▁viện	-11.2892
▁bướm	-11.2893
▁đồ▁uống	-11.2896
▁mất▁an▁toàn	-11.2897
▁Mil	-11.2899
▁quân▁nhân	-11.2899
▁kẹo	-11.2901
▁mở▁màn	-11.2903
▁chậm▁trễ	-11.2903
▁có▁uy▁tín	-11.2905
▁điển▁trai	-11.2907
▁công▁chúa	-11.2908
www	-11.2909
▁đang▁sống	-11.291
▁cho▁xã▁hội	-11.291
▁12.000	-11.2913
▁Val	-11.2913
▁bìa	-11.2914
▁Hồng▁Nhung	-11.2915
▁vùng▁sâu	-11.2918
▁(25	-11.2919
▁Ba▁Đình	-11.2919
▁Piaggio	-11.292
▁xin▁được	-11.292
▁chuyển▁hướng	-11.2922
▁áp▁suất	-11.2923
▁thanh▁lý	-11.2924
▁Port	-11.2924
▁về▁tài▁chính	-11.2925
▁nhà▁trọ	-11.2928
▁off	-11.2933
Có	-11.2933
▁ích	-11.2935
▁Quách	-11.2935
▁khó▁hiểu	-11.2938
▁Cặp▁đôi	-11.294
▁Berlin	-11.294
ON	-11.294
▁thì▁bất▁ngờ	-11.2941
▁mà▁chúng▁ta	-11.2941
▁bung	-11.2942
▁Saigon	-11.2943
▁lô▁hàng	-11.2944
▁Maria	-11.2944
▁của▁cả▁nước	-11.2947
EX	-11.2948
▁Trải▁qua	-11.2948
▁bệ	-11.295
▁gân	-11.2955
▁khẩn	-11.2956
▁kiểm▁soát▁được	-11.2956
▁tình▁thế	-11.2958
▁dõi	-11.2958
RA	-11.296
▁Băng	-11.2963
cal	-11.2964
gồm	-11.2964
▁Bas	-11.2965
▁theo▁kế▁hoạch	-11.2965
▁đến▁lớp	-11.2966
▁lạc▁hậu	-11.2967
▁phun▁trào	-11.2967
▁của▁Ngân▁hàng	-11.2968
▁bọ	-11.2973
▁tỉ▁số	-11.2975
▁trước▁và▁sau	-11.298
▁Màn	-11.2981
▁ngoại▁tệ	-11.2983
▁ưu▁tú	-11.2985
▁cà▁chua	-11.2985
▁ở▁nước▁ta	-11.2985
▁Vô	-11.2986
▁ven▁sông	-11.2986
▁nhát	-11.2986
▁hơn▁nhiều▁so	-11.2987
Khi	-11.2992
▁Cty▁CP	-11.2996
▁khoản▁thu	-11.3
▁Mạnh▁Hùng	-11.3001
▁mãi▁mãi	-11.3002
▁truyền▁cảm▁hứng	-11.3003
▁Nội▁Bài	-11.3004
▁đến▁nỗi	-11.3004
▁đuối▁nước	-11.3007
▁phôi	-11.3011
▁tỏi	-11.3012
▁Mục▁đích	-11.3013
▁sau▁khi▁bị	-11.3015
▁thập	-11.3016
▁tụ▁tập	-11.3016
▁hứng▁chịu	-11.3016
▁tại▁trụ▁sở	-11.3016
▁Nhờ▁đó	-11.3017
▁khai▁giảng	-11.3018
▁thiếu▁niên	-11.3019
▁Nghệ	-11.3021
▁con▁giáp	-11.3021
▁bất▁lực	-11.3021
▁rỉ	-11.3022
▁người▁hùng	-11.3024
▁micro	-11.3027
▁tự▁học	-11.3031
▁nhà▁đất	-11.3031
▁tay▁nghề	-11.3034
▁người▁Hàn▁Quốc	-11.3034
ona	-11.3035
▁Hồ▁Ngọc▁Hà	-11.3036
▁sắn	-11.3037
▁tỉnh▁Đắk▁Lắk	-11.3037
▁cũng▁không▁có	-11.3037
▁trên▁kênh	-11.3038
lip	-11.3039
.10,	-11.304
▁cho▁thấy▁sự	-11.3041
▁của▁các▁nước	-11.3043
▁đông▁đúc	-11.3046
▁1960	-11.3047
▁đã▁chuẩn▁bị	-11.3049
▁không▁dùng	-11.305
▁đi▁trước	-11.3051
▁Op	-11.3052
▁sấy	-11.3055
▁1987	-11.3055
▁là▁yếu▁tố	-11.3059
▁sự▁kiện▁này	-11.306
▁bún	-11.3062
▁à	-11.3064
▁trồng▁rau	-11.3064
▁rất▁đẹp	-11.3066
▁thăng▁hoa	-11.3067
▁đã▁tìm▁thấy	-11.3069
▁tay▁súng	-11.3069
▁được▁điều▁chỉnh	-11.3072
▁khiến▁anh	-11.3073
eed	-11.3074
▁của▁PV	-11.3075
▁vẫn▁còn▁nhiều	-11.3075
▁của▁giới	-11.3076
▁bao▁lâu	-11.3077
▁chào▁bán	-11.3078
▁phi▁hành▁gia	-11.3078
▁Tiếng▁Anh	-11.3079
VS	-11.3081
▁ý▁muốn	-11.3081
RC	-11.3083
▁mui▁trần	-11.3083
▁giật▁mình	-11.3084
▁mang▁đậm	-11.3084
▁nhiệt▁huyết	-11.3085
▁phần▁đất	-11.3085
▁chia▁làm	-11.3087
▁phàn▁nàn	-11.3088
▁gián▁đoạn	-11.3088
▁ná	-11.3088
▁nét▁đẹp	-11.3089
▁Đỉnh	-11.3091
▁phòng▁trọ	-11.3097
uss	-11.3098
▁niệm	-11.31
▁lo▁cho	-11.31
ưới	-11.31
ies	-11.3106
▁chơi▁game	-11.3107
▁nhập▁khẩu▁từ	-11.3108
▁dùng▁dao	-11.3108
▁bước▁sang	-11.3109
UN	-11.3115
▁Nhưng▁khi	-11.3116
▁cổ▁tích	-11.3116
▁đón▁tiếp	-11.3116
▁rất▁đáng	-11.3117
▁thanh▁lịch	-11.3117
▁Khai	-11.3118
▁bàn▁bạc	-11.3118
▁với▁báo▁chí	-11.3122
▁lũ▁lụt	-11.3122
▁lân	-11.3127
▁rầm▁rộ	-11.313
▁áp▁thấp	-11.313
▁mức▁tăng▁trưởng	-11.3132
▁LĐ	-11.3132
▁Er	-11.3134
▁tỉ▁mỉ	-11.3134
▁Mũi	-11.3134
▁Vật	-11.3137
▁Tư▁pháp	-11.3138
▁cân▁nặng	-11.3141
▁1988	-11.3143
▁đang▁nỗ▁lực	-11.3147
ily	-11.3148
won	-11.315
▁phòng▁tránh	-11.3152
▁bẻ	-11.3153
▁Bởi▁vì	-11.3156
siêu	-11.3156
▁Mở	-11.3157
[...]
