<unk>	0
<s>	0
</s>	0
▁	-3.23565
,	-3.72217
.	-3.78557
▁ແລະ	-4.12858
▁ການ	-4.61256
▁ທີ່	-4.76524
-	-4.85969
▁ໃນ	-4.95427
▁ຂອງ	-5.07485
▁ໄດ້	-5.08208
:	-5.14635
▁ທ່ານ	-5.23499
▁(	-5.5585
▁ເປັນ	-5.57421
▁ມີ	-5.58903
)	-5.6206
▁-	-5.66866
ຂອງ	-5.6894
▁ປະ	-5.76462
▁ວ່າ	-5.77077
▁ໃຫ້	-5.78032
▁ກັບ	-5.82578
ທີ່	-5.83237
▁ສໍາລັບ	-5.85785
­	-5.95555
▁ຈະ	-5.9572
▁ນີ້	-5.98528
▁ຄວາມ	-6.07726
▁ສະ	-6.08803
▁ຢູ່	-6.09473
▁ຄົນ	-6.10948
▁ລາວ	-6.12342
▁ປີ	-6.14319
ວີໂອເອລາວ	-6.14433
ແລະ	-6.14581
ໃນ	-6.15251
ໄດ້	-6.25663
▁“	-6.2586
▁ເພື່ອ	-6.29682
▁ແມ່ນ	-6.2985
/	-6.31164
ການ	-6.33143
▁2	-6.33809
▁ຈາກ	-6.34741
▁ບໍ່	-6.36015
▁ມາ	-6.36683
▁ຂ່າວ	-6.36833
▁ລາຍການວິທະຍຸ	-6.43122
▁ພວກ	-6.43369
▁ໂດຍ	-6.44561
ລາວ	-6.45749
▁ໄປ	-6.49645
▁ເທດ	-6.51459
▁ຜູ້	-6.52636
▁ວັນ	-6.53675
▁ສົ່ງ	-6.53849
▁ແຕ່	-6.54063
ເບິ່ງ	-6.59535
▁ຕໍ່	-6.5975
▁ກັນ	-6.60508
▁ເຈົ້າ	-6.63503
▁ເກມ	-6.67303
▁ນັ້ນ	-6.67434
”	-6.67528
▁ຫວຽດນາມ	-6.67733
s	-6.69477
▁3	-6.69846
▁_	-6.72215
ເປັນ	-6.72946
▁Android	-6.73791
▁ກ່າວ	-6.75542
▁ທາງ	-6.75604
▁ຮັບ	-6.77241
▁Apple	-6.77439
▁1	-6.78073
▁ທີ	-6.78123
ນີ້	-6.78361
Google	-6.7933
iOS	-6.79669
▁ເມືອງ	-6.8297
ໃຫ້	-6.83799
▁ຫຼື	-6.84134
...	-6.8554
▁2018	-6.86177
ໃຫ້ອ່ານ	-6.86446
▁ລະ	-6.86638
▁ຢ່າງ	-6.86703
▁ງານ	-6.86723
ຢູ່	-6.86779
ຈາກ	-6.88095
▁ເຂົ້າ	-6.88953
▁ຈີນ	-6.9021
▁:	-6.91079
▁ອາ	-6.92148
▁ກໍ	-6.92536
▁ສາ	-6.9376
ມີ	-6.93866
▁ບັນດາ	-6.95795
▁5	-6.96813
!	-7.02239
▁ຫນ້າ	-7.02479
ນັ້ນ	-7.02881
▁ແລ້ວ	-7.0547
ກັບ	-7.06043
▁ນໍາ	-7.06161
ວ່າ	-7.06359
▁ຍັງ	-7.077
?	-7.07875
▁ແຫ່ງ	-7.08489
▁ອອກ	-7.08614
▁ຂຶ້ນ	-7.08989
▁ຊາດ	-7.09142
▁ນ	-7.09191
▁ເຮັດ	-7.0937
ແມ່ນ	-7.09387
▁ຮຽນ	-7.09879
▁ສ້າງ	-7.10069
▁"	-7.11301
;	-7.11845
▁ຫາ	-7.12755
▁ເອ	-7.12958
▁4	-7.13356
▁/	-7.13661
▁ເຮົາ	-7.13978
▁ໃຊ້	-7.14465
▁ເຖິງ	-7.14835
▁ແຂວງ	-7.15043
▁ປ	-7.15149
▁ລັດ	-7.15917
▁ຮ່ວມ	-7.16427
▁ດີ	-7.17254
▁10	-7.18337
▁ຊຶ່ງ	-7.18731
▁ດ້ວຍ	-7.19616
ມາ	-7.20091
▁2017	-7.20276
▁ຕາມ	-7.2138
▁ພະ	-7.21987
▁ສຸດ	-7.23603
▁ທັງ	-7.2403
▁ກ່ຽວ	-7.2406
▁ຄໍາ	-7.24121
▁ຕິດຕໍ່ພວກເຮົາ	-7.242
▁ທະ	-7.2612
ແລ້ວ	-7.26857
▁ນະ	-7.26932
"	-7.26933
▁ນາງ	-7.26969
▁ສໍາ	-7.27149
▁ສປປ	-7.27556
▁ລົງ	-7.28512
▁ຕັ້ງ	-7.29763
▁ບັນ	-7.29877
▁ນາ	-7.30407
▁ສ	-7.3184
▁ສະຫະລັດ	-7.32623
▁ຖືກ	-7.33242
▁ໃຈ	-7.33322
▁ທໍາ	-7.33382
▁6	-7.3415
▁ເຂດ	-7.35004
▁ຕ້ອງ	-7.35284
ພາສາອັງກິດ	-7.3611
▁ມັນ	-7.393
▁ເຊິ່ງ	-7.39596
▁–	-7.40951
▁ກະ	-7.41801
ໄປ	-7.42943
▁ທຸລະກິດ	-7.43253
ຫວຽດນາມ	-7.43318
▁ສ່ວນ	-7.43623
▁ກ່ຽວກັບພວກເຮົາ	-7.43714
ຈະ	-7.44273
▁ເອົາ	-7.44367
ເພື່ອ	-7.44545
ຂອງທ່ານ	-7.44714
▁ພາບ	-7.44897
▁ກ່ຽວກັບ	-7.45758
▁ເວລາ	-7.4579
▁ນັກ	-7.46599
ທ່ານ	-7.46728
ສໍາລັບ	-7.46967
ນ	-7.47328
ກ່ຽວກັບ	-7.48111
▁ເຫັນ	-7.49528
▁ສີ	-7.50047
ເຂົ້າຫາ	-7.50245
▁ຕື່ມອີກ	-7.50259
▁ສໍາຫລັບ	-7.50443
ໂດຍ	-7.51409
ເທັກໂນໂລຈີ	-7.51421
▁ຫຼາຍ	-7.51748
ບໍ່	-7.51989
▁ກໍາ	-7.52069
▁ລິ້ງ	-7.52072
▁ມື	-7.52587
▁ແອັຟ	-7.52705
▁ຕິດຕາມພວກເຮົາ	-7.52845
▁ອາຣ໌	-7.52957
▁ທຣໍາ	-7.52988
▁ຄື	-7.53263
▁ບ້ານ	-7.54407
ຕໍ່	-7.55184
▁ພັກ	-7.55857
ທາງເຟສບຸກ	-7.55907
ສະ	-7.55932
▁7	-7.56001
ທາງທະວີ	-7.56134
ຕເຕີ້	-7.56137
▁ລັດຖະບານ	-7.56196
ໃຫມ່	-7.56339
▁ອົງການ	-7.56507
▁ຕີ	-7.56711
▁ລົດ	-7.56725
▁ພາ	-7.56953
▁ເດືອນ	-7.5724
ຕ່າງໆ	-7.57338
▁ມ	-7.5754
▁ກະຊວງ	-7.57551
▁ເຂົາ	-7.57557
ຫຼາຍ	-7.57612
▁ແບບ	-7.57747
▁ຜົນ	-7.57791
▁ໂລກ	-7.57806
▁ຜ່ານ	-7.57909
▁ເມື່ອ	-7.58239
▁ດ້ານ	-7.58319
▁ຂໍ້	-7.59188
▁ລາ	-7.60184
▁ພາກ	-7.60422
▁ອັນ	-7.60498
▁ໃຫມ່	-7.61181
▁ຕາ	-7.6175
▁ຍິງ	-7.61979
▁ສູງ	-7.63068
▁ກໍ່	-7.64106
▁ຊີ	-7.64505
ດັ່ງກ່າວ	-7.65029
.”	-7.65515
▁ກອງ	-7.65634
▁8	-7.66873
▁ປະຊາຊົນ	-7.6699
ທາງ	-7.67323
▁ພັນ	-7.67866
▁ໃຫຍ່	-7.67938
▁ສາມາດ	-7.68567
▁ວັນທີ	-7.686
ສ	-7.68755
▁ນຶ່ງ	-7.71521
ຄວາມ	-7.71567
▁ມື້	-7.71953
▁ສອງ	-7.72289
▁ໄຟ	-7.72785
▁ລາຍ	-7.73031
▁ບໍລິສັດ	-7.74268
▁ຕົວ	-7.7512
▁ຈັດ	-7.75355
▁ປະເທດ	-7.75924
▁ກາ	-7.76564
▁ຫລື	-7.76871
▁ຖະ	-7.77307
▁ອີກ	-7.77647
▁ລັບ	-7.78697
ປະ	-7.79396
▁ແຮງ	-7.80033
ປີ	-7.80128
▁ລະຫວ່າງ	-7.80139
ກັນ	-7.80867
▁ໂຄງການ	-7.81706
▁ວິ	-7.81885
ຄົນ	-7.82021
▁ຈໍາ	-7.82033
ນາຍົກລັດຖະມົນຕີ	-7.82224
▁ກໍາລັງ	-7.82624
▁ຄັ້ງ	-7.83002
▁ພັດທະນາ	-7.83172
▁2016	-7.83401
▁ຈໍານວນ	-7.83539
ຈີນ	-7.83783
▁ພ້ອມ	-7.85511
▁ຕ່າງໆ	-7.85915
▁ຄະນະ	-7.86748
▁ສຽງ	-7.87493
▁ກຸ່ມ	-7.88153
▁ເລື່ອງ	-7.88413
ເຂົ້າ	-7.88435
▁9	-7.8852
▁ດາ	-7.88666
▁ໂອ	-7.88783
▁ຕິດ	-7.89061
ສັງຄົມ	-7.89102
▁ມະ	-7.89293
▁ເງິນ	-7.89409
ທັງຫມົດ	-7.89491
▁ປະທານາທິບໍດີ	-7.89514
▁ນະຄອນຫຼວງວຽງຈັນ	-7.89576
▁ຕຸ້ຍ	-7.89637
▁ໃດ	-7.89768
ທີ່ມີ	-7.89998
▁ລິ	-7.90023
▁ຮຽນພາສາອັງກິດ	-7.90222
▁ມານີ	-7.90347
▁ຮູ້	-7.90432
▁ດັ່ງກ່າວ	-7.90465
▁ສິ່ງ	-7.90917
▁ເຊຍ	-7.91481
▁ໃສ່	-7.91595
▁ເສດຖະກິດ	-7.91804
▁ຮູບ	-7.91899
▁ກວ່າ	-7.91906
▁ວຽກ	-7.91939
▁ຊົນ	-7.92218
ຢ່າງ	-7.92296
▁ແກ່	-7.92454
▁ຕ່າງ	-7.92786
▁ເລືອກ	-7.93006
▁ຊ່ວຍ	-7.9309
ບັນດາ	-7.93492
▁ງ	-7.9428
▁ເພາະ	-7.94297
▁ຊາວ	-7.94578
▁ຕົນ	-7.94617
▁ເກີດ	-7.94681
▁ໄລ	-7.95158
ຄື	-7.95297
(	-7.95461
▁ຊາ	-7.95547
▁ມາດ	-7.95591
ດີ	-7.95769
▁ປາ	-7.96106
▁ຄະ	-7.96339
▁Lao	-7.9646
ດ້ວຍ	-7.97224
▁ຊີວິດ	-7.97721
▁ຕິ	-7.98084
▁ຝ່າຍ	-7.98133
ລະ	-7.98406
▁20	-7.98761
▁ຫລາຍ	-7.99425
▁ກ່ອນ	-7.99978
▁ແດງ	-7.99986
m	-8.00466
▁ສຫລ	-8.0066
▁ປະທານ	-8.00865
ຫຼື	-8.01299
▁ຄັ້ງທີ	-8.01386
e	-8.0161
ມັນ	-8.01712
ຄໍາ	-8.0202
▁ຫມາຍ	-8.02249
y	-8.0229
▁12	-8.02318
▁ເລ	-8.02459
▁ຂະ	-8.02461
▁ຖ້າ	-8.03462
▁ຊາຍ	-8.03676
▁ນ້ອຍ	-8.04776
▁ໃຕ້	-8.04813
com	-8.04973
▁ເບິ່ງ	-8.05383
▁ຂ້າ	-8.05472
▁ກິດ	-8.05519
ເມືອງ	-8.05658
ຫນ້າ	-8.05684
ກ	-8.05843
▁ລັດຖະມົນຕີ	-8.06198
▁ເຄື່ອງ	-8.06207
▁ນາມ	-8.06389
ໃນການ	-8.0669
ຜູ້	-8.06702
▁ຜິດ	-8.07039
ອອກ	-8.07147
▁ຄ້າ	-8.07209
▁A	-8.08058
▁15	-8.08085
▁ປະຊຸມ	-8.08099
▁ເພີ່ມ	-8.08386
▁ໂຕ	-8.08437
▁ສູນ	-8.0921
▁ເສຍ	-8.09223
ເຖິງ	-8.10292
▁ຮອງ	-8.10519
ທີ	-8.11222
▁ຫນຶ່ງ	-8.11388
ນໍາ	-8.11469
▁ຈັນ	-8.1151
▁ໄພ	-8.11668
▁ດ	-8.11856
▁ພົບ	-8.12105
▁ບັດ	-8.12322
▁ຕົ້ນ	-8.12408
▁ເສດ	-8.12883
▁11	-8.13109
▁ມູນ	-8.13173
▁ຫມົດ	-8.13195
▁ກາງ	-8.13308
ຂຶ້ນ	-8.13412
▁ທຸກ	-8.14134
▁ສະພາ	-8.14364
▁ກ	-8.14406
▁ຕອນ	-8.14412
▁ປະຕິບັດ	-8.14904
▁ກ່າວວ່າ	-8.15068
ແບບ	-8.15439
▁ເປີດ	-8.15598
▁ຍາ	-8.16787
▁ຫົວຫນ້າ	-8.16806
ອີກ	-8.17134
▁ເດັກ	-8.17711
ດ	-8.18633
▁ດໍາ	-8.1884
▁ເວົ້າ	-8.19297
▁ພຽງ	-8.19334
▁ລ	-8.19482
▁ລ້ານ	-8.19631
]	-8.1987
ເຂົ້າຮ່ວມ	-8.20657
▁ກິລາ	-8.21109
▁ປະຈໍາ	-8.2119
▁ເຊັ່ນ	-8.21658
▁ພາຍ	-8.21915
▁ໄທ	-8.22461
▁ກອງປະຊຸມ	-8.23022
ສ້າງ	-8.23246
▁ດັ່ງ	-8.2331
ຕາມ	-8.23437
▁ງາມ	-8.2349
ມ	-8.23564
ໆ	-8.23601
ລົງ	-8.23835
ກໍ	-8.24259
ຢູ່ໃນ	-8.2438
ສາມາດ	-8.24581
ງ	-8.24655
ແຫ່ງຊາດ	-8.24726
▁ຮັກ	-8.24918
▁S	-8.24976
▁າ	-8.25061
ອາ	-8.25275
ຫນຶ່ງ	-8.25317
ພວກ	-8.2541
▁30	-8.25688
▁dress	-8.25974
▁ໄຂ	-8.2612
▁ນ້ໍາ	-8.26413
ແຕ່	-8.2647
▁16	-8.26491
ລັດ	-8.26587
▁ໄຊ	-8.26608
▁ສານ	-8.26798
່	-8.27125
▁ຊອບ	-8.27208
▁...	-8.2733
ບ	-8.28933
▁ຫົວ	-8.29046
▁ແຜນ	-8.29311
▁ໃນວັນທີ	-8.29391
▁ໄວ້	-8.29805
▁»	-8.29906
▁ນາຍົກລັດຖະມົນຕີ	-8.30281
ກໍາລັງ	-8.30549
▁ກົດຫມາຍ	-8.30578
ລົດ	-8.30637
▁ຄືນ	-8.30667
▁ອາດ	-8.30746
▁ຫານ	-8.3075
▁ບັນຫາ	-8.30806
ເອົາ	-8.30893
ຍັງ	-8.31124
ທັງ	-8.31201
▁13	-8.31342
▁&	-8.31688
▁ພິ	-8.31856
▁ທະຫານ	-8.31921
▁ວັດ	-8.31938
▁ຕົກ	-8.31953
ing	-8.32088
ບ້ານ	-8.32145
ຜ່ານ	-8.32157
ກໍ່	-8.32467
▁0	-8.32751
▁ອິດ	-8.32808
▁ປ້ອງ	-8.32839
▁B	-8.33175
▁ສໍານວນ	-8.3334
▁ນະຄອນ	-8.33818
▁ທົ່ວ	-8.33858
▁ເນີນ	-8.34021
▁ກັນຍາ	-8.34406
▁ກໍລະກົດ	-8.34428
▁ດິນ	-8.34559
▁Flash	-8.34702
ປະຊາຊົນ	-8.34832
▁18	-8.35118
ນາ	-8.35144
▁14	-8.3527
▁ທ	-8.35833
ວັນ	-8.35887
ລະຫວ່າງ	-8.36071
▁ລູກ	-8.36093
ໃຊ້	-8.36228
▁ເຫດ	-8.36584
▁ສົມ	-8.36853
ຖືກ	-8.37862
ແຂວງ	-8.37957
▁ບານ	-8.38229
ຂໍ້ມູນ	-8.38358
ໃຫຍ່	-8.38437
ຕ້ອງ	-8.38453
ອອນໄລນ໌	-8.38503
▁ບໍ	-8.38591
ພັດທະນາ	-8.38716
ແຫ່ງ	-8.38787
ຫາ	-8.39046
▁ເຮັດໃຫ້	-8.39369
ນ້ໍາ	-8.39626
▁ເຫນືອ	-8.3967
ກະ	-8.39768
▁ອື່ນໆ	-8.39844
▁ຊື່	-8.40106
▁ປະກາດ	-8.40212
▁ໂດ	-8.40416
ອື່ນໆ	-8.40706
▁of	-8.40857
ສູງ	-8.40976
▁ສາດ	-8.41253
▁Masha	-8.41276
▁ຖານ	-8.41354
ສອງ	-8.41543
▁ຣັດເຊຍ	-8.41585
▁ຄ່າ	-8.41769
2	-8.41779
ຮັບ	-8.41813
D	-8.41919
▁ສະມາຊິກ	-8.41996
ໃສ່	-8.42129
▁ບ່ອນ	-8.42333
▁ອ	-8.42427
▁ໂຈມ	-8.42554
▁ຫ້ອງ	-8.42712
ທີ່ຈະ	-8.42724
ຕາ	-8.42945
ໂຕ	-8.42976
ດ້ານ	-8.4317
▁ເວ	-8.43283
▁ຍົກ	-8.43365
▁ຫວຽດ	-8.43552
ທຸລະກິດ	-8.43836
ວິກິວັດຈະນານຸກົມ	-8.43917
▁ບົດ	-8.43971
▁ສຸກ	-8.44151
ຫລາຍ	-8.44153
ຈັດຕັ້ງປະຕິບັດ	-8.44172
▁ບິນ	-8.44387
▁ເວັນ	-8.44467
▁ຍ	-8.44783
▁Up	-8.44993
▁ຄອງ	-8.45212
▁ດຽວ	-8.4527
▁ເມ	-8.45291
▁ວັດທະນະທໍາ	-8.4545
▁ທິ	-8.45758
▁P	-8.46017
ໄທ	-8.46052
▁ຕຸລາ	-8.46063
▁2015	-8.46432
▁ພະນັກງານ	-8.46665
▁ຂໍ	-8.46732
▁ວານ	-8.46959
▁ແມ່	-8.47055
ພາຍໃນ	-8.47104
n	-8.47165
▁ຍ້ອນ	-8.47184
▁ນັບ	-8.47311
▁ບາງ	-8.47375
▁ສິງຫາ	-8.47469
▁24	-8.47579
ຍ	-8.47585
ເຮັດ	-8.47812
ຂອງຕົນ	-8.48406
▁ໄມ້	-8.48592
▁ທ່ານນາງ	-8.48643
▁25	-8.48865
▁ສັງຄົມ	-8.48873
1	-8.4889
▁ຖື	-8.49039
▁ຫາກ	-8.49104
▁ພະຈິກ	-8.49173
ຂອງພວກເຮົາ	-8.49784
▁ທັນວາ	-8.49919
▁ປ່ຽນ	-8.5017
ປະມານ	-8.50327
ອັດຕາການເກມນີ້	-8.50393
▁ບຸນ	-8.50575
ເງິນ	-8.50647
▁17	-8.50682
ຈໍານວນ	-8.50818
ພາບ	-8.51048
ໃຈ	-8.51122
▁ຕ່າງປະ	-8.51189
▁ເທົ່າ	-8.51392
ກວ່າ	-8.51543
▁C	-8.51709
▁Semalt	-8.51872
5	-8.51933
▁ສິດ	-8.52352
▁ເຂົ້າຮ່ວມ	-8.52389
▁19	-8.52732
ສາກົນ	-8.52737
▁ຫຼັງ	-8.52826
▁໌	-8.53005
_	-8.53024
▁ໄຫວ	-8.53068
▁100	-8.53295
ວ	-8.53313
▁ຄິດ	-8.53375
▁Home	-8.53376
ໂຄງການ	-8.53402
ໂລກ	-8.53464
▁ເທື່ອ	-8.53493
ສີ	-8.53613
▁ກົດ	-8.53645
▁ທ້າວ	-8.53691
ລັດຖະບານ	-8.53764
▁ເຮືອນ	-8.54132
▁ຫລັງ	-8.54543
▁ເກົາຫຼີ	-8.54555
ພັກ	-8.54832
▁ສູ່	-8.55434
ເຊັ່ນ	-8.55583
▁ຈຶ່ງ	-8.55772
▁ວາງ	-8.55926
ວຽກງານ	-8.56172
ກຸ່ມ	-8.56196
▁ຄົມ	-8.56237
▁ປົກ	-8.56626
▁ຕະ	-8.57172
▁ແຕ່ງ	-8.5719
▁ສາຍ	-8.57358
ເຄື່ອງ	-8.57644
▁ເອງ	-8.58176
້	-8.58339
▁ຮັກສາ	-8.58359
ກອງປະຊຸມ	-8.58475
▁ຂະນະ	-8.58556
▁ສະຫາຍ	-8.58673
▁ສໍາຄັນ	-8.58678
▁ອິນ	-8.58688
▁[	-8.58878
ເຂດ	-8.59025
ລາ	-8.59033
▁ຂັ້ນ	-8.59383
▁ປິດ	-8.5946
ທໍາມະຊາດ	-8.59633
▁ໄລຍະ	-8.5981
ປ	-8.60022
▁ຟຣີ	-8.60703
ການຕ່າງປະເທດ	-8.60706
/5)	-8.60875
a	-8.60911
▁ສຶກສາ	-8.61186
▁ໄວ	-8.61224
la	-8.6141
▁ປະຊາ	-8.61514
▁ຮ້າຍ	-8.61587
▁ເຈົ້າຫນ້າທີ່	-8.61739
▁ວ	-8.61784
▁ຢາ	-8.61933
▁APEC	-8.61955
ສະຫະລັດ	-8.62154
▁ແຂ່ງ	-8.62179
▁ລີ	-8.62221
▁ພາສາ	-8.62393
▁ຢ້ຽມຢາມ	-8.62393
ບໍລິສັດ	-8.6241
▁50	-8.62513
ກ່ອນ	-8.62699
▁ຈິງ	-8.62724
ed	-8.62818
ເມື່ອ	-8.63286
▁ເຄື່ອນ	-8.63714
▁ອາຊຽນ	-8.63786
ກ່າວ	-8.63836
▁ດັ່ງນັ້ນ	-8.63862
▁ຄວນ	-8.63932
▁ອາຍຸ	-8.63975
▁21	-8.63982
ປະເທດ	-8.64137
4	-8.64198
ພະນັກງານ	-8.64289
▁23	-8.64327
▁ສອນ	-8.64462
ລະບົບ	-8.64653
▁ອາທິດ	-8.64657
ນະ	-8.6477
▁ປກສ	-8.64917
▁©	-8.64924
er	-8.64958
▁ຖະຫນົນ	-8.65071
▁ສັດ	-8.6513
▁ພື້ນ	-8.65391
▁ຍີ່ປຸ່ນ	-8.65428
▁ກິ	-8.65571
).	-8.65583
▁ສັງ	-8.65629
▁ນອກ	-8.65725
▁ມິຖຸນາ	-8.65755
▁ໃນການ	-8.65776
ລ	-8.66066
▁ກອນ	-8.66114
▁ພຶດສະພາ	-8.66117
ເສດຖະກິດ	-8.66132
▁ໆ	-8.66171
▁ຂ້າພະເຈົ້າ	-8.66185
'	-8.66221
ຕົວ	-8.66429
▁ຊຸມ	-8.66496
▁ໃນປີ	-8.66511
▁ແນວ	-8.66892
▁ອົງ	-8.66918
▁ມີນາ	-8.67468
▁G	-8.67501
▁ປະມານ	-8.67575
▁ຫຼິ້ນ	-8.67599
▁ບ	-8.67768
ເຮັດໃຫ້	-8.67794
▁ແຕກ	-8.67926
▁ເລັດ	-8.6802
▁ແທນ	-8.68311
▁ອັດ	-8.68472
ເກມ	-8.68774
ເວລາ	-8.68831
▁ຟັງ	-8.68857
t	-8.68973
▁ຕູ້	-8.69049
▁ບາ	-8.69394
ກາ	-8.69427
▁E	-8.695
ໄວ້	-8.6975
▁ຈຸດ	-8.69765
o	-8.70029
▁ເ	-8.70132
▁ຢູ	-8.70194
▁in	-8.70235
ອັນ	-8.70309
▁ເຊື້ອ	-8.70571
▁ສືບ	-8.70596
▁ລະບົບ	-8.70683
ຫຼາຍກວ່າ	-8.70707
ໃຫ້ແກ່	-8.70844
▁ແກ້	-8.71157
▁ກົມ	-8.71225
i	-8.71365
▁ແດນ	-8.7143
▁ພວກເຮົາ	-8.71464
▁ຄອບຄົວ	-8.71518
▁ອະ	-8.71602
ເລື່ອງ	-8.71667
d	-8.71727
▁ທ່ຽວ	-8.72326
▁ເຊີນ	-8.72568
▁ຄັນ	-8.72683
ທຸກ	-8.72688
ສົ່ງ	-8.72891
▁ເຫນີ	-8.72987
▁I	-8.73389
3	-8.73432
▁ສາກົນ	-8.73543
▁ແຜນການ	-8.73566
▁ພັດ	-8.7358
ທີ່ສຸດ	-8.73724
ພວກເຮົາ	-8.73928
▁ກາດ	-8.73935
ກິລາ	-8.73962
▁ຕົກລົງ	-8.74092
▁ບາດ	-8.74278
C	-8.7462
▁ແປງ	-8.74949
ພະ	-8.75056
▁ອ່ານ	-8.75453
▁ຫວ່າງ	-8.75576
ທໍາ	-8.75683
▁ທັນ	-8.75846
▁ວິດ	-8.75895
▁ລວມ	-8.76083
ຜະລິດຕະພັນ	-8.7611
ຂາຍ	-8.76131
▁ສິນ	-8.7615
▁22	-8.76273
▁T	-8.763
ພິເສດ	-8.76459
▁ແມ່ຍິງ	-8.76629
▁ບໍລິການ	-8.76845
ການເຄື່ອນໄຫວ	-8.77247
▁ສັນ	-8.77259
▁ເພດ	-8.7726
▁ຫງວຽນຊວນຟຸກ	-8.77348
ໃນປີ	-8.77365
▁ວົງ	-8.77372
▁ຫະ	-8.77411
▁#	-8.77424
▁Winx	-8.77472
ຂ້າພະເຈົ້າ	-8.77482
▁ລະດັບ	-8.77526
▁the	-8.77663
ໂມງ	-8.77714
ສາ	-8.7801
ຊາວ	-8.78172
▁ໂທລະໂຄ່ງ	-8.78267
▁ໄສ	-8.78347
),	-8.78382
ງານ	-8.78493
▁ຮຽກຮ້ອງ	-8.78615
▁ແນນ	-8.78681
▁ໂລ	-8.78735
▁ເພງ	-8.7914
ສານ	-8.792
▁ອີ	-8.79221
▁ຊອກ	-8.79343
▁THOLAKHONG	-8.79597
ອົງການ	-8.79606
ບໍ່ໄດ້	-8.79732
▁້	-8.79752
▁ຍະ	-8.79838
▁ຫງວຽນ	-8.7985
7	-8.79854
▁ຮ້ອງ	-8.79935
S	-8.80013
▁ເຮືອ	-8.8002
ປາ	-8.80043
▁ມັງກອນ	-8.80213
▁ດັບ	-8.80511
▁ໂຄງ	-8.80552
▁ລັກ	-8.80644
▁ພົວພັນ	-8.80684
VOV	-8.80799
▁L	-8.80817
▁ເບີດ	-8.80839
▁ເວົ້າວ່າ	-8.80973
▁ະ	-8.81138
▁ທ່າ	-8.81164
▁and	-8.81229
ຊາ	-8.81242
▁ລາຄາ	-8.81475
ຮ່ວມ	-8.81663
▁ທຶນ	-8.81663
▁26	-8.8177
▁ເມສາ	-8.81772
▁ກຸມພາ	-8.81898
▁ພິທີ	-8.82026
▁ອາຫານ	-8.82349
▁ເປີເຊັນ	-8.82451
ວັດທະນະທໍາ	-8.82501
ຂ່າວ	-8.82506
▁ຄູ່	-8.82577
▁ສະເລ່ຍ	-8.82849
ຍິງ	-8.82855
▁ອັງກິດ	-8.83082
▁ວິທີ	-8.83234
ເປີດ	-8.83357
ທະ	-8.83612
▁ມອບ	-8.8371
▁ຂອງທ່ານ	-8.83907
▁+	-8.83981
▁ປັກ	-8.84396
▁ສອບ	-8.84522
▁ເປົ້າ	-8.84614
▁1.	-8.84648
ໄດ້ຮັບ	-8.84867
▁ຫນ່ວຍ	-8.84885
ແກ້ໄຂ	-8.8497
▁ຄົບຮອບ	-8.84987
WORLD	-8.85271
▁ຕໍາ	-8.85542
ອາຫານ	-8.85574
▁ທົດ	-8.85667
▁ພວມ	-8.85699
ຕ່າງປະເທດ	-8.85762
ກົດຫມາຍ	-8.85875
▁ຫ້ອງການ	-8.85886
▁ຫຼັງຈາກ	-8.8597
ເ	-8.86415
▁40	-8.86545
▁ອຸ	-8.86592
▁ເນ	-8.86616
▁ແມັດ	-8.86687
▁ຜະລິດ	-8.86981
▁ພະແນກ	-8.86984
▁ເຊື່ອ	-8.87212
▁ວຽງຈັນ	-8.87286
▁ກໍ່ສ້າງ	-8.87585
ເລີຍ	-8.8775
▁ປອດ	-8.87826
▁ເກັບ	-8.87874
▁VOV	-8.87986
▁ມຽນມາ	-8.87991
▁ລົບ	-8.88025
ສາຍ	-8.88149
▁ໂທດ	-8.88301
ປະຕິບັດ	-8.88464
▁D	-8.88484
ເກົາຫຼີ	-8.8852
▁ຢູ່ໃນ	-8.88536
▁ຢາກ	-8.88554
▁ກິນ	-8.88583
▁ໂດຍສະເພາະ	-8.88701
▁ໍ	-8.88732
▁by	-8.88771
▁ແນ	-8.88865
A	-8.88993
▁2014	-8.8938
▁ພຣະ	-8.89422
▁ກາຍ	-8.89462
ນໍ້າ	-8.89543
ໃດ	-8.8966
▁ຂ້ອຍ	-8.89681
▁'	-8.89781
ເຈົ້າ	-8.89796
ອາຊຽນ	-8.89801
▁ສົນ	-8.89881
ເທົ່ານັ້ນ	-8.89982
▁ລັງ	-8.90058
ສູນ	-8.90172
▁ເຣຍ	-8.90235
ບໍ່ມີ	-8.90463
▁ເຈັບ	-8.90519
ເຮົາ	-8.90801
ສໍາລັບການ	-8.90811
▁ໂມງ	-8.90828
▁28	-8.91047
ຊ່ວຍ	-8.91207
▁ຜູ້ນໍາ	-8.9123
ຜົນ	-8.91308
’	-8.9156
▁ທີ່ມີ	-8.91925
▁ຊຸດ	-8.9198
▁ຄະແນນສຽງ	-8.91983
▁ຄ	-8.92388
▁ຕ້ານ	-8.92393
▁ໂນ	-8.92404
▁R	-8.92438
▁ດົນ	-8.9252
▁ອາເມລິກາ	-8.9273
ວັນທີ	-8.92836
ລະດັບ	-8.9298
▁ພາກັນ	-8.93058
▁ລາຍການ	-8.93137
▁ຊື້	-8.93232
▁Barbie	-8.93246
▁rating	-8.93432
ຊີ	-8.93592
▁ປ່າ	-8.93743
ການຮ່ວມມື	-8.93783
ກໍາ	-8.94136
▁ວີດີໂອ	-8.94243
▁ອື່ນ	-8.94374
▁ສະພາບ	-8.94508
▁ເດັກນ້ອຍ	-8.94828
▁ອອນ	-8.9488
▁X	-8.94917
▁ຕ່າງປະເທດ	-8.95148
▁ຈົນ	-8.9533
ຊື່	-8.95436
ຊີວິດ	-8.95624
p	-8.95642
▁ໂຮງ	-8.9572
ບົດ	-8.95737
▁27	-8.95837
▁ຄົ້ນ	-8.95842
▁ຫມວດ	-8.95914
▁ນະຄອນຫຼວງ	-8.96104
ຊາຍ	-8.96115
▁ສະຫະ	-8.96219
▁ຊຽນ	-8.96385
▁ໄດ້ຮັບ	-8.9643
▁ວີ	-8.966
▁ເສີມ	-8.96887
▁M	-8.96939
▁ຈັບ	-8.96943
▁ປັດຈຸບັນ	-8.97149
▁!	-8.97425
▁ພ້ອມທັງ	-8.97571
▁ຕອບ	-8.9765
ສຸດ	-8.97856
ລາຍ	-8.97962
▁ຫາຍ	-8.97992
▁ລໍາ	-8.98035
ຊື້	-8.98115
ພາ	-8.98154
▁ຄຸ້ມ	-8.98247
ທີ່ກ່ຽວຂ້ອງ	-8.9832
▁ຂາຍ	-8.98324
▁ເຕີ	-8.98385
ສ່ວນ	-8.98559
ລູກ	-8.98648
ນ້ອຍ	-8.98674
▁ຄຸມ	-8.98694
ກິນ	-8.98846
ຄະນະ	-8.98872
ວັດ	-8.98979
▁ສຶກ	-8.99009
ຄືນ	-8.99224
▁ແຈ້ງ	-8.99329
ກາງ	-8.99414
h	-8.99472
▁ກໍານົດ	-8.99522
G	-8.99545
▁ຂົງ	-8.99642
▁ຮຸນ	-8.99707
▁ປັບປຸງ	-8.99735
ວຽກ	-8.99742
▁ວຽກງານ	-8.9987
▁ວຽງ	-8.99945
▁ຟ້າ	-9.00134
▁ກີ	-9.00139
k	-9.00316
▁ສະບັບ	-9.00731
▁ທ່ອງ	-9.00837
▁NASA	-9.01025
▁ທາ	-9.01123
▁on	-9.01234
ທີ່ດີ	-9.01346
▁ຍາມ	-9.01347
ກໍ່ສ້າງ	-9.01378
▁ພະຍາຍາມ	-9.01391
▁ຫມັ້ນ	-9.01591
▁ສໍານັກງານ	-9.01691
ຍີ່ປຸ່ນ	-9.01823
ຢາ	-9.01842
▁ປະຈໍາປີ	-9.01953
▁ອະດີດ	-9.0204
ພັນ	-9.02043
ບັນຫາ	-9.02109
ບໍລິການ	-9.0219
▁ແສງ	-9.02205
ອື່ນ	-9.02224
▁ທ້າຍ	-9.02275
ຕິ	-9.02596
▁ຂ່າວພາບຫວຽດນາມ	-9.02621
▁ການສັນຈອນ	-9.0274
ເຫຼົ່ານີ້	-9.02815
▁ນີ	-9.02911
ຈັດ	-9.0302
ຫ	-9.03122
ຫົວ	-9.03135
ຮຽນ	-9.03303
▁200	-9.0333
▁ກີບ	-9.03387
▁ຕື່ມ	-9.03392
ບາງ	-9.03401
▁F	-9.03547
▁ທ້ວງ	-9.03901
ພັດທະນາເສດຖະກິດ	-9.0405
▁ເຊັນ	-9.04064
▁ຕັດ	-9.04196
▁ເຕັກໂນໂລຊີ	-9.04312
ບໍ	-9.04319
ພຽງແຕ່	-9.04392
▁ກວດ	-9.04492
▁ຮອດ	-9.0468
▁ໂຮງຮຽນ	-9.04886
▁ສາມ	-9.04969
”.	-9.04989
ແມ່	-9.05017
▁Google	-9.05075
ສໍາລັບເດັກຍິງ	-9.05183
ພື້ນຖານ	-9.05188
▁ກໍາມະການ	-9.05201
ການພັດທະນາ	-9.05333
▁News	-9.054
▁The	-9.05424
ຕ	-9.05438
▁ເຫຼືອ	-9.05444
ເຈົ້າຫນ້າທີ່	-9.0575
▁ລາຍງານ	-9.05895
ຮັກ	-9.05933
ໃຕ້	-9.05977
▁ຕລາຍ	-9.06037
ບັດ	-9.06055
▁ຄຸນ	-9.06057
▁ຄາ	-9.06082
▁ເອກ	-9.0626
▁ປະຈຸບັນ	-9.06436
▁ທານ	-9.0645
ສຽງ	-9.06535
▁ປະລະມານູ	-9.06656
▁ລົງທຶນ	-9.06687
▁ໃນອະວະກາດ	-9.07032
▁ໂອກາດ	-9.07056
ຕະຫຼາດ	-9.07059
▁29	-9.07125
▁ເລິກເຂົ້າໄປ	-9.07174
▁2012	-9.07359
▁ສັນຍາ	-9.07359
ນຶ່ງ	-9.07626
ໄວ	-9.07644
ຕີ	-9.07658
ໄຊ	-9.07731
ເດັກນ້ອຍ	-9.07744
ເຮືອນ	-9.07756
ຮູບພາບ	-9.07757
ເຫັນ	-9.07886
▁ສິ່ງແວດລ້ອມ	-9.08018
ທີ່ເປັນ	-9.08099
ຄອບຄົວ	-9.08183
▁H	-9.08204
ເຮັດວຽກ	-9.08391
▁ຈໍາກັດ	-9.085
▁•	-9.0851
▁ຍຸດ	-9.08694
▁ເຜີຍ	-9.08721
▁ເວັບ	-9.08732
ກ່ຽວກັບການ	-9.08768
ນັກ	-9.08816
ເກມນີ້	-9.08871
▁ດາວ	-9.08878
▁ຂັບ	-9.0897
▁ການຄ້າ	-9.09054
[	-9.09247
ຂໍ້	-9.09344
al	-9.09361
▁ນາທີ	-9.09391
▁ນໍ້າ	-9.09473
▁2.	-9.09504
▁ຮ້ານ	-9.09569
ກອງ	-9.09621
▁ປຸງ	-9.09635
▁500	-9.09916
▁Facebook	-9.10047
ສະຖານທີ່	-9.10095
ສະຫນັບສະຫນູນ	-9.10123
ທ	-9.10205
ລາຄາ	-9.10327
ລີ	-9.10339
ຣ	-9.10378
ເຂົາ	-9.10437
▁ທູດ	-9.10523
ແກ່	-9.10621
າ	-9.10716
▁to	-9.10801
▁ຕື້	-9.11029
▁ໄຕ	-9.11044
▁a	-9.11045
ການສຶກສາ	-9.11083
ນະຄອນຫຼວງວຽງຈັນ	-9.11195
▁ມັກ	-9.1128
ປະທານາທິບໍດີ	-9.11843
▁ຈ່າຍ	-9.12309
ຕິດ	-9.12383
▁ໃຫ້ການ	-9.12496
ເວົ້າ	-9.12569
▁ເດີນ	-9.12664
▁ວາ	-9.12684
▁ມົນ	-9.12803
▁ດຣ	-9.12832
ລວມ	-9.1296
ພາສາ	-9.13048
▁ຕິດຕາມ	-9.13198
▁ສາວ	-9.13224
▁ຄອນ	-9.13303
▁ສສ	-9.13362
x	-9.136
▁ເລີ່ມ	-9.13602
▁ຕ້ອງການ	-9.13631
ຄັ້ງທີ	-9.1374
ນະຄອນ	-9.13775
▁ອາກາດ	-9.13836
▁ຄາດ	-9.13894
▁ອຸດສາຫະກໍາ	-9.14059
ີ	-9.14079
▁ຮັບຜິດຊອບ	-9.14118
▁ຫ	-9.1416
ໂຮງຮຽນ	-9.14586
ຂອງເຂົາເຈົ້າ	-9.14637
ເກືອບ	-9.14637
ການຄ້າ	-9.14704
K	-9.14865
f	-9.14885
▁ຫນ້າທໍາອິດ	-9.15062
▁ນາຍ	-9.1512
r	-9.15138
▁ຂອບ	-9.15263
▁ຍິ່ງ	-9.15584
▁ມະນຸດ	-9.15586
▁ຢຸດ	-9.15713
ອຸປະກອນ	-9.15879
▁ຫວັງ	-9.15887
▁ຂ້າງ	-9.16005
▁ຫນັກ	-9.16096
ອຸດສາຫະກໍາ	-9.16097
ດີທີ່ສຸດຂອງທ່ານ	-9.16254
▁ເລ່ຍ	-9.16263
▁ຂ່າວສານ	-9.16385
▁ທະນາຄານ	-9.16421
▁ປະກອບ	-9.16426
▁ຫນ້ອຍ	-9.16473
▁ປທສ	-9.16493
▁ຈຸ	-9.16598
▁ລາຍລະອຽດເກມ	-9.16664
▁ສໍາລັບການຟຣີ	-9.16725
▁ນະໂຍບາຍ	-9.16757
▁ທິດ	-9.1683
▁ຍຸ	-9.16874
en	-9.17085
ຊື່ເກມ	-9.17167
▁ຈັກ	-9.17224
▁Casino	-9.17306
ຫຼິ້ນເກມຟຣີ	-9.17383
▁ຫຼວງ	-9.17426
▁ຂ້າພະ	-9.1749
ຂ້ອຍ	-9.1753
▁ເດັກຍິງອອນໄລນ໌	-9.17579
▁ເດີນທາງ	-9.17587
▁ກໍາປູເຈຍ	-9.17647
▁ຢ່າລືມກ່ຽວກັບ	-9.1765
▁ຝຣັ່ງ	-9.1775
ການລົງທຶນ	-9.1777
▁ເກາະ	-9.17807
▁ຖິ່ນ	-9.17844
▁ຫຼິ້ນແນວເກມ	-9.17859
ກັບເພື່ອນມິດທີ່	-9.18001
ໄມ້	-9.18005
▁ແລະສ່ວນແບ່ງ	-9.18128
▁ວ່າດ້ວຍ	-9.18373
▁ຖາມ	-9.1841
ຕັ້ງ	-9.18411
▁$	-9.18419
ຂື້ນ	-9.18582
ເພີ່ມ	-9.18653
ວິທີການ	-9.18683
T	-9.18707
▁ໃນຂະນະທີ່	-9.18756
▁>	-9.1904
▁ສິ	-9.19075
ມັກ	-9.19104
▁ກວດກາ	-9.19209
ທີ່ດີທີ່ສຸດ	-9.19275
ການນໍາໃຊ້	-9.19375
▁Princess	-9.19432
▁ນີ້ແມ່ນ	-9.19468
▁ເອີ້ນ	-9.19597
▁2013	-9.19608
▁ສວນ	-9.19896
ກ່ຽວ	-9.20042
▁ລົມ	-9.20044
ຕໍ່ໄປ	-9.20159
ວິທະຍາສາດ	-9.20183
▁ຫມາກ	-9.20197
ເວົ້າວ່າ	-9.20297
ແມ່ນມີຄົນຫຼິ້ນ	-9.20524
▁ແຂງ	-9.20551
ສິນຄ້າ	-9.20595
ຂໍ	-9.20688
▁ຫັນ	-9.20695
▁ສືບຕໍ່	-9.2073
ດາ	-9.20744
▁ນວນ	-9.20747
ເປົ້າຫມາຍ	-9.20867
ທະຫານ	-9.21009
ຢ່າງເປັນທາງການ	-9.21301
▁International	-9.21364
▁ຕັນ	-9.21374
▁ລ້ອມ	-9.21392
▁3.	-9.21438
▁ຂະຫຍາຍ	-9.2147
▁ຂ	-9.21556
ເກມທີ່ຄ້າຍຄືກັນ	-9.21737
ຊາດ	-9.21854
▁ສະນັ້ນ	-9.21956
▁ເຊື່ອມ	-9.21985
ວີດີໂອ	-9.21986
▁4.	-9.21997
▁ບຸກ	-9.22002
6	-9.22178
▁ຍາກ	-9.22228
ຂອງປະຊາຊົນ	-9.22327
▁ຖາ	-9.22367
ເອກະສານ	-9.22477
▁ເຮືອບິນ	-9.22522
▁ຈົ່ງ	-9.22575
▁31	-9.22652
P	-9.22766
▁N	-9.22838
▁ເສົາ	-9.22926
ຄວນ	-9.2308
▁ຊົມ	-9.2316
▁ລວມທັງ	-9.23187
▁ສປ	-9.23364
ຮູບ	-9.23459
ນາງ	-9.23503
ຫ້ອງ	-9.23602
▁Trump	-9.23632
▁ຫມູ່	-9.23637
▁ຊຸກຍູ້	-9.23713
▁2019	-9.23849
ປະເພດ	-9.23868
▁ພຸດ	-9.23911
b	-9.2392
▁ດູ	-9.23943
ລິ	-9.23967
ຜະລິດ	-9.24008
ນີ	-9.24105
▁ເຫດການ	-9.24271
ນີ້ແມ່ນ	-9.24331
▁ສົງຄາມ	-9.24349
▁60	-9.24385
▁ໄຫມ	-9.24426
ຕ້ອງການ	-9.24528
▁ເຊ	-9.24689
▁ສິນຄ້າ	-9.24865
ປະຈໍາ	-9.24918
ແຜນການ	-9.25088
ນໍາໃຊ້	-9.25114
▁ສັ່ງ	-9.25184
ສູນກາງພັກ	-9.25208
▁ຕ້ອນຮັບ	-9.25227
▁ຮອບ	-9.25288
ສະພາແຫ່ງຊາດ	-9.25325
ປ້ອງກັນ	-9.25433
ລາຍການ	-9.25499
▁ຄວບ	-9.25647
ສະເຫຼີມສະຫຼອງ	-9.25653
▁ສັບ	-9.25673
ກົດ	-9.25715
M	-9.25879
ທີ່ສໍາຄັນ	-9.26001
▁ບໍ່ມີ	-9.26009
ທາງດ້ານ	-9.26195
▁45	-9.26206
▁ເລກ	-9.2624
ບັນຊີ	-9.26277
B	-9.26285
ວິ	-9.26357
▁ເພື່ອນ	-9.26501
ຮູ້	-9.26597
▁ເທິງ	-9.26645
ສິ່ງ	-9.26823
▁ໃບ	-9.27038
ພາກ	-9.2716
▁ຍອດ	-9.27215
▁ເກົາຫລີ	-9.27242
ຂອງລາວ	-9.27373
▁K	-9.27392
▁ກອບ	-9.27424
!!	-9.27597
▁ໂທລະສັບ	-9.2761
ເຊິ່ງ	-9.27771
ຍາ	-9.27892
ມື	-9.27971
▁ລິດ	-9.27998
ພຽງ	-9.27998
▁ສື່	-9.28086
ສໍາຄັນ	-9.28087
▁ກອງທັບ	-9.28133
▁ໃຫ້ຮູ້ວ່າ	-9.28246
▁www	-9.28273
ສັດ	-9.28297
▁ປະກອບສ່ວນ	-9.28502
ພວກເຂົາ	-9.28629
ອາເມລິກາ	-9.28876
▁ສົງ	-9.28966
▁ທ້ອງ	-9.28977
ເວັບໄຊທ໌	-9.29069
ເສັ້ນທາງ	-9.29078
▁ຕໍາຫຼວດ	-9.29148
ອາດ	-9.29199
▁ຄູ	-9.29239
“	-9.29295
▁ເຈລະຈາ	-9.29358
ລູກຄ້າ	-9.29385
ການບໍລິການ	-9.29495
ສະແດງ	-9.29505
▁ປະຕິ	-9.29545
▁ເຄີຍ	-9.29548
▁2011	-9.29713
ດຽວ	-9.29726
▁ຂື້ນ	-9.29876
▁ທີ່ຜ່ານມາ	-9.299
▁ເຊົ້າ	-9.30192
ຫຼັງ	-9.30256
▁ສັງຫານ	-9.30256
▁ຂະແຫນງ	-9.30272
▁ທີ່ໄດ້	-9.30394
ວົງ	-9.30402
ກ່າວວ່າ	-9.30702
▁ສູ້	-9.30718
▁*	-9.30834
▁ອົບ	-9.3088
ຄິດ	-9.30947
▁Pony	-9.30955
ໄຟ	-9.3107
▁ຫ້າມ	-9.31091
▁ເກົ່າ	-9.31132
ຄ	-9.31175
ຄາ	-9.31278
▁ຕັດສິນ	-9.31282
ສາມ	-9.31321
▁ເນື່ອງ	-9.31341
ບັນ	-9.31433
ເອກອັກຄະລັດຖະທູດ	-9.31462
▁ວິກິພີເດຍ	-9.31504
▁ອຸບັດຕິເຫດ	-9.31563
▁ທ່ອງທ່ຽວ	-9.31584
▁ການລົງທຶນ	-9.31646
ຈຸດ	-9.31687
▁ລອງ	-9.31756
ຕິດຕາມ	-9.31761
▁ຂ່າວຫນ້າ	-9.31939
▁Laos	-9.31954
ຫລື	-9.31967
▁ອໍານາດ	-9.32019
ຂອງພວກເຂົາ	-9.32048
ອ່ານ	-9.32087
▁article	-9.32174
▁ການສື່ສານ	-9.32218
▁V	-9.32376
▁ຊີ້	-9.32443
ຫຼັກ	-9.32507
▁ໂທ	-9.32574
▁ພູ	-9.32584
ຮ່ວມກັນ	-9.32633
▁ຕາຍ	-9.32676
▁ສິດທິ	-9.32762
ກິດຈະກໍາ	-9.32975
in	-9.33025
▁ເກືອບ	-9.33045
▁ໃຫ້ແກ່	-9.33241
ແທ້	-9.33302
lo	-9.33324
ອ	-9.33429
▁ຊ່ອງ	-9.33455
ສະມາຊິກ	-9.33495
▁ຊັ້ນ	-9.33495
▁ສຸຂະພາບ	-9.33505
▁Windows	-9.33653
▁Radio	-9.33717
ພ້ອມ	-9.33836
ທ່ອງທ່ຽວ	-9.33873
ຄອມ	-9.34004
▁ເປີ	-9.34008
ຄັ້ງນີ້	-9.34097
▁ສປຊ	-9.34141
ເພີ່ມຂຶ້ນ	-9.34155
ມື້	-9.34293
▁ຈາ	-9.34309
ໄດ້ຮັບການ	-9.3434
▁ຜ່ານມາ	-9.34377
ການປ່ຽນແປງ	-9.34398
▁ຣັດ	-9.34409
ຫ້ອງການ	-9.34501
▁ເອກະສານ	-9.34518
▁ປ່ອຍ	-9.34555
ມະ	-9.34691
ຖະ	-9.34889
▁ທັງຫມົດ	-9.34925
▁ຮາ	-9.34938
▁ເລື້ອງ	-9.34943
ທິ	-9.34988
!!!	-9.35035
ຈຶ່ງ	-9.35145
ເດືອນ	-9.35149
ນະໂຍບາຍ	-9.35157
▁ເນື້ອ	-9.3519
ປັບປຸງ	-9.35255
ຍຸດທະສາດ	-9.35264
▁Vientiane	-9.35294
ຕົກ	-9.35307
▁ນະຄອນຫລວງ	-9.35345
ການຜະລິດ	-9.35374
▁ແກ້ໄຂ	-9.35432
▁ເຈົ້າຫນ້າ	-9.35464
ໃນໄລຍະ	-9.35489
ຊິ	-9.35715
▁ໂຮມ	-9.35808
▁ຫນຸ່ມ	-9.35817
ທ້ອງຖິ່ນ	-9.3582
▁ຜະ	-9.35921
▁ເຕືອນ	-9.35991
ຄະນະກໍາມະການ	-9.36002
▁Subway	-9.36183
ຂໍ້ມູນຂ່າວສານ	-9.36191
▁ອຸປະກອນ	-9.36207
c	-9.36244
▁ຢູ່ທີ່	-9.36269
▁ແອ	-9.36359
▁ຮ່າງ	-9.36373
▁ຜະລິດຕະພັນ	-9.36439
ຊ	-9.36439
▁ອາຊີ	-9.36449
▁ປັດ	-9.36597
▁ແວດ	-9.36626
▁ເພື່ອໃຫ້	-9.3685
ຄຸ້ມຄອງ	-9.36897
▁ພິມ	-9.37088
▁ຈີ	-9.37313
ຕົ້ນ	-9.37363
ສຶກສາ	-9.37367
▁ໂກ	-9.37396
▁ຫວັດ	-9.37429
ນັກສຶກສາ	-9.37456
ຕາຍ	-9.3747
▁100%	-9.37495
▁ເຜົ່າ	-9.37497
▁ປະເພດ	-9.37588
▁ແກ້ວ	-9.37588
ອາຍຸ	-9.37786
▁\\	-9.37823
▁ກົນ	-9.37893
▁989	-9.37916
▁ຕື້ກີບ	-9.37937
▁ເພາະວ່າ	-9.3796
▁ຂຽນ	-9.38006
▁ທີ່ຈະ	-9.38014
▁Rule	-9.38079
▁ປົກຄອງ	-9.3811
ເພາະ	-9.38194
ເກີດ	-9.38292
▁ຢືນຢັນ	-9.38302
ສູນກາງ	-9.38356
ຄ່າ	-9.3841
▁ຣາ	-9.38499
ດໍາ	-9.38553
▁ໃສ	-9.38566
ມີຄວາມ	-9.38707
▁Online	-9.38875
▁ກິ່ງ	-9.38947
▁ຜູ້ອໍານວຍການ	-9.39034
▁ຂໍ້ມູນ	-9.39096
ການຈັດຕັ້ງ	-9.39336
▁ຊະນະ	-9.39475
8	-9.39498
▁ພາກສ່ວນ	-9.39498
ທໍາອິດ	-9.39594
▁ຊ່ອຍ	-9.39698
ສະພາບ	-9.39784
ດິນ	-9.39806
ໂອ	-9.39814
▁ນິ	-9.39838
▁ທໍານຽບຂາວ	-9.39891
▁ເກມອອນໄລນ໌	-9.399
▁ເປົ້າຫມາຍ	-9.39929
▁ສຸ	-9.39954
▁ການພັດທະນາ	-9.3996
ຖ້າ	-9.4007
ຕົນເອງ	-9.40139
▁ເຈຍ	-9.40214
▁ສະຫນັບສະຫນູນ	-9.40215
ກວດກາ	-9.40256
ການເມືອງ	-9.40265
▁ຫລວງ	-9.40297
▁ແຂ່ງຂັນ	-9.40358
▁ເສັ້ນທາງ	-9.40366
ຮັກສາ	-9.40386
▁ວິທີການ	-9.40481
ອີກດ້ວຍ	-9.40482
ປະທານສະພາແຫ່ງຊາດ	-9.40539
ະ	-9.40563
▁ປັບ	-9.40619
ເລືອກ	-9.4069
▁ທັດ	-9.40739
▁ພາສາລາວ	-9.40792
ທົ່ວໄປ	-9.40867
on	-9.40999
ຊຸດ	-9.4126
▁Hack	-9.41318
▁thumb	-9.41342
▁ປ່າໄມ້	-9.41396
▁ພໍ່	-9.41433
▁ຄົງ	-9.41458
▁36	-9.41569
▁ຫນ້າທີ່	-9.41723
▁ພື້ນຖານ	-9.41898
▁ບັນລຸ	-9.41969
▁ໂປ	-9.41982
v	-9.4204
▁ຊົ່ວໂມງ	-9.42072
▁ກົງ	-9.42168
▁ຊັບພະຍາກອນ	-9.42195
▁ແທ້	-9.42199
▁ຊະ	-9.42215
▁ປືນ	-9.42289
▁ໄກ	-9.42298
▁ວີໂອເອ	-9.42432
ມາຈາກ	-9.42433
ຊັ້ນ	-9.42697
ກະຊວງ	-9.42701
▁ໄຟຟ້າ	-9.42723
ອັງກິດ	-9.42735
▁ດອກ	-9.43217
▁ເລີ້ມ	-9.43621
▁Bob	-9.43647
▁Girl	-9.43734
▁W	-9.43739
ວິທີ	-9.43882
ປະຈໍາປີ	-9.43938
▁ເຫລືອ	-9.43972
ໃນວັນທີ	-9.44033
▁ພ້ອມດ້ວຍ	-9.44105
ຕະ	-9.44163
ຫຍັງ	-9.44281
▁ຂໍ້ຕົກລົງ	-9.44467
ໄຟຟ້າ	-9.44483
▁ການຮ່ວມມື	-9.44705
▁ບາຍ	-9.44735
▁ພົນ	-9.44742
▁ຫຍັງ	-9.44752
ຢາກ	-9.44839
▁ກະສິກໍາ	-9.44898
▁ເສັ້ນ	-9.44969
▁ໃກ້	-9.45009
ຈົນ	-9.45031
ໂທລະສັບ	-9.45052
▁ຢືນ	-9.45063
ເຂົ້າມາ	-9.45159
10	-9.4517
ສອນ	-9.45236
ບ່ອນ	-9.45279
▁ສະຖານ	-9.45397
ການທ່ອງທ່ຽວ	-9.45418
▁ຍາດ	-9.45421
▁ເລີຍ	-9.45424
ເອງ	-9.45643
▁ສະແດງ	-9.45652
ກໍານົດ	-9.45706
▁ບອກ	-9.45784
▁ອັງຄານ	-9.45961
▁ມະຫາວິທະຍາໄລ	-9.46056
ຣາ	-9.46113
ອາດຈະ	-9.46126
ໃດໆ	-9.46128
ຟຣີ	-9.46175
▁ເຕະ	-9.46254
ອອກຈາກ	-9.4626
ເດັກ	-9.46313
ສິດ	-9.46347
ສໍາ	-9.46379
▁ນັກຮຽນ	-9.46408
▁ນອນ	-9.46418
ຂະ	-9.4647
ວິດີໂອ	-9.46509
▁ບໍລິຫານ	-9.46642
▁ຄາສິໂນ	-9.46733
ນະຄອນຫຼວງ	-9.46788
ກໍາປູເຈຍ	-9.46884
▁ພົວ	-9.46938
▁ເດຍ	-9.47143
ຄັ້ງ	-9.47144
ການແຂ່ງຂັນ	-9.4716
ງາມ	-9.47204
ໂຄສະນາ	-9.47212
ປະກອບ	-9.47266
ພ	-9.47307
es	-9.4742
▁ມິດ	-9.47462
▁ຫລາຍກວ່າ	-9.47494
ໄລຍະ	-9.47542
▁ຢ່າງເປັນທາງການ	-9.47579
ບານ	-9.47763
▁ແຫນງ	-9.47765
ຟັງ	-9.47771
ປິດ	-9.47808
▁ນອກຈາກ	-9.47895
ການກໍ່ສ້າງ	-9.47965
ທຸກຄົນ	-9.48029
▁ພະຫັດ	-9.48165
ຕໍາຫຼວດ	-9.48204
ແມ່ຍິງ	-9.48208
ທີ່ໄດ້	-9.48221
ສິ່ງແວດລ້ອມ	-9.48321
L	-9.48359
ສະເຫນີ	-9.48371
▁ຮັບປະກັນ	-9.48381
ຂັ້ນ	-9.48421
ນັບ	-9.48456
ແຮງ	-9.48516
ໃນປັດຈຸບັນ	-9.48728
ເທິງ	-9.48773
▁ອາວຸດ	-9.48924
ພົບ	-9.48925
ເກົ່າ	-9.48965
▁O	-9.49202
▁ໃນນັ້ນ	-9.4925
▁ແຜ່	-9.49299
ຜູ້ທີ່	-9.49366
ການປະຕິບັດ	-9.49425
▁al	-9.49462
ຂະບວນການ	-9.49547
▁iPhone	-9.49554
▁ໂຄ	-9.49641
ເຮືອ	-9.49836
▁s	-9.49926
▁U	-9.50088
▁ຫມັ້ນຄົງ	-9.50161
l	-9.50191
ຂອງການ	-9.50232
▁ສໍານັກຂ່າວສານ	-9.50247
▁ສົບ	-9.50247
ຂຽນ	-9.50317
▁ຫອຍ	-9.50331
▁ແລ	-9.50335
ໄດ້ຖືກ	-9.50337
▁ເຂົ້າສູ່ລະບົບ	-9.50363
ສິ່ງທີ່	-9.50587
ຊາວຫນຸ່ມ	-9.50662
▁ໂຍບາຍ	-9.50745
▁ດື່ມ	-9.50768
ຫຼິ້ນ	-9.50804
▁ທີ່ຢູ່	-9.50975
▁ຢ້ຽມ	-9.51101
▁ໂມ	-9.51159
ດອກ	-9.51289
ດຽວກັນ	-9.51296
▁ເລັກ	-9.51344
u	-9.51413
▁ຢ້ານ	-9.51497
ລາຍງານ	-9.51544
▁ພ	-9.51556
ແຜນ	-9.51565
▁?	-9.51569
▁ຊູ	-9.51599
▁ຂາດ	-9.51683
▁2017.	-9.51708
▁ເສຍຊີວິດ	-9.51728
▁ຕະຫຼາດ	-9.51835
ເອ	-9.51857
▁for	-9.51894
▁ທອງ	-9.51899
▁ເນັ້ນ	-9.52094
▁ຍາວ	-9.52124
▁ກໍໄດ້	-9.52274
ວິສາຫະກິດ	-9.5228
▁ກໍຄື	-9.52455
ເທດ	-9.52539
ຍາວ	-9.5264
ບຸນ	-9.52655
+	-9.52885
ໃນຄັ້ງນີ້	-9.52978
ສັນຍາ	-9.52991
ສະເພາະ	-9.53059
▁70	-9.53361
R	-9.53361
▁ຕ	-9.53404
F	-9.53424
ເລຂາທິການໃຫຍ່	-9.53501
▁ຫນູນ	-9.53522
▁ກູ້	-9.53555
ທະເລ	-9.53594
w	-9.53606
ສະຫະປະຊາຊາດ	-9.53661
▁ສັນຕິພາບ	-9.53671
▁ນ້ອງ	-9.53698
່ງ	-9.53708
▁ນະຄອນຫລວງວຽງຈັນ	-9.53725
▁ພຽງແຕ່	-9.5375
▁ນິດ	-9.53757
▁ແນະນໍາ	-9.53864
th	-9.53871
ສືບຕໍ່	-9.53889
ການຄຸ້ມຄອງ	-9.53905
▁ພາຍຫຼັງ	-9.53997
▁ວິທະຍາສາດ	-9.54062
ຈະມີ	-9.54119
ly	-9.54291
▁ສຸດຍອດ	-9.54334
ແກ້ວ	-9.54467
▁ຈິດ	-9.54531
ໂທລະສັບມືຖື	-9.54642
ຣີ	-9.54685
ຄູ	-9.54751
ປ່ຽນ	-9.54752
▁ບົບ	-9.54825
▁c	-9.54829
▁ອີຣ່ານ	-9.54833
ພຣະ	-9.54913
ຮູບແບບ	-9.5493
ກອງທັບ	-9.54979
▁ພະຍາດ	-9.55074
ເທື່ອ	-9.55203
▁ຈ	-9.55217
▁ອອນໄລນ໌ເກມ	-9.55237
▁າວ	-9.55249
▁ຣິ	-9.55275
▁ດອນ	-9.55279
ຣັດ	-9.55362
ກ່ວາ	-9.5537
ນັກຮຽນ	-9.55393
▁ລ້ານໂດລາ	-9.55497
▁ຂປລ	-9.555
▁£	-9.55553
▁ຂ້າມ	-9.55629
ຕໍາແຫນ່ງ	-9.55662
▁ພໍ	-9.55823
▁p	-9.55926
ທອງ	-9.5611
ກອງປະຊຸມສຸດຍອດ	-9.56209
▁ເກມສໍາລັບ	-9.56324
▁ນໍາພາ	-9.56352
▁ຂະຫນາດ	-9.56431
H	-9.56488
▁ທີມ	-9.56491
ຂະຫນາດ	-9.56582
▁Re	-9.56583
ເຄືອຂ່າຍ	-9.56603
W	-9.56621
E	-9.56642
▁ສະຫວັນນະເຂດ	-9.56642
▁ຫາລື	-9.56643
ບັນດາປະເທດ	-9.56774
▁ກະທົບ	-9.56785
ຮ່ວມມື	-9.56915
▁ແລກປ່ຽນ	-9.56924
ພື້ນທີ່	-9.56963
ພະລັງງານ	-9.56995
ຕັດ	-9.57082
Y	-9.57254
▁ຊ	-9.57284
ສັນ	-9.57484
▁ຊ່ວຍເຫຼືອ	-9.57559
ຈັກ	-9.57598
ການເງິນ	-9.57665
▁ຊິກ	-9.57757
g	-9.57773
ພອນ	-9.57803
▁ໄອ	-9.5803
J	-9.58075
ນອນ	-9.58094
ສູງສຸດ	-9.58125
ຈໍາກັດ	-9.58144
▁ແຫນ່	-9.58176
ບອກ	-9.58193
▁ເຕັມ	-9.58298
▁ສາຂາ	-9.58306
ມາດຕະຖານ	-9.58319
ທີມ	-9.58378
ຊຶ່ງ	-9.58472
ເຕັກໂນໂລຊີ	-9.58493
ທາ	-9.58514
▁ລ້ຽງ	-9.58577
▁ສະຫນອງ	-9.58604
ເສຍ	-9.58621
▁ທຸກໆ	-9.58813
▁ກຽມ	-9.58862
ປ່າ	-9.58872
▁ລ່າ	-9.59049
▁ອອນໄລນ໌	-9.59081
ຖານ	-9.59128
▁ໃນໄລຍະ	-9.59134
ບໍ່ຈໍາເປັນຕ້ອງ	-9.59135
ຝ່າຍ	-9.59166
ໂກ	-9.59222
▁Ben	-9.59237
▁ຫຼັກ	-9.59317
▁ນານ	-9.59439
ປະຫວັດສາດ	-9.59448
▁ກິດຈະກໍາ	-9.5956
ຫນ່ວຍ	-9.59719
ສາວ	-9.59762
ar	-9.59818
▁ງົບປະມານ	-9.59828
N	-9.59911
▁ມານ	-9.59933
▁ທ່ານສາມາດ	-9.59959
▁ຕໍ່ຕ້ານ	-9.59972
ປະກາດ	-9.59974
ຜ່ານມາ	-9.60098
ວາ	-9.6026
▁ນິວ	-9.60474
ທີ່ແຕກຕ່າງກັນ	-9.60505
ອອກມາ	-9.60509
▁ຖົ່ວ	-9.60511
▁ໃຜ	-9.60571
X	-9.6058
ຕົວຈິງ	-9.606
ເລີ່ມ	-9.60723
ຖື	-9.60739
▁ຂາ	-9.60755
▁ໂຕ້	-9.60784
ຄະ	-9.60802
://	-9.60821
▁໑	-9.60926
▁ພະລັງງານ	-9.60978
ຕົນ	-9.61021
ເພງ	-9.61049
▁ຊົ່ວຄາວ	-9.61087
ລັກ	-9.6128
ສະພາ	-9.61285
ສໍາເລັດ	-9.61427
ຮ້ານ	-9.61474
▁ພວກເຂົາ	-9.61564
▁ໂທລະຄົມມະນາຄົມ	-9.62032
ທີ່ຜ່ານມາ	-9.62107
ຊອກຫາ	-9.62309
▁China	-9.62346
▁ປຶກສາ	-9.62436
▁ມະຫາ	-9.62441
▁2010	-9.62563
▁ເມຣິກັນ	-9.62666
▁ຂາວ	-9.62677
ຊົນ	-9.62685
ຫມູ່	-9.62753
ເຂົ້າໄປໃນ	-9.62753
an	-9.62777
▁ຊົ່ວ	-9.62793
▁80	-9.62912
ຈໍາ	-9.63079
▁ກິໂລແມັດ	-9.63122
ຂະຫນາດໃຫຍ່	-9.63122
▁ເຮັກຕາ	-9.6313
ພັດ	-9.63177
ຍົກ	-9.63229
ທະນາຄານ	-9.63283
▁ເທີ	-9.63331
▁ເພີ່ມທະວີ	-9.63425
ຂ	-9.63461
ວາງ	-9.63558
▁ໂຄສະນາ	-9.63572
▁ຍານ	-9.6374
▁ສະມາຄົມ	-9.63813
▁ສຽງອາເມຣິກາ	-9.63816
it	-9.63895
ກາຍ	-9.63945
ຍ້ອນ	-9.64062
▁ຫາດ	-9.64233
ຫມົດ	-9.64278
▁ຊັບ	-9.64299
ຂ້າ	-9.64318
▁ຈັດຕັ້ງ	-9.64349
ຂອງລັດຖະບານ	-9.64388
▁ບໍ່ວ່າຈະເປັນ	-9.64441
▁ການສຶກສາ	-9.64547
ຫຼັງຈາກ	-9.6455
ເຫນືອ	-9.64614
▁ຂັນ	-9.64727
▁New	-9.64832
▁ຂັດ	-9.64846
ຄູ່	-9.6493
▁ຂ້ອງ	-9.64934
ຊ່ວຍເຫຼືອ	-9.64989
ທັງສອງ	-9.65093
ສະບັບ	-9.65112
▁ສະເຫນີ	-9.65184
▁ທັບ	-9.65199
▁Super	-9.65224
▁ເພິ່ນ	-9.65273
▁ໂຄສົກ	-9.65291
▁35	-9.65393
▁ເຊິ່ງເປັນ	-9.65399
ປ້ອງກັນປະເທດ	-9.65402
▁J	-9.65403
ຂະຫນາດນ້ອຍ	-9.65499
▁ແນກ	-9.65546
▁ການທ່ອງທ່ຽວ	-9.65593
ເນື້ອໃນ	-9.65622
▁ບັງ	-9.65798
ທຶນ	-9.65856
▁Next	-9.66037
▁ລັດເຊຍ	-9.66185
▁(2)	-9.66225
ຫຼາຍຂຶ້ນ	-9.66361
ດັ່ງ	-9.66425
▁ກໍລະນີ	-9.66487
ຄວບຄຸມ	-9.66493
▁ຄົ້ນຄວ້າ	-9.66508
←	-9.66511
ແນວໃດ	-9.66533
▁2020	-9.66561
▁Bonus	-9.6662
▁ຢ່າ	-9.66628
ອີ	-9.6664
ເຫດການ	-9.6667
20	-9.66673
▁ມັນເປັນ	-9.66714
▁ເຕັກ	-9.66776
or	-9.66784
▁ຊວງ	-9.66818
▁ຄົວ	-9.6685
▁ກ້າວ	-9.67052
ທີ່ມາ	-9.67059
▁ຄຸ້ມຄອງ	-9.67118
ປອດໄພ	-9.6713
ຫຼວງ	-9.6717
▁ປິນ	-9.67385
ໃກ້	-9.67421
ໂທ	-9.67556
ສັນຕິພາບ	-9.67621
▁ແສນ	-9.67768
ປະທານ	-9.67774
▁ແປ	-9.6783
▁ບໍລິ	-9.67833
£	-9.67903
▁ຈາກນັ້ນ	-9.6802
▁ມື້ນີ້	-9.68049
▁John	-9.68067
▁ສັກ	-9.68074
▁ກະລຸນາ	-9.68111
▁ລັດຖະມົນຕີກະຊວງ	-9.68143
▁ລັດຖະທູດ	-9.68166
ນັກທ່ອງທ່ຽວ	-9.68277
ເພີ່ມເຕີມ	-9.68393
ແດງ	-9.6848
ພາກສ່ວນ	-9.68485
▁ເຄາະ	-9.68554
ໄປທີ່	-9.68657
▁ຫຼຸດ	-9.68682
ອາຊີ	-9.68711
▁ຮ່າ	-9.68731
ຮ	-9.68767
ຂອງຂ້າພະເຈົ້າ	-9.68774
▁ຟອງ	-9.68914
▁ເຖິງແມ່ນວ່າ	-9.69052
▁SMS	-9.69089
ຈັບ	-9.69192
▁ໂດຍມີ	-9.69215
▁ຍູ້	-9.6926
▁e	-9.69296
V	-9.69367
▁ປາກ	-9.69418
ພາຍຫຼັງ	-9.69456
▁ເກີນ	-9.69624
ຝຣັ່ງ	-9.69652
ອາເມຣິກາ	-9.69778
ຈ	-9.69873
▁ເມືອງຈັນທະບູລີ	-9.70011
ຜູ້ນໍາ	-9.70036
▁ຟີ	-9.70088
▁ປະທານປະເທດ	-9.70117
ແຈ້ງ	-9.7014
▁ຫມູ່ເກາະ	-9.70247
▁ຊິ	-9.70425
ປາກ	-9.70426
▁ສະຖາບັນ	-9.70426
▁ປອ	-9.70455
ວີ	-9.70517
▁ອ້າງ	-9.70525
ພະຍາຍາມ	-9.70561
▁ທະວີ	-9.70569
▁ໂຊ	-9.70645
▁ສົນທະນາ	-9.70674
ອິນເຕີເນັດ	-9.70683
ຄວາມສະຫງົບ	-9.7077
ລັດຖະມົນຕີ	-9.70791
▁ເລກທີ	-9.70823
▁ຫນ້າຫຼັກ	-9.71008
▁ພ້ອມກັບ	-9.71112
ຫົວຂໍ້	-9.71139
ຄອມພິວເຕີ	-9.71182
▁ຊິງ	-9.71219
▁ລາດ	-9.713
ຈັດຕັ້ງ	-9.71319
▁ໂຣບ	-9.71322
ຂອງພັກ	-9.71349
▁Disney	-9.7148
▁ການຕໍ່ສູ້	-9.71522
ສົມ	-9.71535
▁Previous	-9.71601
▁ສ່ຽງ	-9.71708
▁ພອນ	-9.71717
▁ເປັນຕົ້ນ	-9.71768
ງ່າຍ	-9.71873
ຈໍານວນຫຼາຍ	-9.71933
z	-9.71995
ສົງຄາມ	-9.72081
▁ວ່າການ	-9.72118
▁ຄົບ	-9.72129
ສົ່ງເສີມ	-9.72304
▁ຢາມ	-9.72343
ຄົ້ນຄວ້າ	-9.72351
ເຜີຍແຜ່	-9.72366
▁ຝັນ	-9.72416
▁ແບ່ງ	-9.72437
▁ຄຣິດ	-9.72479
ຕໍາ	-9.72603
▁ເນື້ອໃນ	-9.72743
▁ມາດຕາ	-9.72792
▁ຮູບພາບ	-9.72941
່ນ	-9.72954
ຕື່ມ	-9.72985
ມອບ	-9.73024
▁ກໍ່ຄື	-9.73037
▁ຫຼັງຈາກນັ້ນ	-9.73149
▁ຮ່າໂນ້ຍ	-9.73208
ມະນຸດ	-9.73224
ຟ	-9.73235
▁ອັດຕາ	-9.73281
ບຸກຄົນ	-9.73377
ມະຫາວິທະຍາໄລ	-9.73393
ຜູ້ໃຊ້	-9.73434
ແຮງງານ	-9.73471
ທົ່ວ	-9.7348
ທົ່ວປະເທດ	-9.73574
ຕ່າງ	-9.73662
ຫນ້າທີ່	-9.73681
▁ຄະນະກໍາມະການ	-9.73963
ເພື່ອໃຫ້	-9.73969
ທີ່ຖືກ	-9.73991
▁ຂົນ	-9.74017
ດໍາເນີນທຸລະກິດ	-9.74068
ບໍລິຫານ	-9.74087
▁ຢາງ	-9.74097
▁ເຈ	-9.74178
ສຸກ	-9.74307
ວຽງຈັນ	-9.74311
▁ຕໍ	-9.74322
ພາຍ	-9.74324
▁ລາງວັນ	-9.74461
ທົ່ວໂລກ	-9.74481
▁ພິຈາລະນາ	-9.74518
▁ໃດໆ	-9.74578
▁ແວ	-9.74609
ບາດ	-9.74628
ອິນ	-9.74697
▁de	-9.74707
▁ແຂວງວຽງຈັນ	-9.74757
▁ຫຼາຍກວ່າ	-9.74815
▁ສະຫງວນລິຂະສິດ	-9.74866
▁Mai	-9.74925
▁ໄຊຍະບູລີ	-9.75039
▁ເງື່ອນ	-9.75149
ມິດຕະພາບ	-9.7529
ເກາະ	-9.75324
ຂອງປະເທດ	-9.75363
▁ສຖານ	-9.75393
▁ວິຊາ	-9.75433
▁ຢືນຢັນວ່າ	-9.75497
▁ເພີ່ມຂຶ້ນ	-9.75557
▁SEO	-9.75623
ເຄື່ອງມື	-9.75655
ສະຖາບັນ	-9.75668
ທີ່ທ່ານ	-9.75769
▁ມີການ	-9.75774
ບາ	-9.75905
▁ລຸ	-9.76008
▁ອັບ	-9.76036
▁Lego	-9.76074
▁ປິດສະ	-9.76098
ໂລ	-9.76099
▁ຮວມທັງ	-9.76208
ນໍາພາ	-9.76218
▁ນິຍົມ	-9.76294
▁ແພງ	-9.76346
ຂໍ້ຄວາມ	-9.76347
▁ຟ	-9.76359
▁Contact	-9.76453
▁ຕໍ່ສູ້	-9.7657
▁ຍິນ	-9.76592
▁ຊຶ່ງເປັນ	-9.76647
▁ສະພາແຫ່ງຊາດ	-9.76748
▁ມວນ	-9.76759
▁ໂອບາມາ	-9.76793
▁ພາຍໃນ	-9.7681
▁ແຍກ	-9.76835
ຫລັງ	-9.76856
ສ໌	-9.76864
ຄວາມຫມັ້ນຄົງ	-9.76871
▁ຄອມ	-9.76916
ໃຫ້ໄດ້	-9.77
▁Miss	-9.77049
ພິ	-9.77086
ຄວາມປອດໄພ	-9.77194
▁Roulette	-9.77221
▁ອ້ອມ	-9.77295
ການພົວພັນ	-9.77334
):	-9.77349
▁ຊົງ	-9.77482
▁ບັນຊີ	-9.77631
▁ທ່ີ	-9.77649
▁ການບໍລິການ	-9.77688
ພິຈາລະນາ	-9.77689
▁ສີສຸລິດ	-9.77736
ເຊ	-9.7783
ການເຊື່ອມຕໍ່	-9.77832
▁ອີງ	-9.77837
ປະສົບການ	-9.77861
▁ທອງລຸນ	-9.77867
▁ແຫນ້ນ	-9.77883
▁ສະຖານທີ່	-9.77894
ໃຫ້ກັບ	-9.77993
▁ພັນລາວ	-9.78058
▁ຜົນງານ	-9.78059
▁Obama	-9.78075
9	-9.78182
ນິ	-9.78208
ກໍໄດ້	-9.78221
edit	-9.78225
▁2018.	-9.78248
▁ຕໍາຫລວດ	-9.78382
▁ໂທລະ	-9.78454
▁ລະບຽບ	-9.78504
▁ຫນູ	-9.78587
▁ສາທາລະນະ	-9.78619
▁ກູ	-9.78636
▁ຍັງມີ	-9.78646
ຽ	-9.78653
ຄຸນນະພາບ	-9.78709
ສູ່	-9.78803
ລົມ	-9.78905
ເຫດ	-9.78911
ຢູ່ທີ່	-9.78916
▁ຄອບ	-9.78936
▁ທິການ	-9.78976
▁ແຕ່ລະ	-9.78996
▁ທ່ານຮອງ	-9.79085
້ນ	-9.79128
▁ມີຄວາມ	-9.79337
ການສ້າງ	-9.7936
▁ສະຫະພັນ	-9.79375
ໂອກາດ	-9.79444
▁ໄດ້ມີ	-9.79498
▁ຊຸດທີ	-9.7954
▁=	-9.79544
ກົມ	-9.79553
▁ຝຶກ	-9.7957
▁ໂດຍສະເພາະແມ່ນ	-9.7963
▁ຖະຫນົນເສດຖາທິລາ	-9.79749
ຫມາຍ	-9.7975
▁ເອີຣົບ	-9.79788
ກະສິກໍາ	-9.79852
▁ດ່ວນ	-9.79884
▁ເມືອງສີໂຄດຕະບອງ	-9.80009
ບິນ	-9.80044
ຂັ້ນຕອນ	-9.80104
▁6.	-9.80114
▁ອາເມຣິກາ	-9.80166
▁Spider	-9.80347
▁f	-9.80361
ແດ່	-9.80365
ການເຮັດວຽກ	-9.8037
ເລີ່ມຕົ້ນ	-9.80411
▁ຂອງຕົນ	-9.80444
ຄວາມເປັນສ່ວນຕົວ	-9.80462
ບ້ານເມືອງ	-9.80476
^	-9.80485
ໃບ	-9.80503
ຂະແຫນງ	-9.80535
▁ເບ	-9.80539
ຫນັກ	-9.80576
ແນວ	-9.80592
ຜິດ	-9.80598
ກອນ	-9.80614
▁ຮັບຮອງ	-9.80665
ຢຸດ	-9.80776
▁ການນໍາໃຊ້	-9.80835
▁ບົດບາດ	-9.80835
ຫຼາຍທີ່ສຸດ	-9.80925
org	-9.81041
ເຮືອບິນ	-9.81066
ທີ່ຢູ່	-9.81125
▁ທົບ	-9.81137
▁ຄະດີ	-9.81164
▁ສາຍການບິນ	-9.81168
▁ໃນລະຫວ່າງ	-9.81175
▁ເຂັ້ມ	-9.81294
ນາມ	-9.81296
▁ເຂື່ອນ	-9.81307
ສວນ	-9.81341
ເກັບ	-9.81343
ໂດຍກົງ	-9.81472
▁ນຸ	-9.8149
▁ເລິກ	-9.81531
ຖາມ	-9.81545
▁5.	-9.81559
▁ມັດ	-9.81589
ເຕັມ	-9.8161
▁ແຕ່ວ່າ	-9.81703
ບໍ່ແມ່ນ	-9.81742
ຊາຍແດນ	-9.81757
▁ເຫມາະ	-9.81778
ຊູ	-9.81838
▁ຣີ	-9.81841
▁II	-9.81957
▁ເທ	-9.82048
▁ຕໍາແຫນ່ງ	-9.82068
ຕອນ	-9.82122
▁ອິສລາມ	-9.82209
ແຕ່ລະ	-9.82234
ການຕະຫຼາດ	-9.82253
▁ເສບ	-9.82266
▁ຮ້ອນ	-9.82269
ເວັບໄຊ	-9.82302
▁ການຈັດ	-9.82339
▁fairy	-9.8236
▁ເຕີບ	-9.82449
ຣະ	-9.82537
▁2018,	-9.8279
ລົງທຶນ	-9.82791
ຢູ	-9.82812
▁ເປັນຕົ້ນມາ	-9.829
▁ເກດ	-9.82907
ເກມອອນໄລນ໌ຟຣີ	-9.8291
ໄພ	-9.82917
▁De	-9.82952
de	-9.8302
▁ພາລະບົດບາດ	-9.83047
▁ງ່າຍ	-9.83049
ລາຍລະອຽດ	-9.83112
▁ເຕີມ	-9.83246
▁ບົດຄວາມ	-9.83279
ສັກ	-9.83298
▁300	-9.83312
ທີ່ດິນ	-9.8332
ປົກກະຕິ	-9.83323
▁ສໍານັກຂ່າວ	-9.83328
▁ໂຣ	-9.83351
▁ຫນອງ	-9.83413
▁ປູຕິນ	-9.83476
▁ອໍາ	-9.83551
ບໍ່ສາມາດ	-9.83601
ຄໍາສັ່ງ	-9.8361
ໃຜ	-9.83639
▁ຄ້ານ	-9.83644
ຄອງ	-9.83646
▁ທໍາລາຍ	-9.83671
▁ແນ່	-9.83674
▁90	-9.83704
ບົດທີ່ກ່ຽວຂ້ອງ	-9.83747
ໂຊ	-9.8385
ພວມ	-9.83852
▁ການເຄື່ອນໄຫວ	-9.8386
ລໍາ	-9.83875
▁ຄານ	-9.83895
ງົບປະມານ	-9.83924
ຂໍ້ຕົກລົງ	-9.83975
ປ່າໄມ້	-9.83976
▁ກຽດ	-9.84067
▁ວິທະຍາໄລ	-9.84077
▁ສາທາລະນະລັດ	-9.84109
▁ແຫຼ່ງ	-9.84164
▁ພວກເຂົາເຈົ້າ	-9.84282
▁ການເງິນ	-9.84387
ອະ	-9.84389
ລິດ	-9.84395
▁ວິດີໂອ	-9.84429
le	-9.84462
▁ມ່ວນ	-9.84519
ຄວາມຕ້ອງການ	-9.84643
▁(1)	-9.84666
ລາງວັນ	-9.84677
▁ສະຫນັບສະຫນຸນ	-9.84698
▁ນອກຈາກນັ້ນ	-9.84739
ມີການ	-9.84746
ລັບ	-9.84746
ການສອນ	-9.84854
▁ແຜ່ນ	-9.84924
▁ປະຊາທິປະໄຕ	-9.85006
ຮອດ	-9.85177
ທ່າ	-9.85179
ແນະນໍາ	-9.85238
▁ວິທະຍຸ	-9.85359
ຂາດ	-9.85443
ມູນຄ່າ	-9.8557
▁ແນ່ນອນ	-9.85584
ຣິ	-9.85733
@	-9.85817
ຕ້ອນຮັບ	-9.85867
▁ເມັດ	-9.85872
ຈົ່ງ	-9.85939
▁spring	-9.8594
▁ສວຍ	-9.85975
ເອົາໃຈໃສ່	-9.86004
ພູ	-9.86035
ກໍລະນີ	-9.86054
▁ຫຼີ	-9.86087
ຕ້ານ	-9.86093
ກົດຫມາຍວ່າດ້ວຍ	-9.86141
Lao	-9.86151
ຂາ	-9.86204
▁32	-9.86228
▁ກຸງ	-9.86267
▁USD	-9.86288
▁ປະສົບ	-9.86297
ທີ່ບໍ່	-9.86474
ໂດ	-9.86488
▁ອັດຕະປື	-9.86506
ສຸດທ້າຍ	-9.86543
▁ທ້າ	-9.86556
ເຫັນວ່າ	-9.8659
ຜູ້ຊາຍ	-9.86592
ຂອງຕົນເອງ	-9.86598
▁ປູ	-9.866
▁ບໍ່ໄດ້	-9.86611
ເກີດຂຶ້ນ	-9.8667
ເລ	-9.86685
້ອງກັນຄວາມສະຫງົບ	-9.86739
▁]	-9.86784
ຕ່ໍາ	-9.8686
▁ມິ	-9.86896
▁ກວ້າງ	-9.86942
ສາດ	-9.87167
▁2016.	-9.87173
▁ປີຜ່ານມາ	-9.87248
▁ຕໍ່ການເລືອກຕັ້ງ	-9.8731
ເລືອດ	-9.87313
ແລ່ນ	-9.87423
▁Donald	-9.87429
▁ວໍ	-9.8749
▁pony	-9.87494
▁ຫນັງສືພິມ	-9.875
el	-9.87515
ຂອງບໍລິສັດ	-9.87539
▁ວາລະສານ	-9.87646
ພາສາລາວ	-9.8767
ຫຼາຍຢ່າງ	-9.87684
▁ມະຕິ	-9.87764
ທໍາລາຍ	-9.87769
▁surfers	-9.87779
▁ທາດ	-9.87786
▁ໄດ້ຖືກ	-9.87821
man	-9.87843
ປະເທດລາວ	-9.87883
▁ລົງວັນທີ	-9.87944
ແລກປ່ຽນ	-9.87966
▁ນົດ	-9.87971
▁ທຸລະ	-9.88032
▁ເລີ່	-9.88046
▁ດຶງ	-9.88061
▁ສິງກະໂປ	-9.88069
ແຕກ	-9.88109
▁ລ້າງ	-9.88136
ສົ່ງອອກ	-9.88174
▁ໄດ້ກ່າວວ່າ	-9.88214
▁ຊີເຣຍ	-9.88235
ໃນໂລກ	-9.88271
▁ອີຣັກ	-9.88298
ຂອງໂລກ	-9.88376
ຄອນ	-9.8838
▁ລຸ້ນ	-9.88382
ຊ່ອງ	-9.88437
▁ເຊື່ອມຕໍ່	-9.88471
▁ເດດ	-9.8848
ປ່ອຍ	-9.88489
▁ເບື້ອງ	-9.88533
▁ຮຽກ	-9.88609
▁ຜູ້ທີ່	-9.88684
▁ຫະກິດ	-9.88796
▁ຊ່ວງ	-9.88831
▁ອອກຈາກ	-9.88835
▁ການທົບທວນຄືນ	-9.88934
ອົງ	-9.89083
ເນື້ອຫາ	-9.89154
▁ໂອ້	-9.89154
ດໍາເນີນ	-9.8916
▁ໃນປັດຈຸບັນ	-9.892
ອີເມວ	-9.89212
ຂ່າວສານ	-9.89252
▁ໄມ	-9.89299
▁ວະ	-9.89312
▁ບວນ	-9.8933
▁Microsoft	-9.89354
▁ເບຍ	-9.89521
ໂນ	-9.89556
▁(4)	-9.89703
▁ນຸດ	-9.89731
▁ວໍຊິງຕັນ	-9.89859
▁ສະຫະພາບ	-9.89863
▁ລື	-9.89898
▁ວາຍ	-9.89904
▁ເນື່ອງຈາກ	-9.89931
▁ຈົດ	-9.89939
▁ເພີ້	-9.9001
ພິທີ	-9.9004
▁ເນື່ອງໃນໂອກາດ	-9.90047
▁ສິງ	-9.90064
▁ເດ	-9.9016
▁ໂຕນ	-9.90168
ສະຫນັບສະຫນຸນ	-9.90188
▁ຮອງລັດຖະມົນຕີ	-9.90271
▁2009	-9.90276
ers	-9.90342
ຈໍານວນຫນຶ່ງ	-9.90375
ແ	-9.9041
▁Quest	-9.90451
ທີ່ແທ້ຈິງ	-9.90459
▁ຕົວຢ່າງ	-9.90462
▁ປະເທດລາວ	-9.90463
re	-9.90535
▁ແນະ	-9.90539
ເນ	-9.90545
ເສຍຊີວິດ	-9.9055
ຕອບ	-9.9061
ເປັນຜູ້	-9.90671
ປຶກສາຫາລື	-9.90674
ຄົບຮອບ	-9.9068
ໄຟລ໌	-9.90752
ເຂົ້າໄປ	-9.90801
▁ຄັດ	-9.90854
ຍັງມີ	-9.90859
ຊະນະ	-9.90872
ເດີ	-9.90873
▁ກ່ອນຫນ້ານີ້	-9.90891
ກາຕູນ	-9.90944
▁v	-9.91053
ໄປຫາ	-9.91077
▁ທາຍ	-9.91156
ປະເທດຊາດ	-9.91184
▁Kerry	-9.91265
▁03	-9.91282
▁ສິ້ນ	-9.91438
▁ບົວ	-9.91453
ປະກອບສ່ວນສໍາຄັນ	-9.91466
▁ລິບ	-9.91487
▁ກັດ	-9.9152
▁list	-9.91716
ຫຼາຍໆ	-9.91753
ອາວຸດ	-9.91754
ກາຍເປັນ	-9.91832
▁ປະຊາຊົນລາວ	-9.91847
▁No	-9.91883
ອາກາດ	-9.91905
ມຽນມາ	-9.9195
ຄວາມຮູ້	-9.92013
▁ທຽບ	-9.92075
ຄາສິໂນ	-9.92089
ເຂົາເຈົ້າ	-9.92092
▁ຈະມີ	-9.9213
▁400	-9.9217
▁Makeover	-9.92243
ທຸກໆ	-9.92259
ຫມາກ	-9.92365
▁ແລ່ນ	-9.92426
ເຄີຍ	-9.92483
▁ຮອງຫົວຫນ້າ	-9.92517
ການນໍາ	-9.92565
▁ຖອນ	-9.92604
▁ເທີກີ	-9.92606
ຕົ້ນຕໍ	-9.92659
▁ສົດ	-9.92736
▁ອີກເທື່ອນຶ່ງ	-9.92756
ຮັບປະກັນ	-9.92791
ເຊີນ	-9.9283
ອາຈານ	-9.92908
▁ນິວຢອກ	-9.92914
▁Co	-9.93113
▁ກົດຫມາຍວ່າດ້ວຍ	-9.93132
ຜົນປະໂຫຍດ	-9.93209
ກວດສອບ	-9.93275
▁ການເມືອງ	-9.93314
ສະຫວັນ	-9.93322
▁ຮ້ອຍ	-9.93339
▁ຫວານ	-9.93342
ແນ່ນອນ	-9.9336
▁ເຮ	-9.93376
ການອອກແບບ	-9.93392
▁ເລຂາທິການ	-9.93425
ໃຊ້ເວລາ	-9.93473
ຄວາມທຸກຍາກ	-9.93508
▁ເມື່ອວັນທີ	-9.93526
ນອກ	-9.93628
▁ເວນ	-9.93633
▁ໂຍ	-9.93648
ຊັບພະຍາກອນ	-9.93661
ucket	-9.93835
▁ອາດຈະ	-9.93873
0	-9.9391
▁ຕະການ	-9.93929
▁us	-9.93958
ມາດ	-9.93987
▁ເຫຼົ່າ	-9.94007
ນໍາກັນ	-9.94011
▁ກ່ຽວຂ້ອງ	-9.94133
ຍະ	-9.94184
ເຄື່ອນໄຫວ	-9.94198
▁ອີງຕາມ	-9.94255
▁ນັກສຶກສາ	-9.94256
ເບີ	-9.9426
ອົງການຈັດຕັ້ງ	-9.94295
▁ປິ່ນປົວ	-9.94296
61	-9.94343
▁ການໂຈມຕີ	-9.94352
▁ອິນໂດເນເຊຍ	-9.94373
▁ສາສະຫນາ	-9.9444
▁ສະຫວັນ	-9.94443
▁ມິດຕະພາບ	-9.94451
▁ກ່ຽວກັບການ	-9.94518
▁Bitcoin	-9.94652
ສື່ມວນຊົນ	-9.94729
ພະແນກ	-9.94745
▁ມິນ	-9.94771
ເຂົ້າໃຈ	-9.94782
ຂອງຫວຽດນາມ	-9.94852
▁ຜູ້ຕາງຫນ້າ	-9.94892
ໃນເວລາທີ່	-9.94947
ສັງ	-9.94948
ຢ່າງຕໍ່ເນື່ອງ	-9.95001
▁ລະອຽດ	-9.95028
ຢ້ຽມຢາມ	-9.95129
▁ຄາດວ່າ	-9.9516
ພໍ່	-9.95163
▁ຮ	-9.95203
ຕື່ມອີກ	-9.95239
▁ກະບົດ	-9.95333
▁ປະຫວັດສາດ	-9.95353
▁ປູກ	-9.9538
▁ເຫມີ	-9.95477
ກໍ່ໄດ້	-9.95519
ຂະຫຍາຍ	-9.95591
ພາກພື້ນ	-9.95599
I	-9.95682
▁ໄດ້ຮັບການ	-9.95706
se	-9.95792
▁ແຫລ	-9.95798
ຄໍາວ່າ	-9.95799
ຫນ້ອຍ	-9.95829
▁ໂຮງງານ	-9.95857
ຟ້າ	-9.95978
ພາກັນ	-9.95981
▁ຂຽນເມື່ອ	-9.95988
▁ບູ	-9.96022
▁01	-9.96061
▁ຂົນສົ່ງ	-9.96066
▁ພ້ອມດ້ວຍຄະນະ	-9.96079
ເພີ່ມທະວີ	-9.96097
▁ເຄລຍ	-9.96212
ລັດເຊຍ	-9.9627
ເປັນເວລາ	-9.96305
ສະຫນອງ	-9.9634
▁Clinton	-9.96421
▁Twitter	-9.96471
ຄັນ	-9.96477
▁ຂະນະທີ່	-9.96513
▁avi	-9.96582
ເຊື່ອມຕໍ່	-9.96582
ເສັ້ນ	-9.96616
▁ຍັງໄດ້	-9.96698
ດໍາເນີນການ	-9.96713
ຫຼາຍຄົນ	-9.9675
▁ຫັດ	-9.96794
ທ່ານປະທານາທິບໍດີ	-9.96843
0,	-9.96875
ຈອງປີ້	-9.9689
ຄິດວ່າ	-9.96949
ທີ່ຂຶ້ນຕົ້ນດ້ວຽ	-9.96968
ion	-9.96996
▁ແຍ້	-9.9708
▁ກໍາປູ	-9.97111
▁ເຢ	-9.97122
ຂອງລັດ	-9.97126
▁ເຂົາເຈົ້າ	-9.97149
▁ໂຫຍ	-9.9722
▁Top	-9.97295
ພວກເຂົາເຈົ້າ	-9.97403
▁ຕິດຕໍ່	-9.97447
ແລະການ	-9.97559
▁ຜັກ	-9.9764
ໄດ້ຮັບຜົນກະທົບ	-9.97712
ພະຍາດ	-9.97716
▁ຍ້າຍ	-9.97785
ໂຮງແຮມ	-9.97813
▁ກຸມ	-9.97949
▁ຫນັງ	-9.98053
ເພິ່ນ	-9.98065
▁ຊານ	-9.9807
▁Web	-9.98096
obilet	-9.98147
ານ	-9.98158
▁ບຸກຄົນ	-9.98201
ຫົວຫນ້າ	-9.98243
ຮອງ	-9.98476
▁ອັນດັບ	-9.98526
ເວັບ	-9.98542
ນ້ອງ	-9.98657
at	-9.98756
ລະເບີດ	-9.98784
▁ສປປລາວ	-9.9879
id	-9.98817
ຄົ້ນຫາ	-9.98838
▁ພິເສດ	-9.98896
Z	-9.98957
▁ອງ	-9.98969
co	-9.99096
▁ສໍາລັບທ່ານໃດ	-9.99111
ຣັດເຊຍ	-9.99168
da	-9.99282
ວິທະຍາໄລ	-9.99342
ຮອບ	-9.99348
▁ເອີ	-9.99363
▁ເປັນຫຍັງ	-9.99475
▁Al	-9.99498
▁ບົດຮຽນ	-9.99509
ປະກອບມີ	-9.99523
▁ດູດ	-9.99553
ມື້ນີ້	-9.9958
▁ສີ່	-9.99672
ກວດ	-9.99754
▁ມາເລເຊຍ	-9.99772
ແຂງ	-9.99824
ຄັ້ງທໍາອິດ	-9.99853
▁Tags	-9.99861
ຊົງ	-9.99913
▁ໄດ້ກ່າວ	-9.99996
ຄົມ	-9.99997
ລະຫັດ	-10.0001
▁ສະຫມັກ	-10.0005
ຫນັງສືພິມວຽງຈັນ	-10.0008
ອິນເດຍ	-10.0009
ຕົວຢ່າງ	-10.0015
▁Dress	-10.0016
▁ຟ້ອງ	-10.0023
▁[1	-10.0024
▁Z	-10.0024
ຕໍ່ຕ້ານ	-10.0025
ເພັດ	-10.0025
▁ທິບໍດີ	-10.0026
ພື້ນຖານໂຄງລ່າງ	-10.0028
▁ກະກຽມ	-10.0029
ມ່ວນ	-10.0038
ຕິດຕັ້ງ	-10.0041
ໄຊຊະນະ	-10.0045
-1	-10.0048
▁ຄໍາສັ່ງ	-10.0048
ບັນທຶກ	-10.0051
▁ຫຼວງພະບາງ	-10.0058
ຮັບຜິດຊອບ	-10.0062
▁ແຈ້ງການ	-10.0062
na	-10.0062
ຂວາ	-10.0064
▁ເຮັດວຽກ	-10.007
▁ພົນລະ	-10.0073
▁ເຄື່ອງມື	-10.0077
to	-10.0079
▁ພົມວິຫານ	-10.0088
ຮ່າງກາຍ	-10.01
ປະຕູ	-10.0109
▁ຈຸດປະສົງ	-10.011
ສິນ	-10.0116
▁ການຄຸ້ມຄອງ	-10.0117
ໄລ	-10.0118
▁ຄຸກ	-10.0118
▁Kissing	-10.0121
ການຢ້ຽມຢາມ	-10.0125
ສຸຂະພາບ	-10.0127
ia	-10.0128
▁ເລຂາ	-10.0129
ຂອງຈີນ	-10.0146
▁ຂຽນໂດຍ	-10.0148
ເຕັກນິກ	-10.0148
▁ກະທໍາ	-10.0153
ຮູ້ຈັກ	-10.0155
ເມ	-10.0155
▁San	-10.0156
ທ້າວ	-10.0159
▁ອ້າຍ	-10.016
▁ຍີ່	-10.0161
▁ເທົ່ານັ້ນ	-10.0163
▁38	-10.0167
▁ປະຕິເສດ	-10.0173
ລາຄາຖືກຈາກ	-10.0179
▁ສະຫງົບ	-10.018
▁ພາສີ	-10.018
▁ນັ່ງ	-10.0182
ໃນເວລາ	-10.0186
▁ປະກັນ	-10.0192
ສະໄລດ໌	-10.0201
▁2015.	-10.0207
▁ນອກຈາກນີ້	-10.0207
ທີ່ເຫມາະສົມ	-10.0207
▁ຕາງຫນ້າ	-10.0208
▁ສະບາຍດີ	-10.0209
▁ເກົາຫຼີເຫນືອ	-10.0223
ຕັນ	-10.0225
▁ແອບ	-10.0226
▁ໃນເຂດ	-10.0226
▁ທີ່ຕັ້ງ	-10.0231
▁ການສະຫຼຸບ	-10.0233
ຂ່າວສານບ້ານເມືອງ	-10.0238
▁ໂນ້ຍ	-10.0247
ບັນນາທິການໃຫຍ່	-10.0253
ສະເຫມີ	-10.0253
▁ລ້ານກີບ	-10.026
▁ສິບ	-10.0264
ເກີນ	-10.0265
ລາຍການສົດ	-10.0281
▁ແລະອື່ນໆ	-10.0285
▁ເຮັງ	-10.0288
▁ດາວໂຫລດ	-10.0296
ໂຮງຫມໍ	-10.0303
ຫວຽດ	-10.0307
ແຫ່ງນີ້	-10.0311
▁ຫລັກ	-10.0315
▁ຖ່າຍ	-10.032
ທ່ານນາງ	-10.0323
▁ສະຖານທູດ	-10.0325
▁ນອກນັ້ນ	-10.0334
ອັດຕະໂນມັດ	-10.0342
ຮ່າງ	-10.0348
ດາວ	-10.0353
▁Ninja	-10.0368
ທາງການ	-10.0371
▁ນໍາໃຊ້	-10.0376
▁ເອົາໃຈໃສ່	-10.0379
ຕີນ	-10.0382
▁ທີມງານ	-10.0393
ຜົນງານ	-10.0396
ic	-10.0397
ang	-10.0408
▁ລັກສະນະ	-10.0408
ກິດ	-10.0411
ອໍານາດ	-10.0414
ອອກໄປ	-10.0418
▁ຂະບວນການ	-10.0418
▁ກ່ວາ	-10.042
▁monsters	-10.0423
ຊົນເຜົ່າ	-10.0428
ດັງ	-10.0431
▁ເດັ່ນ	-10.0432
ຂາວ	-10.0432
▁ຫນາ	-10.0433
▁Turn	-10.0434
▁ອົງການສືບລັບ	-10.0434
ສິດທິມະນຸດ	-10.0447
▁ບ້ານຊຽງຍືນ	-10.0452
ຂອງເຮົາ	-10.0455
ເຢັນ	-10.0457
ຮັບຮອງ	-10.0463
▁ອອກແບບ	-10.0466
▁ເພັດ	-10.0469
ການໂຄສະນາ	-10.0469
ta	-10.0471
ປົກປັກຮັກສາ	-10.0472
▁ພາຍຫລັງ	-10.0485
▁02	-10.0485
ຂັ້ນສູງ	-10.0487
ຈ່າຍ	-10.0489
໊	-10.049
▁ຖືວ່າ	-10.0501
▁ຫ່ວງ	-10.0505
ດັ່ງກ່າວນີ້	-10.0507
ຮູບເງົາ	-10.0508
▁ຂອງພັກ	-10.0511
▁ກ້ອນ	-10.0513
ຮ້ອນ	-10.0517
▁Comments	-10.0554
ຢາງ	-10.0555
ໄດ້ມີ	-10.0555
ແຂ່ງຂັນ	-10.0559
ປູກ	-10.0559
us	-10.056
ແສງ	-10.0571
ລອງ	-10.0571
ໃນລາວ	-10.0577
▁ປົວ	-10.0582
▁ນິສຖານ	-10.0589
ພິມ	-10.059
▁ມາກຣົງ	-10.0595
ຈາກການ	-10.0601
▁ແມ່ນຄໍາ	-10.0607
ກຽມ	-10.0616
▁ປະເທດໄທ	-10.0618
ມືຖື	-10.0625
ກະຊວງຖະແຫຼງຂ່າວ	-10.0628
>	-10.0632
ພຣະອົງ	-10.0638
ຫີນ	-10.0644
ຈິງ	-10.0645
ໃຫ້ທ່ານ	-10.0653
ຂໍອານຸຍາດ	-10.0657
▁Monster	-10.0657
▁ງການ	-10.0663
ສໍານັກງານ	-10.0664
ry	-10.0678
▁ມະຫາຊົນ	-10.0678
ຄົບ	-10.0687
ຍ່າງ	-10.0687
▁ແບ່ງປັນ	-10.0688
▁ໃນການຊ່ວຍເຫຼືອ	-10.0703
ຫນຸ່ມ	-10.0704
▁ສໍາພາດ	-10.0709
ຊຸກຍູ້	-10.071
ຂອງຕົ້ນສະບັບ	-10.071
▁ອັງ	-10.0712
▁re	-10.0712
ໃຫ້ຮູ້ວ່າ	-10.0713
▁ເຟ	-10.0717
▁ສົ່ງເສີມ	-10.0717
▁ຖ້າຫາກວ່າ	-10.0717
."	-10.0719
▁ສືບສວນ	-10.0719
▁ໂດລາ	-10.0721
▁ຊຽງຂວາງ	-10.0722
ໂທດ	-10.0725
ອະດີດ	-10.0726
▁tables	-10.0726
▁ດວງ	-10.0731
ຢ່າງຫນ້ອຍ	-10.0736
▁ຫີນ	-10.0737
ຕ້ອງໄດ້	-10.074
13	-10.074
▁ຂົວ	-10.0743
ພາສີ	-10.0745
ສາສະຫນາ	-10.0746
▁ບ່ອນທີ່	-10.0748
▁ຊີບ	-10.0749
ສາຂາ	-10.0754
▁ຕິດຕາມທາງ	-10.0756
▁ຜັນ	-10.0757
ການຝຶກອົບຮົມ	-10.0759
▁ໂທລະສັບມືຖື	-10.076
ຄວາມຮັບຜິດຊອບ	-10.0761
▁ຈໍາປາສັກ	-10.0768
ຖືວ່າ	-10.0769
▁ບັບ	-10.0774
ສົບ	-10.0777
▁ທ່ານປະທານປະເທດ	-10.0778
▁ລິຂະສິດ	-10.0778
ໂຮງງານ	-10.0779
Man	-10.0782
j	-10.0785
▁ໄລ່	-10.0786
ໂທລະພາບ	-10.0792
ທາງທ້ອງຖະຫນົນ	-10.0798
ບັນລຸ	-10.0799
▁ອັຟກາ	-10.0803
▁Post	-10.0809
ເອີ້ນ	-10.0812
ຂໍ້ມູນທຸກຢ່າງ	-10.0814
▁ນາຍົກ	-10.0815
▁ວຽກງານກູ້ໄພ	-10.0819
ຕະຫລາດ	-10.082
ຂອງເນື້ອຫາຕ່າງໆ	-10.0831
▁Stein	-10.0831
ລັກສະນະ	-10.0835
ຂອບໃຈແກ່	-10.0835
ຄົນອື່ນ	-10.084
ra	-10.084
▁ປານ	-10.0841
▁ນຸ່ງ	-10.0843
ຫລາຍກວ່າ	-10.0845
ບໍ່ຜິດຕໍ່ກົດຫມາຍ	-10.0848
▁ພຽງແຕ່ທ່ານແຈ້ງ	-10.0848
ເອົາໄປນໍາໃຊ້ໃນ	-10.0848
ຄະນະຜູ້ແທນ	-10.0849
▁ສາມາດສົ່ງຂໍ້ມູນ	-10.0849
▁ຜູ່ປະສົບໄພ	-10.0849
ທາງທີ່ເປັນປະໂຫຍດ	-10.085
ເກົາຫຼີເຫນືອ	-10.0851
▁55	-10.0855
▁ເຫດສຸກເສີນ	-10.0859
ທີ່ຕ້ອງການລົງ	-10.0859
ຂອງຂ້ອຍ	-10.086
▁ຫມາ	-10.0868
▁ຂະແຫນງການ	-10.0868
່ນສາມາດ	-10.0869
▁ຄ້າຍ	-10.0877
▁ທີ່ເປັນ	-10.088
ສະມາຄົມ	-10.088
▁ໃນເວບໄຊ	-10.0883
▁VIII	-10.0887
ກິ	-10.0894
▁ຊາບ	-10.0896
▁ວັງ	-10.0898
ພຣະເຈົ້າ	-10.0904
▁ຕັ້ງຫນ້າ	-10.0905
▁ຕໍ່ໄປ	-10.0913
▁Cutie	-10.0919
ລາຍຮັບ	-10.0919
ທັນທີ	-10.0932
ແບ່ງປັນ	-10.0945
▁ຫນາວ	-10.0947
▁ຜ	-10.0952
▁Street	-10.0954
▁ເຂົ້າໃນ	-10.0959
ອາຊີບ	-10.0966
ຄວາມສາມາດ	-10.0973
▁ໂຮງຫມໍ	-10.0978
ຄໍ	-10.0986
ຫນ	-10.0988
ຊ້າຍ	-10.0998
▁33	-10.1
ຕັດໃຫມ່ຫນອງບຶກ	-10.1007
▁ບ້ານຫນອງບຶກ	-10.1008
ແຫຼ່ງ	-10.1008
▁ແພດ	-10.1011
໑	-10.1015
ອ່ອນ	-10.1022
ສັ້ນ	-10.1024
ສະແດງໃຫ້ເຫັນ	-10.1025
▁ໃນວັນ	-10.1025
ນິຍົມ	-10.1028
ຈະເປັນ	-10.1029
ທີ່ສວຍງາມ	-10.104
▁ສາລະວັນ	-10.104
ການປັບປຸງ	-10.1041
▁ສູດ	-10.1051
11	-10.1056
▁42	-10.1057
ຜົນສໍາເລັດ	-10.1061
▁ຮ່ວມກັບ	-10.1064
ສາທາລະນະ	-10.1067
ສີ່	-10.1069
ຫະ	-10.1075
໋	-10.108
▁ເລືອດ	-10.1088
ກ້ອງ	-10.1089
▁ທົ່ວປະເທດ	-10.1096
ສິດທິ	-10.1096
▁ຮອງຜູ້ອໍານວຍການ	-10.1099
ຊຸມຊົນ	-10.1102
▁08	-10.1103
▁ໄນ	-10.1104
▁ທຽມ	-10.1109
ລັດຖະກອນ	-10.1118
▁09	-10.1119
ອອກແບບ	-10.1121
ທີ່ບໍ່ມີ	-10.1129
ຂອງທັງສອງ	-10.113
▁ເລີກ	-10.113
▁is	-10.113
▁0,	-10.1145
▁ອັກ	-10.1146
▁ແຂວງສາລະວັນ	-10.1146
ທີມງານ	-10.1148
▁ສຸມ	-10.1154
—	-10.1155
▁ຮູ້ສຶກ	-10.116
ມູນ	-10.1162
▁ລິ້ງຄ໌	-10.1165
ທີ່ໃຊ້ເວລາ	-10.1167
Frankie	-10.117
▁ບໍ່ແມ່ນ	-10.1172
▁ແລກ	-10.1175
ຊະ	-10.1182
▁2008	-10.1194
ແທນ	-10.1196
▁ຜ່ອນ	-10.1197
▁ມັງ	-10.1205
▁ວິກ	-10.1206
ທີ່ຖືກຕ້ອງ	-10.1207
▁ໄຊຊະນະ	-10.1209
▁ເງື່ອນໄຂ	-10.1209
ໃນອະນາຄົດ	-10.1212
▁ກາຍເປັນ	-10.1212
▁ໃນເວລາທີ່	-10.1214
ິ	-10.1216
ຂ້າມ	-10.1236
▁ຕະຫຼອດ	-10.1246
▁ຊຸກ	-10.1247
ພົບເຫັນ	-10.1249
ຂົນສົ່ງ	-10.1249
ເຕີ	-10.1251
ເທົ່າ	-10.1255
▁ຕ້ອນ	-10.126
▁ຫລາຍໆ	-10.1267
ຫຼັກສູດ	-10.1268
▁ພືດ	-10.127
ໂມ	-10.127
ໃນຂະນະທີ່	-10.1279
▁7.	-10.1283
▁ຮອງປະທານ	-10.1287
ພື້ນ	-10.1288
▁ອະນຸຍາດ	-10.1296
ກໍຄື	-10.131
ການຮຽນ	-10.132
ປັບ	-10.132
▁ຖືກຕ້ອງ	-10.1323
▁ແຫ່ງຊາດ	-10.1326
ວິຊາການ	-10.1326
ຫນ້າຈໍ	-10.1334
▁ອິນເດຍ	-10.1336
▁ພາຍໃຕ້	-10.1339
▁ຫຍາຍ	-10.134
54	-10.1361
▁IT	-10.1361
▁ເກົາ	-10.1361
▁ສະຫນາມ	-10.1363
ແບບນີ້	-10.1365
18	-10.1369
ແກ້	-10.1378
ຈິດ	-10.1379
ຍາກ	-10.1385
ka	-10.1393
▁ຢ່າງໃດກໍຕາມ	-10.1406
▁ແຂວງສະຫວັນນະເຂດ	-10.1407
▁ພະຍົບ	-10.1409
▁ໂຫຍດ	-10.1411
ຂີ້ເຫຍື້ອ	-10.1411
▁ຫໍ	-10.1412
▁ສະໄຫມທີ	-10.1414
ເດ	-10.1425
ປ່ຽນແປງ	-10.1429
▁ຈາຍ	-10.1431
▁ສະເພາະ	-10.1435
ເຂົ້າໃນ	-10.1437
ຂັບ	-10.144
▁ແຂວງອຸດົມໄຊ	-10.1443
ຢາເສບຕິດ	-10.1445
ປັດຈຸບັນ	-10.1448
12	-10.1448
▁ແ	-10.1452
ຫນື່ງ	-10.1454
▁ກວາງ	-10.1459
ນຍ	-10.1459
▁ປິ່ນ	-10.1469
▁ພັນທະ	-10.1473
▁ທຸ	-10.1481
▁ສໍາເລັດ	-10.1481
ແຜ່ນ	-10.1482
ເອີ້ນວ່າ	-10.1485
▁ເວັບໄຊ	-10.1489
▁Dog	-10.151
▁ໃນເມືອງ	-10.1513
▁ປັ່ນ	-10.1532
ສະໄຫມ	-10.1532
▁ແອນ	-10.1533
▁Kim	-10.1534
້ງ	-10.1536
ວັນສ້າງຕັ້ງ	-10.1538
▁Naruto	-10.1539
ຄວາມເຂົ້າໃຈ	-10.1541
ຄວາມພະຍາຍາມ	-10.1543
ຄົນທີ່	-10.1552
ທີ່ຕ້ອງການ	-10.1552
▁໒	-10.1559
▁ກໍ່ໄດ້	-10.156
▁07	-10.1561
ຫລັກ	-10.1563
ໃດຫນຶ່ງ	-10.1575
ຊີ້ນໍາ	-10.1577
▁ໂຮ່ຈີມິນ	-10.1578
ນວນ	-10.1582
ພໍ	-10.1583
▁ຂວາງ	-10.1587
▁ເຫລົ່າ	-10.1588
▁ການຈັດຕັ້ງ	-10.1593
ດ່ວນ	-10.1594
▁ແຜ່ນດິນ	-10.1595
▁ໃນເວລາ	-10.1596
ເລືອກເອົາ	-10.1607
▁ເຫຼືອງ	-10.161
▁ຊວນ	-10.162
▁63	-10.1621
▁ສິ່ງທີ່	-10.1621
▁ວຸດ	-10.1627
ນາທີ	-10.1628
ໃສ	-10.1629
▁ດໍາລັດ	-10.1634
▁ຮຽກຮ້ອງໃຫ້	-10.1646
ສູດ	-10.1649
▁ຊອກຫາ	-10.1651
▁ພຊສ	-10.1652
ະໄຫມສາມັນເທື່ອທີ	-10.1656
▁ຖານະ	-10.1656
▁ຫ້າ	-10.166
ປະຈຸບັນ	-10.1661
▁ຍຸດທະສາດ	-10.1663
▁150	-10.1669
▁ໂທລະພາບ	-10.1685
ຢ່າ	-10.1689
ຮ້າຍ	-10.169
ຜູ່	-10.1693
ອັດຕາ	-10.17
ກີ	-10.17
▁ຄໍາມ່ວນ	-10.1705
▁Rapunzel	-10.171
▁ລີມ	-10.1726
ຫນັງສື	-10.173
ມາດຕະການ	-10.1732
ທີ່ໃຊ້	-10.1751
ນາຍ	-10.1754
▁ປີກ່ອນ	-10.1755
ສືບ	-10.1759
▁ນີ້ວ່າ	-10.176
▁b	-10.1765
ບໍລິເວນ	-10.1769
▁ແຂກ	-10.1771
▁ໃນນະຄອນຫຼວງ	-10.1771
▁Koh	-10.1774
▁kids	-10.1787
ທົດລອງ	-10.1795
ຮ້ອງ	-10.1797
ໂຄ	-10.1799
▁ການເລືອກຕັ້ງ	-10.1806
ປະຕິບັດຕາມ	-10.1806
ການສະຫນັບສະຫນູນ	-10.1806
▁Papa	-10.1808
ສະພາບການ	-10.181
ມົນ	-10.1815
▁ມ້າ	-10.1819
ro	-10.1819
ດ້ານເສດຖະກິດ	-10.1821
ມານ	-10.1824
▁ອ່ອນ	-10.1824
▁2017,	-10.1826
▁ເກມແຂ່ງລົດ	-10.1826
▁ປຸ່ນ	-10.1832
ພັດທະນາແບບຍືນຍົງ	-10.1833
ແນວຄິດ	-10.1833
ບີ	-10.1837
▁Mario	-10.1845
ລາຄາຖືກ	-10.1849
▁ຫນີ້	-10.1856
ສິງກະໂປ	-10.1857
ເຂົ້າສູ່	-10.1862
▁Pie	-10.1862
▁Ho	-10.1863
▁ຟຣິກາ	-10.1865
ຈະໄດ້	-10.1869
▁ກະຊວງສຶກສາທິການ	-10.187
▁37	-10.1871
ຮັບໃຊ້	-10.1871
▁ມູນຄ່າ	-10.1871
ສາຍພົວພັນ	-10.1873
ຂະຫຍາຍຕົວ	-10.1876
ຫວັດດີການສັງຄົມ	-10.188
▁ມາດຕະຖານ	-10.1883
ຫຼາຍກ່ວາ	-10.1884
▁ເງົາ	-10.1891
▁English	-10.1893
MB	-10.1895
▁ໂດຍການ	-10.1899
▁ສະເຫຼີມສະຫຼອງ	-10.1901
▁ຂອງຣັດເຊຍ	-10.1903
▁Equestria	-10.1903
&	-10.1904
▁05	-10.1911
ສົດ	-10.1914
ຮູ້ວ່າ	-10.1916
▁ຕອນເຊົ້າວັນທີ	-10.192
ຜ້າ	-10.192
▁ໂຣກ	-10.1921
▁ອາການ	-10.1922
▁Zombies	-10.1923
▁ຫລຸດ	-10.1923
▁ຊ້າງ	-10.1924
▁ບົນ	-10.1926
ຜູ້ຄົນ	-10.1928
ໄປແລ້ວ	-10.1941
▁app	-10.1947
ນໍາ້	-10.1948
▁ຫົວຂໍ້	-10.1952
▁ໂຮງແຮມ	-10.1953
▁dog	-10.1959
ວິຊາ	-10.196
ສິ	-10.196
▁Pro	-10.1961
▁ແລງ	-10.1962
ຈະເຮັດໃຫ້	-10.1966
▁eat	-10.1966
▁ແຂວງຫຼວງພະບາງ	-10.1967
▁ຍຸຕິ	-10.1969
ຕ່າງປະເທດລາຍງານ	-10.197
ຫ້າ	-10.1974
ຖອນ	-10.1977
ຄະນະບໍລິຫານງານ	-10.1978
▁ພີ	-10.1979
ວັດຖຸ	-10.1979
▁Spongebob	-10.1981
ຂອງປີ	-10.1981
ປາຍ	-10.1984
▁ຫລັງຈາກ	-10.1986
▁ການກໍ່ສ້າງ	-10.1992
ດຣ	-10.1992
ນະຄອນຫລວງວຽງຈັນ	-10.1996
ທາດ	-10.1998
ທີ່ຍິ່ງໃຫຍ່	-10.2003
ຊັບສິນ	-10.2009
ຊົ່ວຄາວ	-10.2011
▁ໂຊກ	-10.2014
▁ຫນັບ	-10.2016
▁ຮົບ	-10.2031
ການເຈລະຈາ	-10.2031
ອັດ	-10.2033
ຜັກ	-10.2036
▁ຖ້າທ່ານ	-10.2038
ເວ	-10.2038
▁Sniper	-10.204
ເດັກນ້ອຍຊາຍ	-10.2047
ຄົນລາວ	-10.2049
ການເລືອກຕັ້ງ	-10.205
ເວທີ	-10.2051
ບົດລາຍງານ	-10.2055
ຫ້າມ	-10.2061
▁ຕ່ໍາ	-10.2062
ຂຶ້ນມາ	-10.2063
ພືດ	-10.2064
▁ລ້ານຄົນ	-10.2066
15	-10.2066
19	-10.2071
ເວັບໄຊທ໌ຂອງທ່ານ	-10.2073
ຫຼືບໍ່	-10.2075
ທາງເລືອກ	-10.2075
is	-10.2082
▁Posted	-10.2082
▁ການນໍາ	-10.2087
▁ການສ້າງ	-10.2089
▁ເຄຣນ	-10.2091
▁ມຊ	-10.2093
ມະຫາ	-10.2098
▁ປ່ອນ	-10.2098
ເຕືອນ	-10.21
▁ປາຊີຟິກ	-10.2103
▁ແຫຼ	-10.2106
▁ການແຂ່ງຂັນ	-10.211
ທີ່ທ່ານຕ້ອງການ	-10.2112
▁ເຄ	-10.2119
ເກົາຫລີ	-10.212
ສົນທະນາ	-10.2123
▁ຫລັບ	-10.2126
▁ດັນ	-10.2128
໌	-10.2134
net	-10.2138
ຈະບໍ່	-10.2139
ປະກອບດ້ວຍ	-10.2145
▁ຊ້າ	-10.2148
▁04	-10.2159
▁PSTV	-10.216
▁ຮ່ວມມື	-10.2161
▁ເປ	-10.2165
ລ້ຽງ	-10.2168
▁ປັນ	-10.2177
ປີນີ້	-10.2183
▁ຍືນ	-10.2185
▁ອາເມຣິກັນ	-10.2189
ri	-10.2202
ຂອງສະຫະລັດ	-10.2204
▁ກັບການ	-10.2204
ກ່ຽວຂ້ອງ	-10.2207
ເສີມ	-10.2209
▁ຫຼວດ	-10.2209
▁Minecraft	-10.222
▁ຍ່າງ	-10.2221
ມາແລ້ວ	-10.2235
▁ແຂ້ວ	-10.2238
U	-10.2238
▁ທ້ອງຖິ່ນ	-10.224
▁ບາຣັກ	-10.224
▁ຈິ້ນ	-10.2241
▁Sonic	-10.2241
▁ເປັນຕົ້ນແມ່ນ	-10.2241
▁ພິພາກສາ	-10.225
▁ປາຍ	-10.2255
▁ຫຼາຍໆ	-10.2258
ໃຫ້ເຂົາເຈົ້າ	-10.2259
ອະນຸຍາດໃຫ້	-10.2259
ຂົງເຂດ	-10.226
▁ທໍາມະຊາດ	-10.2268
▁ຖ້າຫາກວ່າທ່ານ	-10.2272
▁Hazel	-10.2281
▁Free	-10.2282
ທໍ່	-10.2282
ຊອກ	-10.2296
vovworld	-10.2298
▁ປປ	-10.2308
▁ທີ່ເມືອງ	-10.2311
ສົງ	-10.2319
ເຊື້ອ	-10.2323
ບາງຢ່າງ	-10.2327
▁ຂຸດ	-10.2333
▁ສັບປະດາ	-10.2339
▁ເລຍ	-10.234
ປະສົມ	-10.2342
▁ແຂວງບໍ່ແກ້ວ	-10.2343
O	-10.2343
▁ໂຍງ	-10.2345
ລຸ້ນ	-10.235
ດ້ານເນື້ອໃນ	-10.2351
ຈີ	-10.2353
▁ເບີ	-10.2361
ສົມບູນ	-10.2372
▁ພາດ	-10.2375
ດັ່ງນີ້	-10.2375
ie	-10.2378
ອາຄານ	-10.2381
▁ເຊີດຊູ	-10.2382
ຫາຍ	-10.2384
ປະຊາທິປະໄຕ	-10.2387
▁ປຶກ	-10.2393
▁Samsung	-10.2394
▁ຮວມ	-10.24
ma	-10.2403
▁ເຫັນວ່າ	-10.2406
▁ໄວຣັສ	-10.2414
ຂະແຫນງການ	-10.2435
▁ອຸດ	-10.2446
ທັນ	-10.2451
st	-10.2452
ເປັນການ	-10.2455
▁ຄາມ	-10.2457
▁ນ້ໍາມັນ	-10.2461
ສື່	-10.2465
ການຊ່ວຍເຫຼືອ	-10.2469
ສະຖານະການ	-10.247
ລວມທັງ	-10.247
go	-10.2481
▁Kiko	-10.2486
▁Me	-10.2489
ຫນັງສືພິມສຶກສາ	-10.2489
ong	-10.2495
▁ເວທີ	-10.25
ch	-10.2501
▁Loui	-10.2505
ຢືນຢັນ	-10.2512
ເຊື່ອວ່າ	-10.2515
ຝຶກອົບຮົມ	-10.2515
▁ບັງຄັບ	-10.2521
▁ກອມ	-10.2522
ສຸ	-10.2524
▁ຫນັງສື	-10.2525
riki	-10.253
ຫຼຸດ	-10.2531
ເງື່ອນໄຂ	-10.2534
ແປ	-10.2536
ແທ້ໆ	-10.2539
ລົບ	-10.2545
▁ນັກຂ່າວ	-10.2551
mm	-10.2554
ng	-10.2563
▁ຫລຸດຜ່ອນ	-10.2566
▁hairdresser	-10.2568
▁ຂດ	-10.2576
ຢ່າງຫຼວງຫຼາຍ	-10.258
▁ເປັນຜູ້	-10.2582
17	-10.2583
ຈັນ	-10.2586
ບົດຄວາມ	-10.2591
ຫຼຸດລົງ	-10.2597
*	-10.2598
ແຂວງວຽງຈັນ	-10.2604
ອ້າຍ	-10.2604
▁EU	-10.2614
ຈະຕ້ອງ	-10.2622
ໄດ້ມີການ	-10.2622
ຜູ້ຕາງຫນ້າ	-10.2622
ອັນຕະລາຍ	-10.2622
▁ປົກກະຕິ	-10.2631
ໃນມື້ນີ້	-10.2631
▁ຍອມ	-10.2634
▁06	-10.2636
▁ເຕົ້າ	-10.264
▁ຖ້ວມ	-10.2644
ພາຍໃຕ້	-10.2646
ພ້ອມກັນ	-10.2648
▁ເພື່ອເປັນການ	-10.2649
▁ແຮ່	-10.265
▁ເສີນ	-10.2661
ທັງຫຼາຍ	-10.2664
▁ບຽນ	-10.2672
▁ສູ້ກັນສໍາລັບ	-10.2673
ຍິງສໍາລັບສອງ	-10.2674
ໃນທົ່ວປະເທດ	-10.2676
▁ອາຊີບ	-10.2679
te	-10.2684
▁ໄກ່	-10.2685
ເງີນ	-10.2685
ການໂຈມຕີ	-10.2687
ຄະດີ	-10.2691
▁ນັບຕັ້ງແຕ່	-10.2692
ສ້າງຕັ້ງ	-10.2693
ເລກທີ	-10.2694
▁Y	-10.27
▁ບັນທຶກ	-10.2706
ເລກ	-10.2706
ເກມສໍາລັບທັງສອງ	-10.2707
ທ້ອງ	-10.2707
ຄວາມສໍາພັນ	-10.2711
ຕະຫຼອດ	-10.2711
▁ອຸດົມໄຊ	-10.2717
▁ຄຽງ	-10.2719
ຖິ້ມ	-10.2725
▁ປະຕູ	-10.2726
ອາທິດ	-10.2735
ລົງທະບຽນ	-10.2745
ຈິດໃຈ	-10.2749
ກ້າ	-10.2754
ໃນປະຈຸບັນ	-10.2757
ໂດຍສະເພາະ	-10.2761
▁ອາຄານ	-10.2771
▁ຫວັນ	-10.2775
ໂຮງ	-10.2777
▁ແມ່ນຫຍັງ	-10.2777
▁Surfers	-10.2779
▁ຟຸກ	-10.2781
▁ເຊື້ອຊາດ	-10.2785
▁ທັງຫຼາຍ	-10.2786
ກິດຈະການ	-10.279
ເດີນທາງ	-10.2797
ຈົບ	-10.2799
▁ເຫດຜົນ	-10.28
▁ຖ້າຫາກ	-10.2808
ມະຫາຊົນ	-10.281
ສະຖິຕິ	-10.2812
ລາດ	-10.2814
▁ເອກະ	-10.282
▁ໃນລະຫວ່າງວັນທີ	-10.2821
ໃນເຂດ	-10.2833
ແຂນ	-10.2833
▁ປົກປັກຮັກສາ	-10.2836
▁ຊ່ຽວຊານ	-10.2837
ວິດ	-10.2838
ມູນເຊື້ອ	-10.2842
ຍອມຮັບ	-10.2844
▁STAR	-10.2844
▁ຄວາ	-10.2847
▁ຕູ	-10.285
ທ່ານກໍາລັງຢູ່ທີ່	-10.285
▁In	-10.2852
▁http	-10.2852
COM	-10.2852
ຍາມ	-10.2855
ລະອຽດ	-10.2856
▁ຜ້າ	-10.2856
ສິລະປະ	-10.2859
້ເກມ	-10.2859
ຮາ	-10.286
ຊ້າງ	-10.2864
ໂຣ	-10.2866
ຄຸນ	-10.2866
▁ເຮືອນເລກທີ	-10.2867
▁ຝາກ	-10.2867
ອໍານວຍຄວາມສະດວກ	-10.2872
▁ໂດຍການເປັນປະທານ	-10.2873
ຮັບຮູ້	-10.2876
▁ນັບແຕ່	-10.2881
ກວ້າງ	-10.2893
▁ບຸ	-10.2896
ຕັ້ງແຕ່	-10.2898
ເປັນຄົນ	-10.291
▁ຂົ່ມຂູ່	-10.291
ຂອງແຂວງ	-10.2912
ໄປສູ່	-10.2915
ບາງຄົນ	-10.2915
ບັນດາເຜົ່າ	-10.2917
ນັ່ງ	-10.2921
ຊັນ	-10.2921
▁Mobile	-10.2922
▁ໄປສະນີ	-10.2929
▁ປະເທດຊາດ	-10.2929
ທີ່ຈໍາເປັນ	-10.293
▁ອັກຄະ	-10.293
▁ຄວາມເຫັນ	-10.293
ຖະຫນົນ	-10.2931
ຮອບດ້ານ	-10.2936
ສະຖານ	-10.2941
ໃນລະດັບ	-10.2945
▁ເສ	-10.2945
▁me	-10.2946
ເຄື່ອງຈັກ	-10.295
16	-10.2958
ຄົນນຶ່ງ	-10.2958
ກອງທຶນ	-10.2959
ແຫ້ງ	-10.296
▁ເຂົ້າໃຈ	-10.296
▁021	-10.297
ປະສົບຜົນສໍາເລັດ	-10.2971
▁Putin	-10.2973
ນໍາເຂົ້າ	-10.2973
ຍອດ	-10.2973
ຕອນເຊົ້າຂອງວັນທີ	-10.2979
ອົງການສືບລັບ	-10.2979
▁ສື	-10.2985
▁you	-10.2989
ຕອນບ່າຍວັນທີ	-10.2999
ເປີດກວ້າງ	-10.3003
ຈະຖືກ	-10.3006
ຄໍາແນະນໍາ	-10.3006
ຂີ້	-10.3006
ໂຈມຕີ	-10.3007
ຊີວິດການເປັນຢູ່	-10.3013
ຂົນ	-10.3014
ສະຫາຍ	-10.3016
▁ລັດຖະສະພາ	-10.3019
▁World	-10.3027
▁ກອງປະຊຸມສໍາມະນາ	-10.3028
09	-10.3037
▁ເເລະ	-10.3043
ກົດລະບຽບ	-10.3044
ໃນທົ່ວໂລກ	-10.3044
ຫັນ	-10.3045
▁ອຸທົກກະສາດ	-10.3053
▁ອາຈານ	-10.306
ເຕັກໂນໂລຢີ	-10.3077
▁ຫນີ	-10.3077
▁m	-10.3078
ຣ໌	-10.308
ຢືນ	-10.308
▁ນັດ	-10.3081
▁ຟື້ນ	-10.3081
▁ຮຽນຮູ້ກ່ຽວກັບ	-10.3083
▁ຢ່າງຫນ້ອຍ	-10.3085
▁39	-10.3085
▁ເຕັກນິກ	-10.3086
▁ເລີ່ມຕົ້ນ	-10.3089
ຕໍ່ສູ້	-10.3092
▁ຍົງ	-10.3093
▁ອົດສະຕາລີ	-10.3096
▁ປະຫວັດ	-10.3102
ບົດບາດ	-10.3102
▁ເຊິ່ງມີ	-10.3103
▁ຕຸ	-10.3105
ສ່ວນຕົວ	-10.3107
▁ກອງປະຊຸມສຸດຍອດ	-10.3107
▁ການຄ້າມະນຸດ	-10.3112
▁ຮ້ານອາຫານ	-10.3121
ສອບສວນ	-10.3121
ພົວພັນ	-10.3123
ອັນດັບ	-10.3125
ພື້ນຖານເສດຖະກິດ	-10.3126
ສະຫມອງ	-10.3135
▁ເກ	-10.3135
▁ເລຂາທິການໃຫຍ່	-10.3142
▁ແຈ	-10.3142
ໂດຍການ	-10.3154
ແມ່ນ້ໍາຂອງ	-10.3163
ເສດ	-10.3163
ເຊື່ອ	-10.3163
ຊັບ	-10.3165
▁ການບິນ	-10.3168
ໃນຂົງເຂດ	-10.3171
ໄອ	-10.3174
▁ເມຣິກາ	-10.3177
▁ນິກ	-10.3177
ທານ	-10.3177
▁ອະນຸມັດ	-10.318
▁ກະຈາ	-10.3181
▁ຜິວ	-10.3185
▁St	-10.3187
▁ຝັ່ງ	-10.3191
ເມຍ	-10.3191
▁ວ່າດ້ວຍການ	-10.3191
ເປັນລະບຽບຮຽບຮ້ອຍ	-10.3194
▁ຮອບດ້ານ	-10.3195
▁ເປັນເວລາ	-10.3196
ເຕີບໂຕຢ່າງແຮງ	-10.3197
ບ່ອນທີ່	-10.3198
▁ປ້ອງກັນ	-10.3198
ຖ	-10.3203
▁ທີ່ດີທີ່ສຸດ	-10.3206
▁ຈໍ	-10.3208
ຫນ່ວຍງານ	-10.321
ປະຕິບັດວຽກງານ	-10.3211
ໂຫວດຊຸດປະຈໍາຊາດ	-10.3214
▁ແຂວງຈໍາປາສັກ	-10.3215
et	-10.322
ຊ້າ	-10.3227
▁ຕໍ່ຫນ້າ	-10.3232
ຫານ	-10.3232
▁ຟູ	-10.3239
ເຄ	-10.324
ລິນ	-10.3241
14	-10.3244
▁Mac	-10.3247
▁ເຄືອ	-10.3253
▁ສາມັກຄີ	-10.3254
ອະທິປະໄຕເຂດທະເລ	-10.3261
ເລື້ອງ	-10.3261
ປະທານປະເທດ	-10.3264
▁ຄະນະຜູ້ແທນ	-10.3265
▁ອົບຮົມ	-10.3267
▁ເຊີຍ	-10.3269
ຂອງມັນ	-10.327
▁ດິບ	-10.3272
ລົດຈັກ	-10.3292
ກໍ່ຄື	-10.3302
▁ຕໍ່າ	-10.3305
▁ໄດ້ຈັດກອງປະຊຸມ	-10.3305
▁ຫົວພັນ	-10.3311
▁ມາຢ້ຽມຢາມ	-10.3311
▁ຍສຽງ	-10.3312
▁ມູ	-10.3313
▁Park	-10.3317
ການກວດສອບ	-10.332
▁ຊັກ	-10.332
ການຊື້ຂາຍ	-10.3326
▁ເຢັນ	-10.3327
▁ຊຽງ	-10.3331
▁ຄວ້າ	-10.3332
▁ສີສັນ	-10.3334
▁ຣ	-10.334
▁ດາວໂຫຼດ	-10.334
▁GDP	-10.3341
▁ຜູ້ກ່ຽວ	-10.3345
ທາງດ້ານເສດຖະກິດ	-10.3347
▁ຂ່າວທ້ອງຖິ່ນ	-10.3349
▁ຖ	-10.3355
▁ຫມໍ	-10.3357
▁ຂັ້ນຕອນ	-10.3361
ປະເທດໄທ	-10.3362
ຮຽກຮ້ອງ	-10.3362
ທີ່ຫນ້າສົນໃຈ	-10.3366
ມັດ	-10.3371
▁Off	-10.3371
ທິດ	-10.3375
ລັດຖະມົນຕີກະຊວງ	-10.3388
▁ຮູບແບບ	-10.3392
▁ທາງດ້ານ	-10.3393
▁ຫນາດ	-10.3399
ເຈ	-10.3407
ເດີມ	-10.3413
ຍົນ	-10.3429
ຂອງອົງການ	-10.3439
▁ຂີ້	-10.344
ໄດ	-10.3441
ທ່ອງທ່ຽວດ່ານັ້ງ	-10.3441
▁ອນ	-10.3449
▁To	-10.3449
ສໍາຫຼວດ	-10.3451
ບັນຈຸ	-10.3452
ໄກ	-10.3457
ວະ	-10.3458
(15)	-10.3464
▁ຂ່າຍ	-10.3466
▁ງົດ	-10.3469
▁ຄວາມງາມ	-10.3473
ຜັນຂະຫຍາຍ	-10.3476
ດີເດັ່ນ	-10.3478
▁ຕະຫລອດ	-10.3479
▁ສົມບັດ	-10.3486
ຮັບເອົາ	-10.3487
ກູ້ໄພ	-10.3488
▁ວິນ	-10.349
▁8.	-10.3492
▁be	-10.35
ສະບັບປັບປຸງ	-10.3502
ອຸ	-10.3512
▁ຄໍາແນະນໍາ	-10.3512
ຈາ	-10.3515
▁ອິ	-10.3516
ອະທິບາຍ	-10.3522
ຕົວເມືອງ	-10.353
▁ນັ້ນແມ່ນ	-10.3531
ຕ້ອງການທີ່ຈະ	-10.3533
1,	-10.3535
▁ມານີ້	-10.3535
▁ເມີດ	-10.3535
ແຈ້ງການ	-10.354
▁ຜູ່	-10.3541
ບອກວ່າ	-10.3543
ໃຫ້ເປັນ	-10.3544
ຂ້າງ	-10.3545
ຄວາມຮັກ	-10.3549
ການຄົ້ນຄວ້າ	-10.355
ເປັນຢ່າງດີ	-10.3551
ເກມສໍາລັບເດັກຍິງ	-10.3555
▁ດາລາຍ	-10.3563
▁ເປັນການ	-10.3564
▁ຊົມເຊີຍ	-10.3565
▁ຫມີ	-10.3567
▁ບັນຊາ	-10.3572
▁ຫງວຽນຖັ໋ງ	-10.3577
▁ເຄັ່ງ	-10.3583
ນໍາເອົາ	-10.3584
ໄທມ໌	-10.36
ter	-10.3608
▁ອັນຕະລາຍ	-10.3615
ການສະແດງ	-10.3616
ໃຫ່ຍ	-10.3616
▁APK	-10.3623
▁Rong	-10.3625
▁ທາງການ	-10.3628
▁cat	-10.3632
▁ເຕັ້ນ	-10.3632
ຄ່າໃຊ້ຈ່າຍ	-10.3636
▁ຈອນ	-10.3636
ສະຫຼຸບ	-10.364
ປະກອບສ່ວນ	-10.3645
▁Go	-10.3647
▁ບໍ່ແຮ່	-10.365
▁ເຖິງວ່າ	-10.3651
ນ້ໍາມັນ	-10.366
am	-10.3662
ຄືນໃຫມ່	-10.3663
ຂັນ	-10.3665
ດັ່ງນັ້ນ	-10.3665
▁ສົມທົບ	-10.3671
ດ້ວຍຕົນເອງ	-10.3674
VNA	-10.3677
▁App	-10.3679
▁ປະຊາທິປະ	-10.3681
▁Apps	-10.3682
▁ລັດວິສາຫະກິດ	-10.3685
▁ຫົວຫນ້າກົມ	-10.3686
▁ແຂວງອັດຕະປື	-10.3687
ລ້ານ	-10.3689
ຂອງປະເທດຊາດ	-10.3691
▁ຄວາມຫມັ້ນຄົງ	-10.3692
ແຊງແຊກ	-10.3693
up	-10.3693
ການເດີນທາງ	-10.3695
▁(11)	-10.3706
▁ຈຸດຫມາຍປາຍທາງ	-10.3706
ຂ້າພະ	-10.3706
ການທົດສອບ	-10.3708
▁ແນໃສ່	-10.371
ພຣະເຢຊູ	-10.3711
▁ໄດ	-10.3713
ຮູ້ສຶກ	-10.3713
ຫນັງສືພິມ	-10.3716
▁ລົ້ມ	-10.3717
▁ທ່ານຫມໍ	-10.3717
ການແກ້ໄຂ	-10.3719
ການເຊື່ອມໂຍງ	-10.3723
ຂົວ	-10.3725
ເບ	-10.3733
ຫລາຍໆ	-10.3736
ວຽກເຮັດງານທໍາ	-10.3741
ເພື່ອນ	-10.3744
▁ອອກໃບອະນຸຍາດ	-10.3744
ການໃຊ້	-10.3746
▁ນວ	-10.375
ເມັດ	-10.3751
ຕໍາຫລວດ	-10.3756
▁ງ່າຍໆ	-10.3758
▁ວິໄສທັດ	-10.376
ຢ	-10.3768
25	-10.3768
▁ຂະຫຍາຍຕົວ	-10.3769
ຫນັງ	-10.3771
ດົງ	-10.3776
▁ສະຫມອງ	-10.3777
ICP	-10.3779
▁່	-10.3779
ຫາກ	-10.3779
ເຫດຜົນ	-10.3779
▁ປວດ	-10.3783
▁ສໍ້	-10.3786
ແຍກ	-10.3794
▁ໄດ້ຂັດແຍ້ງ	-10.3797
▁ເນື່ອງຈາກວ່າ	-10.3799
▁ຫມາຍເຖິງ	-10.381
▁casino	-10.381
▁ຜູ້ຊາຍ	-10.3816
ເກ	-10.3816
66	-10.3818
land	-10.3822
▁ນະພາ	-10.3822
ຍິ່ງ	-10.3822
ສະຫະພັນ	-10.3824
▁ເພ	-10.3828
ນັກກິລາ	-10.3828
ສະຫະ	-10.3836
ລໍຖ້າ	-10.3837
▁ປະຈຸ	-10.384
ການປົກຄອງ	-10.3842
ກາດ	-10.3843
2016	-10.3846
▁ນາໆ	-10.3853
▁ຍຶດ	-10.3855
▁ຕໍ່ການ	-10.3856
▁d	-10.3857
▁ສະຖິຕິ	-10.3858
ຕໍ່າ	-10.3859
ຕາຕະລາງ	-10.3859
▁ປົດ	-10.3866
ເບື້ອງຕົ້ນ	-10.387
ເງິນສົດ	-10.3874
▁ເມືອງໄຊທານີ	-10.3876
▁k	-10.3876
▁ຄະນະບໍລິຫານງານ	-10.3877
▁ປຽບ	-10.3878
ຄາດ	-10.3879
▁g	-10.388
ສະຫະພັນແມ່ຍິງ	-10.3884
▁ລັດຖະ	-10.3892
▁ທັງນີ້	-10.3893
▁ອົງການຄວບຄຸມ	-10.3894
ເດີ້	-10.3894
Q	-10.3901
ບົດຮຽນ	-10.3903
▁ຮັບຜິດຊອບຕົ້ນຕໍ	-10.3908
ຫລິ້ນ	-10.3908
ຍັງໄດ້	-10.3911
ine	-10.3914
▁ຊະນິດ	-10.3917
▁ກ້າວຫນ້າ	-10.3923
▁ISSN	-10.3929
▁ໄດ້ມີການ	-10.3932
▁ທ່ານຈະ	-10.3932
▁ທ່ຽງ	-10.3935
06-02	-10.3936
▁ປະສິດທິ	-10.3939
ຜູ້ສະຫນ	-10.394
▁ສໍາພັນ	-10.3947
▁III	-10.3954
ອງຂ່າວສານ	-10.3958
▁ຟິກ	-10.396
▁ສະຫະປະຊາຊາດ	-10.396
▁ລາງ	-10.3961
ອໍານາດການປົກຄອງ	-10.3971
▁ດໍໂນລ	-10.3977
▁ແລນ	-10.3977
▁ໂສ	-10.3988
ຫົວໃຈ	-10.399
▁ຫຼັກສູດ	-10.3999
ເຊັ່ນກັນ	-10.4001
ດົນຕີ	-10.4004
ຂອບ	-10.4005
ຕົວເອງ	-10.4006
ສັດປ່າ	-10.4007
ສັ່ງ	-10.4009
ປະຕິບັດຫນ້າທີ່	-10.401
▁ດ້ວຍການ	-10.4017
▁ກ້າ	-10.4017
ສະຫນາມບິນ	-10.4018
ມີການປ່ຽນແປງ	-10.4019
▁ເອກະຊົນ	-10.4022
▁ເພື່ອແນໃສ່	-10.4023
ເງິນຝາກ	-10.4024
ປື້ມ	-10.4025
▁ຫ່າງ	-10.4026
ສ່ວນບຸກຄົນ	-10.4029
▁ຊິນ	-10.4036
ຕົກລົງ	-10.4038
▁ສູນກາງ	-10.4041
ທັດສະນະ	-10.4044
▁ແຂວງຄໍາມ່ວນ	-10.4049
um	-10.4056
ດັບ	-10.406
ko	-10.4062
ຖ່າຍ	-10.4073
▁ຂໍໃຫ້	-10.4074
▁VOA	-10.4074
▁ແຕ່ຢ່າງໃດ	-10.4076
il	-10.4076
▁ກວມ	-10.4077
▁You	-10.4079
ຊົມ	-10.408
ແຕ່ງ	-10.4088
▁ໃນນະຄອນ	-10.409
▁Center	-10.4093
ໃນປະເທດ	-10.4095
▁ທີ່ນະຄອນ	-10.4098
▁ເຊີ່ງ	-10.4099
ການບິນ	-10.4101
ur	-10.4105
▁Bakery	-10.4122
3,	-10.4125
ໃຫ້ມີ	-10.4128
ຊີ້	-10.413
▁ເພື່ອເຮັດໃຫ້	-10.4132
ປະຊາ	-10.4138
▁ບໍ່ຍອມ	-10.4143
ຂອງພວກ	-10.4147
▁ຈົບ	-10.415
ໄດ້ດີ	-10.4154
ຄະນະພັກ	-10.4164
▁ຮູ້ຈັກ	-10.4169
24	-10.4176
▁Win	-10.4181
▁ເຫ	-10.4182
ການສື່ສານ	-10.4189
ya	-10.4193
ເປັນເອກະພາບ	-10.4194
▁ຕັ້ງແຕ່ປີ	-10.4198
ທີ່ສາມາດ	-10.4199
ແຫ່ງຊາດລາວ	-10.4205
▁ຫວັງວ່າ	-10.4206
▁34	-10.4206
▁ກ້ອງ	-10.4207
▁ບີ	-10.4209
▁La	-10.4212
ກອບ	-10.4215
ເຫຼືອ	-10.4217
▁ເຄີ	-10.4218
ຕັ້ງຫນ້າ	-10.4221
▁ປະຕິວັດ	-10.4236
▁ວັດຖຸ	-10.4236
ອອນລາຍ	-10.4237
▁ບາດເຈັບ	-10.4237
▁ຊື່ນ	-10.4247
▁Ban	-10.4254
ທີ່ມີຊື່ສຽງ	-10.4257
ທັນສະໄຫມ	-10.426
▁ວິສາຫະກິດ	-10.4262
▁ຕັ້ງຢູ່	-10.4264
▁ຜິງ	-10.4264
▁ເລີ	-10.4265
▁PDF	-10.427
ບໍ່ໃຫ້	-10.427
ວັງ	-10.4272
▁ລອດ	-10.4275
▁ແກ່ນ	-10.4277
ໃນພາກພື້ນ	-10.4282
▁ຂອງສະຫະລັດ	-10.4286
▁ໄກສອນ	-10.4287
by	-10.429
▁ຄັ້ງນີ້	-10.429
ຫມູ່ເກາະ	-10.4294
▁ຍິນດີຕ້ອນຮັບ	-10.4294
▁ເລີດ	-10.4298
ພໍ່ແມ່	-10.4299
ir	-10.4304
▁ເຄົາລົບ	-10.4306
ຂອງບັນດາ	-10.4306
▁t	-10.4311
ດາວໂຫລດ	-10.4311
▁(0)	-10.4312
▁ການແຊກແຊງ	-10.4314
▁Sat	-10.4314
▁ບູນ	-10.4323
▁ຕະພັນ	-10.4328
▁tattoo	-10.4331
ການຄວບຄຸມ	-10.4334
▁ຄົນເຂົ້າເມືອງ	-10.4336
▁ເກົາຫຼີໃຕ້	-10.4338
ປະລິມານ	-10.434
ບໍ່ເຄີຍ	-10.4346
ca	-10.4351
▁ບາດກ້າວ	-10.4353
ຄວາມຈິງ	-10.4359
▁ແຂວງໄຊຍະບູລີ	-10.4365
▁ບໍລິຈາກ	-10.4368
▁WordPress	-10.4369
▁ພິເສດແມ່ນ	-10.4371
ຂັດ	-10.4374
ຊຸມ	-10.4376
▁ກິມ	-10.4376
ປ້ອງ	-10.4377
ນະຄອນຫລວງ	-10.4378
ການປະຕິວັດ	-10.4384
▁ຢູ່ລາວ	-10.4389
▁Day	-10.439
໒	-10.4392
30	-10.4392
ເຕ	-10.4396
ຄວາມຫຍຸ້ງຍາກ	-10.44
ຊົ່ວໂມງ	-10.4405
▁ກັ້ນ	-10.4409
▁ບ່າຍ	-10.4409
ມະນີ	-10.4412
ຮ້າຍແຮງ	-10.4418
ຜູ້ນ	-10.4422
ສ່ວນໃຫຍ່	-10.4426
▁ການປ່ຽນແປງ	-10.4426
ເຖິງແມ່ນວ່າ	-10.4429
ຄໍາຖາມ	-10.443
os	-10.4431
ປົກປ້ອງ	-10.4431
▁All	-10.4434
ແປງ	-10.4435
າດ	-10.444
ເອກ	-10.4442
▁ໂຈມຕີ	-10.4446
▁ບຽບ	-10.4448
ຫໍ	-10.4451
▁ທ່ານທຣໍາ	-10.4459
▁ແມນ	-10.4463
no	-10.4463
▁ບໍລິຄໍາໄຊ	-10.4465
:00	-10.4469
▁ຕະຫລາດ	-10.4471
▁ຢັນ	-10.4474
ສ້າງຄວາມເຂັ້ມແຂງ	-10.4475
▁ຄີ	-10.4481
ເດີນ	-10.4482
▁ຈິ່ງ	-10.4484
yula	-10.4495
ຕັດສິນໃຈ	-10.45
ໃນການພັດທະນາ	-10.4502
li	-10.4512
ໄພພິບັດ	-10.4515
▁ຈາກການ	-10.4519
▁ແຮງງານ	-10.4519
▁ພອມພຽວ	-10.452
▁ທີ່ວ່າ	-10.452
ນັດ	-10.452
▁ຂັງ	-10.452
▁ຮັບເອົາ	-10.4521
▁ພ້ອມກັນນັ້ນ	-10.4528
▁ສິລະປະ	-10.4529
▁ເດັດ	-10.4529
▁ຜົນສໍາ	-10.453
ມັກຈະ	-10.4535
▁ກັກ	-10.4537
▁ການເດີນທາງ	-10.4545
▁ASEAN	-10.4546
ຮັບຮອງເອົາ	-10.4549
▁ປີນີ້	-10.4559
▁ອົງການຈັດຕັ້ງ	-10.4564
ສະພາບແວດລ້ອມ	-10.4567
▁ຂີ່	-10.4569
ຫຼ້າສຸດ	-10.4572
▁ເວັບໄຊທ໌	-10.4576
▁2012.	-10.4577
ອ້ອມຂ້າງ	-10.458
ຮູ	-10.4585
▁ເຕ	-10.4588
▁ພົ້ນ	-10.4588
ຄຸ້ມ	-10.4591
▁@	-10.4593
ha	-10.4595
ການຂາຍ	-10.4596
ves	-10.4597
ທັມ	-10.4599
▁99	-10.4603
▁ເຂົ້າມາ	-10.4604
▁ເທີງ	-10.4605
ຄົນເຈັບ	-10.4606
▁ຖະບານ	-10.4607
▁ທະນາຄານແຫ່ງ	-10.4613
ຢູ່ທີ່ນີ້	-10.4615
ປຶ້ມ	-10.4617
▁65	-10.4618
▁ຂອງການ	-10.4621
▁ຫລິ້ນ	-10.4626
▁ຈົງ	-10.4627
ດໍາລົງຊີວິດ	-10.4628
▁ອົງສາ	-10.4631
ມັນເປັນ	-10.4633
ຜົນກະທົບ	-10.4637
▁ສຸດທ້າຍ	-10.4646
▁ບົດບາດຂອງແມ່ຍິງ	-10.4648
ເພດ	-10.465
▁FM	-10.4654
▁ຍານາງ	-10.4654
ຂອງຊາດ	-10.4655
▁ທໍ່	-10.4657
ໄວຫນຸ່ມ	-10.4657
ເຖີງ	-10.4659
ທັບ	-10.4659
ຮ່າໂນ້ຍ	-10.4664
▁ດາວທຽມ	-10.4666
▁w	-10.467
▁ສະຫລອງ	-10.467
ສອງປະເທດ	-10.4673
▁ທຶກ	-10.4674
ເຫຼັກ	-10.4682
ຈໍາຫນ່າຍ	-10.4683
▁ກິໂລ	-10.4688
ຊ່ອຍ	-10.4691
ໄປຍັງ	-10.4691
▁magic	-10.4693
▁48	-10.4693
ໄຕ	-10.4696
▁ຂໍ້ຄວາມ	-10.4699
ຮຽນຮູ້	-10.47
ທ້າຍ	-10.4702
ລັງ	-10.4706
ຕົວເລກ	-10.4707
ສະຖານທູດ	-10.4711
ການເຂົ້າເຖິງ	-10.4715
▁ຫົວຫນ້າພະແນກ	-10.4718
ies	-10.4718
ຜ	-10.4721
ຄົງ	-10.4722
ຮ້ານອາຫານ	-10.4723
ໄດ້ຍິນ	-10.4724
▁ໂດຍທ່ານ	-10.4727
▁ຕຶກ	-10.4728
ປະຊາຊົນສູງສຸດ	-10.4732
ປົກ	-10.4733
ໃນເມືອງ	-10.4734
ເຂື່ອນ	-10.4734
ເຈົ້າຂອງ	-10.4737
▁ຖົງ	-10.4742
ໂຄງ	-10.4742
ສະດວກ	-10.4743
ເຄິ່ງ	-10.4745
ສິ້ນສຸດ	-10.4748
ລັດຖະສະພາ	-10.4753
▁Global	-10.4758
▁ປາດ	-10.4762
ທີ່ໄດ້ຮັບ	-10.4762
▁41	-10.4765
ເຟສບຸກ	-10.4765
▁ກ່າວຄໍາເຫັນທີ່	-10.4767
ຢ່າງມີປະສິດທິຜົນ	-10.4772
▁ວໍລະຈິດ	-10.4776
ເປັນຕົ້ນ	-10.4785
ການສໍ້ລາດບັງຫຼວງ	-10.4786
▁Su	-10.4787
▁ຄວາມຄິດເຫັນ	-10.4789
ti	-10.479
LAO	-10.4793
▁Le	-10.4795
ບັງ	-10.4808
ໃຫ້ບໍລິການ	-10.4811
ສະຫມັກ	-10.4816
ຫວານ	-10.4824
ໂດຍຜ່ານ	-10.4827
ທີ່ເປັນມູນເຊື້ອ	-10.4827
ສັນຍານ	-10.483
ກະຊວງການເງິນ	-10.4831
ja	-10.4838
▁ຊາວຫນຸ່ມ	-10.4845
ມໍລະດົກ	-10.485
ຫນາ	-10.4852
ຫູ	-10.4855
ແນວລາວສ້າງຊາດ	-10.4861
ອັບເດດ	-10.4863
ຢ່າງຕັ້ງຫນ້າ	-10.4863
▁ໃນໂອກາດ	-10.4867
▁ອຸ່ນ	-10.4868
ທ່ານສາມາດ	-10.4871
▁ຢ	-10.4871
ສອງຝ່າຍ	-10.4871
ນ້ໍາຖ້ວມ	-10.4875
▁ພາຍຸ	-10.4876
▁ອະທິບາຍ	-10.4882
▁4.0	-10.4885
ສັດຕູ	-10.4886
ແດນ	-10.4887
ຊອບແວ	-10.4887
ແຂວງອຸດົມໄຊ	-10.4892
▁ປາກົດ	-10.4897
ສໍາລັບທ່ານ	-10.4909
ດິຈິຕອນ	-10.491
ກໍຈະ	-10.491
ເສດຖະກິດດີຈີຕອນ	-10.491
▁ກົວ	-10.4912
ແອ	-10.4913
ບໍ່ພຽງແຕ່	-10.4914
ໄປຢ້ຽມຢາມ	-10.4915
ຮ່ວມກັບ	-10.4915
▁ອອກສຽງ	-10.4916
ຄວາມສ່ຽງ	-10.4916
▁ແຂວງຊຽງຂວາງ	-10.4918
ແກ້ໄຂບັນຫາ	-10.492
23	-10.492
ສ້າງພາບພົດ	-10.4925
▁ອັຟການິສຖານ	-10.4927
▁ບັ້ນ	-10.4927
ການປ້ອງກັນ	-10.4931
ບໍ່ດີ	-10.4931
03	-10.4932
ເຢຍລະມັນ	-10.4935
▁ເດືອນຕົ້ນປີ	-10.4935
ຝາກ	-10.4939
▁ໄດ້ຈັດ	-10.4941
▁ໂພ	-10.4947
ເຊັນ	-10.4949
▁ງານວາງສະແດງ	-10.4949
▁120	-10.4956
▁Barack	-10.496
ດ່ານ	-10.4962
▁ອໍານວຍ	-10.4962
▁ສອງຝ່າຍ	-10.4964
▁ທະນາ	-10.4966
ຫມາ	-10.4966
ພາຍນອກ	-10.4969
▁600	-10.497
ຈຸດປະສົງ	-10.4974
ແບ່ງ	-10.4974
ຄ້າ	-10.4977
▁ຫຼັກການ	-10.4978
▁ພາສາຍີ່ປຸ່ນ	-10.4984
▁ຄຸ	-10.4988
ບັນຍາກາດ	-10.4989
ອິນໂດເນເຊຍ	-10.499
ຂອງເມືອງ	-10.4994
▁ທີ່ຖືກ	-10.5007
ຕິດຕໍ່	-10.5008
▁ແຫຼມ	-10.5008
ທຸກຢ່າງ	-10.5009
▁ໍາ	-10.5012
ແຂວງສາລະວັນ	-10.5016
ເຈລະຈາ	-10.5016
ພ້ອມກັບ	-10.5022
ປອມ	-10.5023
▁ຄອມພິວເຕີ	-10.503
93	-10.5031
ພົນລະເມືອງ	-10.5034
▁ປະຈໍາວັນ	-10.5039
▁ເງິນຝາກ	-10.504
ສະໂມສອນ	-10.5042
ສະຫນາມ	-10.5042
▁ທ່ານລັດຖະມົນຕີ	-10.5046
▁2014.	-10.5048
ພົວພັນມິດຕະພາບ	-10.5056
▁ບຸນຍັງ	-10.5058
ເພື່ອເຮັດໃຫ້	-10.5061
▁ບວນການ	-10.5063
▁ເມຍ	-10.507
▁ພິດ	-10.5072
ແມັດ	-10.5073
ຄວາມຄິດ	-10.5074
ເຊິ່ງກັນ	-10.5077
ດຶງ	-10.508
▁ປີຂ້າງຫນ້າ	-10.5081
▁ເຊກອງ	-10.5083
▁ໄອທີ	-10.5083
ເທ	-10.5085
ບຸກ	-10.5086
ກົງ	-10.5089
▁ພິວ	-10.5094
ທີ່ກ່ຽວຂ້ອງກັບ	-10.5095
▁ຍັງບໍ່	-10.5097
▁ຖິ້ມ	-10.5098
▁ພ້ອມກັນ	-10.5103
ດ້ານການຄ້າ	-10.5108
▁ຢູໂຣບ	-10.5109
▁National	-10.5114
ພື້ນເມືອງ	-10.5115
ເລື້ອຍໆ	-10.5116
ຜູ້ຍິງ	-10.5128
ນໍ້າມັນ	-10.513
▁ຕຶງ	-10.5132
▁ສະຫຼຸບ	-10.5134
▁ເຊົາ	-10.5134
ຊັບພະຍາກອນມະນຸດ	-10.5135
▁ອະນາຄົດ	-10.5136
▁ຊີວະ	-10.5137
▁1,	-10.5143
▁Grand	-10.5145
▁ລວມມີ	-10.5147
ເມນູ	-10.5151
▁ເຂັ້ມຂຸ້ນໄປດ້ວຍ	-10.5157
ມາຮອດ	-10.5162
ສະຖານທີ່ທ່ອງທ່ຽວ	-10.5163
▁ແຖວ	-10.5165
ກວາງ	-10.5173
ດອກໄມ້	-10.5174
▁ແລວ	-10.5179
▁ສາບ	-10.5179
▁ສະຖານີ	-10.5184
ການພົວພັນຮ່ວມມື	-10.5191
▁ປີແຫ່ງວັນສ້າງ	-10.5191
ກັບມາ	-10.5195
▁outfit	-10.5201
ດທະນໍາທໍາ	-10.5201
ປອດ	-10.5207
▁ເສີມຂະຫຍາຍບັນດາ	-10.521
ກ່ອນຫນ້ານີ້	-10.5211
▁ໄຫມ້	-10.5216
▁ສະດວກ	-10.5225
ສິສັນວັ	-10.5228
▁Dreadbag	-10.5229
ne	-10.5229
▁ຈັດການ	-10.5233
▁ໂຮ	-10.524
ດີຂຶ້ນ	-10.5241
▁ໂບ	-10.5242
▁Na	-10.5245
ຂອງນາງ	-10.5248
der	-10.5248
ັສ	-10.525
able	-10.5251
▁ຄົ້ນຫາ	-10.5256
▁ແຫນ່ງ	-10.5259
ການສົນທະນາ	-10.5263
ເກີດຂື້ນ	-10.5267
ທິດທາງ	-10.5268
▁ດໍາເນີນ	-10.5268
ມະຕິ	-10.5271
ໄດ້ໂດຍ	-10.5275
▁ລໍ	-10.5279
▁ທອດ	-10.5282
ຮຽກຮ້ອງໃຫ້	-10.5283
▁ອະນຸຍາດໃຫ້	-10.5286
▁ເດີ	-10.5297
▁ຄວາມປອດໄພ	-10.5299
▁ມສ	-10.5302
ນົກ	-10.5307
▁ການາດາ	-10.5309
ປະສິດທິພາບ	-10.5309
▁Ma	-10.5312
▁ກົມອຸຕຸນິຍົມ	-10.5312
ສົນທິສັນຍາ	-10.5313
ຫຼວງພະບາງ	-10.5316
▁ເຄິ່ງ	-10.5316
ຫນອງ	-10.5316
▁ໂທລະຄົມ	-10.532
▁ບໍ່ພຽງແຕ່	-10.5323
▁h	-10.5334
ສູງເຖິງ	-10.5338
▁ເພື່ອສ້າງ	-10.5339
▁ຍົນ	-10.534
ປະຫວັດ	-10.5341
ite	-10.5341
io	-10.5345
ລານ	-10.5346
ຍ້າຍ	-10.5347
▁ເນລະ	-10.5349
ໄດ້ກາຍເປັນ	-10.5349
▁ເນັ້ນຫນັກວ່າ	-10.5352
▁ເວັ້ນ	-10.5353
ຊີເຣຍ	-10.5354
▁Amazon	-10.5355
ພົນ	-10.5356
▁Forex	-10.5356
▁Ki	-10.536
▁ຈັນທະ	-10.536
ໄຂ	-10.5361
▁ພາລະກິດ	-10.5362
ສົນໃຈ	-10.5362
ສູນເສຍ	-10.5367
ຊິດສະຫນິດສະຫນົມ	-10.5369
ຫມັ້ນ	-10.5372
▁ເນັດ	-10.538
ແລກປ່ຽນກ່ຽວກັບ	-10.5381
▁ປະສານ	-10.5385
ອອນໄລ	-10.5386
▁ເຊີ	-10.539
ໄລ່	-10.539
ເບຍ	-10.5394
ທີ່ວ່າ	-10.5397
ໃຫ້ປະຊາຊົນ	-10.5397
ບໍລິ	-10.5397
one	-10.5399
▁ເຮັດວຽກຢູ່	-10.5401
ຊ່ວຍໃຫ້	-10.5401
▁ຖຸ	-10.5402
▁ນິວເຄລຍ	-10.5407
▁Sa	-10.5409
ຕອນນີ້	-10.541
me	-10.541
ຂອງພຣະເຈົ້າ	-10.5413
▁ເສລີ	-10.5419
99	-10.5422
ໃຫ້ການ	-10.5423
ມິດ	-10.5427
ລາຍຈ່າຍ	-10.5427
=	-10.5432
ການຕິດຕັ້ງ	-10.5434
im	-10.5436
▁ກ່າວໂຈມຕີ	-10.5436
▁ລອນ	-10.5437
▁ກໍາມາທິການ	-10.5437
▁out	-10.5439
▁ຊົນນະບົດ	-10.5443
ຕໍ່ກັບ	-10.5445
▁ສ້າງຕັ້ງ	-10.5445
est	-10.5446
▁Island	-10.5449
▁ສະໄຫມ	-10.5449
▁ຍຸກ	-10.5452
ak	-10.5452
▁800	-10.5464
ແນວຄວາມຄິດ	-10.5468
▁ທາງທະຫານ	-10.547
▁ຂີດ	-10.5471
▁ເຄື່ອນໄຫວ	-10.5474
▁Angela	-10.5477
ner	-10.5478
ປ້າຍ	-10.5479
ເອກະຊົນ	-10.5482
▁ພາກພື້ນ	-10.5483
ປະກອບສ່ວນເຂົ້າໃນ	-10.5484
▁ສາລະ	-10.5486
ຈະໄດ້ຮັບ	-10.5489
ເລິກ	-10.549
▁ການປະຕິບັດ	-10.5495
ຕໍ່ການ	-10.5496
ສປປ	-10.5497
▁ເສີມຂະຫຍາຍ	-10.55
ຈຸ	-10.5505
ມິ	-10.5506
▁Q	-10.5508
ວຽນ	-10.5508
▁ເຊື່ອງ	-10.5511
un	-10.5512
▁ຫ້ອງວ່າການ	-10.5513
ເພ	-10.5517
son	-10.5519
ກີບ	-10.5523
ຫວັງ	-10.5525
ການພະນັນ	-10.5528
ຟີ	-10.5533
▁ຮ່າງກາຍ	-10.5533
▁ຂ້າພະເຈົ້າໄດ້	-10.5535
ຂອງພຣະອົງ	-10.5536
ປະຊຸມ	-10.554
▁ຢູ່ບ້ານ	-10.5542
▁ລັດຖະບານລາວ	-10.5542
ເຫຼົ່ານັ້ນ	-10.5545
▁ທັນທີ	-10.5548
▁ດັ່ງນີ້	-10.5551
ແຫ່ງນຶ່ງ	-10.5551
ປົກຄອງ	-10.5554
▁Cal	-10.5557
▁ຫົວຫນ້າຫ້ອງການ	-10.5563
ກໍຕາມ	-10.5564
ເກີນໄປ	-10.5566
ກົນໄກ	-10.5567
▁ຕິນ	-10.557
ຂອງເຂົາ	-10.5575
▁ແຕ້ມ	-10.5579
ສີຂຽວ	-10.5584
▁ໃນນັ້ນມີ	-10.5585
ເຈັບ	-10.5588
▁Un	-10.559
▁ລ່າງ	-10.559
▁ປຶ້ມ	-10.559
ສະຖານີ	-10.5593
▁ນົກ	-10.5597
ໄຫຼ	-10.56
▁ຄັດຄ້ານ	-10.5602
ຕຶກ	-10.5603
ອ້ອມ	-10.5605
ມີຄວາມສຸກ	-10.5615
▁Cheats	-10.5623
ເພື່ອສ້າງ	-10.5624
▁ບົດລາຍງານ	-10.5626
ແອັບ	-10.5628
▁ຍ້ອນວ່າ	-10.5628
▁ລ່ວງ	-10.5633
ງານບຸນ	-10.5634
▁ມີປະສິດທິຜົນ	-10.5635
▁ເຈືອງ	-10.5637
▁ຮາກ	-10.5645
▁ໂດຍສານ	-10.5645
▁City	-10.5647
ກ້າວ	-10.5648
▁ປະກອບມີ	-10.5648
ກອງປະຊຸມໃຫຍ່	-10.5648
▁2007	-10.5659
ນັກຂ່າວ	-10.566
▁ລຸ່ມ	-10.5661
2,	-10.5661
ຫນຶ່ງໃນ	-10.5662
▁ເພີ້ມ	-10.5663
ຊົມເຊີຍ	-10.5672
▁ມັນແມ່ນ	-10.5674
ian	-10.5674
ວນ	-10.5677
▁ການຢ້ຽມຢາມ	-10.5679
ບັນດາວິສາຫະກິດ	-10.5679
▁ແຂວງຫົວພັນ	-10.5686
ກວມເອົາ	-10.5695
▁64	-10.5697
ນ້ອຍໆ	-10.5699
▁ເດີມ	-10.5701
ສະລັອດຕິງ	-10.5706
▁ກວ່າຄົນ	-10.5709
▁1000	-10.571
ຍັງບໍ່	-10.5712
▁ທ່ານໂອບາມາ	-10.5713
▁ຂອງອົງການ	-10.5715
▁Mo	-10.5715
ກູ	-10.5716
▁ທັງສອງ	-10.5716
ກະກຽມ	-10.572
▁ຮູ	-10.5723
▁ຣໍາ	-10.5724
ລະບຸ	-10.5724
▁ຜແນກ	-10.5725
ປ້ອງກັນຊາດ	-10.5733
ຍາດ	-10.5734
▁2006	-10.5735
ບັນລຸໄດ້	-10.5735
ແຂວງອັດຕະປື	-10.5737
▁ດັດ	-10.5743
▁ຄົນເສຍຊີວິດ	-10.5744
▁ມໍ	-10.5752
ອາຍ	-10.5754
ນໍາດ້ວຍ	-10.5757
▁ແຂວງເຊກອງ	-10.5757
ກວ່າເກົ່າ	-10.5762
ຫລາຍຂຶ້ນ	-10.5766
ຕົ້ນໄມ້	-10.5767
ຄ້າຍ	-10.5772
ເສຍຫາຍ	-10.5777
pa	-10.5779
▁ເຜີຍແຜ່	-10.5783
ພາລະກິດ	-10.5786
▁02133611	-10.5788
▁ຫລວດ	-10.5789
▁ເມືອ	-10.5789
ທີ່ມີຄວາມ	-10.5793
ຕອບສະຫນອງ	-10.5794
ຫຼັກການ	-10.5795
▁ບໍ່ແກ້ວ	-10.5796
▁ໄຂ່	-10.5802
ຄວາມສາມັກຄີ	-10.5805
ລົງມາ	-10.5813
▁ຄຸນພໍ່	-10.5819
ສະກຸນເງິນ	-10.582
ຂອງຜູ້	-10.5823
▁ພວກເຮົາຈະ	-10.5823
▁ໂຄງການກໍ່ສ້າງ	-10.5824
ກອງປະຊຸມສໍາມະນາ	-10.5827
▁ໄດ້ຈັດພິທີ	-10.5829
▁ສະຖຽນລະພາບ	-10.5829
ນັກເຕະ	-10.5834
ນັ້ນແມ່ນ	-10.5835
ເຊຍ	-10.5836
ຫວ່າງ	-10.584
▁PC	-10.5842
ເລັ່ງ	-10.5849
ຂອງມະນຸດ	-10.5859
▁ເພີ່ມທະວີການ	-10.5864
ຈິ	-10.5869
▁ໃນອີກ	-10.587
▁ໄດ້ແລ້ວ	-10.5879
ເວັບໄຊຕ໌	-10.588
▁i	-10.5881
ແຕ້ມ	-10.5883
▁ສັນຕິ	-10.5888
ເປັນປະຈໍາ	-10.5896
▁ພົມ	-10.59
▁ຄ່ໍາ	-10.5901
▁SOULIYO	-10.5904
▁ຈິ	-10.5906
ຫນຶ່ງທີ່	-10.5906
ໂບ	-10.591
ທູດ	-10.591
ຜູ້ຜະລິດ	-10.5911
▁ຫນຸນ	-10.5911
▁ສ້າງສາ	-10.5912
▁ນີວ	-10.5914
ບາບ	-10.5918
▁ສົມບູນ	-10.592
ຮາກຖານ	-10.5923
ໂທລະໂຄ່ງ	-10.5923
▁ເລັ່ງ	-10.5924
ຽວ	-10.5927
ບາດເຈັບ	-10.5933
ວິຊາຊີບ	-10.5935
▁ດໍ	-10.5938
▁ແຮມ	-10.5938
ເທີ	-10.5942
ໄກ່	-10.5943
▁ກໍຈະ	-10.5943
▁ສີພັນດອນ	-10.5945
▁ສະລັອດຕິງ	-10.5946
ສຸກເສີນ	-10.5946
▁ຈະໄດ້	-10.5949
www	-10.5951
ຕ້ອງມີ	-10.5953
ທີ່ທັນສະໄຫມ	-10.5953
▁Car	-10.5953
ຈັດການ	-10.5955
ຢ່າງກວ້າງຂວາງ	-10.5961
ຢ່າງເລິກເຊິ່ງ	-10.5961
▁ມາດຕະການ	-10.5962
▁ນັກທ່ອງທ່ຽວ	-10.5963
ຄວນຈະ	-10.5971
▁ລືມ	-10.5977
ປະຊາຄົມ	-10.5982
▁cake	-10.5989
▁ຄວາມຮັກ	-10.5989
ເລັກນ້ອຍ	-10.599
ຫ້ອງວ່າການປົກຄອງ	-10.5991
ທົດສອບ	-10.5991
ຼ	-10.5993
ວິນ	-10.5995
▁ຕື່ນ	-10.5995
ລະຫວ່າງປະເທດ	-10.5997
▁un	-10.5998
ek	-10.6
ການຂະຫຍາຍຕົວ	-10.6
້ວ	-10.6001
ແພດ	-10.6003
▁ຮາວ	-10.6004
ຮຸ້ນ	-10.6013
▁ເພື່ອພົບປະ	-10.6015
▁ເສື້ອ	-10.6018
▁ບໍ່ໃຫ້	-10.6018
▁ຮຸ້ນ	-10.602
ຜີ	-10.6021
ດ້ານວິຊາການ	-10.6024
ດຶງດູດ	-10.6024
▁ຂອບໃຈ	-10.6025
▁ຄາດຫມາຍ	-10.6029
ປະຈໍາເດືອນ	-10.603
▁ສະຖານະ	-10.6038
ຜິວ	-10.604
▁ປະສົມ	-10.6046
ແມ່ນຫຍັງ	-10.6048
▁ຊ້ອນ	-10.6052
ກັບທ່ານ	-10.6053
ຄວາມຄິດເຫັນ	-10.6057
▁ຕູ້ຫນັງສືພ	-10.6058
▁ຄໍາເຫັນ	-10.6065
▁ຜູ້ນ	-10.6065
ຫນີ	-10.6067
ຍຸກ	-10.6068
ມາເລເຊຍ	-10.6075
sa	-10.6075
▁ຄວບຄຸມ	-10.6077
▁ຍທຂ	-10.6077
27	-10.608
ຕອບຫຼ້າສຸດໂດຍ	-10.608
▁ດໍາລົງ	-10.6085
▁ຄໍາຖາມ	-10.6085
ອິ	-10.6086
▁ທີ່ຢູ່ໃນ	-10.6089
▁72	-10.6093
▁ສໍາລັບການ	-10.6097
ຕັດສິນ	-10.6103
ຕໍ່ມາ	-10.6103
ຜົນງານບັນລຸໄດ້	-10.611
▁ບັນດາປະເທດ	-10.6111
▁ຫນົມ	-10.6111
▁9.	-10.6112
▁ປ່ອຍໂຕ	-10.6113
ປູ	-10.6114
▁ແມ່ນມີ	-10.6116
▁Air	-10.6117
ຂອງພວກເຂົາເຈົ້າ	-10.6119
▁ແຫຼງ	-10.6119
ຫວັງວ່າ	-10.6123
▁ຄຸນນະພາບ	-10.6124
▁ຜ່າ	-10.6127
▁Download	-10.6131
ການຊື້	-10.6134
ສ້ອມແປງ	-10.6136
ອາການ	-10.6144
ເຊື່ອງໄວ້	-10.6145
▁ເຊັ່ນດຽວກັນກັບ	-10.6145
gov	-10.615
▁ປຶກສາຫາລື	-10.6154
ທີ່ພວກເຮົາ	-10.6155
ton	-10.6157
ບູຮານ	-10.6157
ບໍ່ຮູ້	-10.6158
40	-10.616
ພີ່ນ້ອງ	-10.6165
▁ຫນ່ວຍກູ້ໄພ	-10.6166
ດູ	-10.6179
ເຊົ່າ	-10.618
ແຂວງຫຼວງພະບາງ	-10.6182
▁ທົ່ງ	-10.6182
▁ລູກຄ້າ	-10.6182
ເພີ້ມຂຶ້ນ	-10.619
▁ຈະບໍ່ອະນຸຍາດ	-10.6195
ໃນໄລຍະຜ່ານມາ	-10.6196
ມສືກສາ	-10.6199
▁Group	-10.6199
▁ສິ່ງທີ່ຄວນຮູ້	-10.62
ol	-10.6209
laos	-10.6211
ພາຍໃນປະເທດ	-10.6211
ຈໍ	-10.6213
▁ລີ້	-10.6217
ດົນ	-10.6218
▁IP	-10.6218
ສະອາດ	-10.6225
ແຂວງຄໍາມ່ວນ	-10.6227
▁ທີ່ແຮລຊິງກີ	-10.6229
▁ລືມລະຫັດຜ່ານ	-10.6232
ແນວທາງ	-10.6233
▁ກວ້າງຂວາງ	-10.6234
ເນັ້ນ	-10.6236
ce	-10.6237
▁ຂໍຂອບໃຈ	-10.6237
▁ເຈົ້າພາບ	-10.624
▁ເຈິ່ນດ້າຍກວາງ	-10.6241
▁ເລື້ອຍໆ	-10.6244
▁ຝ	-10.6247
ມາຊິກສະພາແຫ່ງຊາດ	-10.6251
21	-10.6252
ຄວາມຮູ້ສຶກ	-10.6252
ຈິ່ງ	-10.6254
ຈະໄດ້ຮັບການ	-10.6255
ເລືອກຕັ້ງ	-10.6255
ຫມາຍຄວາມວ່າ	-10.6257
ລັດຖະ	-10.6261
▁ແຕ່ງຕັ້ງ	-10.6263
ແຂ້ວ	-10.6263
▁ຄວາມສາມາດ	-10.6264
ສະເລ່ຍ	-10.6265
ຢູ່ບ້ານ	-10.6266
ation	-10.627
▁ຜົມ	-10.627
▁ນັກທຸລະກິດ	-10.6279
ແຂວງຈໍາປາສັກ	-10.6282
ໃນລະຫວ່າງ	-10.6283
▁May	-10.6286
▁ຂອງວັນທີ	-10.6286
mo	-10.6286
▁ຈານ	-10.6295
di	-10.6297
ປະກັນສັງຄົມ	-10.6302
ປິ່ນປົວ	-10.6302
▁ຊາວຫວຽດນາມ	-10.6303
ັ	-10.6304
ຂອງຄົນ	-10.6308
mp	-10.6311
ah	-10.6311
ເບີ່ງ	-10.6311
▁ຈິບ	-10.6316
ແຂວງເຊກອງ	-10.6316
▁ຜູ້ຄົນ	-10.6316
▁ສອບປາກຄໍາ	-10.6319
ມາກ່ອນ	-10.6319
ແຕ່ລະຄົນ	-10.632
▁El	-10.6321
ລື	-10.6324
ໂຄງສ້າງ	-10.6326
▁ສົນທິສັນຍາ	-10.6327
▁ອໍານາດການປົກຄອງ	-10.6328
▁ເທົ່າກັບ	-10.6329
▁ຝົນ	-10.6331
▁ບໍລິສັດຈີນ	-10.6332
28	-10.6333
ພົວພັນຕ່າງປະເທດ	-10.6333
▁ຢັ້ງ	-10.6337
3%	-10.6344
▁ຫນ່ວຍງານ	-10.6345
ປະຕິບັດການ	-10.6345
▁ບາງກອກ	-10.6346
ການບໍລິຫານ	-10.6348
ຟຟລ	-10.635
▁ອະດີດເອກອັກຄະ	-10.6351
ແມ່ນໍ້າຂອງ	-10.6351
ສຸມໃສ່	-10.6353
ໃຫມ່ຂອງ	-10.6354
ລະດັບຊາດ	-10.6354
▁https	-10.6358
22	-10.6359
ຖານຂໍ້ມູນ	-10.6359
ຕູ້	-10.6359
ຫັກ	-10.6372
ຄໍາຕອບ	-10.6374
ໄອທີ	-10.6375
▁ເຫຼົ່ານີ້	-10.6385
ແຂວງສະຫວັນນະເຂດ	-10.6388
ເອີຣົບ	-10.6389
▁Magic	-10.6391
ປະເພດຂອງ	-10.6392
ໄຂມັນ	-10.6394
▁ລາຍລະອຽດ	-10.6397
ນີ້ຈະ	-10.6398
ຮຸນແຮງ	-10.6403
ທ່ານໄດ້	-10.641
ພະລັງ	-10.6411
▁ຫຼຽນ	-10.6412
ປີທ່ອງທ່ຽວລາວ	-10.6413
ຄຸນສົມບັດ	-10.6418
ມາເປັນ	-10.6424
ແນ່	-10.6424
ແສນ	-10.6426
▁ປະລິມານ	-10.6431
2017	-10.6432
▁ນິຕິກໍາ	-10.6432
ດອນ	-10.6436
ເນື້ອ	-10.6439
ຢ່າງຖືກຕ້ອງ	-10.6444
ຄໍາສັບ	-10.6447
ຍີ່ຫໍ້	-10.6453
▁ກະຊວງແຜນການ	-10.6454
▁ແຜນທີ່	-10.6455
▁ເອື້ອຍ	-10.6456
ຊ່ວຍເຫລືອ	-10.6457
▁Email	-10.6465
ແມ່ນມີ	-10.6465
▁Server	-10.6465
ພີ	-10.6472
▁ຜູ້ຈັດການ	-10.6474
”(	-10.6475
ຂອງລູກຄ້າ	-10.6479
ການວິເຄາະ	-10.6481
▁Galaxy	-10.6482
ພາກໃຕ້	-10.6488
uk	-10.6495
ຫນູນຊ່ວຍ	-10.6499
ຄະແນນ	-10.6502
ຢ່າງເຂັ້ມງວດ	-10.6502
▁TECH	-10.6504
▁ເລື່ອງລາວຂອງ	-10.6508
▁ຮານ	-10.6509
ສະເຫລີມສະຫລອງ	-10.6514
ສູ້	-10.6517
ໂປຣແກຣມ	-10.6522
▁ການຜະລິດ	-10.6523
▁ການໃຫ້	-10.6525
ຜາ	-10.653
ສືບສວນ	-10.6532
▁VOVworld	-10.6535
▁blog	-10.6537
ບໍ່ຖືກຕ້ອງ	-10.6539
ນົມ	-10.654
ຜູ້ກ່ຽວ	-10.6541
ເປ	-10.6542
ທີ່ຖືກຄຸມຂັງ	-10.6552
ຫອມ	-10.6553
▁Ha	-10.6555
ໂປ	-10.6556
ດີກວ່າ	-10.6556
ດ້ວຍການ	-10.6562
ອີຣ່ານ	-10.6563
▁ອິສຣາ	-10.6567
ຕາມກົດຫມາຍ	-10.6569
ລະບຽບ	-10.6569
▁ສັງກັດ	-10.657
▁ຂອງປະເທດ	-10.6571
▁IV	-10.6572
▁ກູບາ	-10.6573
▁Ne	-10.6578
▁ເນຍ	-10.6583
▁ຈັດຕັ້ງປະຕິບັດ	-10.6586
ການແລກປ່ຽນ	-10.6591
▁ຂອງພວກ	-10.6594
ke	-10.6597
▁n	-10.66
▁2017-2018	-10.66
▁ຫຼຸດຜ່ອນ	-10.6604
▁ນາດ	-10.6605
ສິ້ນ	-10.661
ອມ	-10.6614
▁>>	-10.6619
ລືມ	-10.6625
ຄວາມກົດດັນ	-10.6626
▁2030	-10.6627
▁ຄົດ	-10.6628
▁Analytics	-10.6628
▁ທໍາອິດ	-10.6629
ຄໍາຮ້ອງສະຫມັກ	-10.663
ລວມມີ	-10.6635
ສັ່ງໃຫ້ໂຈະ	-10.6635
▁2000	-10.6638
ທີ່ເຮັດໃຫ້	-10.6639
ເສ	-10.6639
▁%	-10.6639
▁ສະແດງໃຫ້ເຫັນ	-10.664
2018	-10.6641
ປືນ	-10.6642
ໃ	-10.6646
sk	-10.6649
ວາງແຜນ	-10.6651
▁ມຸສລິ	-10.6652
▁ເຢຍລະມັນ	-10.6653
▁ຢັ້ງຢືນ	-10.6653
▁with	-10.666
▁ໂຫລດ	-10.666
ວີດິໂອ	-10.6662
▁73	-10.6663
▁ka	-10.667
▁ແຄມ	-10.6671
ment	-10.6671
ການພົວພັນລະຫວ່າງ	-10.6671
ຄົ້ນຄ້ວາ	-10.6673
ປະຕິວັດລາວ	-10.6674
ut	-10.6676
▁ມາແລ້ວ	-10.6678
ນິດ	-10.668
ຮ່າງກົດຫມາຍ	-10.6683
ໂຮມ	-10.6683
ou	-10.6684
ຈະໄດ້ທຶນຄືນ	-10.6691
▁75	-10.6694
ປັດ	-10.6695
▁ສະຫຼອງ	-10.6695
▁ຫນຶ່ງໃນ	-10.6699
ຕາເວັນອອກ	-10.6699
ຂອງວີໂອເອ	-10.67
ປະຕິບັດງານ	-10.6705
ສິງ	-10.6709
ທໍາມະດາ	-10.6711
ລະບອບ	-10.6711
ເຂັ້ມແຂງ	-10.6718
▁ຊ້ອມ	-10.672
▁ອັດຕາແລກປ່ຽນ	-10.6722
q	-10.6725
ເຊັ່ນດຽວກັນ	-10.6727
ເພາະວ່າ	-10.6727
▁020	-10.6728
▁ເຂົ້າໄປ	-10.673
▁ເມືອງໄຊເສດຖາ	-10.6734
ຕາເວັນຕົກ	-10.6737
ຊ່ວງ	-10.6739
▁ໂຈ	-10.6741
▁Land	-10.6742
ຝາ	-10.6744
▁ຫນາມ	-10.6747
ຖົງ	-10.6749
ດິນຟ້າອາກາດ	-10.6752
ທີ່ດີເລີດ	-10.6753
▁ເຊິ່ງໄດ້	-10.6762
ສະກັດກັ້ນ	-10.6763
▁ຮົມ	-10.6764
▁ປາມ	-10.6765
ການກະທໍາ	-10.6769
▁ບໍ່ສາມາດ	-10.6769
ກອງບັນຊາການ	-10.6769
▁ຫມາຍເຫດ	-10.6769
▁ພວກຄອບຄົວ	-10.6771
▁ສື່ສານ	-10.6771
ພັກຜ່ອນ	-10.6771
ແຟນ	-10.6777
ຊະນິດ	-10.6779
ຕໍ່ຫນ້າ	-10.678
ອງ	-10.6782
ຄືກັນ	-10.6783
ລ້າງ	-10.6785
▁DIGITAL	-10.6786
▁Title	-10.6786
▁Vladimir	-10.6786
ບາງສິ່ງບາງຢ່າງ	-10.6786
▁ຊົງຣິດ	-10.6786
ເວທີປາໄສ	-10.6793
▁ເຫຼັກ	-10.6794
▁ປະສົບການ	-10.6797
▁ກ່ອນຫນ້າ	-10.6806
ຢ່າງວ່ອງໄວ	-10.6809
age	-10.6809
▁ອົດ	-10.6811
▁ພຶດ	-10.6812
ມີຄລິບ	-10.6813
▁ໃຫ້ມີ	-10.6813
▁10%	-10.6815
▁ຍົມ	-10.6818
▁ເກີບ	-10.6824
ung	-10.6825
do	-10.6827
▁ທະນາຍຄວາມ	-10.6829
▁Di	-10.6833
ຜູ້ປະກອບການ	-10.6833
▁ຄໍ	-10.6835
▁ສົກ	-10.684
ຝັ່ງ	-10.6843
ປະຕິ	-10.6843
ເຂົ້າຮຽນ	-10.6846
▁ຫມັກ	-10.6848
▁Category	-10.685
▁ຜາ	-10.6852
TUP	-10.6852
▁ຮຸ່ນ	-10.6855
▁ຜ່ານມານີ້	-10.6858
ຢັ້ງຢືນ	-10.6859
ຊິງ	-10.686
ຢ່າງເຕັມທີ່	-10.6861
▁49	-10.6861
▁ລະວັງ	-10.6866
ຍົກລະດັບ	-10.6869
▁l	-10.6873
ກ່ອນທີ່ຈະ	-10.6874
▁ອົງການຕ່າງໆ	-10.6875
ແຕ່ງຕັ້ງ	-10.6879
ດັ່ງກ່າວໄດ້	-10.6879
ນີ້ໃນ	-10.688
▁ຈຶ່ງໄດ້	-10.6885
ສາມາດໄດ້ຮັບການ	-10.6886
ອົບ	-10.6886
ໂອນ	-10.6887
ok	-10.6892
ຫລຸດ	-10.6893
▁ຫົວຫນ່ວຍ	-10.6896
ສາທາລະນະສຸກ	-10.6896
▁ໃກ້ໆ	-10.6897
ເຄື່ອງຈັກຊອກຫາ	-10.6898
ໃນສັງຄົມ	-10.69
ໄດ້ທີ່	-10.6901
ລອຍ	-10.6901
ປະຕິເສດ	-10.6901
▁52	-10.6905
ການກວດກາ	-10.6912
ອະນຸມັດ	-10.6912
ຂອບເຂດ	-10.6914
▁ພະລັງ	-10.6914
▁ລຸງ	-10.6915
ສະພາແຫ່ງຊາດຊຸດທີ	-10.6915
▁ແຊງ	-10.6919
ຫຼີ້ນ	-10.692
▁ສົມພອນ	-10.6921
▁00	-10.6921
▁ເລົ່າ	-10.6922
ການປິ່ນປົວ	-10.6923
▁ຈະເປັນ	-10.6924
▁Lo	-10.6926
ດ້ານການເມືອງ	-10.6928
ສະຫວັນນະເຂດ	-10.6928
ທຸກທ່ານ	-10.6931
▁ການອອກແບບ	-10.6931
ດໍາລົງຕໍາແຫນ່ງ	-10.6935
▁ການສະ	-10.6935
▁ປາບ	-10.6938
▁ທີ່ຜ່ານມາວ່າ	-10.6941
ໃຊ້ງານ	-10.6945
ເຍົາວະຊົນ	-10.6948
▁128	-10.6949
ສະພາບອາກາດ	-10.695
▁ສະບັບເລກທີ	-10.6952
".	-10.6958
ທາງດ້ານການເມືອງ	-10.6963
ໂຮງງານຜະລິດ	-10.6965
▁ຄູ່ມື	-10.6966
ລິຂະສິດ	-10.697
ສະມາຊິກພັກ	-10.6972
▁ຈ້າງ	-10.6974
ນັ້ນເອງ	-10.698
ເຊື່ອມໂຍງ	-10.6981
ເຊີ	-10.6982
ni	-10.7
ປະສົບ	-10.7005
▁ປະທາ	-10.7007
▁ຄຸນສົມບັດ	-10.7008
▁ຍອມຮັບ	-10.7009
ກໍາລັງດໍາເນີນຢູ່	-10.701
ຢ່າງແທ້ຈິງ	-10.701
▁Coast	-10.7011
ໃນມື້ທີ	-10.7014
▁58	-10.7014
7)	-10.7015
ໄຂ່	-10.7017
▁ຫຼ້າສຸດ	-10.702
▁ລົດຈັກ	-10.7022
ພຽງພໍ	-10.7023
ໂດເມນ	-10.7023
ສໍາພາດ	-10.7027
▁61	-10.7028
ຜູ້ເຂົ້າຮ່ວມ	-10.7028
29	-10.7029
▁ສະກັດກັ້ນ	-10.703
ຫລວງ	-10.7031
ເກັ່ງ	-10.7033
▁ໄຕ້	-10.7039
▁ລໍຖ້າ	-10.704
▁ຕັ້ງແຕ່	-10.7041
ພົບວ່າ	-10.7045
ໂຄງການກໍ່ສ້າງ	-10.7046
▁One	-10.7049
▁ອຽດ	-10.705
ສະຫະລັດອາເມລິກາ	-10.7052
▁ຫົວຫນ້າຄະນະ	-10.7057
ບານເຕະ	-10.7065
▁ປະຊາກອນ	-10.7066
ລັດວິສາຫະກິດ	-10.7072
▁Sydney	-10.7073
▁ID	-10.7074
ຄວາມເສຍຫາຍ	-10.7076
ຂຽວ	-10.708
▁Internet	-10.708
▁ຊື່ງ	-10.7088
ື	-10.7094
ບູຊາ	-10.7098
▁ຖ້ວນ	-10.7099
▁ເຣ	-10.7101
▁ໄຫຼ	-10.7104
▁Ri	-10.7106
ເສີມຂະຫຍາຍ	-10.7106
▁ອີຢູ	-10.7106
ຫຼຽນ	-10.7107
▁ຮ່ວມຄິດ	-10.7108
▁250	-10.7108
▁56	-10.7108
▁ຊໍາ	-10.711
▁ກອງປະຊຸມໃຫຍ່	-10.7111
ຊວງ	-10.7113
ສິບ	-10.7113
▁your	-10.7118
ຮັກສາຄວາມປອດໄພ	-10.7119
ຍ່ອຍ	-10.7122
ແຜນທີ່	-10.7123
▁ມີຖຸນາ	-10.7126
ສິນເຊື່ອ	-10.7128
ຜູ້ຊ່ຽວຊານ	-10.7128
ບໍ່ຄວນ	-10.7129
ແນະນໍາໃຫ້	-10.7134
ແຂກ	-10.7136
ອົງປະກອບ	-10.7139
▁ເພື່ອແຊກຊຶມ	-10.7144
ຫມ	-10.7144
ສາມັກຄີ	-10.7147
MGI	-10.7147
ວອນ	-10.7151
ເຂື່ອນໄຟຟ້າ	-10.7156
▁ເຈີ	-10.7161
ມີຄວາມສົນໃຈ	-10.7163
▁ຊີ້ນໍາ	-10.7163
▁ລາມ	-10.7164
▁At	-10.7164
ຂໍ້ສະເຫນີ	-10.7166
▁ສະໂມສອນ	-10.7168
ຣາດ	-10.7175
▁ເມີນ	-10.7179
▁ກິດຈະການ	-10.7183
▁ເບີກ	-10.7184
ວິຊາສະເພາະ	-10.7186
ບໍາລຸງ	-10.7187
▁44	-10.719
%	-10.7192
ຕີລາຄາ	-10.7194
ບໍ່ເຫມາະສົມ	-10.7194
▁ຖວທ	-10.7194
໐	-10.7197
້ຍ	-10.72
▁ບັນທຸກ	-10.72
▁Tour	-10.7201
ລູ	-10.7202
ຢ່າງແຮງ	-10.7203
▁ຊົນເຜົ່າ	-10.7203
▁ຄົນທີ່	-10.7204
▁ໂຮ່	-10.7204
ແພງ	-10.7208
▁ວັນນະ	-10.7209
ຜົນຄະແນນການ	-10.7209
ການທົດລອງ	-10.7209
ist	-10.7209
ກະຊວງສາທາລະນະສຸກ	-10.7211
ອົງການໄອຍະການ	-10.7212
ເນາະ	-10.7215
▁ວິຊາການ	-10.7216
ຄວາມຮ້ອນ	-10.7219
▁ຮູບເງົາ	-10.7223
ເສົາ	-10.7227
▁ເກີ	-10.723
ຄວາມງາມ	-10.723
ເປັນປົກກະຕິ	-10.7233
▁2013.	-10.7237
ນັບມື້ນັບ	-10.7238
▁ຊໍາລະ	-10.724
ນຸ	-10.7241
ຖານສົມຮູ້	-10.7241
ພິດ	-10.7241
▁ການຝຶກອົບຮົມ	-10.7241
▁ມູນິດ	-10.7244
ລໍ້	-10.7244
ver	-10.7244
▁ແຫ	-10.7247
fi	-10.7248
ໄຫລ	-10.7251
ອີກຄັ້ງ	-10.7252
▁ຮ່ວມກັນ	-10.7253
ອາສາສະຫມັກ	-10.7254
▁ເສັງ	-10.7257
ກຸງ	-10.726
ຍຸຕິທໍາ	-10.7261
▁ຂອງພວກເຮົາ	-10.7266
ຜົນໄດ້ຮັບ	-10.7267
▁ອູ	-10.7269
ລະດົມ	-10.727
▁ພວກເຮົາໄດ້	-10.7271
ອົບພະຍົບ	-10.7274
ປະໂຫຍດ	-10.7275
▁cookies	-10.7276
ling	-10.7288
▁ທີ່ມາ	-10.7292
ນໍາສະເຫນີ	-10.7292
▁ລຸນ	-10.7295
▁ໃນໄທ	-10.7295
ເງິນເດືອນ	-10.7299
▁ບໍາລຸງ	-10.73
▁ໂອນ	-10.7301
▁ຊາວບ້ານ	-10.731
▁ເພີ້ມຂຶ້ນ	-10.7311
▁2561	-10.7313
▁ເຊິ່ງແມ່ນ	-10.7316
ຝັນ	-10.7317
▁ດົມ	-10.7317
▁ຟັງລາຍງານ	-10.7327
ງ່າຍໆ	-10.733
▁TV	-10.7336
ໄວ້ໃນ	-10.7338
▁Ba	-10.7343
▁ລະດູ	-10.7345
▁46	-10.7347
ຫຼັກແຫຼ່ງ	-10.7348
ທີ່ມີຢູ່	-10.7351
ໄປເຖິງ	-10.7351
ນີ້ໄດ້	-10.7352
ຢູ່ເທິງ	-10.7355
▁IS	-10.7358
ຫນີ້	-10.736
▁ແຄ	-10.7363
ໄດ້ກ່າວວ່າ	-10.7366
່ຍ	-10.7367
ການຮ່ວມມືລະຫວ່າງ	-10.7374
▁York	-10.7376
ຫມູ	-10.7379
▁450	-10.7381
ເຊື່ອມ	-10.7381
ມາແຕ່	-10.7382
ສີຂາວ	-10.7384
ທັງພາຍໃນ	-10.7387
▁ຫຍຸ້ງຍາກ	-10.7387
▁ຫງວຽນທິກິມເງິນ	-10.739
ລາຍງານວ່າ	-10.7392
ການຄົ້ນຫາ	-10.7396
▁ເຈົ້າຂອງ	-10.7398
ມາໄດ້	-10.7405
ເຮ	-10.7406
▁43	-10.7409
▁ຊັນ	-10.7409
▁Bratz	-10.7409
▁ຮຸ່ງ	-10.741
▁ຢູ່ຮ່າໂນ້ຍ	-10.741
ru	-10.7411
ລົ້ມ	-10.7411
ນານ	-10.7418
ຕິດຕໍ່ພວກເຮົາ	-10.7428
▁Hits	-10.7429
ຜະລິດຕະພັນຫຼື	-10.7429
ອະນຸຍາດ	-10.7431
ຊົນເຜົ່າຫວຽດນາມ	-10.7431
ສື່ສານ	-10.7433
▁ກໍາມະການພັກແຂວງ	-10.7437
ຟື້ນຟູ	-10.7438
ແລນ	-10.7438
ທີ່ເກີດຂຶ້ນ	-10.744
▁ລະບຸ	-10.744
ຈະເລີນ	-10.7441
▁ສອບຖາມຂໍ້ມູນ	-10.7443
ວິໄສທັດ	-10.7444
▁ທີ່ສໍາຄັນ	-10.7444
▁ມະນູນ	-10.7444
▁ຮັກສາຄວາມປອດໄພ	-10.7445
▁ສື່ມວນຊົນ	-10.7445
ເກົາຫຼີໃຕ້	-10.7445
ນັກລົງທຶນ	-10.7446
ຂະບວນ	-10.7446
▁ໃ	-10.7447
▁---	-10.7448
ເພີ້ມ	-10.7453
lao	-10.7454
ສະໄຫມສາມັນ	-10.7455
▁ໄຈ	-10.7457
9%	-10.7458
ການຂົນສົ່ງ	-10.7459
▁An	-10.7463
ປະຕິວັດ	-10.7464
ແຂວງບໍລິຄໍາໄຊ	-10.7466
▁ແຝງ	-10.7468
ທ້າຍປີ	-10.7469
▁ນັບຖື	-10.7469
▁ປະນາມ	-10.7471
ວໍຊິງຕັນ	-10.7472
▁ກໍມີ	-10.7473
ລ່ວງຫນ້າ	-10.7484
ຖາວອນ	-10.7489
ຄົນຫນຶ່ງ	-10.7491
▁ເງິນສົດ	-10.7491
ວັນເກີດ	-10.7492
▁ຂ່າວເດັ່ນ	-10.7492
ເວົ້າເຖິງ	-10.7494
ທັງຫມົດຂອງ	-10.7497
▁VI	-10.7499
ການເຂົ້າຮ່ວມຂອງ	-10.7499
▁ທາງອິນເຕີແນັດ	-10.7505
ສຶກສາອົບຮົມ	-10.7507
ວງ	-10.7511
▁ປະຕິວັດລາວ	-10.7513
▁ທີ່ສຸດ	-10.7515
▁ພຽງພໍ	-10.7515
▁ນໍ້າມັນ	-10.7519
▁Ro	-10.7523
▁ໄດ້ໃຫ້	-10.7526
ກໍາມະກອນ	-10.7527
ໄນ	-10.7529
▁x	-10.753
▁at	-10.7538
ນາໆຊາດ	-10.7539
ຄັດ	-10.7539
ຜົມ	-10.7546
ທິດສະດີ	-10.7547
ນັກທຸລະກິດ	-10.7554
▁ແດ່	-10.7555
ຂອບເຂດທົ່ວປະເທດ	-10.7556
▁Cab	-10.7557
ງານວາງສະແດງ	-10.7558
▁ຍື່ນ	-10.7564
▁ແຂວງຜົ້ງສາລີ	-10.7566
ທີ່ດີກວ່າ	-10.7569
as	-10.7575
vi	-10.7577
ໃນການສ້າງ	-10.7578
ຢູ່ເລກທີ	-10.7581
ກາເຟ	-10.7583
ລາຍໄດ້	-10.7587
▁Huawei	-10.7589
▁ນໍ	-10.7591
▁ເປັນເຈົ້າການ	-10.7591
ຖ້າຫາກວ່າ	-10.7595
he	-10.7596
ຂອງທ່ານແລະ	-10.7596
▁ຄະແນນ	-10.7598
▁ອວຍພອນ	-10.7599
TT	-10.7599
ກະລຸນາ	-10.7601
▁ແມ່ນເປັນ	-10.7602
ຫລາຍຢ່າງ	-10.7603
ຄຸນນະສົມບັດ	-10.7606
ຈື່ງ	-10.7607
ບັນດາໂຄງການ	-10.761
ເຜົ່າ	-10.761
ັງ	-10.7611
ຢ່າງບໍ່ຢຸດຢັ້ງ	-10.7614
ate	-10.7614
▁Star	-10.7615
▁ລ້ານບາດ	-10.7618
ຄວາມໄວ	-10.7618
▁ປະໂຫຍດ	-10.7619
▁2005	-10.762
▁ຮອຍ	-10.7622
▁ກໍາມະການກົມການ	-10.7632
▁ແມ່ນໄດ້	-10.7632
ສັງລວມ	-10.7634
ປຶກສາຫາລືກ່ຽວກັບ	-10.7637
▁ລອຍ	-10.7645
ເອກະລາດ	-10.7647
▁iPad	-10.7649
ທີ່ມາຈາກ	-10.7655
ເທົ່າໃດ	-10.7656
ລ໌	-10.766
▁68	-10.766
▁ຂົງເຂດ	-10.7663
ລົດໃຫຍ່	-10.7666
▁ລະບຽງ	-10.767
ຂັບລົດ	-10.7672
ປະຊາຊົນລາວ	-10.7674
ກັບຄືນໄປບ່ອນ	-10.7679
ຮຽກ	-10.7682
▁Hillary	-10.7684
▁ໂດຍຜ່ານ	-10.7685
▁ຈະບໍ່	-10.7687
▁ຖັນ	-10.7687
▁ເລື່ອນ	-10.7689
ຫມາຍເຖິງ	-10.7691
ແບບຍືນຍົງ	-10.7699
▁ເຈີ່ນດ້າຍກວາງ	-10.7703
ັບ	-10.7704
ສີດໍາ	-10.7715
ສາມາດເຮັດໄດ້	-10.7718
ຕໍ່ເນື່ອງ	-10.7718
▁Heroes	-10.7719
▁ດັ້ງ	-10.7719
ດີທີ່ສຸດ	-10.772
ສັນຍາລັກ	-10.7721
▁Ch	-10.7722
▁Take	-10.7723
ເຄື່ອງຫມາຍການຄ້າ	-10.7726
ຊົມຄລິບ	-10.7727
ເປັນເຈົ້າຂອງ	-10.7728
ຍອດນິຍົມ	-10.7728
ອົດສະຕຣາລີ	-10.7729
▁Lu	-10.7735
ຫມູ່ເພື່ອນ	-10.7735
▁ຕີນ	-10.7737
ກັບການ	-10.774
ຈອນ	-10.7743
ເກມບິນ	-10.7744
ເຖິງຢ່າງໃດກໍ່ຕາມ	-10.7746
ຄີ	-10.7747
▁ເລືອກຕັ້ງ	-10.775
▁Ko	-10.775
26	-10.7751
ມາດຕາ	-10.7761
ການຊອກຫາ	-10.7769
ສິ່ງທີ່ທ່ານ	-10.777
ັມ	-10.777
ຈົດທະບຽນ	-10.7772
▁ດັງ	-10.7773
▁cryptocurrency	-10.7775
ຽງ	-10.7779
ທີ່ເຮົາ	-10.778
ປະຈໍາວັນ	-10.7784
ໃຫ້ຣັດເຊຍ	-10.7786
▁hack	-10.7786
ວັນທີ່	-10.7787
▁Plus	-10.7791
ເຄື່ອນ	-10.7791
▁LAO	-10.7798
▁ຕ້ອງໄດ້	-10.7801
ad	-10.7808
LA	-10.7814
▁ຕອນນີ້	-10.7816
▁ພສ	-10.7819
▁ຂ່າວປະຈໍາວັນ	-10.783
▁ສິດທິມະນຸດ	-10.783
▁ນັກຮົບ	-10.7838
▁ວິທະຍາ	-10.7839
ວານ	-10.7841
ວິທະຍາ	-10.7842
▁ໄດ້ປະກາດ	-10.7848
▁ຄ້າງ	-10.7852
ນ້ໍາຫນັກ	-10.7855
▁ເຂດສາມຫຼ່ຽມຄໍາ	-10.786
ທ໌	-10.7864
ຢາເສບຕິດທັງຫມົດ	-10.7864
▁ກົດລະບຽບ	-10.7866
ມໍ	-10.7872
▁ເຊິ່ງຈະ	-10.7873
ການສອບເສັງ	-10.7874
ປະເສີດ	-10.7876
ເປີດເຜີຍ	-10.7876
ຫຸ້ນສ່ວນ	-10.7877
▁ຈະສືບຕໍ່	-10.7877
▁ສືບລັບ	-10.7881
ຂອງສະພາແຫ່ງຊາດ	-10.7887
▁Bo	-10.7888
▁Lee	-10.7894
ຫຼຸດຜ່ອນ	-10.7894
▁Fantasy	-10.7894
ຄໍາຕັດສິນຂອງສານ	-10.7895
▁ລູກສາວ	-10.79
▁ໃນເດືອນ	-10.7902
ເປັນພິເສດ	-10.7903
▁ໄດ້ຮັບລາງວັນ	-10.7904
ໃນຕໍ່ຫນ້າ	-10.7906
▁ແຊກແຊງ	-10.7906
▁ເຂັ້ມແຂງ	-10.7907
▁ລົງໂຄສະນາ	-10.7908
ບົວ	-10.7909
▁ຕໍ່ມາ	-10.791
▁ປະຕິບັດຕາມ	-10.7913
ພວກມັນ	-10.7914
ຊານ	-10.7914
▁ເກມເກມ	-10.7917
ເອເຊຍ	-10.792
ຢາບ້າ	-10.7921
▁—	-10.7922
▁ເພີ່ມເຕີມ	-10.7924
▁ຮັດກຸມ	-10.7925
ຮຸ່ນ	-10.7925
▁ເຈນ	-10.7927
ຜູ້ບໍລິໂພກ	-10.7929
▁ຄາວ	-10.7929
ເຢ	-10.793
▁ລັກລອບ	-10.793
▁Valentine	-10.7931
▁Pirates	-10.7931
ຄຸນຄ່າ	-10.7931
▁ອະນຸ	-10.7931
▁ແນວທາງ	-10.7931
▁ສະພາການຄ້າ	-10.7934
ດັ່ງຕໍ່ໄປນີ້	-10.7938
ແຄ	-10.794
▁ພື້ນທີ່	-10.794
▁ໄຮ	-10.7941
ແລ	-10.7944
▁ຢູ່ນະຄອນ	-10.7946
ວ່າດ້ວຍ	-10.7951
ມີຫຼາຍ	-10.7952
ລົງໄປ	-10.7955
ຊາວໂຊມາເລຍ	-10.7955
ເລື່ອນ	-10.7957
▁ທັນສະໄຫມ	-10.7957
ເປີດຢູ່ໃນ	-10.7958
ໃຫມ່ໆ	-10.7958
ສະແດງໃຫ້ເຫັນວ່າ	-10.7962
ວິທະຍຸ	-10.7962
▁ຍົບ	-10.7966
WS	-10.7968
ຮອງຮັບ	-10.797
ER	-10.7971
▁ວາງສະ	-10.7971
▁ງອກ	-10.7974
ການຕັ້ງຄ່າ	-10.7974
▁ອັບເດດ	-10.7979
ການຕັດສິນໃຈ	-10.7979
▁ໄດ້ເຂົ້າຮ່ວມ	-10.7984
ມີບັນຫາ	-10.7987
ສາເຫດ	-10.7987
fa	-10.799
ນໍ	-10.7992
6%	-10.7992
ພໍ່ແມ່ປະຊາຊົນ	-10.7992
▁ເຈົ້າແຂວງ	-10.7992
ໂດຍບໍ່ມີການ	-10.7994
▁ປື້ມ	-10.7995
▁ແຈກ	-10.7996
ແທງ	-10.8004
▁ສະພາສູງ	-10.8005
ຜະລິດມາຈາກ	-10.8006
▁ສອນໄຊ	-10.8008
ປາກິສຖານ	-10.8011
▁ດົນຕີ	-10.8014
▁ໃນອັດຕາສະເລ່ຍ	-10.8014
ຜູ້ເຂົ້າຊົມ	-10.8016
▁ໄປຍັງ	-10.8017
ໂດຍໃຊ້	-10.8017
▁Mar	-10.8022
▁ມາເຣຍ	-10.803
wa	-10.8033
▁700	-10.8034
ອາກອນ	-10.8037
▁lao	-10.8037
▁kidork	-10.8038
▁URL	-10.8038
▁HGH	-10.8038
ທາງສັງຄົມ	-10.8039
ປະເພນີ	-10.8039
ລະດັບສູງ	-10.8042
ຊາວບ້ານ	-10.8043
ລໍ	-10.8044
ໄດ້ເຫັນ	-10.8044
ບັງຄັບ	-10.8044
▁ຂອງລັດຖະບານ	-10.8045
▁ພົບປະ	-10.8046
ວາງສະແດງ	-10.8046
▁ຕາຕະລາງ	-10.8051
້າ	-10.8052
ເມື່ອວັນທີ	-10.8054
ທ່ຽວ	-10.8054
ຈຶ່ງໄດ້	-10.8054
ພົບປະ	-10.8055
▁ການປະທ້ວງ	-10.8063
▁ຣິກ	-10.8067
▁ຄະນະພັກ	-10.8073
ເຊື່ອງຊ້ອນ	-10.8074
▁ແກ	-10.8074
ປົດ	-10.8076
ຈານ	-10.8077
▁ຍົກຍ້າຍ	-10.808
ant	-10.8081
ຢູ່ຕ່າງປະເທດ	-10.8083
▁ອິສຣາແອລ	-10.8086
ບູ	-10.809
▁ຂູ່	-10.809
▁ນວຍ	-10.8091
▁ໄດ້ເປີດ	-10.8091
ນໍາມາ	-10.8092
ຢ້ານ	-10.8092
▁ຈອດ	-10.8093
ອະນາຄົດ	-10.8095
ກັບຄືນ	-10.8095
▁ໃນໄລຍະຜ່ານມາ	-10.8098
ມີໂອກາດ	-10.8099
ຊົ່ວ	-10.8101
eng	-10.8101
ເຂົ້າເຖິງ	-10.8103
ກັດ	-10.8105
▁ສິວ	-10.8107
▁Hu	-10.8111
70	-10.8113
ສັບ	-10.8114
china	-10.8117
▁ເຕີນ	-10.8119
ve	-10.8121
▁are	-10.8122
ອີກເທື່ອຫນຶ່ງ	-10.8123
▁ວັນທີ່	-10.8124
ດື່ມ	-10.8127
▁ໃຫ້ການປົກປ້ອງ	-10.8129
ຢູ່ຫວຽດນາມ	-10.8136
▁ຂອງປະຊາຊົນ	-10.8136
▁ຫມື່ນ	-10.8136
▁ໃນກອງປະຊຸມ	-10.8136
▁2011.	-10.8138
▁ຂອງພະຍາດ	-10.8147
▁ຄະນະຕຸລາການ	-10.8148
▁ກ່ອນທີ່ຈະ	-10.8148
▁ຕອບກັບ	-10.8151
ົ	-10.8152
ທີ່ກໍານົດໄວ້	-10.8154
ສະເຫຼີມສະຫຼອງວັນ	-10.8157
ເປັນປະທານ	-10.8158
ເຈ້ຍ	-10.8158
ໄຟຟ້າລາວ	-10.8159
ຍັງຄົງ	-10.8163
▁ຫຼັງຈາກທີ່	-10.8164
ເລີກ	-10.8165
▁ສະມາ	-10.8165
ອີຣັກ	-10.8167
ຫ້ວຍ	-10.8168
▁ມະຫາວິທະຍາ	-10.817
ຄໍາເຫັນ	-10.8174
▁ອີກດ້ວຍ	-10.8176
▁ນໍາ້	-10.8177
32	-10.8179
ອຍ	-10.8179
ຕັ້ງຢູ່	-10.818
ການເຕີບໂຕ	-10.8182
ຊື່ງ	-10.8183
▁ເອີ້ນວ່າ	-10.8188
▁ເຄມີ	-10.8191
▁Du	-10.8194
▁ເມນ	-10.8194
▁EC	-10.8195
ໃນງານ	-10.8196
ມີລັກສະນະ	-10.8197
▁ຄວາມທຸກ	-10.8197
▁ຈັນທະບູລີ	-10.8197
ເຣ	-10.8198
ງ່າຍດາຍ	-10.8199
ຄິດໄລ່	-10.82
▁ປ້າຍ	-10.8203
ວ່າງ	-10.8205
▁ອິຣ່ານ	-10.8208
ຍົກເລີກ	-10.8211
hattana	-10.8212
ກອງບັນຊາການທະຫານ	-10.8212
▁ຟ້ອງຮ້ອງ	-10.8216
▁ຮັດ	-10.8218
ຖ້າທ່ານ	-10.8218
▁ຄໍາວ່າ	-10.8222
ປ່ອງຢ້ຽມໃຫມ່	-10.8222
▁ໃນການໂຈມຕີ	-10.8224
ເຄື່ອງຫມາຍ	-10.8232
▁(3)	-10.8233
ການສໍາຫຼວດ	-10.8233
▁Blog	-10.8233
▁Dr	-10.824
The	-10.8245
▁ດວກ	-10.825
ລາຍຊື່	-10.8256
ເລົ່າ	-10.8257
▁Marketing	-10.8257
▁ພຣະອົງ	-10.8259
▁ບໍ່ມີແຜນ	-10.826
ການພົບປະ	-10.8262
ນີ້ມີ	-10.8269
▁ບໍລິເວນ	-10.827
▁ຊິດ	-10.8273
▁ຟາກ	-10.8277
ການສ້າງຕັ້ງ	-10.8278
ຫນ້າທໍາອິດ	-10.8281
ແມ່ນບໍ່	-10.8286
▁ຢູ່ນໍາ	-10.8286
ຂໍ້ມູນເພີ່ມເຕີມ	-10.8287
ຈະສາມາດ	-10.829
ໃນຮູບແບບ	-10.8291
ທາງດ້ານການເງິນ	-10.8292
▁ຣານ	-10.8292
ແມ່ນ້ໍາ	-10.8293
ຂອງໂຄງການ	-10.8293
ທີ່ນີ້	-10.8294
▁ອີຣານ	-10.8297
ທີສອງ	-10.83
ການທູດ	-10.8303
▁ລາຍການກະຈາຍສຽງ	-10.8304
be	-10.8306
▁ແທງ	-10.8309
▁ຖາວອນ	-10.8309
ເຫັນດີ	-10.831
ສະນັ້ນ	-10.8313
▁ຈອງ	-10.8316
ລະຫວ່າງສອງປະເທດ	-10.8321
vey	-10.8325
ພັນລາວ	-10.8326
ທີ່ສົມບູນແບບ	-10.8328
ຂໍໃຫ້	-10.8329
ການບໍລິການດ້ານ	-10.833
▁ສະຫງວນໄວ້	-10.8331
ທີ່ເຂັ້ມແຂງ	-10.8333
line	-10.8336
ຍຸ	-10.8337
▁ເນື້ອທີ່	-10.8339
▁ພວກຂ້າພະເຈົ້າ	-10.8342
▁(1	-10.8347
ທຽນ	-10.8349
ສໍາຮອງ	-10.8353
ຊີ້ຂາດ	-10.8354
ລັດຖະທໍາມະນູນ	-10.8356
ວັນນະຄະດີ	-10.8357
ການຈະລາຈອນ	-10.8359
80	-10.8361
▁ຫົ່ມ	-10.8361
ແບບໃດ	-10.8363
▁ເຈື່ອງຊາ	-10.8364
ຢ່າງລະອຽດ	-10.8365
▁ມາສະ	-10.8367
ສາຍຕາ	-10.8368
ຢ່າງໄວວາ	-10.8371
▁ແຫ່ງຊາດລາວ	-10.8378
▁62	-10.8379
▁51	-10.8389
ມິນ	-10.8389
ສືບທອດ	-10.839
▁ໃນຖານະເປັນ	-10.8391
ຝຸ່ນ	-10.8392
ຶ	-10.8396
ບໍລິຈາກ	-10.8396
GB	-10.8396
ຮ້ອຍ	-10.8398
ຈໍາເປັນຕ້ອງ	-10.84
ທີ່ຮ້າຍແຮງ	-10.8401
our	-10.8403
▁Wedding	-10.8405
▁ເຍີຍ	-10.8405
▁ເພື່ອເປັນ	-10.8405
ບາຍ	-10.8408
04	-10.8409
▁ເຜີ້ງ	-10.8413
▁ກົດເພື່ອ	-10.8413
ຍົກສູງ	-10.8414
▁ປິ	-10.8416
ວ່າຈະ	-10.842
▁ມຸ່ງ	-10.8421
ພັນທະ	-10.8423
▁ການພົວພັນ	-10.8426
ສ້າງຄວາມ	-10.8431
▁ການປັບປຸງ	-10.8431
ັດ	-10.8433
▁ຄົນໃຫມ່	-10.8434
ການເຄື່ອນໄຫວຂອງ	-10.8435
▁ມີບັນດາ	-10.8436
ເນື່ອງຈາກ	-10.844
ສອດຄ່ອງກັບ	-10.8442
▁ມັສກັສ	-10.8442
▁ຕົ໋ວສາຍການບິນ	-10.8442
pt	-10.845
ບລັອກ	-10.8453
05	-10.8453
ຜະ	-10.8454
ນັນ	-10.8454
ພາຫະນະ	-10.8455
ອາດຈະຫມາຍເຖິງ	-10.8457
▁Sofia	-10.8457
▁ບັນເທີງ	-10.8457
ຈຸດສຸມ	-10.8459
▁ປະເທດຫວຽດນາມ	-10.846
▁ບວກ	-10.8463
ໂຕນ	-10.8467
▁ປະຫວັດຂອງ	-10.8467
▁ຊັງ	-10.8468
ແຂວງຫົວພັນ	-10.8468
▁ໄຕ້ຫວັນ	-10.8469
ມາຢ້ຽມຢາມ	-10.8473
▁ປະກອບດ້ວຍ	-10.848
ຫນັງສືຮິຣະງະນະ	-10.848
▁Daily	-10.848
ຄາດວ່າ	-10.8481
▁ຜິດກົດຫມາຍ	-10.8484
▁ທີ່ບໍ່	-10.8488
ຍານ	-10.8489
ຊ້ໍາ	-10.8489
ຮອຍ	-10.8491
ບວກ	-10.8494
▁ເສດຖະສາດ	-10.8505
ໂທລະຄົມມະນາຄົມ	-10.851
▁ຊີ້ນ	-10.851
▁Abe	-10.8513
ທີ່ກໍາລັງ	-10.8513
▁ມຂຶ້ນ	-10.8518
▁ຕິດຕໍ່ທີມງານ	-10.8518
▁ພີ່ນ້ອງ	-10.8519
ຖ່າຍຮູບ	-10.8521
ຊ່ຽວຊານ	-10.8524
▁ໃຫ້ເປັນ	-10.8524
ຈັດງານ	-10.8529
ດວງ	-10.8529
▁ມີຫຼາຍ	-10.8531
ຖະແຫຼງຂ່າວ	-10.8531
ແຂວງຊຽງຂວາງ	-10.8534
ຢູ່ພາຍໃນ	-10.8536
▁ແປວ່າ	-10.8538
ສະກັດ	-10.8538
ໂດຍໄວ	-10.8539
▁ແຜນຍຸດທະສາດ	-10.8541
▁Bourgas	-10.8542
ຕ່າງໆຂອງ	-10.8542
▁ກໍາມະບານ	-10.8544
▁ສະຖານະການ	-10.8544
▁ສະຫລຸບ	-10.8545
ຈອງ	-10.8546
▁ທ່ານໄດ້	-10.8547
ຮັບຟັງ	-10.855
▁ຈະຕ້ອງ	-10.855
ຂອງເວັບໄຊທ໌	-10.8552
ທັກສະ	-10.8552
ເບື້ອງ	-10.8556
▁Jong	-10.8557
ແລກປ່ຽນບົດຮຽນ	-10.8557
▁ໂພນເງິນ	-10.8557
ard	-10.8557
ຜູ້ແທນ	-10.8563
06	-10.8566
ຄວາມຝັນ	-10.8567
ການຊໍາລະເງິນ	-10.8571
▁ຍົກລະດັບ	-10.8572
ຍັງບໍ່ທັນ	-10.8574
▁ພັນເອກ	-10.8575
ຜູ້ເສຍຊີວິດ	-10.8577
ທະເລຈີນໃຕ້	-10.8584
ley	-10.8585
ຄວາມກ້າວຫນ້າ	-10.8588
ຣູ	-10.8588
▁ໄ	-10.8591
ກັມ	-10.8591
bo	-10.8593
ຜິວຫນັງ	-10.8595
ທຸ	-10.8599
▁ກ່ຽວກັບພັນລາວ	-10.8599
ລ່າ	-10.86
▁ກໍຍັງ	-10.8603
▁ດານ	-10.8606
▁ຈະຂະຫຍາຍຕົວ	-10.8608
ມາຍັງ	-10.861
▁ຄັ້ງທໍາອິດ	-10.8612
▁Power	-10.8617
▁ຜູ້ຍິງ	-10.862
▁ດີດ	-10.862
ຊາບ	-10.862
ປະເທດຈີນ	-10.8624
▁ຊ້າຍ	-10.8627
IS	-10.8629
▁kiss	-10.863
▁ໃນໂລກ	-10.8633
ສຽງທີ່ສະແດງ	-10.8634
ສ່ວນຫຼາຍ	-10.8644
ເຜີຍ	-10.8647
▁ເຄືອຂ່າຍ	-10.8648
ປະຊາກອນ	-10.8653
▁ແບ	-10.8654
▁ດົງ	-10.8656
▁ວັນອັງຄານ	-10.8658
▁David	-10.8659
▁ຫຍັດ	-10.867
ວາລະສານ	-10.8674
ເປັນເຈົ້າພາບ	-10.8681
ການສັກຢາ	-10.8684
ໃນບັນດາ	-10.869
▁ຂຶ້ນມາ	-10.8691
ບຸກຄະລາກອນ	-10.8702
▁ບົນພື້ນຖານ	-10.8705
▁Miami	-10.8708
▁ກະລຸນາໃສ່ອີເມວ	-10.8709
▁ແມ	-10.8709
ລຸ່ມ	-10.871
ຟູ	-10.871
ເປີດຕົວ	-10.871
▁ກປ	-10.8714
ຄວາມສຸກ	-10.8714
▁ໄປຢ້ຽມຢາມ	-10.8714
ລາຍງານເມື່ອວັນທີ	-10.8715
ສົນ	-10.8715
ສໍາປະທານ	-10.8716
▁ພູມ	-10.8717
ຝົນ	-10.872
ການນໍາເຂົ້າ	-10.8721
▁໒໐໑	-10.873
▁ເປັນປະທານ	-10.8732
ໃນດ້ານ	-10.8733
ັນ	-10.8733
ຖືກຕ້ອງ	-10.8735
ty	-10.8735
ຟາ	-10.8736
ການກະກຽມ	-10.8738
ພາກເຫນືອ	-10.8739
▁ຕົວຊີ້ວັດ	-10.8741
▁ມີທ່ານ	-10.8749
ປະທານກອງປະຊຸມ	-10.875
ຫ້ອງວ່າການ	-10.8752
ຢູ່ເຂດ	-10.8755
ຂອງກຸ່ມ	-10.8757
ທີ່ສຸດໃນໂລກ	-10.8758
ຄວາມຮຸນແຮງ	-10.876
▁ຢູ່ເມືອງ	-10.8762
ເຫ	-10.8768
▁ລໍ້	-10.8768
▁ໄຊເສດຖາ	-10.877
▁ເທັກ	-10.877
▁ກຊສ	-10.8772
ລອດ	-10.8773
em	-10.8776
ປັນຍາ	-10.8784
60	-10.8784
3)	-10.8785
▁Cinderella	-10.8786
ດ້ວຍກັນ	-10.8787
ເດັ່ນ	-10.8789
ຜ່ານມານີ້	-10.8791
▁ທີ່ຮ່ວມມື	-10.8791
▁ຍ້ອງຍໍ	-10.8791
ແລະອື່ນໆ	-10.8792
▁ຊຶ່ງໄດ້	-10.8797
ຄູ່ມື	-10.88
ດີໆ	-10.8808
ຂັ້ນແຂວງ	-10.8808
ຂຶ້ນກັບ	-10.8811
▁ຄັບ	-10.8813
▁50%	-10.8813
▁ຫລ	-10.8814
mi	-10.8816
▁ສັ້ນ	-10.8817
ແບບຟອມ	-10.8817
ແກ	-10.8817
50	-10.8819
ity	-10.8821
ຄວາມຕ້ອງການຂອງ	-10.8822
ຢູ່ໃນການສໍາພັດ	-10.8825
ຮ່າ	-10.8827
ຮາກ	-10.8828
ກົນ	-10.8829
ພຣະຄໍາພີ	-10.8829
ຄັດຄ້ານ	-10.8833
▁ຕາແສງ	-10.8834
ໃນທົ່ວ	-10.8835
▁ເມືອງວັງວຽງ	-10.8837
ບໍ່ເກີນ	-10.8841
ps	-10.8847
▁ລະຫັດ	-10.8848
ຄົນພິການ	-10.8849
ຫຼັງຈາກນັ້ນ	-10.8849
▁ກະຊວງການເງິນ	-10.8851
ໄດ້ເຖິງ	-10.8852
ster	-10.8852
▁ສສຊ	-10.8853
ການປະຊຸມ	-10.8854
▁!!!	-10.8854
▁ເຮືອງ	-10.8855
ina	-10.8856
ກູ້	-10.8858
▁[...]	-10.8861
ກໍາໄລ	-10.8863
▁ບູຕີນາ	-10.8864
ແຕກຕ່າງກັນ	-10.8866
ຖ້ໍາ	-10.8867
ເສື້ອ	-10.8869
່ມ	-10.8871
▁ງວດ	-10.8873
ຄໍາຫມັ້ນສັນຍາ	-10.8874
ສີແດງ	-10.8876
ຕົວແທນ	-10.8884
▁ແຖບ	-10.8884
ໄດ້ສ້າງ	-10.8884
za	-10.8886
ab	-10.8892
ເວີ	-10.8892
▁ຫລວງຫລາຍ	-10.8892
▁ບໍລິການຜ່ານ	-10.8893
:30	-10.8896
▁ກະຊວງປ້ອງກັນ	-10.89
ເພື່ອໃຫ້ໄດ້ຮັບ	-10.8902
ຕ່າງປະ	-10.8902
▁ກົມມະສິດ	-10.8903
ເຂດຊາຍແດນ	-10.8904
ເສັງ	-10.8906
▁ໄດ້ດໍາເນີນ	-10.8909
▁ໄຂງານວາງສະແດງ	-10.8911
ປະສານງານ	-10.8912
ປຸງແຕ່ງ	-10.8913
ຫນ້າເວັບ	-10.8918
ປ່ຽນແປງໃຫມ່	-10.892
ຕາງຫນ້າ	-10.892
ກອງທັບປະຊາຊົນລາວ	-10.8928
ຂອງເກມ	-10.8933
▁ເມັກ	-10.8936
▁ດິດ	-10.8939
ary	-10.8939
▁53	-10.8939
ໃນຊ່ວງ	-10.8942
ຢຶດ	-10.8944
fer	-10.8945
▁ພາຍໃຕ້ການ	-10.8945
ເກດ	-10.8945
▁UK	-10.8946
ທຸກສິ່ງທຸກຢ່າງ	-10.8947
ຮອງລັດຖະມົນຕີ	-10.8948
ແຕ່ວັນທີ	-10.8953
ເນື້ອທີ່	-10.8953
▁ລະບຸວ່າ	-10.8956
mer	-10.8958
▁toy	-10.8964
▁ຕຽມ	-10.8967
ຮົາແລະພວກເຮົາຈະ	-10.8971
ທີສາມ	-10.8973
ກໍມີ	-10.8974
▁ແຟັກ	-10.8975
ປາກິດສະຖານ	-10.8978
ທ່ານທີ່ຈະໃຫ້ພວກເ	-10.8982
ທາງເພດ	-10.8982
ຈາກຕ່າງປະເທດ	-10.8988
ແຟັກ	-10.8989
▁ພະເຈົ້າ	-10.8989
▁ຖະກິດ	-10.8992
▁ຫຼ້າ	-10.8992
ຄາດຫມາຍ	-10.8993
▁Do	-10.8994
▁ໄດ້ຈັດຕັ້ງ	-10.8997
ຊາວກະສິກອນ	-10.8997
▁On	-10.8999
▁ກອງປະຊຸມສ	-10.9
5)	-10.9
▁hoo	-10.9
▁ນົມ	-10.9002
ຄວາມເປັນໄປໄດ້	-10.9002
▁ກວດສອບ	-10.9004
ga	-10.9004
▁ຍາມໃດກໍ່	-10.9004
ຖາ	-10.9007
ມີໄຊ	-10.9009
▁ຢືມ	-10.9011
vn	-10.9012
47	-10.9015
▁ກ່າ	-10.9016
▁ທຸກຄົນ	-10.9016
▁ເພື່ອຮັບປະກັນ	-10.9016
▁ບັນຍາກາດ	-10.9019
▁Quiz	-10.9021
ສະສົມ	-10.9025
▁ຫມອນ	-10.9025
ນິກ	-10.9025
▁ຂອງໂລກ	-10.9026
ຖິ່ນ	-10.9027
▁ລຸກ	-10.9031
ຜົນຜະລິດ	-10.9035
▁r	-10.9035
ຜູ້ເຄາະຮ້າຍ	-10.9036
▁ມໍລະດົກ	-10.9037
ປັດໃຈ	-10.9037
ໄອຍະການປະຊາຊົນ	-10.9037
ຢູ່	-10.9038
90	-10.9038
4%	-10.9042
8)	-10.9049
ເຄື່ອນໄຫວວຽກງານ	-10.9049
▁ພົນໂທ	-10.9054
ນິຕິກໍາ	-10.9055
▁ch	-10.9055
ແຂວງໄຊຍະບູລີ	-10.9056
ເປັນຫນຶ່ງໃນ	-10.906
ລັດຖະມົນຕີວ່າການ	-10.906
▁Random	-10.9061
ig	-10.9064
▁ລະບຽບການ	-10.9069
ອັຟການິສຖານ	-10.9069
າຍ	-10.907
ຜົວ	-10.9072
ກະຊວງສຶກສາທິການ	-10.9072
▁ແສ	-10.9072
ran	-10.9076
ໂຊກ	-10.9077
ປັນ	-10.9079
ສອບເສັງ	-10.9083
ຢາກໃຫ້	-10.9084
▁Live	-10.9084
▁Tom	-10.9086
ທໍາອິດຂອງ	-10.9086
ເຮືອນຢູ່	-10.9086
▁ຜົວ	-10.9089
ຄວາມສົນໃຈ	-10.909
ຫມໍ	-10.909
▁Bar	-10.9092
ຝ	-10.9094
ຄຸກ	-10.9095
▁Killer	-10.9101
ການຟື້ນຟູ	-10.9102
ແລະມີ	-10.9103
ເມື່ອບໍ່ດົນມານີ້	-10.9105
ts	-10.9106
ຕົ້ມ	-10.9107
ວ່າເປັນຫຍັງ	-10.9111
ຫຼາກຫຼາຍ	-10.9111
▁ເອກະລາດ	-10.9112
▁ເມື່ອທ່ານ	-10.9116
35	-10.9119
ໄສ	-10.9119
ໄດ້ຢ່າງງ່າຍດາຍ	-10.9121
ana	-10.9122
ສວຍງາມ	-10.9122
ທັດ	-10.9122
▁ແຈ້ງວ່າ	-10.9123
ທະເລຕາເວັນອອກ	-10.9123
ສື່ສັງຄົມ	-10.9125
ຈະສືບຕໍ່	-10.9127
▁ຈິນ	-10.9131
ຂອງທ່ານເອງ	-10.9131
▁Spy	-10.9132
ໄ	-10.9132
▁ສະພາບການ	-10.9136
▁ປາຣີ	-10.9137
ທີ່ຢູ່ໃນ	-10.9137
▁ການວາງ	-10.9138
▁ແຫ້ງ	-10.9138
ul	-10.9141
▁ມາເປັນ	-10.9147
ຽນ	-10.9149
ຫຼາຍແຫ່ງ	-10.9151
07	-10.9153
ຄືກັບ	-10.9153
▁ທັດສະນະ	-10.9155
▁ລວງ	-10.9155
▁47	-10.9159
າຍລະອຽດເພີ່ມເຕີມ	-10.9164
sh	-10.9165
ປຸ່ມ	-10.9169
▁plugin	-10.9169
ທ່ານປະທານປະເທດ	-10.9171
▁ໂດຍບໍ່	-10.9172
ຜ່ານທາງ	-10.9172
ທີ່ຕັ້ງ	-10.9173
ນໍ້າຖ້ວມ	-10.9174
▁Li	-10.9174
▁Video	-10.9175
ຊໍາລະ	-10.9177
ດໍາເນີນກອງປະຊຸມ	-10.9178
ວິໄລ	-10.9178
ປະທັບໃຈ	-10.9179
ວາງອອກ	-10.9182
ເຕັ້ນ	-10.9183
ຫຼ	-10.9184
ສອບ	-10.9189
ແຫ່ງຫນຶ່ງ	-10.9192
▁ເພາະສະນັ້ນ	-10.9192
ແນ	-10.9192
▁Brexit	-10.9194
ພຸດທະສາສະຫນາ	-10.9194
ກະດູກ	-10.9195
ນັກຮົບ	-10.9198
▁ຊຶ່ງມີ	-10.9201
ບຸ	-10.9201
▁ປະກົດ	-10.9201
ວຽງ	-10.9207
ລ້ວນແຕ່	-10.9207
▁ຊີງ	-10.9207
▁ຖຽງ	-10.9209
ໄຮ	-10.9209
ວັດແທກ	-10.9209
▁ຂໍ້ກໍານົດ	-10.9211
▁ທວນ	-10.9214
▁ຊື່ວ່າ	-10.9216
▁ພະຍາ	-10.9216
▁ມັນຈະ	-10.9217
ຄູ່ແຂ່ງ	-10.9218
▁ຮສສ	-10.9218
ລີ້	-10.9219
▁ອານາຈັກ	-10.9222
ຄາຂອງພວກເຮົາ	-10.9222
ຄົບຖ້ວນ	-10.9224
▁ໃນພິທີ	-10.9224
ບໍ່ທັນ	-10.923
▁ຈັດກອງປະຊຸມ	-10.9232
▁He	-10.9233
ເຮັດວຽກຢູ່	-10.9236
▁ຫົວຫນ້າອົງການ	-10.9237
ຫັ້ນ	-10.9241
▁ເຢຍຣະມັນ	-10.9244
ຕ້າ	-10.9245
▁ກໍາຈັດ	-10.9247
໋ງ	-10.9249
ງົວ	-10.9257
▁post	-10.9261
▁Cake	-10.9264
ມີສ່ວນຮ່ວມ	-10.9265
ສາມາດເຂົ້າເຖິງ	-10.9267
-16	-10.9269
▁ຕົນເອງ	-10.9271
ເພີ່ມທະວີການ	-10.9273
ການຈັດອັນດັບ	-10.9278
ຄໍາເວົ້າ	-10.9281
▁ແຂວງບໍລິຄໍາໄຊ	-10.9282
ຫມາກໄມ້	-10.9283
ປິ	-10.9285
ວາຍ	-10.9288
ອົງກອນ	-10.929
ຂອງດິນຟ້າອາກາດ	-10.9295
ສົມບັດ	-10.9298
▁!!	-10.9305
tan	-10.9308
▁[0	-10.9311
ໃນທ້ອງຖິ່ນ	-10.9312
zh	-10.9312
ຄົ້ນ	-10.9312
▁ພາລະ	-10.9312
ກໍ່ຈະ	-10.932
ຫມູ່ບ້ານ	-10.9324
ທາງການທູດ	-10.9325
▁2-3	-10.9325
ຜິດກົດຫມາຍ	-10.9325
▁ສົມທົບກັບ	-10.9325
7%	-10.9326
▁ຈິກ	-10.9326
ຽດ	-10.9333
ລົງຄະແນນສຽງ	-10.9335
ພະລັງງານໄຟຟ້າ	-10.9339
▁ໃຊ້ເວລາ	-10.934
ຈໍານວນຫຼວງຫຼາຍ	-10.9341
▁My	-10.9343
▁Can	-10.9344
ໄລຍະເວລາ	-10.935
ຍຶດ	-10.9354
ໃນຂອບເຂດ	-10.9356
▁ສໍາຮອງ	-10.9358
▁Sam	-10.936
▁ຕື້ກວ່າກີບ	-10.936
ຄອບ	-10.9361
▁ລະບອບ	-10.9362
▁ໂດຍການເຂົ້າຮ່ວມ	-10.9363
ki	-10.9364
ໂລຫະ	-10.9367
ສະຫງວນລິຂະສິດ	-10.9367
▁ຊາຍແດນ	-10.9368
▁ໃນມື້ນີ້	-10.9369
ov	-10.9369
ໄດ້ເຮັດໃຫ້	-10.9371
au	-10.9371
ພາກສະຫນາມ	-10.9373
▁ປຸ່ມ	-10.9373
ໃບຫນ້າ	-10.9373
ໃນປີນີ້	-10.9375
ໃນຕະຫຼາດ	-10.9375
ຂອງພະນັກງານ	-10.9376
ໂຕະ	-10.9376
ກ້າວຫນ້າ	-10.9377
▁ເປີດກວ້າງ	-10.9378
▁ມະນີ	-10.9381
▁ມູນເຊື້ອ	-10.9382
▁ສົກຮຽນ	-10.9383
▁perforat	-10.9386
▁ອາຍ	-10.9386
ໂຣກ	-10.9387
ເກັບກໍາ	-10.9387
▁Rights	-10.9387
▁Watch	-10.9389
ຄວາມສໍາເລັດ	-10.9392
▁ແຊກ	-10.9393
45	-10.9395
ຂ້າພະເຈົ້າຄິດວ່າ	-10.9396
▁ລຶບ	-10.9403
ກ່ອງ	-10.9412
ໂພ	-10.9412
▁ຄວາມຮູ້	-10.9413
ຄວາມຄືບຫນ້າ	-10.9415
▁ຂີ້ຮ້າຍ	-10.9416
▁ທີ່ທ່ານ	-10.9416
▁555	-10.9417
▁ປັນຍາ	-10.9417
▁McCo	-10.9417
▁ນອກເມືອງ	-10.9417
ຮູ້ສຶກວ່າ	-10.942
ເຫມາະສົມ	-10.9422
ປຶກສາ	-10.9424
4)	-10.9424
▁virtual	-10.9426
ມອບໃຫ້	-10.9427
▁Conquer	-10.9427
▁Blockchain	-10.9427
ພາລະບົດບາດ	-10.9427
46	-10.9428
ມີຄົນ	-10.9429
▁ກ້ອຍ	-10.9429
ກຸ່ມສິ້ງຊອມ	-10.9429
▁ຖະມົນຕີ	-10.943
▁ຂອງຈີນ	-10.9431
▁ແຕ່ຍັງ	-10.9434
▁ສິ່ງທີ່ທ້າທາຍ	-10.9434
ຫຼັກຊັບ	-10.9436
▁ຂໍ້ມູນຂ່າວສານ	-10.9437
ສາງ	-10.9439
▁ກູໂກ	-10.9444
min	-10.9444
ຄວາມເປັນ	-10.9448
ຫ້ອງຮຽນ	-10.9448
ສູງກວ່າ	-10.9452
▁Design	-10.9453
▁laos	-10.9455
ຕໍ່ມື້	-10.9457
ລະເມີດ	-10.9458
ວິເຄາະ	-10.9458
▁Big	-10.9462
▁ສ໌	-10.9464
ູ່ຮ່ວມມືຍຸດທະສາດ	-10.9465
ລັດຖະບານລາວ	-10.9465
▁ເຝິກ	-10.9465
▁ຄອນຫຼວງ	-10.9466
ສະຫຼາດ	-10.9467
ສູ້ຊົນ	-10.9467
ຕຸ	-10.9472
▁ເກືອ	-10.9473
▁ລິນ	-10.9473
02	-10.9479
ນໍາອີກ	-10.9481
▁Shi	-10.9481
▁ໄດ້ຕິຕຽນ	-10.9481
ທີ່ທ່ານສາມາດ	-10.9487
ຊັກ	-10.9487
▁ເພງລາວ	-10.9489
les	-10.9493
ເນຍ	-10.9494
▁ເພັງ	-10.9495
ຄົນໃຫມ່	-10.9495
ລ້າ	-10.9497
▁1975	-10.9497
▁ຜົນສໍາເລັດ	-10.95
ປົດປ່ອຍ	-10.9501
ການສົ່ງເສີມ	-10.9504
ລະບຽບການ	-10.9504
ບົດຮຽນພາສາອັງກິດ	-10.9507
ແຜ່	-10.9508
ຕິດຕາມກວດກາ	-10.9509
▁ເຊົ່າ	-10.9511
▁ການເຈລະຈາ	-10.9514
▁Wi	-10.9515
▁Phone	-10.9521
ບັນດາມາດຕະການ	-10.9521
39	-10.9525
TH	-10.9529
ັ້ງ	-10.9533
ຍຸດ	-10.9533
▁Mi	-10.9534
ໄດ້ດໍາເນີນ	-10.9535
ສະຫຼອງ	-10.9537
▁ຫລຽນ	-10.9537
▁Language	-10.9538
ຄລິບ	-10.9541
ປັກ	-10.9542
ຍິນດີຕ້ອນຮັບ	-10.9544
ap	-10.9545
▁ລາຍຮັບ	-10.9547
ຜູ້ອໍານວຍການໃຫຍ່	-10.9548
▁ແຫ່	-10.9548
▁ຮີບ	-10.9549
▁ນູ	-10.9549
ຕູ	-10.9551
ປະທ້ວງ	-10.9552
▁ແທ້ໆ	-10.9552
ແຈ	-10.9552
-19	-10.9555
▁ເຢຍ	-10.9558
▁ຖ້າວ່າ	-10.9559
▁ຂ່າວຕ່າງປະເທດ	-10.9561
52	-10.9561
ຝັງ	-10.9563
▁ເຈົ້າຈະ	-10.9563
ມີຜູ້ເສຍຊີວິດ	-10.9566
ວິໄຈ	-10.9566
▁ສາເຫດ	-10.9566
ຢູ່ແຂວງ	-10.9569
ໃດ້	-10.9569
ໂດຍລວມ	-10.9569
ອັກສອນ	-10.9572
ປັດໄຈ	-10.9579
ເມົາ	-10.958
▁1,000	-10.9589
ຫນີ້ສິນ	-10.9592
ແບ	-10.9592
ທີ່ຈະເຮັດໃຫ້	-10.9594
▁ຊ່ຽນ	-10.9595
▁ໃນຈໍານວນ	-10.9595
▁ໃນຂອບເຂດ	-10.9597
▁ເຕຣ	-10.9597
▁Red	-10.9597
ອານ	-10.9598
ຜູ້ບໍລິຫານ	-10.96
77	-10.96
ອໍາ	-10.9601
ຂຶ້ນໄປ	-10.9604
ຈັດຕັ້ງມະຫາຊົນ	-10.9604
▁ປານີ	-10.9605
ເຕົ້າໂຮມ	-10.961
▁ຫະລັດ	-10.9617
▁ຢູ່ເຂດ	-10.9622
ິນ	-10.9624
ກໍາຈັດ	-10.9626
▁ກີລາ	-10.963
▁ສະຖຽນ	-10.9633
ປາຊີຟິກ	-10.9633
▁ັ	-10.9634
ສັ້ນໆ	-10.9636
▁FBI	-10.9637
▁HD	-10.9639
▁ຕະປູ	-10.9639
▁ຜົ້ງສາລີ	-10.9642
▁ຮັບຮອງເອົາ	-10.9644
ຈີນເວົ້າວ່າ	-10.9646
▁ອະນາ	-10.9648
.....	-10.9652
▁ລະຍະ	-10.9655
ການເຄື່ອນຍ້າຍ	-10.9655
▁ໄປຫາ	-10.9656
▁ນໍາເຂົ້າ	-10.9658
ເກີບ	-10.9658
ຫຍ້າ	-10.9659
▁ໃຫ້ກຽດ	-10.9659
່ວ	-10.9662
▁ບົດທີ	-10.9667
ບ້ານນາ	-10.9668
ນັບຕັ້ງແຕ່	-10.9668
▁ໄຊທານີ	-10.967
ໃຫ້ການຊ່ວຍເຫຼືອ	-10.9673
ກວ້າງຂວາງ	-10.9674
ຄວາ	-10.9674
ຈົດຫມາຍ	-10.9675
ດູດ	-10.9678
▁Cactus	-10.9679
▁SpongeBob	-10.9679
ຂ້າພະເຈົ້າໄດ້	-10.968
ຄວາມຫມາຍ	-10.968
▁ເທບ	-10.9684
▁(6)	-10.9684
ກໍາລັງຊອກຫາ	-10.9688
▁ປອດໄພ	-10.9691
▁ສະອາດ	-10.9692
ປະຖົມ	-10.9693
ຜູ້ແທນຂັ້ນສູງ	-10.9694
ກ່ຽວຂ້ອງກັບ	-10.9696
-20	-10.9704
▁ຄືບ	-10.9705
▁ເຈາະ	-10.9705
ສົມທົບ	-10.9706
▁ໂດລາສະຫະລັດ	-10.9706
ໂຕເອງ	-10.9708
▁monster	-10.9709
ຂຸມ	-10.9709
ໄດ້ແນວໃດ	-10.971
▁ຫມາກໄມ້	-10.9711
▁ຊັດ	-10.9715
Assad	-10.9715
ທັງສອງຝ່າຍ	-10.9716
ດູແລ	-10.9716
▁th	-10.9717
ການດໍາເນີນ	-10.9718
ເຊິງສິດທັງຫມົດ	-10.9721
▁Saly	-10.9723
36	-10.9724
▁lo	-10.9726
va	-10.973
▁ເສົ້າ	-10.973
ການຮຽນຮູ້	-10.9733
▁ລ້ານໂດລາສະຫະລັດ	-10.9737
▁ຫຼີກ	-10.9737
ຄວາມເປັນຈິງ	-10.9737
ແກ້ໄຂຂໍ້ຂັດແຍ່ງ	-10.9738
ສັບປະດາ	-10.9742
ເຄົາລົບ	-10.9742
▁ງກັນ	-10.9743
ນັບແຕ່	-10.9743
ກະຊວງປ້ອງກັນ	-10.9744
▁ສັນຍານ	-10.9745
▁ເບ້ຍ	-10.9745
ກ້ອນ	-10.9747
ມອນ	-10.9748
Up	-10.9749
ຊີຣີ	-10.975
ເລີ້ມ	-10.9752
ອີຣານ	-10.976
▁Ali	-10.9763
▁ວິສະວະກໍາ	-10.9764
ຊວນ	-10.9764
▁YouTube	-10.9764
▁Battleship	-10.9764
▁ກອງທັບຊີເຣຍ	-10.9765
▁ເຜົາ	-10.9766
▁ໂຮ່ຈີ	-10.9769
▁ດ່ານ	-10.9774
OS	-10.9778
ສາກ	-10.9779
ໃຫ້ຄໍາຫມັ້ນສັນຍາ	-10.9789
ເບິ່ງແຍງ	-10.9789
ມັງກອນ	-10.979
ທີມຊາດ	-10.9792
ຄານ	-10.9792
▁ໄຄ	-10.9793
ສັນຊາດ	-10.9795
▁69	-10.9796
▁ຫວູ	-10.9797
▁2003	-10.98
ອີງໃສ່	-10.98
ການຕິດຕາມ	-10.9801
ous	-10.9802
ແຜນຍຸດທະສາດ	-10.9804
ບັນດາບັນຫາ	-10.9808
ເປັນປະທານຂອງທ່ານ	-10.9809
ue	-10.9809
▁ສະລະ	-10.981
▁ມົນຕີ	-10.9812
▁2025	-10.9813
ສົ້ມ	-10.9813
▁ໄຊຍະ	-10.9817
▁ນໍາເອົາ	-10.9822
ທີ່ເປັນປະໂຫຍດ	-10.9822
▁ແຮ	-10.9824
▁ນູ່ນີ່	-10.9825
▁ສອດ	-10.9827
▁Search	-10.9829
▁ປະສິດທິພາບ	-10.9832
ຈໍາເປັນ	-10.9832
▁ສ່ອງ	-10.9835
▁ໂອ້ລົມ	-10.9837
ອານາຈັກ	-10.9838
ຈ໌	-10.9841
ເຈາະ	-10.9843
end	-10.9845
▁ຈັງ	-10.9846
ຮວມ	-10.9846
ປະເມີນ	-10.9846
ໍ	-10.9849
▁Barber	-10.985
ເຊື່ອມຕໍ່ກັບ	-10.9854
ຫນູ	-10.9856
▁ທ່າມກາງ	-10.9859
▁ວັນເສົາ	-10.9861
ຍາວນານ	-10.987
▁ພັນຄົນ	-10.9878
ດິນແດນ	-10.9879
ເຕີບໂຕ	-10.9883
▁ຍຸດຕິ	-10.9887
▁ຝຶກອົບຮົມ	-10.9888
▁ອຸດົມ	-10.989
▁st	-10.9893
▁Compliance	-10.9893
▁Creative	-10.9893
ຫົວຄິດປະດິດສ້າງ	-10.9893
▁ຫງວຽນຝູຈ້ອງ	-10.9893
ຣັຖບານ	-10.9894
ເທັກໂນໂລຢີ	-10.9894
ທ່ອງ	-10.9894
»	-10.9895
48	-10.9896
▁ໄຫລ	-10.9896
້ມ	-10.9897
ບັນລຸເປົ້າຫມາຍ	-10.99
ຈ່າຍເງິນ	-10.9905
ish	-10.9905
▁ຂອງເຂົາເຈົ້າ	-10.9908
ໄດ້ງ່າຍ	-10.9911
ຄົວ	-10.9913
ອ້າງ	-10.9913
▁ແຍ່ງ	-10.9914
▁ຫມຸດ	-10.9926
1)	-10.9926
▁ນ໌	-10.9927
ສະຕິ	-10.9931
▁can	-10.9932
ຂ້າງເທິງ	-10.9932
▁golden	-10.9937
▁Bashar	-10.9937
ຄໍາຄິດເຫັນ	-10.9938
ໄປຮຽນ	-10.9938
▁ລ້ວນ	-10.9939
ດັດແປງ	-10.9939
ຢືນຢັນວ່າ	-10.9939
▁ການໂຄສະນາ	-10.994
ໄປສະນີ	-10.994
ທີ່ສຸດໃນ	-10.9941
▁Chrome	-10.9943
▁ຜັນຂະຫຍາຍ	-10.9944
▁ຫຼາດ	-10.9945
▁ໂຍທາທິການ	-10.9945
ທີ່ຕ້ອງ	-10.9946
zi	-10.9948
ເທົ່າກັບ	-10.9948
▁ລະດົມ	-10.995
37	-10.995
▁ເວີ	-10.9952
▁ສະຫະຣັດ	-10.9954
ຄວາມມານະພະຍາຍາມ	-10.9954
▁ລວມເຖິງ	-10.9954
▁ກໍາມາ	-10.9957
ຄະນະປະຈໍາພັກແຂວງ	-10.9959
▁54	-10.9959
ພະເຈົ້າ	-10.996
avera	-10.996
ພວກເຮົາຈະ	-10.9963
▁Holm	-10.9965
ສົມຄວນ	-10.9966
ສີມືແຮງງານ	-10.9966
ກວມ	-10.9967
ພາດ	-10.9968
ທີ່ຫນ້າ	-10.9968
▁ສາດສະຫນາ	-10.9968
▁ອິດສະຫຼະ	-10.9969
ທົ່ງ	-10.9969
▁Si	-10.9973
08	-10.9975
ອວຍພອນ	-10.9975
ງາ	-10.9976
ມີຄວາມຫຍຸ້ງຍາກ	-10.9977
▁ເພື່ອພັດທະນາ	-10.998
▁Cerf	-10.998
way	-10.9981
▁ປຸກລະດົມ	-10.9981
ຕັ້ງກຸ່ມລາຍການ	-10.9983
ແລງ	-10.9985
ຕົວແບບ	-10.9986
▁ພົບປະກັບ	-10.9987
ບັ້ນ	-10.9988
▁ສະຫຼະຊີບ	-10.9989
ຢູ່ເມືອງ	-10.9991
ຜິດປົກກະຕິ	-10.9991
ໍາ	-10.9993
less	-10.9996
ຕາເວັນອອກສ່ຽງໃຕ້	-10.9997
ze	-10.9998
ມັກຫຼີ້ນ	-10.9998
ຄະນະນໍາ	-11.0001
ເງິນທຶນ	-11.0002
ໂບດ	-11.0003
ຂອບໃຈ	-11.0003
▁ຫມູ	-11.0004
68	-11.0005
ແລກ	-11.0008
ຫົກ	-11.0008
ຄຣິສຕະຈັກ	-11.0012
ny	-11.0012
່າ	-11.0013
ເອເລັກໂຕຣນິກ	-11.0018
▁ຖັງ	-11.0019
▁ຫລ້າ	-11.0019
ໃນການໃຊ້ງານ	-11.0021
▁ໄດ້ປະກາດວ່າ	-11.0021
ເກັບກໍາຂໍ້ມູນ	-11.0023
▁Blogger	-11.0025
ແພ	-11.0025
ຫລຸດລົງ	-11.0025
▁Powered	-11.0026
ແຫຼ່ງຄັດ	-11.0027
ມີແຕ່	-11.0028
ປານໃດ	-11.0029
ທຸກຂັ້ນ	-11.0032
ຈັດສັນ	-11.0033
ບາງກອກ	-11.0034
ທົດແທນ	-11.0035
▁ຝັງ	-11.0035
ການສູນເສຍ	-11.0036
ມູ	-11.0036
▁ຕົວເມືອງ	-11.0037
▁ທີ່ນະຄອນຫຼວງ	-11.0039
ວົງການ	-11.0043
ການຢັ້ງຢືນ	-11.0046
▁ພິທີມອບ	-11.0047
▁Be	-11.0048
ປຸກ	-11.0049
ໂດຍຜ່ານການ	-11.0051
ກິນອາຫານ	-11.0053
▁ຫັນປ່ຽນ	-11.0056
▁ເຈີ່ນ	-11.0056
ຄູອາຈານ	-11.0057
▁ຟີລິບປິນ	-11.0058
ຍົກຍ້າຍ	-11.0059
ໄປຕາມ	-11.006
ນີ້ເປັນ	-11.006
AC	-11.006
▁ເຄັດ	-11.0062
ແມ່ນວ່າ	-11.0063
▁ປີນ	-11.0064
▁FREE	-11.0068
▁Festival	-11.0068
▁bonuses	-11.0068
▁ແລະຮັບຜິດຊອບໄດ້	-11.0069
ຍັງເປັນ	-11.0069
▁ຢີ	-11.0073
ທາງເສດຖະກິດ	-11.0075
▁ແລະເຮັດໃຫ້ບາດ	-11.0075
ແຂ່ງ	-11.0077
ມັນແມ່ນ	-11.0077
ຄູນ	-11.0077
▁Slot	-11.0078
ດ້ານການ	-11.0079
ວຍ	-11.0079
ຊ່ອງທາງ	-11.008
▁ມາຈາກ	-11.0084
ຂໍ້ກໍານົດ	-11.009
▁ຟໍ	-11.0093
ຈະແຈ້ງ	-11.0093
▁ຢາເສບຕິດ	-11.0094
ເປັນຫຍັງ	-11.0097
ອັບ	-11.0102
ຜູ້ໂດຍສານ	-11.0104
ເອີ	-11.0105
ສີຟ້າ	-11.0109
ແຮ່	-11.011
ທາງອາກາດ	-11.0111
▁MT	-11.0111
▁ແຈງ	-11.0112
▁Pinki	-11.0113
AP	-11.0115
6)	-11.0117
▁ທີ່ຫ້ອງປະຊຸມ	-11.0117
ອອກກໍາລັງກາຍ	-11.0118
▁ແມ່ນ້ໍາຂອງ	-11.0118
▁ວິນາທີ	-11.0122
uins	-11.0125
100	-11.0127
ບໍ່ເຫັນ	-11.0127
▁ວ່ອງ	-11.0128
▁ຄວາມຕ້ອງການ	-11.013
ຫນ້າສົນໃຈ	-11.0133
▁(5)	-11.0133
ໃບອະນຸຍາດ	-11.0136
▁ຕາງ	-11.0137
▁ຫຍຸ້ງ	-11.0137
▁2004	-11.0138
ຄັດເລືອກ	-11.014
▁ມາກ	-11.0142
▁ຄະນະນໍາ	-11.0146
▁ລາຍງານວ່າ	-11.0149
ow	-11.015
ກົມກອງ	-11.015
▁ຈົດຫມາຍ	-11.0153
▁Ka	-11.0154
▁Nokia	-11.0157
▁2015,	-11.0158
▁ລະເບີດ	-11.0159
▁ຂວັນ	-11.0162
ຫຼາຍບັນຫາສໍາຄັນ	-11.0164
ເພີ່ມຂື້ນ	-11.0168
ໄຕ້ຫວັນ	-11.0169
ໂຄສະນາຂາຍສິນຄ້າ	-11.0171
men	-11.0172
ເປົ້າ	-11.0175
▁ຝຸ່ນ	-11.0176
ຊິນ	-11.0176
▁ມຽນ	-11.0176
ຮ່ວມມືກັບ	-11.0188
▁ເຊ່ນ	-11.0189
ຂອງສອງປະເທດ	-11.019
▁ອານ	-11.0194
ເທື່ອລະກ້າວ	-11.0195
▁ພ້ອມນັ້ນ	-11.0197
ສະຫະພາບ	-11.0198
▁Archives	-11.0203
ຄັງ	-11.0203
ຂອງແມ່ຍິງ	-11.0204
▁Da	-11.0206
▁ຂາມ	-11.0208
ປະກັນໄພ	-11.0211
34	-11.0212
ຮີດຄອງປະເພນີ	-11.0214
ກະທໍາ	-11.0214
ຮໍໂມນ	-11.0215
ba	-11.0215
ໃນວັນ	-11.0215
▁ສຈ	-11.0217
oc	-11.0218
▁ສີມືແຮງງານ	-11.0218
▁ຕຣີ	-11.022
ດິ	-11.0221
ປີໃຫມ່	-11.0221
ຫໍພັກ	-11.0222
ກັບການພົວພັນຂອງ	-11.0224
ສ່ຽງ	-11.0227
▁ພ້ອມຄະນະ	-11.0228
▁ເຈິ່ນ	-11.0229
ສົກປີ	-11.0229
▁ອົບພະຍົບ	-11.023
▁minute	-11.0234
555	-11.0234
ເພີ່ນ	-11.0236
ປູກຕົ້ນໄມ້	-11.0236
ເຫລົ່ານີ້	-11.0239
▁ເຂດເລືອກຕັ້ງທີ	-11.0244
ay	-11.0244
ສື່ມວນຊົນທົ່ວ	-11.0246
ແຖວ	-11.0246
▁ລົງໂທດ	-11.0249
ຕົວທ່ອງເວັບ	-11.025
▁ພົນລະເມືອງ	-11.025
▁ໃນຄັ້ງນີ້	-11.0252
01	-11.0253
▁ດາຍ	-11.0253
ວກວາງ	-11.0253
ກະຕຸ້ນ	-11.0255
▁ຊຸມນຸມ	-11.0258
$	-11.0259
ນໍາໄປ	-11.0259
ວ່າເປັນ	-11.026
ຄວບ	-11.0263
chi	-11.0264
▁ICT	-11.0265
ຕ່າງໆທີ່	-11.0267
ແສງສະຫວ່າງ	-11.0268
▁ຜູ້ຜະລິດ	-11.0273
▁263	-11.0273
▁ຫິວ	-11.0274
ອາວຸໂສ	-11.0275
▁OS	-11.0277
ສາມາດນໍາໃຊ້	-11.0278
ັອກ	-11.0278
GMG	-11.0283
▁ເຫຼີ	-11.029
▁LED	-11.0292
▁House	-11.0293
ໂລກກົ	-11.0295
ຄ້າຍຄື	-11.0296
▁ທີ່ປຶກສາ	-11.0301
ຂອງຊາວ	-11.0301
ara	-11.0301
ຫມີ	-11.0301
ລົດເມ	-11.0307
▁ພ້ອມນີ້	-11.0309
ເກົາຫລີເຫນືອ	-11.031
▁ໂພນ	-11.0311
▁160	-11.0312
ຊຽງ	-11.0315
ອັນດີງາມ	-11.0317
ເອົາຊະນະ	-11.0319
ແປກ	-11.0321
▁Man	-11.0321
ປະເທດເພື່ອນບ້ານ	-11.0321
ພະຍາ	-11.0323
▁ແຟ້ນ	-11.0327
ການຄັດເລືອກ	-11.033
▁ວັນສ້າງຕັ້ງ	-11.0333
ໂຮ	-11.0336
ທາງການເມືອງ	-11.0336
ອະນຸຍາດຂອງ	-11.0339
▁ໃຫ້ໄດ້	-11.0342
▁ລັດຖະທໍາ	-11.0343
ber	-11.0346
ອອນ	-11.035
ເບິ່ງວີດີໂອ	-11.0352
▁ປະຖົມ	-11.0353
ການດໍາລົງຊີວິດ	-11.0353
▁ຕ້າ	-11.0353
ປາກົດ	-11.0354
▁ໃນຕອນ	-11.0354
▁ຊີຣີ	-11.0357
▁ຊ່າງ	-11.0358
ຈັດຂຶ້ນໃນວັນທີ	-11.0364
ເຜີຍແຜ່ເມື່ອ	-11.0371
▁ເຄື່ອງດື່ມ	-11.0371
▁Magazine	-11.0373
ສິ່ງທ້າທາຍ	-11.0374
▁ວອນ	-11.0375
ສ້າງສັນ	-11.0376
▁ຮົງ	-11.0377
38	-11.0378
▁ໃບອະນຸຍາດ	-11.038
ຂອງເຈົ້າ	-11.038
ຈອດ	-11.0382
▁ແຕ່ວັນທີ	-11.0384
ແມ່ນໄດ້	-11.0385
▁ທ່ານປະທານ	-11.0388
າງ	-11.0389
ຖະແຫລງຂ່າວ	-11.039
▁2001	-11.0392
ສຸດຍອດ	-11.0393
▁ວາງແຜນ	-11.0395
ສອນລູກ	-11.0396
ຢູ່ລາວ	-11.0397
▁ຫຼາຍຄົນ	-11.0398
ການວິໄຈ	-11.0398
95	-11.0401
ນິວ	-11.0401
ເກີ	-11.0402
ແຕ່ປີ	-11.0405
ເດີນທາງໄປ	-11.0408
ວາລະ	-11.0408
▁ເດັກຍິງ	-11.0409
ອຸບັດຕິເຫດ	-11.0409
ອຸດສະຫະກໍາ	-11.041
▁ຕ່າງກັນ	-11.041
ຮົບ	-11.0411
ກີລາ	-11.0412
ໃຫ້ນັກຮຽນ	-11.0412
ໄລຍະສັ້ນ	-11.0414
ມີສິດ	-11.0415
ເສືອ	-11.0415
ຣົດ	-11.0417
ຄ່າທໍານຽມ	-11.0418
ດ້ວຍຄວາມ	-11.0424
▁ISO	-11.0426
▁opportunity	-11.0428
▁ຂວາ	-11.0428
ເປົ່າ	-11.043
▁So	-11.0431
▁ເຊື້ອສາຍ	-11.0434
▁Bu	-11.0437
ພວກເຮົາໄດ້	-11.0441
ຄວາມເຊື່ອ	-11.0441
rpy	-11.0441
▁or	-11.0442
▁ກອງບັນຊາການ	-11.0443
ເກົາ	-11.0444
ບໍ່ຄ່ອຍ	-11.0445
ທີ່ບໍ່ແມ່ນ	-11.0445
ES	-11.0448
ອັນໃຫຍ່ຫຼວງ	-11.0449
ໃບສີດາ	-11.0451
ຫລ້າສຸດ	-11.0452
▁ຄົນລາວ	-11.0452
ເຊັ່ນດຽວກັນກັບ	-11.0454
▁66	-11.0454
ler	-11.0455
ao	-11.0457
ສໍາຄັນຂອງ	-11.0457
iz	-11.0458
▁ຜົນການຊອກຫາ	-11.0463
ເຮັດແນວໃດ	-11.0465
ໄມ	-11.0466
76	-11.0467
▁ຄິດອອກ	-11.0467
▁ນໍ້າຂອງ	-11.0468
▁ນ້ໍາຂອງ	-11.0471
▁ໃຈວ່	-11.0471
ທີ່ປຶກສາ	-11.0472
ໄວ້ເນື້ອເຊື່ອໃຈ	-11.0475
▁ພັງ	-11.048
ຕະຫລອດ	-11.0485
ລະບົບປະຕິບັດການ	-11.049
ອາໄສຢູ່	-11.049
▁ປຸກ	-11.0492
ເປັນໄປໄດ້	-11.0493
ແຮ່ທາດ	-11.0494
▁up	-11.0498
ມີຄວາມຮູ້ສຶກ	-11.0499
ທີ່ມີຄຸນນະພາບ	-11.05
ອາເມຣິກັນ	-11.0502
▁ຈໍາຄຸກ	-11.0503
ການຫຼິ້ນ	-11.0506
▁ຕາລາງ	-11.0512
▁ເຟສບຸກ	-11.0512
ຮ້ານຄ້າ	-11.0513
2)	-11.0515
▁ມ້າງ	-11.0517
ງົບປະມານແຫ່ງລັດ	-11.0519
ເນັດ	-11.052
ຊີ້ນ	-11.0521
▁ເຫມືອນ	-11.0523
69	-11.0524
ໂທຫາ	-11.0526
▁ຫນ	-11.0527
ຮັບຫນ້າທີ່	-11.053
ແນໃສ່	-11.0532
▁ບັນດາສະມາຊິກ	-11.0538
ຈໍາປາສັກ	-11.0539
▁ໄດ້ກາຍເປັນ	-11.0543
▁ກໍາມະການສູນກາງ	-11.0546
ມິງ	-11.0549
▁ຮອງຫົວຫນ້າພະແນກ	-11.0556
▁ຟັງຂ່າວ	-11.0563
ສາມາດບົ່ມຊ້ອນ	-11.0563
ກໍາແພງ	-11.0566
▁pretty	-11.0566
gmail	-11.0567
ຕໍ່ສູ້ກັບ	-11.0568
ກະສັດ	-11.0569
▁ປະຫານ	-11.057
ການເຂົ້າຮ່ວມ	-11.0571
ວັນແມ່ຍິງສາກົນ	-11.0572
ທະວີບ	-11.0576
ຫັນປ່ຽນ	-11.0585
ບໍລິໂພກ	-11.0586
ສາມາດເຮັດໃຫ້	-11.0589
ແຊບ	-11.0592
▁ທະບຽນ	-11.0595
▁ແມ່ແບບ	-11.0595
ຂຸດຄົ້ນ	-11.0596
ການຈັດ	-11.0597
ໃນແຂວງ	-11.0597
ລິງ	-11.0598
ໂລດ	-11.06
ດັ່ງກ່າວແມ່ນ	-11.0602
ast	-11.0603
ໃຫ້ສໍາເລັດ	-11.0603
▁Ni	-11.0608
ຂອງໄທ	-11.0611
ສະດວກສະບາຍ	-11.0611
ຊອບ	-11.0614
▁Summer	-11.0614
▁ສາມັນ	-11.0618
▁Smart	-11.0619
▁ກອງທຶນ	-11.062
▁ເດັນ	-11.062
ພັດທະນາປະເທດຊາດ	-11.0621
ຈະກາຍເປັນ	-11.0622
ໃດກໍ່ຕາມ	-11.0622
▁ຢູ່ຫວຽດນາມ	-11.0623
per	-11.0624
▁ແຕ່ປີ	-11.0625
ຕົ້ນສະບັບ	-11.0627
ທີ່ປອດໄພ	-11.0628
ສະຫະພັນກໍາມະບານ	-11.063
ເຊົ້າ	-11.0631
▁108	-11.0632
▁ພວກເຮົາມີ	-11.0633
ac	-11.0636
▁ອະວະກາດ	-11.0636
▁ທົ່ວໂລກ	-11.0637
ຸມ	-11.0639
▁con	-11.064
ພາບຖ່າຍ	-11.0641
ik	-11.0645
▁ໂຮງງານຜະລິດ	-11.0645
ເອົາມາ	-11.0646
▁ບາງຄົນ	-11.0646
Site	-11.0647
ບໍລິສັດຄວບຄຸມ	-11.0648
▁ດ້ວຍຄວາມ	-11.065
▁ໃນງານ	-11.0657
▁Commons	-11.0659
ກະແສ	-11.066
▁2011)	-11.066
ເມີ	-11.0662
ແຊ	-11.0662
ທ່ານຈະ	-11.0664
▁ຮຽນຮູ້	-11.0669
▁ຢັດ	-11.067
ຫົວຫນ່ວຍ	-11.067
▁ແຟນ	-11.0671
ຮຽກຮ້ອງຕ້ອງການ	-11.0671
▁USB	-11.0673
ໃນກອງປະຊຸມ	-11.0675
▁ກໍາມະກອນ	-11.0677
ມີສິດເລືອກຕັ້ງ	-11.0678
▁Office	-11.0686
ພານ	-11.0687
▁ແຕ່ກໍ	-11.0687
▁ແລະທ່ານ	-11.0688
ຢາກຈະ	-11.0688
ແກ່ນ	-11.069
ho	-11.0691
▁ພວກປະທ້ວງ	-11.0692
▁ນິ້ວ	-11.0692
IT	-11.0692
ຫຼາຍເກີນໄປ	-11.0694
ພາກສ່ວນກ່ຽວຂ້ອງ	-11.0697
▁Hi	-11.0701
ມັນຈະ	-11.0705
?”	-11.0705
▁Vientianehour	-11.0706
▁website	-11.0707
ັຍ	-11.0708
ກັບຄືນມາ	-11.0711
▁ເຂ	-11.0711
ອູ	-11.0711
ເອົາໄວ້	-11.0711
▁VII	-11.0713
▁ທະເລ	-11.0714
▁Times	-11.0714
▁ແຄນ	-11.0714
ອາໄສ	-11.0715
ice	-11.0717
ການໂອ້ລົມສົນທະນາ	-11.072
ມາເຖິງ	-11.0727
ໄດ້ແລ້ວ	-11.0731
ຜູ້ໃຫຍ່	-11.0731
89	-11.0733
ອາລົມ	-11.0735
▁ເມື່ອປີ	-11.0735
▁ດາວນ໌ໂຫລດ	-11.0736
ພຶດຕິກໍາ	-11.0741
ust	-11.0742
▁ສະຫະລັດອາເມລິກາ	-11.0742
ສພຊ	-11.0742
▁ອອສ	-11.0747
ພັນທະມິດ	-11.0749
tribution	-11.0753
▁ເພນີ	-11.0756
ຊຸດທີ	-11.0756
ຜູ້ຊົມໃຊ້	-11.0756
ູ	-11.0756
ມີຊີວິດ	-11.0757
ສັງເກດ	-11.0757
▁sa	-11.0757
ສະບາຍ	-11.0759
▁Site	-11.0761
▁ສັນຊາດ	-11.0763
ການສົ່ງ	-11.0764
▁ຫາກຍັງ	-11.0766
ໃຫ້ເຫັນ	-11.0768
ການສະເຫນີ	-11.077
ມວນຊົນ	-11.0773
ຕັບ	-11.0773
▁ຫລີ	-11.0774
ຢູ່ໃສ	-11.0774
▁Update	-11.0776
▁2017)	-11.0776
ເຫມາະສົມສໍາລັບ	-11.0778
ທອນ	-11.0778
▁Tattoo	-11.0788
▁ໄວໆ	-11.0789
▁ຂຽວ	-11.0792
–	-11.0792
▁ຫລວງພະບາງ	-11.0795
ເບົາ	-11.0797
▁ຫນ້ານີ້ຖຶກ	-11.0801
ເກີດຫຍັງຂື້ນ	-11.0801
ບຸກຄົນທີ່	-11.0805
▁ສຸດຍອດເລີຍ	-11.0807
▁ນໍາສະເຫນີໂດຍ	-11.0808
ຜູ້ສະຫມັກ	-11.0809
cri	-11.0814
▁ອິນເຕີເນັດ	-11.0814
65	-11.0815
▁ກະທູ້	-11.0815
▁ຕ້ານຢາເສບຕິດ	-11.0816
▁ນອກນີ້	-11.0817
let	-11.0817
ຄົນນີ້	-11.082
ຂ້າງລຸ່ມນີ້	-11.0822
ພົບກັບ	-11.0822
▁pro	-11.0824
ສົບຜົນສໍາເລັດ	-11.0828
▁ປາກິສຖານ	-11.0837
▁ລານ	-11.0838
ທຸລະກິດຂອງທ່ານ	-11.0839
ພັກຣີພັບບລີກັນ	-11.084
ສາວໆ	-11.084
ໃນການປະກວດ	-11.0841
▁ກວນ	-11.0843
▁ໄພພິບັດ	-11.0844
ຣິນ	-11.0845
ສານເຄມີ	-11.0846
ມ່ວນຊື່ນ	-11.0846
ປະຢັດ	-11.0846
ສະຫະພັນແມ່ຍິງລາວ	-11.0846
▁Sara	-11.0847
▁ໂຈະ	-11.0849
▁ກະຊວງກະສິກໍາ	-11.085
▁ຟ້າມ	-11.085
ອັນສໍາຄັນ	-11.0851
▁com	-11.0851
ລ້າສຸດເມື່ອວັນທີ	-11.0851
ພົນລະເຮືອນ	-11.0853
າະ	-11.0854
ແກ້ໄຂຄັ້ງ	-11.0855
ອົດ	-11.0856
▁Key	-11.0858
ຄະນະຮັບຜິດຊອບ	-11.0859
ໄດ້ກ່າວ	-11.0861
▁ໄດ້ແກ່	-11.0862
ເບິ່ງຄືວ່າ	-11.0867
ການປະທ້ວງ	-11.0868
ທີ່ໃຫຍ່ທີ່ສຸດ	-11.0868
▁Chi	-11.0869
▁ຄິມ	-11.0871
▁ການໃຊ້	-11.0871
ຊື້ຂາຍ	-11.0872
▁ປິກ	-11.0872
▁ຜົມຫຼົ່ນ	-11.0873
ເປັນສະມາຊິກ	-11.0875
ຫນຶ່ງຂອງ	-11.0875
ສັງຄົມນິຍົມ	-11.0876
ຢູ່ແຂວງຊຽງຂວາງ	-11.0877
▁ຂອງກຸ່ມ	-11.0881
ການປະຕິຮູບ	-11.0884
▁Queen	-11.0885
ຂອງກະຊວງ	-11.0885
lu	-11.0888
▁ຢູ່ແຂວງ	-11.0889
ຄູຝຶກ	-11.0889
ທີ່ພວກເຂົາ	-11.089
8%	-11.0891
▁ຜົນກະທົບ	-11.0892
ນ້ໍາຕາໄຫຼ	-11.0896
ຈໍານວນຫລາຍ	-11.0897
▁ຫ່າງຈາກ	-11.0897
▁CPA	-11.0899
▁ຍົກສູງ	-11.0899
▁ເກີດຂຶ້ນ	-11.09
lin	-11.09
ເຂົ້າສູ່ລະບົບ	-11.0903
ຮີ	-11.0904
ສໍາເລັດຮູບ	-11.0905
ົ້າ	-11.0905
▁Black	-11.0906
6]	-11.0906
ກວດເບິ່ງ	-11.0907
ລົງໃນ	-11.0907
ໂຫຼດ	-11.0907
ham	-11.0908
▁ສູງສຸດ	-11.0908
ແຜນງານ	-11.0909
ການເປັນ	-11.0911
ສິ້ນສຸດລົງ	-11.0912
ທີ່ເຕັມໄປດ້ວຍ	-11.0915
▁ຈຸດດ່າງດໍາ	-11.0917
▁win	-11.0919
33	-11.092
ຜູ້ຂຽນ	-11.0921
ບັກ	-11.0922
▁ທາງການລາວ	-11.0928
▁google	-11.0929
▁ແລກປ່ຽນຄໍາເຫັນ	-11.0929
./.	-11.0931
▁ສາທາລະນະສຸກ	-11.0932
▁ຊາງ	-11.0934
ການໄກ່ເກ່ຍ	-11.0935
ລະຫັດຜ່ານ	-11.0936
ມີປະສົບການ	-11.0936
▁ໃຫ້ກັບ	-11.094
▁ທະວີບ	-11.0941
ll	-11.0944
▁ຫຼັບ	-11.0944
Council	-11.0944
ຮອຍຫ່ຽວ	-11.0944
ວໍ	-11.0947
ກ່ຽວກັບວຽກງານ	-11.095
▁ຄລິບ	-11.0953
ມີອາຍຸ	-11.0953
ໃນໂອກາດ	-11.0954
ພາກລັດ	-11.0955
▁ພະແນກໄປສະນີ	-11.0956
▁ແປກ	-11.0956
ເດັກຍິງ	-11.0958
▁ເປີດໂຕ	-11.0959
▁Audio	-11.0961
ລະບຸວ່າ	-11.0963
ຕິນ	-11.0965
ຫາດຊາຍ	-11.0966
▁ງານບຸນ	-11.0966
ຕາດ	-11.0969
ລຸກ	-11.097
78	-11.0973
▁1624	-11.0975
ມະຕິກອງປະຊຸມໃຫຍ່	-11.0979
ບໍ່ຮູ້ວ່າ	-11.0981
du	-11.0981
ເປັນສ່ວນຫນຶ່ງຂອງ	-11.0982
▁ສະຫນາມບິນ	-11.0983
▁ສະກັດ	-11.0984
ບັນດາກະຊວງ	-11.0988
ກໍຍັງ	-11.0989
ຮ້ອງເພງ	-11.0992
▁ສູ້ຊົນ	-11.0992
ຕິດກັບ	-11.0994
ໄດ້ຈັດ	-11.0994
ເຮັດຫຍັງ	-11.0994
▁ເຫັດ	-11.0999
▁ຖະຫນາ	-11.1001
▁ວັງວຽງ	-11.101
ການກໍ່ການຮ້າຍ	-11.101
ໃນຊີວິດ	-11.1011
ເຈີ	-11.1015
ຕາແສງ	-11.1016
ຫຍໍ້	-11.1017
ການາດາ	-11.1019
▁ຜົນຫວຍ	-11.1021
▁ພະນະທ່ານ	-11.1026
▁ເຮັດໃຫ້ສາວ	-11.1026
▁ຝລັ່ງ	-11.1028
tar	-11.1029
ມ້າ	-11.1032
▁ດາລາ	-11.1033
ອາກອນມູນຄ່າເພີ່ມ	-11.1034
ເນື່ອງຈາກວ່າ	-11.1034
▁Brussels	-11.1035
ການສົ່ງອອກ	-11.1038
ເກ່ົາ	-11.1041
▁ຄະຕິສອນໃຈ	-11.1041
▁ຫູ	-11.1045
ai	-11.1046
▁ຕອນເຊົ້າ	-11.1047
▁ເຄນ	-11.1048
▁ເຈັດ	-11.1048
▁10,000	-11.1049
▁ອາຣັບ	-11.105
ປະໂຫຍກ	-11.1053
ຄ້າຂາຍ	-11.1054
▁Los	-11.1062
▁ວັນສຸກ	-11.1063
▁ເຄັດລັບ	-11.1069
ເສລີ	-11.1069
ເປີດໂຕ	-11.107
▁ຫນໍ່	-11.107
▁ສອບຖາມ	-11.1077
ກວ່າອີກ	-11.1081
▁ພົມມະ	-11.1085
ກໍາມະການ	-11.1085
▁ຫຼືບໍ່	-11.1087
ຂາເຂົ້າ	-11.1088
▁121	-11.1089
ຈ້າງ	-11.109
ຍາດພູມແພ້ຜິວຫນັງ	-11.109
▁ບໍ່ມີຄາບ	-11.1091
ສໍາຫຼັບ	-11.1092
ແຂງແຮງ	-11.1095
▁ຟິລິບ	-11.1095
ປະເທດສະມາຊິກ	-11.1095
ຍູ້	-11.1102
▁ເສລີພາບ	-11.1103
▁ຣູ	-11.1103
▁ເປັ	-11.1104
ສະເຫນີໃຫ້	-11.1105
▁ໃນທົ່ວປະເທດ	-11.1107
▁ປະຊາສໍາພັນ	-11.1107
ນາດ	-11.1107
ແຫຼມ	-11.1109
ເມືອງສູນກາງພັກ	-11.1109
ນັກສະແດງ	-11.1109
▁ສອດຄ່ອງ	-11.111
ຂ້ອງ	-11.1112
ອາດຈະເປັນ	-11.1112
▁ນັນ	-11.1114
ຫຼັກຖານ	-11.1116
▁57	-11.1119
ash	-11.112
ໄດ້ຢ່າງ	-11.1122
ົວ	-11.1123
42	-11.1124
ໄຮເມີ	-11.1126
▁ຫົກ	-11.1126
ຄຸມ	-11.1132
ຢູ່ທະເລຕາເວັນອອກ	-11.1133
ິດ	-11.1135
▁ທ່ານອາດຈະ	-11.1135
າວພາຍໃນ	-11.1136
gen	-11.1137
ຂອງຫນຸ່ມຄົນນີ້	-11.1139
ູດແຂ້ວຂ	-11.114
▁ສິລະ	-11.114
ຊ່ວຍຈັດການກັບ	-11.114
ເທີກີ	-11.1141
ລີກ	-11.1149
▁HTML	-11.1151
hu	-11.1153
ກອມມູນິດຫວຽດນາມ	-11.1154
ການທະຫານ	-11.1154
▁20%	-11.1161
▁ແກນ	-11.1164
ເລື່ອງນີ້	-11.1167
ກັກຕົວ	-11.1168
ຕໍ	-11.117
ກໍານົດເວລາ	-11.1172
▁MP	-11.1174
▁ໃຫມ່ໆ	-11.1176
▁Paul	-11.1177
ໃຫມ່ໃນ	-11.1178
IA	-11.118
▁ການປົກຄອງ	-11.1182
ປ່າສະຫງວນແຫ່ງຊາດ	-11.1182
LE	-11.1183
ມັງ	-11.1183
ໃນເດືອນ	-11.1185
ອຸດົມສົມບູນ	-11.1186
▁ເງື່ອນໄຂການໃຫ້	-11.1187
ມີຄວາມເຂັ້ມແຂງ	-11.1189
▁ສໍາຫຼັບ	-11.1189
▁MHz	-11.1189
▁2015-2016	-11.1189
ຄາວ	-11.1192
ຈອກ	-11.1195
ໄຫມ	-11.1196
▁Nguyen	-11.1197
200	-11.1199
▁Ar	-11.1199
ອະນາໄມ	-11.12
ຢ່າງຮຸນແຮງ	-11.1201
▁ອີເມວ	-11.1202
ກໍແມ່ນ	-11.1203
▁ນັກເຕະ	-11.1205
val	-11.1207
ພາຍໃຕ້ສັນຍາ	-11.1209
▁ສໍານັກ	-11.1209
▁Bay	-11.121
ຮຸ່ງ	-11.1211
▁ຫງົບ	-11.1211
▁ວັນອາທິດ	-11.1211
ທີ່ຄ້າຍຄືກັນ	-11.1214
▁ຢຶດ	-11.1215
▁ພາກເຫນືອ	-11.122
ເງື່ອນໄຂການໃຊ້	-11.1222
▁Page	-11.1223
ຊອງ	-11.1224
ຂົງ	-11.1226
▁no	-11.1235
ມາໃຫ້	-11.1235
SA	-11.1235
ພ້ອມດ້ວຍ	-11.1236
▁110	-11.1237
▁ລມຕ	-11.1238
▁Vegas	-11.1238
▁2016,	-11.1238
ຊື່ວ່າ	-11.1239
ຖະແຫຼງການ	-11.124
den	-11.1242
ຈະມາ	-11.1243
▁ປີແຫ່ງວັນ	-11.1243
▁ເຂົ້າສູ່	-11.1243
▁ທະນາຄານໂລກ	-11.1245
▁ຕຸ້ນ	-11.1245
VNP	-11.1246
ພັນລະຍາ	-11.1246
ໂວ	-11.1247
ອາບນ້ໍາ	-11.1248
ອີຢູ	-11.1248
▁Media	-11.1251
▁Vi	-11.1251
▁ເວົ້າສະເພາະ	-11.1252
ພູມ	-11.1252
▁User	-11.1253
ຄວາມເຊື່ອຫມັ້ນ	-11.1254
▁ພາກໃຕ້	-11.1256
ຫຼາຍຄັ້ງ	-11.1257
▁ຕິດຕັ້ງ	-11.1262
▁IMF	-11.1264
▁(26)	-11.1264
▁pa	-11.1265
▁Xi	-11.1266
ວ່າມີ	-11.1267
ໄດ້ຮັບຮອງເອົາ	-11.1268
ໄດ້ເລີຍ	-11.1268
▁ຢັ້ງຢືນວ່າ	-11.1269
▁ນໍາສະເຫນີ	-11.127
ເກນ	-11.127
▁ຈະເຮັດໃຫ້	-11.1273
▁ທີ່ດິນ	-11.1273
ັ້ນ	-11.1278
ເປັນທີ່ຮູ້ຈັກ	-11.1279
ສໍາຫລັບ	-11.1279
ພົວພັນຄູ່ຮ່ວມມື	-11.128
▁ວັນຈັນ	-11.1281
ຄວາມເຄັ່ງຕຶງ	-11.1282
bi	-11.1283
ໄລຍະຍາວ	-11.1283
ແມນ	-11.1284
ຍື່ນ	-11.1286
ShareAlike	-11.1288
▁University	-11.1288
▁XII	-11.1288
ໂດຍບໍ່ມີ	-11.129
▁Sex	-11.129
▁ໃນປະເທດ	-11.1292
ອກ	-11.1292
ຄວາມຫວັງ	-11.1293
ກາລະໂອກາດ	-11.1295
ປະກົດການຫຍໍ້ທໍ້	-11.1295
ເປັນຄັ້ງທໍາອິດ	-11.1295
ບັນນາທິການ	-11.1295
ເອື້ອຍ	-11.1296
ເສດຖະກິດໂລກ	-11.1296
▁ໂດຍໄດ້	-11.1297
ຖໍ້າ	-11.1297
▁ຮສ	-11.1299
▁ໄຂ້	-11.13
53	-11.13
ຂອງພວກເຮົາແມ່ນ	-11.1302
▁ກຸ	-11.1304
ຮູບຮ່າງ	-11.1306
ier	-11.1307
ສະພາຄວາມຫມັ້ນຄົງ	-11.1307
ຍັງບໍ່ໄດ້	-11.1312
ພໍໃຈ	-11.1313
▁ຫມາຍຄວາມວ່າ	-11.1314
ບົດບາດຂອງ	-11.1316
ທີ່ພັກ	-11.1316
▁ກ່ອນຫນ້ານັ້ນ	-11.1316
▁ຄຸນຄ່າ	-11.1317
ms	-11.1318
▁ສະພາບແວດລ້ອມ	-11.132
ໄດ້ຮັບຜົນປະໂຫຍດ	-11.1321
ກອງປະຊຸມສ	-11.1327
ບັນຊີລາຍຊື່	-11.1328
▁ປະສົງ	-11.1328
▁ເວົ້າລວມ	-11.1328
▁ພິທີເປີດ	-11.1329
▁my	-11.1331
ຂອງທ່ານນາງ	-11.1331
ສໍາຄັນທີ່ສຸດ	-11.1336
ແຕ່ງງານ	-11.1339
▁2018-2019	-11.134
▁ໄດ້ສ້າງ	-11.1341
▁ດວງປະຈໍາວັນ	-11.1343
▁ປົກປ້ອງ	-11.1345
▁ເບິ່ງກວ້າງ	-11.1346
▁la	-11.1347
▁Security	-11.1349
ຟີລິບປິນ	-11.135
ປະສານ	-11.135
▁ກໍແມ່ນ	-11.1351
ກະຊວງຍຸຕິທໍາ	-11.1353
▁ງົບ	-11.1356
▁Ltd	-11.136
ລົງໂທດ	-11.136
ຜິດພາດ	-11.1362
ຄວາຍ	-11.1364
▁ຟື້ນຟູ	-11.1367
▁71	-11.1368
▁Studio	-11.1368
ຖີ້ມ	-11.1371
ຢ່າງຈະແຈ້ງ	-11.1372
ມີຄວາມຈໍາເປັນ	-11.1376
ທີ່ເປັນເອກະລັກ	-11.1378
▁ຫມາກຜົນ	-11.1379
ປໍ	-11.138
ເປັນບ່ອນ	-11.1381
ພຣະຄຣິດ	-11.1381
▁ຫັກ	-11.1382
▁ຕໍ່ບັນຫາ	-11.1383
▁130	-11.1383
▁ເຄື່ອງຈັກ	-11.1386
ສໍາເນົາ	-11.1386
▁George	-11.1388
ຈານແຫຍ່	-11.1388
▁Thailand	-11.1388
ມີເງື່ອນໄຂອື່ນໆ	-11.1389
ຖ້າຫາກວ່າທ່ານ	-11.139
ສ້າງຂະບວນການ	-11.1391
ປະຕິບັດແຜນ	-11.1391
ຟຸກ	-11.1392
96	-11.1392
ເຫັນໄກ	-11.1394
▁ບຸດ	-11.1395
▁ໂດດ	-11.1395
ຂໍ້ມູນທີ່	-11.1395
ທົບ	-11.1397
▁ຢຸດຕິ	-11.1399
ເປັນເຈົ້າການ	-11.1399
ທຣໍາ	-11.14
ວັດທະນາທໍາ	-11.1402
▁ຕຸ້	-11.1403
▁ບໍ່ວ່າ	-11.1403
▁140	-11.1405
ໃຊ້ເນື້ອໃນ	-11.1406
▁ພາຫະນະ	-11.1408
ເຄມີ	-11.1411
▁ນໍາຫນ້າ	-11.1412
▁ນັກກິລາ	-11.1415
ແມ່ນການ	-11.1419
▁ໃຫ	-11.1419
ອະທິຖານ	-11.1425
ກຸ	-11.1426
▁ປາກົດການຫຍໍ້ທໍ້	-11.1426
▁Ad	-11.1428
bit	-11.1429
▁ອົກ	-11.1432
ປະກັນ	-11.1435
);	-11.1435
IP	-11.1437
ງານສໍາລັບລ	-11.1438
▁Coinfalls	-11.1439
▁ຄົມມະນາຄົມ	-11.1439
▁ຈໍາຫນ່າຍ	-11.1441
and	-11.1441
ຢ້ຽມ	-11.1441
▁ກວດພົບ	-11.1442
ເຮັດໃຫ້ມັນ	-11.1442
▁j	-11.1443
ຄ້າຂາຍຢາເສບຕິດ	-11.1447
75	-11.1447
ຫນ້າວຽກ	-11.1449
ດາວໂຫຼດ	-11.145
▁ຄົ້ນຫາສໍາລັບ	-11.1456
ອາກາດຫນາວ	-11.1463
▁ໃບສີດາ	-11.1463
ຢູ່ນອກ	-11.1465
ເຄື່ອງດື່ມ	-11.1466
om	-11.1467
79	-11.1467
ໄດ້ວ່າ	-11.1468
▁ປ່ວຍ	-11.1473
ອົດສະຕາລີ	-11.1473
ຂັ້ນພື້ນຖານ	-11.1475
ໄຕ້	-11.1477
ທັງຫລາຍ	-11.1483
▁ເດີ່ນ	-11.1484
▁ຍັງບໍ່ທັນ	-11.1486
ໂອ້ລົມ	-11.1487
ຕິດພັນກັບ	-11.1487
ການເຮັດວຽກຂອງ	-11.1488
▁August	-11.149
ທາງພາກໃຕ້ຫວຽດນາມ	-11.1492
ຕິກ	-11.1492
ກະຊວງກະສິກໍາ	-11.1494
op	-11.1494
▁ຄວາມຮັບຜິດຊອບ	-11.1497
EC	-11.1499
ລະບຽບກົດຫມາຍ	-11.1499
ລ່ວງ	-11.1499
▁ສາກ	-11.1499
▁ຖືເປັນ	-11.1502
່ອງ	-11.1502
ໂຈ	-11.1505
ໄປຮອດ	-11.1506
ຫ້ອງນ້ໍາ	-11.1507
ພົງ	-11.1508
#	-11.1508
ຊຸ	-11.1509
▁ແລະອາດ	-11.151
ການຕໍ່ສູ້	-11.1515
ins	-11.1515
▁laop	-11.1516
ກຸ່ມບໍລິສັດ	-11.1517
ອອກສຽງ	-11.1518
▁ກຸນ	-11.1518
ທີ່ມີການ	-11.1519
ເດັດຂາດ	-11.1521
DA	-11.1521
ot	-11.1522
ຂອງທ່ານແມ່ນ	-11.1522
ຍິ່ງຂຶ້ນ	-11.1525
ໃຫ້ມີຄວາມ	-11.1526
ທີ່ເຂົ້າຮ່ວມ	-11.153
▁ທີ່ກໍາລັງ	-11.153
ຕາມລະບຽບກົດຫມາຍ	-11.1534
▁do	-11.1538
▁ຂອງສະພາແຫ່ງຊາດ	-11.1539
86	-11.1539
ບານໂລກ	-11.1539
▁Linux	-11.154
ຣາຊ	-11.1544
▁ສະບຽງ	-11.1544
▁ຫລີກ	-11.1544
ເຊື້ອເຊີນ	-11.1545
▁ທີ່ສໍານັກງານ	-11.1556
ດ່ຽວ	-11.1556
▁ກົມກອງ	-11.1557
ໂດຍທ່ານ	-11.156
ການຮ່ວມມືຮອບດ້ານ	-11.156
ດຶກ	-11.156
▁ຫົນທາງ	-11.1563
▁ລະເບີດບໍ່ທັນແຕກ	-11.1565
ປະເມີນຜົນ	-11.1567
▁ຕະຫຼອດຮອດ	-11.1568
ຊີບ	-11.157
ບຸລິມະສິດ	-11.1571
ແວ	-11.1578
ຽມ	-11.1578
▁ດຽວກັນ	-11.1578
▁ຂີ	-11.1579
si	-11.1581
ຂູດ	-11.1584
que	-11.1586
ຜູ້ຊົມ	-11.1589
▁ລັດຖະກອນ	-11.159
ຊົນນະບົດ	-11.159
ເງິນທີ່ແທ້ຈິງ	-11.1591
▁ນີສຖານ	-11.1591
ຈັດຕັ້ງກອງປະຊຸມ	-11.1592
louna	-11.1592
▁ກະຊວງອຸດສາຫະກໍາ	-11.1594
▁ອົງການໄອຍະການ	-11.1594
58	-11.1594
ສໍາເລັດແລ້ວ	-11.1598
ເລື່ອງລາວ	-11.1603
ຢ່າງຫນັກ	-11.1605
▁ພາຍຫຼັງທີ່	-11.1606
ເຮັດວຽກຮ່ວມກັບ	-11.1606
ຢູໂຣບ	-11.1608
▁ຝາ	-11.161
▁wedding	-11.1613
▁ແຄບ	-11.1615
▁ກ່າວຕໍ່	-11.162
▁UWC	-11.162
▁ມາລີ	-11.1621
▁ທຽນ	-11.1621
ມີຄວາມຫມາຍ	-11.1623
▁ແມ່ນຈະ	-11.1624
44	-11.1626
ພາລະ	-11.1629
ດໍາລັດ	-11.1632
ໃນການຄຸ້ມຄອງ	-11.1632
▁ແຜ	-11.1635
ທີ່ແນ່ນອນ	-11.1635
▁ຊ່ວຍໃຫ້	-11.1635
ຕາຍແລ້ວ	-11.1636
໊າ	-11.1637
ອາຫານຄ່ໍາ	-11.1637
ສູງຂຶ້ນ	-11.1639
▁9552	-11.1644
▁South	-11.1645
ຕົວອັກສອນ	-11.1645
860.	-11.1647
ພາຍຸ	-11.1648
ສິລະປິນ	-11.1651
▁ຄວາມຫມາຍ	-11.1651
ເຮັດໄດ້	-11.1651
ສະຫງວນ	-11.1652
ເພື່ອນຮ່ວມງານ	-11.1652
▁ສາງ	-11.1653
2%	-11.1657
500	-11.1659
ປຸງ	-11.1664
ຫລຸດຜ່ອນ	-11.1666
ຂັ້ນເມືອງ	-11.1669
ເວົ້າໃຫມ່	-11.1674
ກັບບັນດາ	-11.1676
▁hero	-11.1676
▁ນັກວິ	-11.1677
ບໍ່ຕ້ອງ	-11.168
ດໍ	-11.1681
ກະທົບ	-11.1681
ປົວ	-11.1682
ແຖບ	-11.1682
ບັນດາອົງການ	-11.1683
ເລີດ	-11.1686
▁ແລະພວກ	-11.1686
▁ສ່ວນທ່ານ	-11.1687
▁ດ້ານການ	-11.1688
ຂອງເຈົ້າຫນ້າທີ່	-11.1689
▁ດ້າວ	-11.169
▁ແອວ	-11.1693
ບ້ານເກີດເມືອງນອນ	-11.1695
▁California	-11.1695
▁Michael	-11.1695
ແອນ	-11.1699
ເລັດ	-11.1704
▁ວາລະ	-11.1707
lon	-11.171
ໂພດໂດຍ	-11.1713
▁Jet	-11.1715
ນໍາຫນ້າ	-11.1718
ການນໍາຂັ້ນສູງ	-11.1719
ມີຢູ່	-11.1719
ກໍ່ຕາມ	-11.1722
ລະເບີດບໍ່ທັນແຕກ	-11.1723
▁ບ້າ	-11.1724
▁ຕົ້ນຕໍ	-11.1725
▁ຜູ້ໃຊ້	-11.1725
ຢູ່ຕາມ	-11.1727
ພວກຂ້າພະເຈົ້າ	-11.1728
▁ວານນີ້	-11.1729
ua	-11.1733
41	-11.1736
ເນີ	-11.1739
▁ຕຽນ	-11.1742
▁ທົນ	-11.1743
▁ໃນນີ້	-11.1744
ຄວ້າ	-11.1745
ei	-11.1747
▁ເຢຍລະ	-11.1748
ໃຫຍ່ຄັ້ງທີ	-11.1749
▁ທີ່ເຮັດໃຫ້	-11.175
▁90%	-11.1751
▁ການກະທໍາ	-11.1752
▁ພັກຣີພັບ	-11.1753
ດ້ານການເງິນ	-11.1754
060,	-11.1755
ee	-11.1756
ມາເປັນເວລາ	-11.1756
▁ນິຕິ	-11.1757
▁ສອງປະເທດ	-11.1758
ຫລັງຈາກ	-11.1759
ນອກຈາກ	-11.1761
ຂອງຜູ້ໃຊ້	-11.1761
ຢູ່ພາກພື້ນ	-11.1764
▁ກາວ	-11.1765
ຢູ່ກັບ	-11.1769
▁ຫາງ	-11.177
▁ປະລິນຍາຕີ	-11.1771
▁ຂອງພວກເຂົາເຈົ້າ	-11.1772
ຫນ່ວຍພັກ	-11.1772
▁67	-11.1772
▁ຟະ	-11.1774
ual	-11.1774
▁ຕິດຕາມກວດກາ	-11.1775
ທີ່ເມືອງ	-11.1775
ທຸງ	-11.1776
▁ຊ້ໍາ	-11.1776
ທົດ	-11.1777
ຂຸດຄົ້ນບໍ່ແຮ່	-11.1778
▁se	-11.1779
▁ຕ້ອງມີ	-11.1779
▁ສົມຄວນ	-11.1779
▁ກອມມູນິດ	-11.1781
▁2020.	-11.1782
ຄົ້ນພົບ	-11.1782
ji	-11.1785
ບໍ່ມີຫຍັງ	-11.1787
ຮິ	-11.1789
▁ເຕືອນໄພ	-11.1791
▁ອົງການກວດກາ	-11.1791
pe	-11.1792
ມົນລະພິດ	-11.1792
▁ເວທີປາໄສ	-11.1793
ເກືອ	-11.1795
-8	-11.1795
hi	-11.1795
ນັບຖື	-11.1796
▁Store	-11.1797
ທີ່ມັກ	-11.1798
▁ຫນ່ວຍພັກ	-11.1801
▁Mania	-11.1803
ຜ່ອນ	-11.1804
ເມື່ອປີ	-11.1806
ລະດັບໂລກ	-11.1809
▁ກ້ວຍ	-11.181
ການສະເຫຼີມສະຫຼອງ	-11.1813
88	-11.1814
ໄປມາ	-11.1816
ມວຍ	-11.1817
▁ປ່ຽນແປງ	-11.1819
▁ແຄ້ນ	-11.1819
▁ອາດເຮັດໃຫ້	-11.1821
ເພັງ	-11.1822
▁ທັງເປັນ	-11.1822
ເຈັດ	-11.1823
ແຫນ້ນ	-11.1823
ອົບຮົມ	-11.1824
ວິວັດທະນາການ	-11.1826
ຍິ່ງໃຫຍ່	-11.183
ລຽນ	-11.183
ຖ່າຍທອດ	-11.183
US	-11.1831
▁ຜົນປະໂຫຍດ	-11.1831
▁ຫນັກແຫນ້ນ	-11.1833
ເລິກເຊິ່ງ	-11.1834
▁ສ່ວນໃຫຍ່	-11.1834
▁ຂອງລັດ	-11.1835
ສະແດງໃຫ້ເຫັນເຖິງ	-11.1835
▁ເທື່ອທີ	-11.1835
3/5)	-11.1836
▁ຕີລາຄາສູງ	-11.1838
ຍຸຕິ	-11.1839
ມັນໄດ້	-11.1841
ຂໍ້ມູນກ່ຽວກັບ	-11.1842
ພະຍາຍາມທີ່ຈະ	-11.1843
ical	-11.1844
▁ຖ້ໍາ	-11.1847
ສຸມ	-11.1849
pdf	-11.1852
ຄວາມຊົງຈໍາ	-11.1852
ມັດທາຍ	-11.1854
▁ທີ່ມີໃນຫນ້າ	-11.1854
▁ກຸ່ມບໍລິສັດ	-11.1856
ix	-11.1856
ການເລືອກ	-11.1859
ເມືອງລາວ	-11.1859
ອບ	-11.1859
ລູກສາວ	-11.186
ກອງປະຊຸມຄັ້ງນີ້	-11.1861
ຕັ້ງໃຈ	-11.1864
ໃຊ້ບໍລິການ	-11.1864
so	-11.1866
9)	-11.1867
▁ຖ້ຽວ	-11.1867
ney	-11.1867
▁ບັນຈຸ	-11.1873
ບາງສ່ວນຂອງ	-11.1878
ຄວາມແຕກຕ່າງ	-11.1878
ສັດລ້ຽງ	-11.1879
ຊໍາ	-11.188
ທະວີ	-11.1881
ຕົງ	-11.1885
▁Bank	-11.1889
EN	-11.1889
su	-11.1891
ຖືເປັນ	-11.1891
▁free	-11.1892
▁ຄ່ອຍ	-11.1892
ເຮັດທຸລະກິດ	-11.1893
ໄດ້ນໍາເອົາ	-11.1894
▁ດັ່ງທີ່	-11.1895
ກູໂກ	-11.1896
ມີບັນດາ	-11.1897
▁ມີຄວາມເຫັນ	-11.1898
ຕົ້ນຕໍຂອງ	-11.1898
ການດໍາເນີນງານ	-11.1899
▁ການບໍລິຫານ	-11.19
PO	-11.1901
ມະຫາສະຫມຸດອິນເດຍ	-11.1905
ສັບສົນ	-11.1905
ລາຄາສິນຄ້າ	-11.1905
▁ຄຶດ	-11.1906
ຜູ້ປະສົບໄພ	-11.1906
ຢູ່ແລ້ວ	-11.1908
▁ຢ່າງໃດກໍ່ຕາມ	-11.1909
▁Ya	-11.1909
ຂັບເຄື່ອນ	-11.1909
ລ້ານຊ້າງ	-11.1911
▁ລູ	-11.1911
▁ໃນຕອນເຊົ້າ	-11.1912
▁ບັກ	-11.1917
▁ອີຕາລີ	-11.1917
▁ອ່ານເພີ່ມເຕີມ	-11.1918
ຈູ	-11.1921
ຍິງປືນ	-11.1921
ທະນາຍຄວາມ	-11.1922
ຮັກສາສັນຕິພາບ	-11.1922
ບໍລິສຸດ	-11.1925
ການທົບທວນຄືນ	-11.193
ຊໍ້າ	-11.1934
▁ໃກ້ກັບ	-11.1936
▁ຢູ່ນອກ	-11.1936
ແຜ່ນດິນ	-11.1938
ທ່າອ່ຽງ	-11.1938
ແປ້ງ	-11.1944
▁ປໍ	-11.1945
▁ໂບລາ	-11.1947
ຊີ້ແຈງ	-11.1949
ຖອດຖອນບົດຮຽນ	-11.1952
ວາດ	-11.1952
ເອົາໄປ	-11.1953
▁ໂຢ	-11.1953
▁ລາວຈະ	-11.1956
cn	-11.1958
ພິສູດ	-11.1959
▁ໃນການເລືອກຕັ້ງ	-11.1959
▁ແນັດ	-11.1961
▁ສົນໃຈ	-11.1962
Be	-11.1963
lan	-11.1963
▁ຣະ	-11.1967
ປຸກລະດົມ	-11.1968
▁ສິ່ງທ້າທາຍ	-11.1969
ດ້ານວັດທະນະທໍາ	-11.197
▁ສະຫນັບ	-11.1972
▁ຕື້ໂດລາ	-11.1974
ເຫມືອນ	-11.1976
▁ໃນລັດ	-11.1977
97	-11.1978
ສໍາມະນາສາກົນ	-11.198
▁ໃນຂົງເຂດ	-11.198
ໃນນະຄອນຫຼວງ	-11.1981
▁ຫມວດທີ	-11.1982
ສອງຄົນ	-11.1984
IC	-11.1989
໊ກ	-11.199
ci	-11.199
/4	-11.1992
▁ປະທ້ວງ	-11.1994
ບັນເທີງ	-11.1996
▁ອິງ	-11.1997
55	-11.1997
ອະນຸ	-11.1998
ປກສ	-11.2
ສາທາລະນະລັດ	-11.2
ການເຮັດ	-11.2
RA	-11.2006
ໃຫ້ດີ	-11.2006
▁ຂຶ້ນຢູ່	-11.2008
aya	-11.2009
ແຫ່ງລັດ	-11.201
ເຝົ້າລະວັງ	-11.2014
ນັກຮົບກອງທັບເຮືອ	-11.2014
ຫັດຖະກໍາ	-11.2015
▁ຂຶ້ນກັບ	-11.2016
▁ເວລາປະມານ	-11.2018
▁HIV	-11.2019
▁ຖະແຫຼງຂ່າວ	-11.202
▁ມາດຣິດ	-11.2023
▁Asia	-11.2023
▁Tran	-11.2024
84	-11.2026
aw	-11.2026
ເຕະບານ	-11.203
▁under	-11.203
ໄດ້ເຮັດ	-11.2031
▁ເຈົ້າຄອງ	-11.2031
▁ອັນນີ້	-11.2031
ຢ່າງແນ່ນອນ	-11.2032
▁ຜູ້ປະກອບການ	-11.2033
ກະທູ້	-11.2033
ນ່າ	-11.2034
ອນ	-11.2034
▁ບົດບາດຂອງ	-11.2035
ການໃຫ້ບໍລິການ	-11.2038
ບົນ	-11.2038
ຄຸນະພາບ	-11.204
▁ສັກສິດ	-11.204
▁ຕີລາຄາ	-11.2041
CA	-11.2041
▁ນັ້ນຄື	-11.2043
ຕາເວັນອອກສຽງໃຕ້	-11.2043
▁ຈັດພິທີ	-11.2046
ຂຶ້ນຕື່ມ	-11.2048
▁ໂຕະ	-11.205
▁ຄວາມສະຫງົບ	-11.2052
▁news	-11.2054
0)	-11.2054
▁Ra	-11.2054
▁ເສີດ	-11.2057
▁For	-11.2058
ປານ	-11.2058
▁ຄິວ	-11.2059
▁ເປັນຕົ້ນໄປ	-11.2059
ຫຼ້າ	-11.2059
ໂຈນ	-11.206
▁ບຣາ	-11.2061
▁70%	-11.2062
▁ຄາດວ່າຈະ	-11.2063
ກໍ່ສ້າງທາງລົດໄຟ	-11.2063
ດົມ	-11.2064
▁ການຕະຫຼາດ	-11.2064
▁Review	-11.2065
ລະມັດລະວັງ	-11.2065
▁Chef	-11.2066
▁that	-11.2067
▁ມໍ່ໆ	-11.2067
ກຸງເທບ	-11.2067
ໂຍ	-11.2068
ຫຼາຍຂື້ນ	-11.207
ພວກກະບົດ	-11.2071
ຄວາມເຫັນ	-11.2071
▁2560	-11.2071
▁ເຫັນດີ	-11.2072
ເຈົ້າແຂວງ	-11.2077
▁Play	-11.2079
▁ສ້ອມແປງ	-11.2079
ide	-11.208
ກໍ່ມີ	-11.2082
ເປັນປະທານຂອງ	-11.2082
▁ແກຣມ	-11.2082
ທັງຫມົດແມ່ນ	-11.2084
ຖະແຫຼງ	-11.2085
▁ໃນຊີເຣຍ	-11.2086
▁ລາຍການທີ່	-11.2089
▁ອອກອາກາດ	-11.2089
ປະສິດທິຜົນ	-11.209
ເພີ່ມປະສິດທິພາບ	-11.209
ສັງຄົມແຫ່ງຊາດ	-11.2092
▁ເຫຼີມ	-11.2093
▁ເປີດເຜີຍ	-11.2094
ມາລີ	-11.2094
▁ທ່ານຄວນ	-11.2095
▁ຄູນ	-11.2098
ຜູ້	-11.21
ກ້ວາງ	-11.2102
ທູ	-11.2103
ທໍ	-11.2104
▁Martin	-11.2104
ວຽດນາມ	-11.2106
ເສົ້າສະຫຼົດໃຈ	-11.2108
▁ນ້ອຍໆ	-11.2109
▁95	-11.2109
han	-11.2109
ລວມເຖິງ	-11.211
ຈໍານວນເງິນ	-11.211
ກູບາ	-11.211
ໃນໄລຍະຈະມາເຖິງ	-11.211
▁ຕຽງ	-11.211
▁ບໍາ	-11.2111
ຜ່ອນຄາຍ	-11.2112
▁ໂປຣ	-11.2113
ໃນແຕ່ລະ	-11.2114
ກຽດ	-11.2117
ການສືບສວນ	-11.212
▁ມສະຫຼອງ	-11.2122
ທົບທວນ	-11.2122
dsala	-11.2122
▁ຄລິກ	-11.2122
ໃນວົງການບານເຕະ	-11.2123
▁ພາຄີ	-11.2123
▁Fa	-11.2123
ຢູ່ເຮືອນ	-11.2124
ວຽກງານກວດກາ	-11.2125
ຊິກ	-11.2127
ທີ່ບໍ່ຖືກຕ້ອງ	-11.213
▁ຫັດຖະກໍາ	-11.2133
ino	-11.2134
▁ຈະຖືກ	-11.2137
ຄະນະຊີ້ນໍາ	-11.2137
▁RE	-11.2139
ໄດ້ຮັບການພັດທະນາ	-11.214
ເລຍ	-11.2144
▁ແຕ່ທ່ານ	-11.2146
ຂອງຄະນະ	-11.2148
▁ຫຍໍ້	-11.2148
ເຄື່ອນໄຫວຢ້ຽມຢາມ	-11.2149
▁ບ້ານນາ	-11.215
ບໍ່ມີໃຜ	-11.2152
▁ຮອງເຈົ້າແຂວງ	-11.2154
▁ເດັດຂາດ	-11.2155
▁ໃຈກາງ	-11.2156
ຈັດກອງປະຊຸມ	-11.2156
▁ຮີດຄອງປະເພນີ	-11.2157
1]	-11.2158
ໂພດ	-11.2162
ຫາຍໄປ	-11.2163
ຢູ່ໃນລະດັບ	-11.2165
ຫລັກສູດ	-11.2166
▁ກະຊວງໂຍທາທິການ	-11.2168
ປະຕິຮູບ	-11.2168
ປະສົບກັບ	-11.217
▁ງາ	-11.2171
▁180	-11.2171
▁ຣົບ	-11.2172
ພໍສົມຄວນ	-11.2172
▁Software	-11.2174
newspaper	-11.2174
▁Shinzo	-11.2174
ຕົວເລືອກ	-11.2174
ຄວາມປອດໄພຂອງ	-11.2174
ຍັງສືບຕໍ່	-11.2174
▁Pa	-11.2176
ເຄື່ອນທີ່	-11.2176
ຍ້ອງຍໍ	-11.2177
ກັກ	-11.2179
ການສະຫນອງ	-11.2183
ຫວາ	-11.2183
▁ຊຸ	-11.2184
ການປະທະກັນ	-11.2187
ລະຫວ່າງຫວຽດນາມ	-11.2188
ກໍາຫນົດ	-11.2193
31	-11.2194
▁Human	-11.22
ເວລາທີ່	-11.2201
▁Rock	-11.2207
ມີຄວາມສໍາຄັນ	-11.2211
ຈະມີການ	-11.2212
▁ໃນກໍລະນີ	-11.2214
hatthana	-11.2215
ທີ່ບໍ່ດີ	-11.2216
ຜູ້ອໍານວຍການ	-11.2216
ອີກແລ້ວ	-11.2217
▁ຄີມ	-11.2218
act	-11.2219
ຕົວທ່ານເອງ	-11.222
ຍົກເວັ້ນ	-11.222
ກະດານ	-11.2224
▁ແທດ	-11.2225
SM	-11.2229
63	-11.223
ພ້ອມທັງ	-11.223
ການແພດ	-11.2232
ໄປທ່ຽວ	-11.2233
ເຂົ້າເປັນສະມາຊິກ	-11.2236
▁ພັ	-11.2236
▁ໄຟໄຫມ້	-11.2237
▁ອັ	-11.2238
ເພື່ອຊອກຫາ	-11.2239
▁ສະມັກ	-11.224
▁UN	-11.2241
ten	-11.2241
ຫລໍ່	-11.2241
ກະຈາຍ	-11.2242
▁ແຊນ	-11.2246
▁ງຂ່າວ	-11.2247
▁WEF	-11.2249
ຫນັງສືພິມປະຊາຊົນ	-11.2249
ນີ້ຈັກເທື່ອ	-11.225
ໃນເກມ	-11.2253
ແຂວງບໍ່ແກ້ວ	-11.2254
▁ຟາ	-11.2254
ສິ່ງຂອງ	-11.2257
ສະເພາະໃດຫນຶ່ງ	-11.226
ໃຫ້ພະນັກງານ	-11.2261
ທຸກມື້	-11.2264
ພຽງໃສ່	-11.2265
ທຸກໆຄົນ	-11.2266
ໂຊກດີ	-11.2267
▁ທີ່ໃຊ້ເວລາ	-11.2271
ເຂົ້າຮ່ວມງານ	-11.2271
ເຄນ	-11.2272
ໃນໄວໆນີ້	-11.2273
▁ເທົາ	-11.2274
▁59	-11.2279
pasaxon	-11.2279
▁favorite	-11.2283
▁ນາທິບໍດີ	-11.2284
▁ໄຊຍະສອນ	-11.2284
ການລົງໂທດ	-11.2285
ຜູ້ໃດ	-11.2286
▁backlinks	-11.2288
ເຕັມໄປດ້ວຍ	-11.2291
ຄົນຮັກ	-11.2292
▁ໂດໂນ	-11.2292
ຈອມ	-11.2298
▁ລົງທະບຽນ	-11.2301
ມານະພະຍາຍາມ	-11.2301
ຄົນອື່ນໆ	-11.2302
ນີ້ວ່າ	-11.2307
▁ປະສິດທິຜົນ	-11.2307
ສະເດັດ	-11.2307
▁ສານປະຊາຊົນ	-11.2309
▁ໃນໂອກາດນີ້	-11.2312
▁ລົງນາມ	-11.2313
ສີດ	-11.2315
ຂຸດ	-11.2316
ON	-11.2316
ເດືອນກັນຍາ	-11.2317
ສະມາ	-11.2319
ຕານ	-11.2323
ໃນຈໍານວນ	-11.2323
▁ຈັງຫວັດ	-11.2323
ness	-11.2324
ຍູ້ແຮງ	-11.2326
▁ອັນເປັນ	-11.2326
ເກີນກວ່າ	-11.2327
▁ໂອກາດນີ້	-11.2329
▁Moon	-11.233
00	-11.2331
ໄດ້ໃຫ້ການຕ້ອນຮັບ	-11.2332
ມືອາຊີບ	-11.2333
ເມືອງສະຫນາມໄຊ	-11.2333
ລູກຫຼານ	-11.2333
wiki	-11.2334
▁ຕໍ່ເນື່ອງ	-11.2335
ແນວໂຮມປະເທດຊາດ	-11.2336
▁ເກນ	-11.2336
໋ອກ	-11.2336
▁ກມ	-11.2336
ຫຸ່ນຍົນ	-11.2336
▁Account	-11.2338
ໃນພື້ນທີ່	-11.234
ຂອງຮ່າງກາຍ	-11.2341
ມາສູ່	-11.2343
ໃນລະຫວ່າງວັນທີ	-11.2344
▁ເຂັມ	-11.2344
▁ດິ	-11.2344
ມອງ	-11.2352
ທີ່ມີຄຸນຄ່າ	-11.2352
▁ຄັ້ງທີ່	-11.2354
ຄົມມະນາຄົມ	-11.2354
ດຽວນີ້	-11.2356
ແຫຼ່ງທ່ອງທ່ຽວ	-11.2357
▁Yu	-11.2358
▁ໂດຍແມ່ນ	-11.2358
67	-11.2361
ໂດຍອີງໃສ່	-11.2362
▁Se	-11.2364
ສາລະ	-11.2365
▁ທລຍ	-11.2368
ນັກວິທະຍາສາດ	-11.237
ທີ່ມີປະສິດທິພາບ	-11.237
▁ລ້ວນແຕ່	-11.237
ຈ່າຍຄ່າ	-11.2372
ເວດ	-11.2373
▁NAB	-11.2375
ໂຟ	-11.2376
▁ປະທານສະພາ	-11.2377
ຄາດວ່າຈະ	-11.2378
▁ໄດ້ອອກ	-11.2378
ປະເທດຫວຽດນາມ	-11.238
▁ລັດຖະມົນ	-11.2382
▁ກວມເອົາ	-11.2383
▁USA	-11.2384
▁ຫົວໃຈ	-11.2385
▁ວິໄລ	-11.2387
ຈະຊ່ວຍໃຫ້	-11.2387
▁ກັບບັນດາ	-11.2388
ມາກ	-11.2393
43	-11.2393
ຊີວະພາບ	-11.2393
ແມ່ນເປັນ	-11.2394
▁Angeles	-11.2394
ດໍໂນລ	-11.2395
ປະກົດຜົນເປັນຈິງ	-11.2395
MG	-11.2396
▁ຮິ	-11.2396
qu	-11.2398
▁ເນີ	-11.24
ໂດດເດັ່ນ	-11.2402
▁ເນີຍ	-11.2405
ດຸ	-11.241
▁ເຈີນ	-11.2411
ez	-11.2411
ລາວໄດ້	-11.2411
ຫວຍ	-11.2416
CS	-11.2416
▁30%	-11.2418
▁ເພື່ອປັບປຸງ	-11.2419
ເປັນສິ່ງທີ່	-11.2419
▁ຕາມແຕ່ລະ	-11.242
ພວກທ່ານ	-11.242
ຖືພາ	-11.2425
ຂອງແຕ່ລະ	-11.2426
▁ຈ່ຽງ	-11.2426
ການຈັດການ	-11.2427
ຕິດຕໍ່ກັນ	-11.2427
ເຄືອ	-11.243
▁ຈຸດປະສົງຂອງ	-11.2432
ອື່ນໆອີກ	-11.2432
ນຸ່ງ	-11.2433
▁Steve	-11.2433
ສະຖາປັດຕະຍະກໍາ	-11.2436
ເທບ	-11.2437
ຫົວຫນ່ວຍທຸລະກິດ	-11.2438
ໃຫ້ແກ່ການ	-11.2441
▁more	-11.2441
tro	-11.2442
▁ກັບອີຣ່ານ	-11.2444
▁ສຸມໃສ່	-11.2446
ຊ້ອນ	-11.2446
ເຮັດຫນ້າທີ່	-11.2447
▁ທີ່ກອງປະຊຸມ	-11.2447
ເອີລົບ	-11.2448
▁ວັນພະຫັດ	-11.2449
▁ເຂົ້າໄປໃນ	-11.2455
ຕຽງ	-11.2456
Fi	-11.2456
ເກົາຫລີໃຕ້	-11.2456
ຂອງຊີວິດ	-11.2456
ລະດູ	-11.2457
ພົ້ນເດັ່ນ	-11.2457
▁ປວງ	-11.2459
ແລ້ວຫຼາຍກວ່າ	-11.246
ທ່ານຜູ້ຟັງ	-11.246
49	-11.2461
▁ໃນຕອນເຊົ້າວັນທີ	-11.2464
ມີຄວາມສໍາຄັນຫຼາຍ	-11.2467
ວດ	-11.2469
▁ສົກປີ	-11.247
yo	-11.2472
ud	-11.2476
ເທດສະບານ	-11.2476
▁ຊ່ວຍເຫລືອ	-11.2476
▁ຊາກ	-11.2477
▁ທາງອາກາດ	-11.2477
ນາຍົກ	-11.2478
ທີ່ຈະໄດ້ຮັບ	-11.2479
ຄະນະກໍາມາທິການ	-11.2484
SS	-11.2486
▁ຊຸມຊົນ	-11.2487
▁Gu	-11.249
ໃນການປະຕິບັດ	-11.249
ການລາຍງານ	-11.249
ການປະຕິບັດງານ	-11.2493
ຈະຊ່ວຍ	-11.2494
▁ກະຊວງຊັບພະຍາກອນ	-11.2497
87	-11.2498
ຊ່າງ	-11.25
▁ການຄົ້ນຄວ້າ	-11.2502
4]	-11.2504
▁Wikidata	-11.2506
▁85	-11.251
out	-11.251
ວັດສະດຸ	-11.2511
ເປັນເອກະລັກ	-11.2513
▁ນ້ໍາຫນັກ	-11.2513
quot	-11.2514
▁ອອກມາ	-11.2515
ຕໍ່ກອງປະຊຸມ	-11.2517
EL	-11.2519
ated	-11.2519
▁UNESCO	-11.2519
ນັກສໍາມະນາກອນ	-11.252
71	-11.2525
ຍອມ	-11.2525
ເຄື່ອງແມ່ຂ່າຍ	-11.2527
▁ລັດທິ	-11.2528
ຂດທົ່ງພຽງແມ່ນ້ໍາ	-11.2531
ຊັ້ນສູງ	-11.2532
ສູ	-11.2533
ແນວພັນ	-11.2534
ໄຫວ	-11.2536
ເຮັດວຽກກັບ	-11.2537
▁ແຈ້ງເຕືອນ	-11.2546
ill	-11.2548
ມີຄ່າ	-11.2548
▁ວຸ	-11.2552
▁ພັນລະຍາ	-11.2552
ren	-11.2552
ຜູ້ຫຼິ້ນ	-11.2552
▁WHO	-11.2554
ຫຼາຍປານໃດ	-11.2555
ທີ່ເຄີຍ	-11.2557
ຫມຸນ	-11.2557
ອອກອາກາດ	-11.2559
ick	-11.2561
ແຜນພັດທະນາ	-11.2562
ຫມູ່ເກາະຮ່ວາງຊາ	-11.2563
ໂພນ	-11.2563
▁ຜູ້ຊ່ຽວຊານ	-11.2567
▁ການຊ່ວຍເຫຼືອ	-11.2567
▁ໄຫ	-11.2568
tag	-11.2573
ຈາງ	-11.2574
▁ວ່າຈະ	-11.2577
rd	-11.2577
ໂຢ	-11.2579
▁ການຄວບຄຸມ	-11.258
▁1-2	-11.2583
ຂອງກອງປະຊຸມ	-11.2585
ອຸນຫະພູມ	-11.2586
▁ໃນຂະນະ	-11.2587
ຄວາມຜິດພາດ	-11.2588
▁2021	-11.2588
ລຸງ	-11.2589
ຕົວຊີ້ວັດ	-11.2591
ເປັນຕົວແທນ	-11.2593
▁ສະມາຊິກພັກ	-11.2594
▁ບໍ່ທັນ	-11.2594
ສະພາບແວດລ້ອມແຫ່ງ	-11.2596
▁from	-11.2596
▁ປະການ	-11.2598
ໂປຼແກຼມ	-11.26
▁ໃນບັນດາ	-11.2601
ໃຫ້ແກ່ປະຊາຊົນ	-11.2603
ຄໍາຕັດສິນ	-11.2605
▁2018)	-11.2606
▁Inc	-11.2606
▁ສູ	-11.2606
▁ຈິດໃຈ	-11.2607
ແອວ	-11.2608
▁ພາຍໃນປະເທດ	-11.261
▁ຮອງປະທານປະເທດ	-11.261
▁ສົ່ງອອກ	-11.2612
▁ເກັ່ງ	-11.2612
ຮ່ວມຢ່າງພ້ອມພຽງ	-11.2613
ຮັບຕໍາແຫນ່ງ	-11.2621
▁ໃກ້ຊິດ	-11.2622
1%	-11.2624
▁ຟ້ອນ	-11.2629
▁ສາຍພົວພັນ	-11.2631
ຫາງ	-11.2631
ຜູ້ນຶ່ງ	-11.2634
ແຖວຫນ້າ	-11.2638
64	-11.264
ມອບຫມາຍໃຫ້	-11.264
▁1110	-11.2641
ທີ່ມີຢູ່ໃນ	-11.2642
່າງ	-11.2643
ໄວໆ	-11.2644
ສະຖານະ	-11.2645
ໄດ້ຮັບຄວາມນິຍົມ	-11.2645
▁ຄາສິໂນອອນໄລນ໌	-11.2646
ກໍາມະບານ	-11.2647
PS	-11.2649
ຊັກຊ້າ	-11.2652
---	-11.2653
SE	-11.2654
.1	-11.2655
▁Digital	-11.2655
ນວ	-11.2659
▁ລຽນ	-11.2659
ປະສົມປະສານ	-11.266
ເຮົາຈະ	-11.2662
ບູນ	-11.2663
▁ປ້ອງກັນປະເທດ	-11.2663
ສະຫວ່າງ	-11.2664
ຣັຖ	-11.2664
▁ຖ່າຍຮູບ	-11.2665
▁ຕົວແທນ	-11.2666
ກົງກັບ	-11.2667
ຫມາກຜົນ	-11.2671
▁ທີ່ການຕ້ອນຮັບ	-11.2671
▁Jo	-11.2672
ດາລາ	-11.2672
ບາດກ້າວ	-11.2673
▁admin	-11.2675
▁Italian	-11.2677
▁pizza	-11.2677
▁ແຄຣັດ	-11.2678
▁Cheat	-11.2679
ເຫຼົ່ານີ້ແມ່ນ	-11.2679
ບໍ່ແຮ່	-11.2681
ອາຊະຍາກໍາ	-11.2683
ກົກ	-11.2683
ທໍາການ	-11.2683
▁ຊອບແວ	-11.2687
▁ທອນ	-11.2691
▁ອາຟຣິກາ	-11.2694
▁ຖະແຫຼງ	-11.2695
tor	-11.2696
ນ້ໍາປະປາ	-11.2696
ເປັນຜູ້ນໍາ	-11.27
ລັກລອບ	-11.2701
san	-11.2703
▁ພາກວິຊາ	-11.2705
▁ລັດຖະທໍາມະນູນ	-11.2705
▁ອ່າວ	-11.2708
▁ບໍ່ຖືກ	-11.2713
▁ຕໍ່ກັບ	-11.2713
ຫນາວ	-11.2714
▁ທໍາມະວົງ	-11.2721
ເລັກ	-11.2721
ກຽມພ້ອມ	-11.2722
ເພື່ອແນໃສ່	-11.2726
▁ກັງວົນ	-11.2726
ຂໍ້ແຂ່ງຂັນ	-11.2727
ຊຽງຂວາງ	-11.2727
ຖືວ່າເປັນ	-11.2729
ເຫຼົ້າ	-11.273
ຕ່າງໆເຊັ່ນ	-11.2731
▁ແສນຄົນ	-11.2733
ຊັບສິນທາງປັນຍາ	-11.2734
▁360	-11.2735
▁ເພາະສະ	-11.2737
▁ປາຖະກະຖາ	-11.2739
▁ຄັງ	-11.2742
▁ເຫລີ	-11.2742
ຄໍາຄິດຄໍາເຫັນ	-11.2742
ເທັກ	-11.2743
▁ກະສັດ	-11.2743
▁ເປີດຕົວ	-11.2744
▁Songs	-11.2744
ວົງຈອນ	-11.2744
▁ເຂົ້າໃຈກັນ	-11.2746
▁ສະແດງຄວາມ	-11.275
ໃຫ້ບັນດາ	-11.275
ແຫລ່ງ	-11.2751
ຄູ່ຮ່ວມມື	-11.2754
ຊິບ	-11.2758
▁Ru	-11.2758
az	-11.2761
ໃນເລື່ອງ	-11.2762
▁ອະນຸລັກ	-11.2765
▁ກຽວ	-11.2765
▁ສິນລະປິນ	-11.2766
83	-11.2767
▁ມັດທະຍົມ	-11.2769
ການຈ່າຍເງິນ	-11.2769
ໄບ	-11.2769
57	-11.2769
des	-11.2772
▁1.000	-11.2776
ສອບຖາມ	-11.2776
▁ມົສກູ	-11.2777
ົມ	-11.2777
ron	-11.2777
ຄັ້ງໃຫຍ່	-11.2778
▁ເລຂາຄະນະພັກ	-11.2778
▁ຕັດສິນໃຈ	-11.278
ຫມວດ	-11.2782
ຄ້າງ	-11.2783
▁ຕານ	-11.2785
ພົວພັນກັບ	-11.2788
▁ສານສູງສຸດ	-11.279
ກໍ່ໃຫ້ເກີດ	-11.2792
▁ເກຣັກ	-11.2792
▁Mu	-11.2793
ການຂະຫຍາຍ	-11.2797
ຕື່ນເຕັ້ນ	-11.2797
ທົບທວນຄືນ	-11.2798
ແຈກ	-11.2802
▁ມາຮອດ	-11.2802
▁Con	-11.2802
ອ້າງອີງ	-11.2803
▁ຈໍາປາ	-11.2806
ຈິນຕະນາການ	-11.2808
▁ເມົາ	-11.2808
▁ກົມການເມືອງ	-11.2809
ຄອມພິວເຕີ້	-11.2813
▁ເລັງ	-11.2815
▁ປະທານປະເທດຈີນ	-11.2816
72	-11.2818
ສຶກ	-11.2819
▁jet	-11.282
▁ແຊ	-11.2821
ຖຶກ	-11.2821
ໄດ້ຮັບຄວາມ	-11.2823
ກິນເຂົ້າ	-11.2824
ການເລີ່ມຕົ້ນ	-11.2824
ທີ່ສຸດຂອງ	-11.2825
▁ບາງຄັ້ງ	-11.2831
ພຽງເລັກນ້ອຍ	-11.2833
ຕື່ນ	-11.2835
7]	-11.2838
ks	-11.2839
EX	-11.2839
ອິດ	-11.284
ດີນ	-11.2844
iv	-11.2845
ການຮັກສາ	-11.2847
ໂຈມ	-11.2849
ອັດຕາສ່ວນ	-11.285
▁exactspy	-11.285
ດັດສະນີ	-11.285
ເກີດມີ	-11.2851
AR	-11.2852
▁ຖີບ	-11.2852
▁ຮີ	-11.2855
▁ຫາກໍ່	-11.2857
ຂັດຂວາງ	-11.2857
▁ມ້ວນ	-11.2857
ຖືກຈັບ	-11.2857
▁ຍືນຍົງ	-11.2857
▁ດົ່ງ	-11.2859
ບໍລິຈາກເລືອດ	-11.2861
ເມືອ	-11.2862
ມີອາການ	-11.2862
ທຸກຍາກ	-11.2863
3]	-11.2863
ຂັ້ນສູນກາງ	-11.2864
▁ຊອກຫາທາງ	-11.2866
ກັບພວກເຮົາ	-11.2868
ຜູ້ໃຫ້ບໍລິການ	-11.287
▁Peter	-11.287
ສານປະຊາຊົນສູງສຸດ	-11.2871
https	-11.2872
ບັນດາແຂວງ	-11.2876
ການປະເມີນ	-11.2878
▁ທຸງ	-11.2879
▁ໃນຖານະ	-11.288
▁ຫຼອງ	-11.2884
ການກັ່ນຕອງ	-11.2885
ອລ	-11.2886
▁ຍົກເລີກ	-11.2887
▁ຄ່າບໍລິການ	-11.2888
▁ກະຊວງວິທະຍາສາດ	-11.2889
ການກໍານົດ	-11.2891
ແຫ່	-11.2891
ໂຄງການດັ່ງກ່າວ	-11.2892
▁107	-11.2893
ໄປດ້ວຍ	-11.2894
ຟອງ	-11.2894
ex	-11.2895
ໃນອະດີດ	-11.2897
ເລີ	-11.2898
້ອງ	-11.2899
▁ໃບຢັ້ງຢືນ	-11.2899
ສະບັບນີ້	-11.2902
▁ມົງ	-11.2902
ສໍາມະນາ	-11.2904
▁ບໍດີ	-11.2904
▁Ministr	-11.2908
▁Castle	-11.2909
kh	-11.2909
ຫຼາຍໆຄົນ	-11.2909
ມູນນິທິ	-11.2909
ສະແດງຄວາມຄິດເຫັນ	-11.2911
ກອງປະຊຸມຂັ້ນສູງ	-11.2911
ທຽມ	-11.2911
▁ນສພ	-11.2912
van	-11.2913
ໃຈກາງ	-11.2913
ຕະເວັນອອກ	-11.2923
▁ແຍງ	-11.2927
▁ພວງ	-11.2928
ເຣຍ	-11.2928
▁File	-11.2929
▁AM	-11.293
ອຶນ	-11.293
▁ຊາຊົນ	-11.2931
▁ອ່ານຕໍ່	-11.2932
ent	-11.2933
ທໍານຽບຂາວ	-11.2933
▁ແຍ້ງ	-11.2935
▁ໄດ້ຈັດຂຶ້ນ	-11.2935
ມາຫາ	-11.2936
ພວກທີ່	-11.2936
▁ແຕ່ບໍ່	-11.2937
ມີບົດບາດ	-11.2937
▁ໃນວັນທີ່	-11.2937
ຂຶ້ນຕົ້ນດ້ວຽ	-11.2938
ລວບລວມ	-11.2938
▁ເປັນຄວາມ	-11.2939
▁UXO	-11.2939
2]	-11.294
ທາງຣົດໄຟ	-11.2942
ຄຸນນະພາບຂອງ	-11.2943
ບ່ອນທີ່ມີ	-11.2944
ແມ່ນຫນຶ່ງໃນບັນດາ	-11.2944
▁ຍຸຕິທໍາ	-11.2945
ອີ່	-11.2946
▁ເຕະບານ	-11.2947
▁ມີຫນ້າ	-11.2948
ເຫລົ່ານັ້ນ	-11.2949
ປ້ອນ	-11.2953
ປະກອບອາຊີບ	-11.2957
▁ກຸ້ງ	-11.2957
ຝຶກ	-11.2957
▁TTXVN	-11.2957
▁ແນວຄວາມຄິດ	-11.2957
ໃນການຈັດຕັ້ງ	-11.296
ຈັດຂຶ້ນ	-11.2961
▁PS	-11.2965
af	-11.2966
▁ຫນູນຊ່ວຍ	-11.2967
▁ຄ້ວາ	-11.2967
ທົ່ວທຸກພາກຂອງ	-11.2967
▁this	-11.2968
ອະນຸລັກ	-11.2969
▁ດໍາເນີນການ	-11.2969
ການສິດສອນ	-11.297
cm	-11.2971
ພົ້ນ	-11.2972
▁ຍັງຄົງ	-11.2976
ກອງປະຊຸມຄັ້ງທີ	-11.2976
ຂອງເດັກ	-11.2976
ຢ່າງແຫນ້ນແຟ້ນ	-11.2977
▁ກ່	-11.2977
ຂອງສັງຄົມ	-11.2979
ເຊື້ອຊາດ	-11.2979
ເຂດເສດຖະກິດພິເສດ	-11.2979
con	-11.2979
▁ທະເລແມ່ນ	-11.298
92	-11.298
▁ໄດ້ເຮັດໃຫ້	-11.2981
ຫລາຍທີ່ສຸດ	-11.2982
ປຽບທຽບ	-11.2984
ຂີ່	-11.2987
▁ນິວຊີແລນ	-11.2989
▁ຫຼີ້ນ	-11.2993
▁ແລກປ່ຽນບົດຮຽນ	-11.2994
ພາກເອກະຊົນ	-11.2995
▁ປີກ	-11.2996
▁ວັນພຸດ	-11.2999
▁ນອງ	-11.3002
ໃນທີ່ສຸດ	-11.3004
-52	-11.3007
ຄະນະບັນຊາ	-11.3009
▁Tag	-11.301
▁ຄວາມຫມັ້ນຄົງຢູ່	-11.3011
ອອກມາຈາກ	-11.3014
▁ຜູ້ຊ່ຽວຊານດ້ານ	-11.3014
▁ກ່ອນຈະ	-11.3015
▁ພົບກັບ	-11.3015
▁ບັນດາອົງການ	-11.3018
▁ໂດຍໃຊ້	-11.3019
ໃກ້ຄຽງ	-11.302
tra	-11.302
ການປະກອບສ່ວນ	-11.3021
▁ພ້ອມຂອງກາງຢາບ້າ	-11.3022
▁ຕອບສະຫນອງ	-11.3024
ທົນ	-11.3024
-30	-11.3026
▁Glamor	-11.3026
▁Yahoo	-11.3026
ແນວໂນ້ມ	-11.3028
ໃນການເຮັດວຽກ	-11.3028
ສັງເກດເຫັນ	-11.3028
ຄິດເຖິງ	-11.3029
▁ປອມ	-11.3029
▁ເລດ	-11.3029
▁ທີ່ພວກທ່ານ	-11.3031
ລົກ	-11.3032
ຂອງນັກຮຽນ	-11.3033
ແຫ່ງວັນສ້າງຕັ້ງ	-11.3033
ທ່າແຮງ	-11.3035
ນະຄອນໂຮ່ຈິມິນ	-11.3039
▁ທິດທາງແຜນການ	-11.3039
▁ການກວດ	-11.3043
▁ຫນ້າຈໍ	-11.3047
▁ເຄລຍຂອງ	-11.3047
art	-11.3047
ຊະນິດໃຫມ່	-11.3048
ຈັດຕັ້ງສາກົນ	-11.3049
ສະມາດໂຟນ	-11.305
▁ສະຫຼູບ	-11.305
▁ຈຶ່ງບໍ່	-11.3052
MS	-11.3053
▁ຄິດເປັນ	-11.3054
▁Ca	-11.3055
▁ມົ້ງ	-11.3055
▁ແກ້ງ	-11.3056
ຂຶ້ນທະບຽນ	-11.3057
ING	-11.3058
▁ປະຈໍາເດືອນ	-11.306
▁ໃນຮອບ	-11.306
ຢ່າງອົບອຸ່ນ	-11.3062
ລອນ	-11.3063
▁Ti	-11.3064
ຣາມ	-11.3071
▁ຄ້າຂາຍ	-11.3071
ura	-11.3071
CP	-11.3071
ອ່າວ	-11.3072
▁ຄໍາຕອບ	-11.3074
ເລຂາ	-11.3074
▁ໂຈນ	-11.3077
▁ຫຼອດ	-11.3077
ຢຸດເຊົາ	-11.308
ຫມຶກ	-11.308
▁Line	-11.308
▁Ta	-11.3081
▁ໄວຫນຸ່ມເ	-11.3081
ຄ່ອຍໆ	-11.3081
ທີ່ໄດ້ຮັບການ	-11.3081
▁(2	-11.3082
▁ເລຂາພັກແຂວງ	-11.3084
ເປີ	-11.3085
ແຈ້ງໃຫ້	-11.3087
ມຸມ	-11.3089
▁ຕໍ່ປີ	-11.3091
▁ຄວາມພະຍາຍາມ	-11.3092
▁ເຊັ່ນດຽວກັນ	-11.3095
▁ບູລີ	-11.3096
ຕ່າງປະເທດສະຫະລັດ	-11.3097
▁ຈອມ	-11.3097
ທີ່ບໍ່ໄດ້	-11.3098
ມື້ລະ	-11.3099
▁98	-11.3101
▁ວ່າມີ	-11.3103
▁ກະສາ	-11.3107
▁ສະບາຍ	-11.3107
▁ຈະສາມາດ	-11.3107
▁1990	-11.311
ໂພສ	-11.3112
ອັນໃດ	-11.3113
▁API	-11.3113
ແຫ່ງການ	-11.3115
▁ເຄຼຍ	-11.3115
ທະເລຈີນ	-11.3115
AD	-11.3116
ky	-11.3116
ອັຟກາ	-11.3117
▁ແຜນງານ	-11.3121
▁ສະຫວ່າງ	-11.3122
ev	-11.3123
ການໃຊ້ງານ	-11.3125
▁ກັບທ່ານ	-11.3126
ຕ່ໍາກວ່າ	-11.3127
▁ໃຫ້ທ່ານ	-11.3127
ໂດຍພື້ນຖານ	-11.3128
ຈົດ	-11.3129
ຊັດເຈນ	-11.313
ທີ່ມີຢູ່ແລ້ວ	-11.313
ເກົ່າແກ່	-11.3135
ພາກກາງ	-11.3135
ສື່ມວນຊົນສັງຄົມ	-11.3136
ໄດ້ແກ່	-11.3137
ຜົນປະໂຫຍດຂອງ	-11.3142
MC	-11.3146
▁Viking	-11.3146
ຈົນເຖິງ	-11.3146
ຄູ່ຮ່ວມງານ	-11.3147
ism	-11.3149
▁ຊົ່ວໂມງວຽງຈັນ	-11.315
▁pasaxon	-11.315
ປະດິດສ້າງ	-11.315
▁Or	-11.3154
ລະດູບານໃຫມ່	-11.3155
▁US	-11.3157
ທະເລຫມູ່ເກາະ	-11.316
ໃຫ້ກາຍເປັນ	-11.3162
▁ຫມາຍເລກ	-11.3163
ຂັ້ນບ້ານ	-11.3163
▁77	-11.3164
ລຶບ	-11.3166
RI	-11.3167
ຊົມໃຊ້	-11.3168
▁ເຊື່ອວ່າ	-11.3168
ck	-11.3168
▁ຜັດ	-11.3171
ສັກສິດ	-11.3175
ອາຟຣິກາ	-11.3178
▁ໃນຊ່ວງ	-11.318
▁ຍັງເປັນ	-11.3181
ສົມທົບກັບ	-11.3183
ເຄື່ອງນຸ່ງຫົ່ມ	-11.3183
▁ຜ່ານການ	-11.3186
ຂອງປະທານາທິບໍດີ	-11.3187
▁ຈູ	-11.3191
ສີສັນ	-11.3193
▁ຮວາ	-11.3194
▁ແນວໃດ	-11.3202
ຂ່າວປະເສີດ	-11.3202
▁ທີ່ໄດ້ຮັບ	-11.3203
▁ຄວາມສຸກ	-11.3204
▁Reply	-11.3206
▁tonamchanews	-11.3206
ແບຣນ	-11.3207
▁Full	-11.3207
ແມ່ນຢູ່ໃນ	-11.3208
ການຄ້າເສລີ	-11.3211
ພາຍໃນແຂວງ	-11.3213
ຖ້າຫາກ	-11.3215
ເຕີມ	-11.3216
▁ຂຸມ	-11.3216
ງົບ	-11.3217
ລາງ	-11.3217
ຖັງ	-11.3217
▁ASEM	-11.3218
ົາ	-11.3218
▁ຈໍາກັດຜູ້ດຽວ	-11.3218
ຫຼັງຈາກທີ່	-11.3221
ເຂົ້າໃນການ	-11.3221
ເຂົ້າຮ່ວມທັງຫມົດ	-11.3223
ອ່າງ	-11.3224
▁ດີກວ່າ	-11.3226
▁ສະເຫມີ	-11.3227
ໄດ້ຍາກ	-11.3228
ເລນ	-11.3231
ຂອງຄອບຄົວ	-11.3232
ຄື້ນ	-11.3232
ລາຍການພາສາ	-11.3232
ກອງປະຊຸມລັດຖະບານ	-11.3235
ໄດ້ປະກາດ	-11.3238
ຄອມພີວເຕີ	-11.324
ວຽກງານຄຸ້ມຄອງ	-11.3241
▁ລະຫວ່າງວັນທີ	-11.3243
ຈຸດເກີດເຫດ	-11.3244
▁92	-11.3245
▁ຫ້ວຍ	-11.3245
ປະກົດການ	-11.3245
ທີ່ເປັນໄປໄດ້	-11.3245
ເກິດ	-11.3246
ຢ່າງສົມບູນ	-11.3248
ໄດ້ຮັບຮູ້	-11.3249
ໄດ້ເປີດ	-11.325
-6	-11.325
ຂະຫນາດກາງ	-11.3251
▁ເຊັກ	-11.3251
ໃນບັນດາຂົງເຂດ	-11.3253
ຄົນຮ້າຍ	-11.3254
ແລ້ວນັ້ນ	-11.3254
ຖຸ	-11.3256
▁ຕິດພັນກັບ	-11.3257
ພັບ	-11.3257
▁ພະແນກສຶກສາທິການ	-11.3257
ທຸກພາກສ່ວນ	-11.326
▁Debb	-11.3262
ເວັບໄຊຂອງພວກເຮົາ	-11.3262
ເຂົ້າໃຈວ່າ	-11.3263
▁WhatsApp	-11.3267
▁April	-11.3267
ຮູ້ນໍາພາຮອບດ້ານ	-11.3267
▁Touch	-11.3267
ການຂຽນ	-11.3268
▁Yula	-11.3269
ທຸກໆມື້	-11.327
ລ້ຽງສັດ	-11.327
▁ລ້າ	-11.3271
ບັນດາຜູ້	-11.3274
ware	-11.3274
ໃນທາງ	-11.3274
ງານມະຫາກໍາກິລາ	-11.3275
ພາວະ	-11.3276
▁Hat	-11.3278
▁ເອເຊຍ	-11.3279
ris	-11.328
ໃນການກໍ່ສ້າງ	-11.328
▁ຄສ	-11.3281
ຮຽນຈົບ	-11.3283
▁ພົນຈັດຕະວາ	-11.3284
▁Har	-11.3284
ປຽກ	-11.3285
ແມ	-11.3291
▁ກີດ	-11.3291
ຂອງຂວັນ	-11.3293
ແຕ	-11.3294
har	-11.3297
ting	-11.3298
ຫັດ	-11.33
ຂອງພາກພື້ນ	-11.3301
ຢຸງ	-11.3302
ຕໍ່ປີ	-11.3303
▁Las	-11.3303
▁ຈັດກິດຈະກໍາ	-11.3303
ໃນມື້	-11.3304
ການລະບາດພະຍາດ	-11.3304
ຊັ່ນ	-11.3305
ມາກຣົງ	-11.3305
book	-11.3305
ຫລືບໍ່	-11.3309
▁ຄື້ນ	-11.3316
▁Program	-11.3316
▁Art	-11.3318
73	-11.3319
ວິທະຍຸກະຈາຍສຽງ	-11.332
▁ຄວາມສໍາພັນ	-11.3323
ກ່ຽວກັບບັນຫາຄວາມ	-11.3324
ຕ໌	-11.3327
▁Ga	-11.3328
▁Universe	-11.3328
ning	-11.3329
▁ສະຫງວນ	-11.333
eo	-11.3331
vin	-11.3332
NA	-11.3334
▁so	-11.3336
ຂ້ອນຂ້າງ	-11.3336
ເອີຍ	-11.3339
ສະເຫມີໄປ	-11.3339
ໍ່	-11.3341
ບັນຊີລາຍການ	-11.3345
ກ້າວເຂົ້າສູ່	-11.3346
▁back	-11.3348
ຢ່າງໃກ້ຊິດ	-11.3349
▁ສັບສົນ	-11.335
ມີຄຸນນະພາບ	-11.335
ລຶກ	-11.3351
▁James	-11.3352
▁ຕູນ	-11.3352
ອ້າຍນ້ອງ	-11.3353
▁Cup	-11.3354
▁ທີ່ສາມາດ	-11.3356
▁ໃນດ້ານ	-11.3357
▁ເຈົ້າເມືອງ	-11.3359
ິງ	-11.3362
ຍຸງ	-11.3364
ນ໌	-11.3368
▁ຄິດວ່າ	-11.3368
ໂດຍບໍ່	-11.3369
▁ເຈ້ຍ	-11.337
ເຮັດໃຫ້ພວກເຂົາ	-11.337
▁ສ່ວນຫຼາຍ	-11.3371
ໃຫ້ພວກເຂົາ	-11.3372
ຫ່າງ	-11.3372
ວັງວຽງ	-11.3375
▁ພວກນັກ	-11.3376
ສ້າງສາ	-11.3377
▁ຟານ	-11.3377
▁ຊື້ຂາຍ	-11.3382
▁ອຸດົມສົມບູນ	-11.3383
ນອງ	-11.3384
ສະຫລຸບ	-11.3385
ຄວາມຜິດ	-11.3385
ການທໍາລາຍ	-11.3386
▁ຢ່າງຍິ່ງໃຫຍ່	-11.3388
▁roulette	-11.3389
▁ໂດດຂົວຂ້າ	-11.3389
▁ມວຍ	-11.3389
▁ນິກກີ	-11.339
ສ່ວນຫນຶ່ງຂອງ	-11.3391
iya	-11.3393
ກິ່ນ	-11.3393
ຫນາມ	-11.3394
ລົດໄຟ	-11.3394
▁ກຸດ	-11.3395
▁Aung	-11.3395
ສຸດໆ	-11.3395
▁ດ໌	-11.3398
▁ທິມ	-11.3398
▁ສີດໍາ	-11.3399
ໄດ້ຮັບການຢັ້ງຢືນ	-11.3399
▁ບໍລິຫານທຸລະກິດ	-11.34
▁LAOS	-11.34
ໄດ້ສໍາເລັດ	-11.3401
ມີມູນຄ່າ	-11.3402
▁ຢູ່	-11.3403
▁ວຸ້ນວາຍ	-11.3405
ໄດ້ເອົາໃຈໃສ່	-11.3406
▁ແອັບ	-11.3409
▁XI	-11.341
▁ພະແນກການ	-11.3412
ພົບປະແລກປ່ຽນ	-11.3412
▁4.5	-11.3413
ລຽບ	-11.3414
ຟື້ນ	-11.3415
ວິນຍານ	-11.3416
ເປັນກຽດເຂົ້າຮ່ວມ	-11.3417
▁ຈຶ່ງເຮັດໃຫ້	-11.3418
▁ບຸຊ	-11.3418
ເດືອນມັງກອນ	-11.342
ຫນ້ອຍລົງ	-11.3423
DC	-11.3423
▁ເຂົ້າໂຮງຫມໍ	-11.3427
ບ້ານເຮືອນ	-11.3431
ກ່ຽວກັບວິທີການ	-11.3431
▁ແມ່ນຫນຶ່ງໃນ	-11.3431
ປະກາດໃຊ້	-11.3433
ຜູ້ມາຢ້ຽມຢາມ	-11.3433
▁CPTPP	-11.3434
▁ອຸບັດ	-11.3434
ຜູ້ທີ່ມີ	-11.3435
▁ດັກ	-11.3435
▁ຍາຍ	-11.3436
▁ທິດທາງ	-11.3436
MA	-11.3438
ith	-11.3439
ຣາຍ	-11.344
ເບິ່ງວ່າ	-11.3442
ລະວັງ	-11.3443
▁ເບົາ	-11.3444
▁ຊອງ	-11.3444
▁ເກີດເຫດ	-11.3445
ຫາເງິນ	-11.3445
ເປັນມືອາຊີບ	-11.3445
▁di	-11.3447
▁Project	-11.3449
08/2018	-11.345
▁Washington	-11.3451
Shabab	-11.3451
ເປັນກຽດຢ່າງຍິ່ງ	-11.3451
ຊາກ	-11.3455
ໍາລັບໂທລະສັບມືຖື	-11.3456
ຕະຫຼອດໄປ	-11.3456
ໃຫ້ດີຂຶ້ນ	-11.3457
ແຫຼ່ງທຶນ	-11.3463
ໃຊ້ຈ່າຍ	-11.3463
ທ່າເຮືອ	-11.3466
fr	-11.3467
▁ມອງ	-11.347
ຫລາຍຄົນ	-11.3474
▁ດຸນ	-11.3476
ກໍ່ແມ່ນ	-11.3476
▁ພະລັງງານໄຟຟ້າ	-11.3477
,000,000	-11.3477
▁ເຂື່ອນໄຟຟ້າ	-11.3477
ຍຸດທະສາດຮອບດ້ານ	-11.348
ບາງຄັ້ງ	-11.3481
ໄວ້ວາງໃຈ	-11.3483
ເຣື່ອງ	-11.3483
▁ນາມສະກຸນ	-11.3483
ທ່ີ	-11.3484
-9	-11.3485
ປ່ອນບັດ	-11.3486
ເດືອນພະຈິກ	-11.3486
▁ພຍາງ	-11.3488
ບຸດ	-11.3488
▁ແມ່ນການ	-11.3489
ຂວາງ	-11.349
OR	-11.3491
▁Forum	-11.3491
ip	-11.3491
0.000	-11.3491
▁ຈູດ	-11.3491
▁ຝົນຕົກ	-11.3492
ເຊັນສັນຍາ	-11.3495
▁Lake	-11.3497
ສາສນາ	-11.3497
ທີ່ມີລັກສະນະ	-11.3497
▁ສໍາຫຼວດ	-11.3498
ຟາມ	-11.35
▁ແພ	-11.3502
▁LAK	-11.3503
ທີ່ເຮັດວຽກ	-11.3503
ຊາວອົບພະຍົບ	-11.3504
▁NATO	-11.3505
▁10:	-11.3507
ຄວາມໄວສູງ	-11.3507
▁ກ່າວໃນ	-11.3508
▁ປ່ອງ	-11.3509
ຍັງສາມາດ	-11.3509
300	-11.351
ມີປະໂຫຍດ	-11.351
ປະສົງ	-11.3511
▁ແຂນ	-11.3512
ຂັ້ນຕົ້ນ	-11.3512
▁Aleppo	-11.3513
▁ຈັນສະຫມອນ	-11.3514
▁dis	-11.3515
▁ການທົດສອບ	-11.3516
▁ເອດສ໌	-11.3516
ຂອງພະແນກ	-11.3516
ລູກຊາຍ	-11.3516
▁ຊ່ຽວ	-11.3518
▁ເທດສະບານ	-11.3518
▁ທີ່ໃຊ້	-11.352
ແອບ	-11.3521
ອາດຈະບໍ່	-11.3522
ເປັນສັກຂີພິຍານ	-11.3523
ຢູ່ໃນປະເທດ	-11.3523
ລິ້ງ	-11.3523
ku	-11.3525
▁ໃນທົ່ວ	-11.3529
tha	-11.3531
ພາຍຫລັງ	-11.3531
▁ຂອງບໍລິສັດ	-11.3532
▁ອອກຈາກແຜນ	-11.3533
ລົດຊາດ	-11.3534
ກົດປຸ່ມ	-11.3535
ການເກັບຮັກສາ	-11.3535
ເຫັນໄດ້	-11.3535
ເກົ້າ	-11.354
ເດດ	-11.3541
ຂອງໂຮງຮຽນ	-11.3541
▁ຫລັງຈາກນັ້ນ	-11.3545
▁ກ່ອງ	-11.3546
▁ວັດແທກ	-11.3546
ໄດ້ຈັດຂຶ້ນ	-11.3555
ເຮືອງ	-11.3559
ຂອງພົນລະເມືອງ	-11.356
▁ຢູ່ນະຄອນຫຼວງ	-11.3561
ທາງດ້ານກົດຫມາຍ	-11.3562
▁ທີ່ດີທີ່ສຸດສ	-11.3566
85	-11.3566
ລະດູການ	-11.3567
▁ນາຍພົນ	-11.3567
ແຊນ	-11.3568
51	-11.3568
▁ໃນແຂວງ	-11.357
ຈູດ	-11.3571
-22	-11.3571
sen	-11.3575
▁ທ່ານຈອຣ	-11.3575
▁lovers	-11.3575
▁ການຕັ້ງຄ່າ	-11.3576
▁ຍິ່ງໄປກວ່ານັ້ນ	-11.3576
ໄປກັບ	-11.3576
ບາງສ່ວນ	-11.3576
ໃນຮ່າງກາຍ	-11.3576
ຢ່າງນ້ອຍ	-11.3577
▁ປະດິດ	-11.3579
ອິນຊີ	-11.358
ງ່າຍທີ່ຈະ	-11.3581
ໃກ້ຊິດ	-11.3583
▁ເພື່ອຕອບສະຫນອງ	-11.3583
▁ອົດສະຕຣາລີ	-11.3583
ສະພາປະຊາຊົນແຂວງ	-11.3587
▁ມະນຸດສະທໍາ	-11.3587
ທີ່ເຮັດ	-11.3589
▁ສະຕີ	-11.3591
ເຟ	-11.3593
ເຮັດໃຫ້ທ່ານ	-11.3593
▁Chat	-11.3594
ລຢູ	-11.3594
▁ໃນລະຫວ່າງການ	-11.3597
ຂອງກອງທັບ	-11.3598
91	-11.3598
ຄູ່ຮ່ວມມືຮອບດ້ານ	-11.3598
▁ວັນນະຄະດີ	-11.3602
ໃນເບື້ອງຕົ້ນ	-11.3603
▁ປະທານາ	-11.3604
▁ສະເຫຼີມໄຊ	-11.3606
▁ຖານຂໍ້ມູນ	-11.3606
ື້	-11.3606
▁ຜູ້ຂຽນ	-11.3606
▁Jun	-11.3607
ons	-11.3607
້ອຍ	-11.3607
▁ຂ້ອນ	-11.3609
ຮົ່ມ	-11.3609
ຈັດການກັບ	-11.3611
ລຸ	-11.3614
▁ຣັຖບານ	-11.3619
ພົມ	-11.3622
▁ກ່ອນທີ່	-11.3625
▁scene	-11.3626
TP	-11.3626
▁Robert	-11.363
▁ຮອງຫົວຫນ້າກົມ	-11.3633
ທີ່ສໍາຄັນຂອງ	-11.3634
ກະຊວງແຮງງານ	-11.3634
ີນ	-11.3635
ກໍ່ການຮ້າຍ	-11.3636
ກອຕທ	-11.3638
▁Poker	-11.3638
້ອນເລືອດຕິດເຊື້ອ	-11.3639
▁ປາດຖະຫນາຢາກ	-11.3639
▁GPS	-11.364
ເດີ່ນ	-11.3643
ປາຖະກະຖາ	-11.3643
tu	-11.3643
▁ຄົ້ນພົບ	-11.3644
▁ໃນມື້	-11.3646
ທີ່ໄດ້ຈັດງານລ້ຽງ	-11.3646
ເພີ່ມເຕີມກ່ຽວກັບ	-11.3648
ອັງ	-11.3648
AS	-11.3651
OT	-11.3651
▁ກ້ວາງ	-11.3652
▁ໃນນາມ	-11.3655
▁ຮ່ວມກອງ	-11.3657
▁ຫລານ	-11.3658
▁Per	-11.3658
sp	-11.3661
ລຸນ	-11.3664
ສະຫນອງໃຫ້	-11.3665
74	-11.3665
ຫຼຽນຄໍາ	-11.3668
ຈະເປັນການ	-11.3668
ຫນົນກໍາແພງເມືອງ	-11.3668
▁ສັງລວມ	-11.367
▁ວິຫານ	-11.3671
ຈຽງ	-11.3671
ໄດ້ຈາກ	-11.3672
▁ຂຶ້ນໄປ	-11.3675
▁(7)	-11.3675
ຜູ້ຈັດການ	-11.3675
ເມືອງວັງວຽງ	-11.3678
▁ກົມຈັດຕັ້ງ	-11.368
ສົດໃສ	-11.368
▁ປະກາດວ່າ	-11.3681
▁ອາວຸ	-11.3682
▁ສ້ອມ	-11.3683
ໄພຂົ່ມຂູ່	-11.3685
ເພດຍິງ	-11.3685
ທາງທະຫານ	-11.3686
ຫມໍ້	-11.3686
ເມື່ອຍ	-11.3688
▁ໄດ້ຕົກລົງ	-11.3689
ຄວາມສໍາຄັນຂອງ	-11.369
ຈື່	-11.3691
▁ຖະແຫຼງການ	-11.3692
ມີຈໍານວນ	-11.3693
▁ຂອງລາວ	-11.3694
ທີ່ຂອງຈີນ	-11.3694
▁ຈອກ	-11.3695
gi	-11.3696
▁ຢວນ	-11.3699
▁Engine	-11.37
▁ແວບໄຊ	-11.3701
ແລະຄວາມ	-11.3702
ເຂັ້ມ	-11.3703
▁ຢູເຄຣນ	-11.3703
TC	-11.3705
ການໃຊ້ຈ່າຍ	-11.3705
▁ແງ່	-11.3705
▁Sha	-11.3706
ສໍາພັນ	-11.3706
▁ພຣະຜູ້	-11.3708
ໃນການພົວພັນ	-11.3711
ເຈັບປ່ວຍ	-11.3712
ຄາສິໂນອອນໄລນ໌	-11.3713
▁2,000	-11.3715
ສາລາ	-11.3715
▁ໃນໄລຍະຈະມາເຖິງ	-11.3717
ປະຈໍາສະພາແຫ່ງຊາດ	-11.3717
ob	-11.3718
▁ຊຶ່ງຈະ	-11.3718
▁Ukraine	-11.3718
ົ່າ	-11.3719
ໂທລະສັບສະຫຼາດ	-11.372
▁ແມງ	-11.3721
▁82	-11.3722
ທີ່ພົ້ນເດັ່ນ	-11.3726
ກົດຫມາຍສາກົນ	-11.3728
ສໍາພັດ	-11.3729
▁ໂບດ	-11.373
▁ເປົ່າ	-11.3732
ຄວາມສະເຫມີພາບ	-11.3733
▁ເປັນຄັ້ງທໍາອິດ	-11.3733
ມະຫັດສະຈັນ	-11.3736
▁le	-11.3737
TM	-11.3738
▁ຄວາມໄວ	-11.3738
▁ຄວາມເຂົ້າໃຈ	-11.374
ເພື່ອການພັດທະນາ	-11.374
▁2002	-11.3741
▁ຂົ່ມ	-11.3742
▁ຂອງຣັດ	-11.3742
▁Mark	-11.3743
ດັບເປີ	-11.3743
ລົບລ້າງ	-11.3745
ທີ່ວາງໄວ້	-11.3745
ຂອງເພິ່ນ	-11.3746
ຫົວຫນ້າຫ້ອງການ	-11.3747
▁ຂໍ້ມູນຈາກ	-11.3748
ເປັນສິນຄ້າ	-11.375
▁ຖົມ	-11.3752
ເຄື່ອນຍ້າຍ	-11.3754
ຕອບໂຕ້	-11.3755
ole	-11.3755
ເຫັດ	-11.3755
ທຸລະ	-11.3757
ວັກ	-11.3758
ອົກ	-11.3758
▁ແທ່ງ	-11.3759
TE	-11.3759
ເຂັມ	-11.3759
ແຮມ	-11.376
▁97	-11.3761
ຫຼີ	-11.3761
▁ຖິ	-11.3761
▁ບັນລຸໄດ້	-11.3764
▁Van	-11.3765
▁Texas	-11.3765
▁Florida	-11.3765
▁ປະຊາຊົນຫຼາຍກວ່າ	-11.3766
ຢ່າງເຕັມສ່ວນ	-11.3766
▁ສົ້ມ	-11.3769
▁North	-11.377
vo	-11.3771
ແລ້ວວ່າ	-11.3775
ຫາຍສາບສູນ	-11.3775
ການປຶກສາຫາລື	-11.3776
▁ແມ່ນ້ໍາ	-11.3777
▁ມີຈໍານວນ	-11.3779
ປາກົດວ່າ	-11.3779
ທ່ານລັດຖະມົນຕີ	-11.3779
ນໍ້າປະປາ	-11.378
laophatt	-11.3781
ຢາສູບ	-11.3782
▁ມີຜູ້ຕິດເຊື້ອ	-11.3787
ໂຕ້	-11.3789
▁ສ້າງສັນ	-11.379
ye	-11.3793
ໄວລຸ້ນ	-11.3793
ຂີດ	-11.3793
ft	-11.3794
▁ບລິ	-11.3795
ນາຍຈ້າງ	-11.3796
ຊາວລາວ	-11.3796
▁Pen	-11.3797
▁Julia	-11.3797
▁ການໃຊ້ຈ່າຍ	-11.3797
▁ໄຟລ໌	-11.3798
ໃນແຕ່ລະປີ	-11.3798
▁ໄດ້ລົງ	-11.3799
▁ກໍ່ສ້າງພັກ	-11.3802
▁ລໍາບາກ	-11.3803
ອາຫານເຊົ້າ	-11.3804
▁ມຕົ້ນ	-11.3804
ທະນາ	-11.3805
໋າ	-11.3806
▁ມີການເຈລະຈາ	-11.3806
▁ມາເບິ່ງ	-11.381
ບໍ່ວ່າ	-11.381
dy	-11.3811
ສໍາຫລວດ	-11.3811
ປະຕິບັດໄດ້	-11.3813
In	-11.3816
▁ແຊ່	-11.3819
ຄືເກົ່າ	-11.3821
▁ex	-11.3824
ປອນ	-11.3829
Mhz	-11.3829
▁blockchain	-11.3829
▁Gold	-11.3829
ananews	-11.3829
▁17-23	-11.3831
▁ວົງດາລາ	-11.3831
ສິນລະປະ	-11.3834
ການປົກປ້ອງ	-11.3834
▁ໃນອະນາຄົດ	-11.3834
ໃນທັນທີ	-11.3836
ຄ່ໍາ	-11.3839
▁ແບກ	-11.3841
ໄດ້ຮັບລາງວັນ	-11.3842
ju	-11.3843
oo	-11.3848
ແຄມ	-11.3851
uan	-11.3852
ການຜະລິດກະສິກໍາ	-11.3853
້ຍ້າຍໄປທີ່	-11.3853
▁ຮ່ອງຮອຍ	-11.3855
ຫນ້າຮັກ	-11.3856
ຕອບຄໍາຖາມ	-11.3858
ach	-11.3859
tic	-11.3861
ເຊື່ອຫມັ້ນວ່າ	-11.3861
ກໍາລັງປະກອບອາວຸດ	-11.3867
ສາມາດບັນລຸ	-11.3868
▁ທັກສະ	-11.3868
▁over	-11.3869
▁ງົວ	-11.3871
▁ບໍຣິສັດ	-11.3871
▁ໄຮ້	-11.3872
▁1.5	-11.3872
BI	-11.3873
▁ໄດ້ພາກັນ	-11.3874
▁ແທກ	-11.3874
ປ່ອງ	-11.3876
ອັດຕະປື	-11.3876
▁ສ້າງຄວາມ	-11.3876
▁80%	-11.3877
▁ເກັບກໍາ	-11.3878
ການເສຍຊີວິດ	-11.3879
ໄດ້ມາ	-11.3879
mon	-11.388
▁Vienna	-11.3884
▁ໂດຍບໍ່ມີການ	-11.3885
▁ມັນມີ	-11.3888
ໂຫລດ	-11.3888
ຖວາຍ	-11.3891
ບໍາບັດ	-11.3892
▁ສີຂຽວ	-11.3892
▁_--	-11.3894
ປະດິດ	-11.3894
Qaida	-11.3894
▁Biden	-11.3894
▁Beach	-11.3895
ປາກເຊ	-11.3895
ວັນຊາດຄົບຮອບ	-11.3896
ກິໂລແມັດ	-11.3896
ທ້າ	-11.3897
ຕ່ໍາສຸດ	-11.3897
98	-11.3898
ຜ່ານການ	-11.3901
▁CO	-11.3901
▁ຫລັກສູດ	-11.3903
▁ສະມາຊິກສະພາ	-11.3904
ກົງກັນຂ້າມ	-11.3906
ge	-11.3907
▁ເປັນຄົນ	-11.3908
ຫົວຫນ້າພະແນກ	-11.391
▁ສະເຫນີໃຫ້	-11.3912
ໃນປະເທດໄທ	-11.3912
▁ເມື່ອວັນ	-11.3913
ເວນ	-11.3913
ໄດ້ເຂົ້າຮ່ວມ	-11.3915
ຕຣາ	-11.3919
▁ຄວັນ	-11.3922
ຫນ້ອຍກວ່າ	-11.3923
▁ສິ້ນສຸດ	-11.3924
▁ກິ່ນ	-11.3924
ດິບ	-11.3924
ະຊວງປ້ອງກັນປະເທດ	-11.3925
▁ຕົ້ນໄມ້	-11.3927
ລົງມື	-11.3929
▁ຮອງຮັບ	-11.3929
▁ໃນລະດັບ	-11.3935
ສໍາລັບທຸກຄົນ	-11.3937
ໄດ້ໃຊ້	-11.3939
ກິດຈະກໍາຕ່າງໆ	-11.3939
ປີ້ນ	-11.3939
ເຫລືອ	-11.394
ສັນຕິ	-11.3941
ທີ່ພວມ	-11.3941
▁ລ້ານກວ່າກີບ	-11.3942
ທີ່ເອີ້ນວ່າ	-11.3946
mail	-11.3949
▁ເມືອງສີສັດຕະນາກ	-11.3953
ຈໍາປາ	-11.3955
ທີ່ສູງ	-11.3956
▁ສຸພານຸວົງ	-11.3957
ແຜ່ລົງມາປົກຄຸມ	-11.3959
▁ເມກາວັດ	-11.3959
▁ຕິດຕໍ່ລົງໂຄສະນາ	-11.3959
▁Steel	-11.3959
▁ລືມຊື່ຜູ້ໃຊ້	-11.3959
▁Bambi	-11.3959
ທີ່ຂ້າພະເຈົ້າ	-11.396
ແປດ	-11.396
real	-11.3962
ຈົນກ່ວາ	-11.3964
▁ນັບແຕ່ປີ	-11.3966
ພົນລະ	-11.397
ໄຟໄຫມ້	-11.3971
ຈະໃຫ້	-11.3972
ລາວເຮົາ	-11.3974
ກ່ວາອີກ	-11.3974
▁As	-11.3975
ຂໍ້ຕົກລົງວ່າດ້ວຍ	-11.3975
ຄົນງານ	-11.3976
▁spy	-11.3976
row	-11.3977
▁ຫນົນ	-11.3978
▁CIA	-11.3979
ker	-11.398
ແມ່ນເພື່ອ	-11.398
ທີ່ນິຍົມ	-11.398
▁ຈໍາປີ	-11.3981
່ຽນ	-11.3981
▁1)	-11.3984
ຍົມ	-11.3985
▁ໄດ້ສະແດງຄວາມ	-11.3985
▁ອະທິປະ	-11.3985
ລຸຍ	-11.3986
ສາຍການບິນ	-11.3987
▁ຫຼ	-11.3987
▁ຈຸດຫມາຍ	-11.3987
ບໍ່ຢາກ	-11.3989
▁ມີກໍາລັງແຮງ	-11.399
ໃນທຸກ	-11.399
ສັງຫານ	-11.3991
▁ຈ້ອງ	-11.3991
▁ການກໍານົດ	-11.3992
▁Kar	-11.3993
▁ນໍ້າຖ້ວມ	-11.3996
້ຽນ	-11.3998
ຮັດ	-11.3998
▁CRI	-11.3998
▁ກະຊວງແຮງງານ	-11.3998
ລວຍ	-11.3999
▁ທີ່ປະເທດຫວຽດນາມ	-11.4
ໄດ້ເລີ່ມຕົ້ນ	-11.4005
▁ໃນໄວໆນີ້	-11.4005
▁Port	-11.4006
▁ການກວດສອບ	-11.4008
bu	-11.4009
▁ມສະຫລອງ	-11.401
▁ມຕື່ມ	-11.4011
ກາຣ	-11.4011
ຊ້ອມ	-11.4014
ດີເດັ່ນປະຈໍາປີ	-11.4015
▁ຢັ່ງ	-11.4016
▁ເພື່ອຈະ	-11.4016
▁King	-11.4017
ແລະບໍ່	-11.4018
ຮວມທັງ	-11.402
▁74	-11.402
▁as	-11.4022
ການປະພຶດ	-11.4022
ລອນດອນ	-11.4023
ຊິດ	-11.4024
▁FIMT	-11.4024
▁au	-11.4025
▁ອາກອນ	-11.4029
ສະຫວັດ	-11.4029
▁ບໍ່ຕົກ	-11.4029
ແທ່ງ	-11.4031
▁ເບິ່ງວີດີໂອ	-11.4032
-21	-11.4033
ເຄື່ອງຊ່ວຍເຫລືອ	-11.4033
▁ກະດານ	-11.4036
▁ທໍາການ	-11.4036
ລຸ່ມນີ້	-11.4037
▁ມາຮອດປັດຈຸບັນ	-11.4037
▁ແປດ	-11.4039
ຕົບແຕ່ງ	-11.4042
ການວາງແຜນ	-11.4044
-15	-11.4046
ໃນປະຫວັດສາດ	-11.4047
▁ຢ່າງຫນັກ	-11.4047
▁ວິທະຍາໄລຄູ	-11.4048
ໃນລະບົບ	-11.4049
ລົມກັນ	-11.4049
▁ນັ້ນເອງ	-11.405
ສື	-11.4053
ຕໍ່ຕ້ານລັດຖະບານ	-11.4055
▁Ads	-11.4055
▁ເຮັດໃຫ້ມີ	-11.4056
▁ແອັບເປີ້ນ	-11.4057
ຣາຊະ	-11.4059
ຟັນ	-11.406
▁ຜູ້ທີ່ໄດ້	-11.4061
ຍູ	-11.4066
▁ທ້ອນ	-11.4066
▁Bill	-11.4067
ອຸປະຕິເຫດ	-11.4067
ແບບໃຫມ່	-11.4069
ຢູ່ນັ້ນ	-11.407
ບັນດາເນື້ອໃນ	-11.4071
▁25%	-11.4071
▁ທີ່ພາກັນ	-11.4073
ກໍາລັງແຮງ	-11.4073
ຢ່າງຄົບຖ້ວນ	-11.4075
▁ຈໍານວນຜູ້	-11.4076
moon	-11.4077
ໃນກຸ່ມ	-11.4078
▁900	-11.408
▁ການສະແດງ	-11.408
▁Drive	-11.4081
ກັນວ່າ	-11.4082
ສະຫລອງ	-11.4085
▁ເດືອນພຶດສະພາ	-11.4085
▁Fi	-11.4086
GP	-11.4087
ໃນເວລາທີ່ທ່ານ	-11.4088
▁ສີໂຄດຕະບອງ	-11.4089
ເດືອນພຶດສະພາ	-11.4092
ເຮີ	-11.4094
ສະແຫວງຫາ	-11.4094
202/	-11.4094
▁ແຖມ	-11.4094
ຍ້ອງຍໍຊົມເຊີຍ	-11.4094
▁ລິກ	-11.4096
▁ເມື	-11.4096
ຕັກ	-11.4101
ປີທີ່ຜ່ານມາ	-11.4102
ຫນ້າທີ່ວຽກງານ	-11.4103
▁ເບິ່ງເພີ່ມເຕີມ	-11.4103
▁ວຽດນາມ	-11.4103
▁ຜິ	-11.4104
ເຂົ້າໃຊ້ງານ	-11.4104
▁Capital	-11.4106
ບິ	-11.4107
set	-11.4109
ແກ້ງ	-11.4109
▁ບາງທີ	-11.411
ແກະ	-11.411
▁ຄວາມຈິງ	-11.4116
▁ຮຽບຮ້ອຍ	-11.4117
ໃນຮອບ	-11.4119
ວິທີທີ່	-11.412
ອຸປະສັກ	-11.4124
ຫລວງພະບາງ	-11.4126
ຫາລື	-11.4126
ໂຮ່	-11.4128
▁ຫອມ	-11.4128
ມີຄວາມເຂົ້າໃຈ	-11.413
ໄດ້ເລີ່ມ	-11.413
▁ອອງ	-11.4134
ທຽວ	-11.4136
▁have	-11.4136
ໂຄງການລົງທຶນ	-11.4138
▁ເປັນເຈົ້າ	-11.414
res	-11.4141
ຸ່ນ	-11.4141
ທໍາອິດທີ່	-11.4143
▁Fu	-11.4144
▁Santa	-11.4145
ern	-11.4149
ລົບກວນ	-11.4155
ໂຄດ	-11.4155
ອາກາດຫນາວເຢັນຈາກ	-11.4156
86,000	-11.4156
▁ປະຢັດ	-11.4156
ເມນ	-11.416
▁ເດືອນກັນຍາ	-11.4161
ຍ່າງເພື່ອສຸຂະພາບ	-11.4161
▁ບັນດານັກ	-11.4162
▁Pre	-11.4163
▁ຢາດ	-11.4164
ນາໆ	-11.4165
▁ແລ້ວນັ້ນ	-11.4165
▁ວິດີໂອສົນທະນາ	-11.4166
ໄປຮ່ວມ	-11.4166
▁ໃຫ້ກຽດເຂົ້າຮ່ວມ	-11.4167
▁en	-11.4167
▁ພັນກີບ	-11.4169
▁ໄຟລ	-11.417
▁ແກ້ໄຂບັນຫາ	-11.4171
ສາມາດໃຊ້ໄດ້	-11.4172
ຊື່ດັງ	-11.4174
ຢ່າງຍິ່ງ	-11.4176
ຄາດຄະເນ	-11.4177
▁ຢາກໃຫ້	-11.4178
▁ພົງ	-11.4178
▁ມັນຍັງ	-11.4179
ຟ້ອນ	-11.4179
ທາງດ່ວນ	-11.4181
▁ຜູ້ສະຫມັກ	-11.4181
▁ຄ່າທໍານຽມ	-11.4183
ຖູ	-11.4189
rio	-11.4189
▁Like	-11.4189
ປະເທດລະຫວ່າງ	-11.419
▁ຂອງປະທານາທິບໍດີ	-11.419
▁ເວບໄຊ	-11.4192
▁ດ່າຫນັງ	-11.4193
ອີງຕາມ	-11.4193
▁ພິສູດ	-11.4194
▁ຕາເວັນຕົກ	-11.4194
ແຈ້ງການເຕືອນໄພ	-11.4197
ການເກັບກໍາ	-11.4199
ຈະຕ້ອງໄດ້	-11.4201
ile	-11.4202
▁ຕາດ	-11.4203
82	-11.4208
▁ໂ	-11.4208
▁ປາຊີ	-11.4209
ສ່ວນໃຫຍ່ແມ່ນ	-11.4209
ໃນໄລຍະຍາວ	-11.4209
ດີຈີຕອນ	-11.4215
ໄຊຍະບູລີ	-11.4215
ບໍ່ເປັນ	-11.4216
ສັ່ງຊື້	-11.4216
▁ການປ້ອງກັນ	-11.4216
▁ຈາກລັດ	-11.4217
AN	-11.4218
ຊຸກຍູ້ການຮ່ວມມື	-11.4221
▁ນັບມື້ນັບ	-11.4222
ເຂົ້າກັນ	-11.4222
ຮູບແບບການໂຫ	-11.4222
▁Technology	-11.4223
▁ຢາທໍ່ຕູ້	-11.4223
ວດແມ່ນການ	-11.4223
▁ITIL	-11.4223
▁ຝູງ	-11.4223
▁pre	-11.4228
ການຕະຫລາດ	-11.4229
ແບບພິເສດ	-11.4232
ທີ່ຫນ້າຕື່ນເຕັ້ນ	-11.4234
ໄດ້ໄປ	-11.4234
▁ຕົວເລືອກ	-11.4235
ພູເຂົາ	-11.4235
ໃບຢັ້ງຢືນ	-11.4239
▁Erdogan	-11.424
▁ຫມູ່ບ້ານ	-11.4241
▁ອັດຕະໂນມັດ	-11.4241
ສຸດທ້າຍຂອງ	-11.4242
ດ້ານສະບຽງອາຫານ	-11.4244
▁ທຶນການສຶກສາ	-11.4244
IN	-11.4246
ໃນຕອນເຊົ້າວັນທີ	-11.4247
▁ເວດ	-11.425
800	-11.425
▁ໂຍນ	-11.4252
ປະກົດ	-11.4252
▁ອອກໄປ	-11.4252
ຕໍ່ໄປນີ້	-11.4253
ຈໍາເປັນຕ້ອງໄດ້	-11.4256
ຍົກສູງປະສິດທິຜົນ	-11.4256
ຄືກັນກັບ	-11.4257
▁ພຣະເຈົ້າ	-11.426
▁ໂປຣແກຣມ	-11.4261
ການຮັບປະກັນ	-11.4262
▁decorate	-11.4262
ບໍ່ໄດ້ຮັບ	-11.4263
ເປັນສິ່ງສໍາຄັນ	-11.4265
ັຕ	-11.4265
▁1982	-11.4265
▁11.	-11.4265
▁ຂັດຂວາງ	-11.427
ຢ່າງຊັດເຈນ	-11.4271
ເຂົ້າສູ່ລວງເລິກ	-11.4275
ຢູ່ສະເຫມີ	-11.4276
ຊ່ວຍກັນ	-11.4279
ສະມັດຊາໃຫຍ່	-11.4281
ຄວາມກັງວົນ	-11.4281
▁En	-11.429
▁design	-11.429
▁District	-11.429
-12	-11.429
ນານາຊາດ	-11.429
ປັກກິ່ງ	-11.4293
ກຸ້ງ	-11.4296
▁ວ່ອງໄວ	-11.4296
ອັ	-11.4296
▁ມີຄົນ	-11.4297
day	-11.4298
ຈັງ	-11.4301
ທີ່ຍັງ	-11.4302
▁ຕາເວັນອອກ	-11.4303
4/5)	-11.4303
▁ໂທຣ	-11.4304
ລະລາຍ	-11.4304
ປານກາງ	-11.4307
ສາທາລະນະຊົນ	-11.4307
▁ຫຸ້ມ	-11.4307
▁ຊຶ່ງທ່ານ	-11.431
▁ໃນຕອນບ່າຍ	-11.4313
ດາວທຽມ	-11.4314
ເບີໂທລະສັບ	-11.4315
ເມືອງວຽງໄຊ	-11.4316
ສັງກັດ	-11.4316
ຈົນຮອດ	-11.4318
▁ຢູໄນເຕັດ	-11.4322
▁ເຄື່ອງນຸ່ງຫົ່ມ	-11.4322
sy	-11.4322
ລະບາດ	-11.4322
ໃຫ້ມັນ	-11.4323
▁ດຽວນີ້	-11.4324
ຈະໄປ	-11.4324
▁ຄ້າຍຄື	-11.4325
ນິງ	-11.4328
ມີຄວາມສາມາດ	-11.4329
ນາຍທະຫານ	-11.4333
ເປັນປະໂຫຍດ	-11.4335
▁ຢູ່ຕາມ	-11.4335
ປະຫວັດຄວາມເປັນມາ	-11.4335
ຂອງທ່ານໃນ	-11.4335
▁ທັງຫລາຍ	-11.4336
ຊັດ	-11.4337
ທ່ານຕ້ອງການທີ່ຈະ	-11.4337
cha	-11.4337
ys	-11.4338
▁ຄວາມຄິດ	-11.4339
▁ຫ້ອງຮຽນ	-11.434
ວິທີແກ້ໄຂ	-11.4343
ຢ່າງມີ	-11.4343
▁ຖ້ວຍ	-11.4344
ງຽບ	-11.4345
ບໍ່ຕ້ອງການ	-11.4345
ກີນ	-11.4345
ເງິນຕາ	-11.4346
ເດີນທາງມາຢ້ຽມຢາມ	-11.4346
ຣັກ	-11.4349
▁ທິພົນ	-11.4349
▁PM	-11.435
ຊຸກຍູ້ສົ່ງເສີມ	-11.435
▁ໃນພາກ	-11.4351
▁ເຮົາມີ	-11.4353
ຜູ້ຊື້	-11.4353
▁1995	-11.4353
▁ເອີລົບ	-11.4356
ຄັບ	-11.4356
▁Crack	-11.4358
ເດີແລນ	-11.4358
▁ຖ້າທ່ານຕ້ອງການ	-11.4359
bc	-11.4359
ຫາປາ	-11.4359
▁ມປິກ	-11.436
ໄວຣັສ	-11.4361
ົດ	-11.4361
ລະດູຫນາວ	-11.4362
▁ຫໍ່	-11.4363
ຢ່າງຈົບງາມ	-11.4371
▁ໃນເວລາທີ່ທ່ານ	-11.4371
▁ເເຕ່	-11.4371
ຈັງຫວັດ	-11.4375
▁ຈື່	-11.4377
ເຈົ້າພາບ	-11.4378
ຜູ້ປົກຄອງ	-11.4378
ພຽງຢາງ	-11.4379
ຮັກສາຄວາມສະຫງົບ	-11.438
▁ໄດ້ເຮັດ	-11.4382
ກ່ຽວກັບເລື່ອງ	-11.4382
▁ຍັງຈະ	-11.4386
▁ma	-11.4387
▁ສະທ້ອນ	-11.4387
ສາລະວັນ	-11.439
▁ທີ່ແທ້ຈິງ	-11.4391
▁ຄ່ອງ	-11.4391
ກະແສໄຟຟ້າ	-11.4392
ຫມັ້ນຄົງ	-11.4393
ເອັນ	-11.4397
ຕາມຄວາມຕ້ອງການ	-11.44
ປ້ອງກັນບໍ່ໃຫ້	-11.4402
▁ກິໂລກຣາມ	-11.4403
ໃຫ້ສອດຄ່ອງກັບ	-11.4404
ອີຈິບ	-11.4405
und	-11.4406
ຣິດ	-11.4409
ທີ່ມີຄວາມຫມາຍ	-11.4411
ສະແດງຄວາມຂອບໃຈ	-11.4412
▁Te	-11.4413
MO	-11.4413
ຂອງຜະລິດຕະພັນ	-11.4414
▁Spin	-11.4415
ize	-11.4416
▁ຖອດ	-11.4417
▁96	-11.4417
▁ຄ່າໃຊ້ຈ່າຍ	-11.4418
ສ່ວຍສາອາກອນ	-11.4418
ສ້າງຕັ້ງຂຶ້ນ	-11.4419
▁ບັນດາຜູ້	-11.442
▁ການຕິດຕັ້ງ	-11.4421
▁ຕິຕຽນ	-11.4422
▁ລອນດອນ	-11.4422
▁ອີງຕາມການ	-11.4423
ທີ່ມີອາຍຸ	-11.4423
▁ຄະນະກໍາມາທິການ	-11.4425
ມະຫາສະຫມຸດ	-11.4426
▁ຊຶມ	-11.4433
ວ່າດ້ວຍການ	-11.4436
ນັກພັດທະນາ	-11.4436
ສະພາສູງ	-11.4436
▁ດີກ	-11.4436
ກະຊວງແຜນການ	-11.4438
ຂັບໄລ່	-11.4438
ລາມະ	-11.4439
▁ລວມມູນຄ່າ	-11.4439
ທຸລະກໍາ	-11.444
▁VIP	-11.444
ປ່ອຍໃຫ້	-11.444
▁100.000	-11.4442
ທີ່ສໍາຄັນທີ່ສຸດ	-11.4442
ີ້	-11.4442
ໄດ້ຕົກລົງ	-11.4442
ສຶກສາທິການ	-11.4443
▁ດຸ	-11.4444
ດີໃຈ	-11.4445
ຫຼາຍຮ້ອຍ	-11.4445
▁museu	-11.4446
▁Dev	-11.4446
ຮົ່ງ	-11.4446
▁ນັກຮ້ອງ	-11.4446
ire	-11.4447
▁ປີທີ່ຜ່ານມາ	-11.4448
▁ປະເທດຈີນ	-11.4448
▁ປະເມີນຜົນ	-11.4448
ເປັນປະເທດ	-11.4449
▁ແທນທີ່ຈະ	-11.445
ບ້ານເຮົາ	-11.4452
ກອງກໍາລັງ	-11.4453
ໃນຫມວດ	-11.4454
▁Tech	-11.4455
ການພົວພັນຄ	-11.4456
ປະເທດຕ່າງໆ	-11.4457
ໄປນໍາ	-11.4458
▁ເຄົ້າ	-11.4459
ຫມາກນາວ	-11.446
ບໍ່ມີຈິງ	-11.4461
ແກນ	-11.4466
ປີຜ່ານມາ	-11.4466
ຄວາມສາມາດໃນການ	-11.4467
▁ບານເຕະ	-11.4469
▁ສຶກສາທິການ	-11.4474
▁ທີ່ຍັງ	-11.4474
ຂໍ້ຂັດແຍ່ງ	-11.4474
ໂດຍສະເພາະແມ່ນ	-11.4475
ມານີ້	-11.4477
▁ຊຸກຍູ້ການພົວພັນ	-11.4478
▁ປະຈໍາລາວ	-11.4478
▁ເປັນເຈົ້າພາບ	-11.448
▁ສີສັດຕະນາກ	-11.4481
ລຸ້ນໃຫມ່	-11.4487
ປະຊາຄົມອາຊຽນ	-11.4487
nan	-11.4489
ຖ້ວມ	-11.4489
▁ສອບເສັງ	-11.4489
ລູກສອນໄຟ	-11.4491
▁Muay	-11.4494
▁ພຶດຕິກໍາ	-11.4495
ສັງເກດເບິ່ງ	-11.4496
ສປປລາວ	-11.4497
ວົງສາ	-11.4499
▁ຮັບໃຊ້	-11.45
ນໍ້າຫນັກ	-11.4501
ຫຼາຍດ້ານ	-11.4503
ຊອນ	-11.4503
59	-11.4506
ຊັງ	-11.4507
ບັນດາຜົນງານ	-11.4507
ປາງ	-11.4507
ຜະລິດຕະພັນກະເສດ	-11.4507
▁ລະຄອນ	-11.4508
▁ບໍ່ຄວນ	-11.4508
▁Sen	-11.4508
ອັກເສບ	-11.4509
▁VS	-11.451
ລາມ	-11.4514
62	-11.4514
ສັດທາ	-11.4514
ອາຫານການກິນ	-11.4517
▁ການທຸດຈະລິດ	-11.4517
ຜົນກະທົບຕໍ່	-11.4518
ວັນພັກ	-11.4519
GDP	-11.4519
ທາງທໍາມະຊາດ	-11.4522
ric	-11.4522
▁ສີແດງ	-11.4522
ຂອງເດັກນ້ອຍ	-11.4525
ຈີກ	-11.4529
▁ຍົກເວັ້ນ	-11.4531
ກໍ່ສາມາດ	-11.4531
ສ່ອງແສງ	-11.4532
ອອ	-11.4532
ເສັ້ນຊາຍແດນ	-11.4533
▁ອີເມລ	-11.4534
ທໍາຮ້າຍ	-11.4535
ຕີ້	-11.4538
ຊຸດໃຫມ່	-11.4538
ນິວເຄຼຍ	-11.4539
▁ເມີ	-11.454
ໃນການຜະລິດ	-11.4541
▁ໃນຕອນທ້າຍ	-11.4541
ປະເທດອັງກິດ	-11.4542
ສະຕິປັນຍາ	-11.4543
ຄອບຄອງ	-11.4544
ຫນ້ານີ້	-11.4544
ຕົກຄ້າງ	-11.4544
▁ລອບ	-11.4548
ຂອງກົມ	-11.4548
▁ອະດີດຮອງ	-11.455
ຈະເຮັດ	-11.4555
▁ອກ	-11.4555
,5%	-11.4555
ຍັກ	-11.4556
▁ມາສູ່	-11.4556
ຈະໃຊ້ເວລາ	-11.4561
ໃນຕອນເຊົ້າ	-11.4561
▁ຊ່ານ	-11.4562
▁JavaScript	-11.4563
▁Blackjack	-11.4563
ປະເຊີນຫນ້າກັບ	-11.4564
ເຄືອບ	-11.4565
▁ລວມທັງຫມົດ	-11.4567
ໃນການແຂ່ງຂັນ	-11.4567
ສວຍ	-11.4568
ສ່ອງ	-11.457
▁(20	-11.4573
ກອງປະຊຸມດັ່ງກ່າວ	-11.4573
▁GA	-11.4576
▁ASOSAI	-11.4578
▁Musa	-11.458
▁ຫຼຽນຄໍາ	-11.4582
▁ຮອງເລຂາພັກແຂວງ	-11.4586
▁ຂະບວນ	-11.4586
▁ເຖີງ	-11.4586
ແຂກທ່ອງທ່ຽວ	-11.4588
ໄກສອນ	-11.4588
ວັນຄູແຫ່ງຊາດ	-11.4588
▁ເຮັດແນວໃດ	-11.4589
ທົ່ງນາ	-11.4589
▁ນະວັດຕະກໍາ	-11.4589
▁ມີແຕ່	-11.4589
▁ສະຫ	-11.459
▁ແຕ່ລະຄົນ	-11.459
ື່ອ	-11.4591
ບັນດາຄູ່ຮ່ວມມື	-11.4591
▁ເດືອນມິຖຸນາ	-11.4591
▁ສຸຂະ	-11.4592
ຮະ	-11.4593
▁19,	-11.4596
ຮຽບຮ້ອຍ	-11.4601
po	-11.4601
▁Not	-11.4604
ນັກໂທດ	-11.4605
▁ຈັ່ງ	-11.4606
ຄົບວົງຈອນ	-11.4606
ຕອນບ່າຍຂອງວັນທີ	-11.4607
▁ໂດຍໄວ	-11.4608
ການເທຣດ	-11.4608
ell	-11.461
▁ແຕ່ຖ້າ	-11.461
▁ບໍານານ	-11.4611
ຮ້ອງຂໍ	-11.4613
ເປັນປະທານາທິບໍດີ	-11.4614
ໄຂ້	-11.4617
ວັດຖຸດິບ	-11.4618
ດິ່ງ	-11.462
ແລະເຮັດໃຫ້	-11.4624
ເນັ້ນຫນັກ	-11.4624
▁ຄວາມສໍາຄັນ	-11.4625
▁ອັກສອນ	-11.4627
▁ໄປສູ່	-11.4627
▁ພົນຕີ	-11.4628
▁ເຂົ້າຮ່ວມພິທີ	-11.4628
ຍີ່	-11.4629
ພຸດທະ	-11.4629
ລິກ	-11.4629
ຂອງນະຄອນ	-11.4629
▁ພັດທະ	-11.4631
ອຸປະຖໍາ	-11.4631
▁here	-11.4632
▁Golf	-11.4633
ເນື່ອງໃນໂອກາດ	-11.4633
▁ຕິບັດ	-11.4635
ກ້າມເນື້ອ	-11.4636
▁ຄັ້ງວັນທີ	-11.4637
ເບີກ	-11.4638
▁ໂຫຼດ	-11.4641
ໄດ້ເປັນ	-11.4641
ຍ້ອນວ່າ	-11.4642
▁ການແລກປ່ຽນ	-11.4642
ບົບ	-11.4643
ຄົງທີ່	-11.4646
ຮ່ໍາຮຽນ	-11.4648
ລີເບຍ	-11.4648
ຫຼົງ	-11.4649
▁CA	-11.465
▁ຂອງບັນດາ	-11.4652
▁ຄາຍ	-11.4654
▁Tel	-11.4654
▁Phu	-11.4654
tal	-11.4655
ເວບ	-11.4655
ພາຍໃນພະແນກ	-11.4656
▁ການເຄື່ອນໄຫວຂອງ	-11.4656
ກ່ອນນີ້	-11.4656
▁ສະຕິ	-11.4659
ຂອດ	-11.4663
ຈຸດຫມາຍປາຍທາງ	-11.4663
ray	-11.4664
bar	-11.4667
▁Minsk	-11.4669
ທາງການລາວ	-11.467
ທົດສະວັດ	-11.4671
150	-11.4673
ລົດບັນທຸກ	-11.4675
▁ບັນດາທ່ານ	-11.4676
ພະແນກສຶກສາທິການ	-11.4678
▁ດ້ອຍ	-11.4679
ອ້າງວ່າ	-11.468
ຣິກ	-11.4682
ເອົາເງິນ	-11.4684
ເຊົາ	-11.4687
ບໍ່ວ່າຈະເປັນ	-11.4688
▁ທົດລອງ	-11.469
ໂຫວດ	-11.4691
ທຽບເທົ່າ	-11.4692
ລວມຂອງ	-11.4692
▁ສີຂາວ	-11.4693
▁RPG	-11.4693
▁ຜູ້	-11.4693
ສູບ	-11.4694
ag	-11.4694
ບໍ່ເສຍຄ່າ	-11.4697
ຕິດເຊື້ອ	-11.4702
▁Ye	-11.4704
▁ຖະຫນົນລ້ານຊ້າງ	-11.4705
ການປະກວດ	-11.4705
ການດູແລ	-11.4705
ຫຼົບຫນີ	-11.4705
▁ລືມຊື່	-11.4705
▁Nang	-11.4705
ຕ່າງໆໃນ	-11.4707
▁ກ່າວຄໍາເຫັນ	-11.471
ເລາະ	-11.4711
▁Assad	-11.4712
▁ຕໍ່ສື່ມວນຊົນ	-11.4713
5%	-11.4714
CI	-11.4715
cho	-11.4716
▁ຟິ	-11.4718
ຄວາມຮັບຜິດຊອບຂອງ	-11.4718
▁ຄຸນນະສົມບັດ	-11.4719
AL	-11.4721
ຢຸດຕິ	-11.4724
ຊາວຫວຽດນາມ	-11.4724
ນ້ອງໆ	-11.4726
ແອພ	-11.4726
ເກັບລາຍຮັບ	-11.4729
SC	-11.4729
▁ແຫຼງການ	-11.4732
ສິລາ	-11.4732
ສອດ	-11.4735
▁Cho	-11.4736
ຂື້ນມາ	-11.4736
ປະໄວ້	-11.4738
▁5,000	-11.4739
ອະທິການບໍດີ	-11.4739
ຈະໃຊ້	-11.4743
ຼະຊີວິດເພື່ອຊາດ	-11.4745
ທຽບ	-11.4752
ບັນດາທ້ອງຖິ່ນ	-11.4752
▁ມາບ	-11.4752
ight	-11.4752
ໃນບໍລິເວນ	-11.4752
▁ອາຍາ	-11.4754
▁ຂອງສະພາ	-11.4754
▁ການແກ້ໄຂ	-11.4755
ກວດພົບ	-11.4757
ການນໍາສະເຫນີ	-11.4757
▁Ke	-11.4758
▁ຕາມລໍາດັບ	-11.4759
▁ປາດຖະຫນາວ່າ	-11.4759
ເວົ້າກ່ຽວກັບ	-11.4759
ນັ້ນກໍ	-11.4761
▁Abu	-11.4762
ກຸ່ມຄົນ	-11.4762
ປະມູນ	-11.4762
ອາຊ່ຽນ	-11.4762
ມີຄຸນຄ່າ	-11.477
▁ໂຫ	-11.4771
ສູ້ຮົບ	-11.4771
▁Francis	-11.4772
▁Hollande	-11.4773
ແກ້ໄຂຄວາມທຸກຍາກ	-11.4774
ໃນວຽກງານ	-11.4775
▁ພັກປະຊາຊົນ	-11.4775
▁ຮອງເຈົ້າ	-11.4777
ທີ່ມີປະໂຫຍດ	-11.4777
ອັດຕາດອກເບ້ຍ	-11.4778
SH	-11.4778
▁ຜູ້ບໍລິຫານ	-11.4779
▁76	-11.478
▁ມີປະລິມານ	-11.478
ການຮັບຮອງ	-11.478
ລັດທິ	-11.4781
▁Jenni	-11.4782
ເຂ	-11.4782
ໃຫ້ເຂົາ	-11.4782
ບົນພື້ນຖານ	-11.4784
ຊົນນະບົດໃຫມ່	-11.4784
ທາງທະເລ	-11.4786
▁ບໍ່ເຄີຍ	-11.4786
ໃນກໍລະນີ	-11.4787
ເຕະບານໂລກ	-11.4788
▁Part	-11.4789
ທີ່ວ່ານີ້	-11.479
▁ວ່າງ	-11.4791
▁ໄດ້ຕ້ອນຮັບ	-11.4792
ແຕ່ລະຂັ້ນ	-11.4792
ປີກາຍນີ້	-11.4793
▁bo	-11.4793
ສິ່ງນີ້	-11.4796
ຜົນສະທ້ອນ	-11.4797
ກົງຈັກການຈັດຕັ້ງ	-11.4798
cen	-11.4799
ມີພຽງແຕ່	-11.48
ກໍາເນີດ	-11.48
▁ວັນພັກ	-11.48
ອະນຸຍາດໃຫ້ທ່ານ	-11.4801
▁ພັກຜ່ອນ	-11.4802
ທໍານຽບ	-11.4802
ຮ່ອງ	-11.4806
▁AI	-11.4806
ຖືເອົາ	-11.4806
▁ຫົງ	-11.4806
ນຸວົງ	-11.4807
▁ທະເລຫມູ່ເກາະ	-11.4807
ການປ່ອຍ	-11.4807
▁ລະບາດ	-11.481
ໃຫ້ເຊົ່າ	-11.481
ຈ້ອງ	-11.4813
ອັດຕາການ	-11.4813
ຫົງ	-11.4814
▁ອຸນຫະພູມ	-11.4814
ປະເດັນ	-11.4816
▁ພັດທະນາຊົນນະບົດ	-11.4816
ດໍາລົງ	-11.4818
ຂົ່ມຂືນ	-11.4819
ຄວາມຖືກຕ້ອງ	-11.482
ຂັ້ນເທິງ	-11.482
▁ລົ	-11.4821
▁Box	-11.4822
▁Che	-11.4823
▁ຫມ	-11.4824
ຄ໌	-11.4825
ໂ	-11.4827
ລື້	-11.4827
▁ແມັກ	-11.4828
▁Kyi	-11.4829
ຄາດຕະກໍາ	-11.4831
▁ຂອງປະ	-11.4836
ການເປີດ	-11.4837
ອື່ນໆທີ່	-11.4837
mb	-11.4838
ແມ່ນສິ່ງທີ່	-11.4838
ກີ້	-11.484
▁ສັດປ່າ	-11.4841
ຕ້ອນ	-11.4841
ເຄົ້າ	-11.4843
▁IX	-11.4843
▁ແຕ່ວ່າມັນ	-11.4843
ກົນລະຍຸດ	-11.4844
▁Metatrader	-11.4844
▁ບອບ	-11.4844
▁ອັບເດດຫຼ້າສຸດ	-11.4844
ຫລົງ	-11.4845
▁ພໍ່ແມ່	-11.4846
ປະກວດ	-11.4846
ວັນເສົາ	-11.4848
ປະລິນຍາຕີ	-11.4848
▁ມົງໂກລີ	-11.4849
ວາງສະແດງສິນຄ້າ	-11.4849
ສະຖຽນລະພາບ	-11.4849
ຕັ້ງການພົວພັນ	-11.4849
ມີລາຍໄດ້	-11.4852
▁ສະມາຊິກສະພາສູງ	-11.4852
▁ມີຜູ້	-11.4854
▁Economic	-11.4856
▁ໄດ້ມອບ	-11.4857
ລົງກວດກາ	-11.4858
ຫຼີກເວັ້ນການ	-11.4859
ຕໍາຫຼວດສະກັດກັ້ນ	-11.4861
▁ກະຊວງໄປສະນີ	-11.4861
▁ຮັ່ງມີ	-11.4862
ເຊກອງ	-11.4863
ery	-11.4864
ເພື່ອນມິດ	-11.4865
▁ຈົນຮອດ	-11.4865
▁ເຕີ້	-11.4868
ຮາດ	-11.4869
ຂອງບັນດາປະເທດ	-11.4869
ການປະສານງານ	-11.487
▁ທັງເປັນການ	-11.487
▁ຢູ່ທີ່ຫ້ອງປະຊຸມ	-11.4871
ບັນດາສະມາຊິກ	-11.4874
Re	-11.4875
ລະຄອນ	-11.4878
▁ດໍາລົງຊີວິດ	-11.4879
ດັ່ງກ່າວນັ້ນ	-11.4879
▁ພິພິດທະພັນ	-11.488
▁ພັທ	-11.4883
ali	-11.4885
BS	-11.4885
400	-11.4885
ທໍາງານ	-11.4886
ຈະມາເຖິງ	-11.4888
ແຕ່ວ່າ	-11.4889
▁ເພື່ອຊ່ວຍ	-11.489
ຄ້າຢາເສບຕິດ	-11.4891
ທັງຫມົດທີ່	-11.4892
▁ຄໍ່າ	-11.4894
▁ທຄຕລ	-11.4894
ເວບໄຊ	-11.4896
ຜົນເສຍຫາຍ	-11.4896
ຫມູນວຽນ	-11.4896
▁ດຂອງ	-11.4897
▁ບັນດາການນໍາ	-11.4899
▁ສົມເດັດ	-11.4899
ຮຽກຮ້ອງໃຫ້ມີ	-11.49
▁MW	-11.4901
ຢູ່ພາຍໃຕ້	-11.4901
ພັ	-11.4902
ສັ່ນ	-11.4902
ກ່າຍ	-11.4905
▁78	-11.4906
▁ຂອງນາໆ	-11.4908
ສະມາຊິກສະພາ	-11.4912
ສົ່ງຜົນກະທົບຕໍ່	-11.4913
ແອງ	-11.4914
ວິກິດການ	-11.4915
▁Bun	-11.4915
▁Editor	-11.4915
▁ຂາສັນຈອນ	-11.4915
▁ແກະ	-11.4915
▁PVC	-11.4916
ອຸທິດ	-11.4918
▁Charter	-11.4919
ໂຫ	-11.4919
▁88	-11.4919
red	-11.4919
ບໍ່ຈໍາກັດ	-11.492
▁ມານະ	-11.4924
▁ເຫລັກ	-11.4927
ສຸວັນ	-11.4928
/03	-11.4928
▁ການມາ	-11.4929
ມີອໍານາດ	-11.493
ໃກ້ກັບ	-11.493
▁ທ່າແຮງ	-11.493
▁ໄດ້ນໍາເອົາ	-11.493
gar	-11.4931
PA	-11.4935
ani	-11.4936
ລາກ	-11.4936
▁ທີ່ແຂວງຊຽງຂວາງ	-11.4936
ຕາຫນ່າງ	-11.4936
ມີການຂະຫຍາຍຕົວ	-11.4936
▁Sale	-11.4937
Ma	-11.4937
ພວກຫົວຮຸນແຮງ	-11.4937
pha	-11.4938
ໃຫ້ລູກຄ້າ	-11.4941
▁ກາຊາ	-11.4943
ບ້າ	-11.4943
ສົມທົບກັນ	-11.4944
▁Am	-11.4947
ລຸດ	-11.4949
▁ທູ	-11.4949
ໃນສິ່ງທີ່	-11.495
ບັນຊາ	-11.4951
ເກັບຮັກສາ	-11.4953
▁ຂ່າວບັນເທີງ	-11.4954
ກອດ	-11.4954
▁mo	-11.4955
ປະເຊີນຫນ້າ	-11.4956
▁ອຸປະຕິເຫດ	-11.4957
gl	-11.4959
▁ມັນບໍ່	-11.4961
▁ກັນຊາ	-11.4961
ແຜ່ນດິນໄຫວ	-11.4961
ກຸນ	-11.4963
ເຂົ້າຢ້ຽມຂໍ່ານັບ	-11.4964
ກໍາມາທິການ	-11.4968
ປາດ	-11.4968
ກໍາລັງໃຈ	-11.4968
ຊ໌	-11.4968
ເສົ້າ	-11.4969
▁Love	-11.4974
ງ່າ	-11.4974
ແຕ່ຢ່າງໃດ	-11.4974
ເວົ້າລວມ	-11.4974
▁ເງິນຕາ	-11.4974
ວາງໄວ້	-11.4974
▁ຫົນ	-11.4976
ສູບຢາ	-11.4977
▁Mc	-11.4978
▁ເດີນທາງໄປ	-11.4978
ec	-11.4979
my	-11.4979
▁Pan	-11.498
ບັນດາທ່ານ	-11.498
lt	-11.4985
ແຄນ	-11.4985
▁ຄູຝຶກ	-11.4986
ໃຫມ່ແລະ	-11.4986
index	-11.4987
ການສໍ້ລາດບັງຫລວງ	-11.4987
ເປ່ເພ	-11.4987
ເດືອນມິຖຸນາ	-11.4989
ດັນ	-11.4989
ປະສົບຄວາມສໍາເລັດ	-11.4991
ຜູ້ອອກແຮງງານ	-11.4993
ຊັບສົມບັດ	-11.4994
ໃຫ້ແກ່ບັນດາ	-11.4994
ສັບປະດາຂັ້ນສູງ	-11.4995
ກໍ່ຕັ້ງ	-11.4996
ນັກຮ້ອງ	-11.4997
▁ກຽມພ້ອມ	-11.4998
ສະມາຊິກຈໍານວນ	-11.4999
▁Out	-11.5
ູນກາງພັກກອມມູນິດ	-11.5001
ອໍ	-11.5001
▁Note	-11.5002
ແມ່ນຂຶ້ນກັບ	-11.5007
▁ກອງກໍາລັງ	-11.5009
▁ຄຊປປລ	-11.5009
ຄະນິດສາດ	-11.5014
▁ປະພຶດ	-11.5014
▁ຮອດປີ	-11.5015
▁State	-11.5017
ເຟືອງ	-11.5018
▁12.	-11.5019
▁Wall	-11.5019
ຜູ້ອ່ານ	-11.5019
ໄດ້ຮັບການປັບປຸງ	-11.502
ລົງສູ່	-11.5022
ການເຜີຍແຜ່	-11.5022
ໄດ້ພົບເຫັນ	-11.5023
ແຮ	-11.5025
▁ສະຫະພັນແມ່ຍິງ	-11.5026
▁ກການ	-11.5027
ຫົນທາງ	-11.5028
ທໍາມະ	-11.5028
ຈັບຕົວ	-11.5028
▁ຊັ້ນສູງ	-11.5029
ໃນຂະບວນການ	-11.5029
eu	-11.5032
▁ດໍາເນີນທຸລະກິດ	-11.5035
ບົດຂຽນ	-11.5037
ຄວາມສໍາຄັນ	-11.5038
ບ່າ	-11.504
▁ແຫວ	-11.504
ຖານະ	-11.504
▁ການສັກຢາ	-11.5046
ດານ	-11.5047
ສະບຽງອາຫານ	-11.5048
ຂອງທ້ອງຖິ່ນ	-11.5048
ຈໍານວນນຶ່ງ	-11.5051
ໄດ້ໃຫ້	-11.5052
ທີ່ຈະມີ	-11.5056
▁ກະຊວງຍຸຕິທໍາ	-11.5056
ຕໍ່າກວ່າ	-11.5056
ກັ	-11.5057
▁ການວາງແຜນ	-11.5059
▁malware	-11.506
▁ພຍັນຊນະ	-11.506
▁ຫຼົບຫຼີກ	-11.506
▁Daniel	-11.506
ິນເຫນືອ	-11.506
ຕາມທີ່	-11.506
ມີຄໍາເຫັນ	-11.5062
▁3,000	-11.5063
ໃນປະເທດລາວ	-11.5064
▁ເຫນັງ	-11.5065
▁6,5	-11.5066
▁ຜ່ານນັ້ນ	-11.5066
ໃນນະຄອນ	-11.5068
ຍາມໃດກໍ່	-11.5069
▁ເຮັກ	-11.5072
ຄອມພິວເຕີຂອງທ່ານ	-11.5072
ດ້ານການສຶກສາ	-11.5075
ຂອງສະຫະປະຊາຊາດ	-11.5075
▁ຮີດ	-11.5075
▁ຈຶ່ງຂໍ	-11.5075
ພ້ອມທີ່ຈະ	-11.5076
▁ເວບ	-11.5076
▁ບິ່ງ	-11.5077
ຜັນ	-11.5077
▁Dora	-11.5079
USD	-11.508
ອຸດົມ	-11.5081
▁ຂະຫນາດນ້ອຍ	-11.5081
ຫຍຸ້ງຍາກ	-11.5082
ໄດ້ຈັດຕັ້ງ	-11.5082
ທີ່ມີຄໍາວ່າ	-11.5082
▁ກ່ຽວກັບວຽກງານ	-11.5083
ea	-11.5084
▁ໄດ້ໄປ	-11.5085
ດໍາເນີນງານ	-11.5085
▁1623	-11.5085
ທາງດ້ານຮ່າງກາຍ	-11.5086
ຮັດແຫນ້ນ	-11.5088
▁MC	-11.5088
▁it	-11.509
ການຕັດ	-11.5092
▁ບູລະນະ	-11.5093
ເຂດແດນ	-11.5093
▁ຮື	-11.5094
ຫນູນ	-11.5096
MP	-11.5096
ສູນການຄ້າ	-11.5097
▁ກ່າວຄໍາປາໄສ	-11.5097
ການບັນທຶກ	-11.5097
▁ນັບທັງ	-11.51
ອິດທິພົນ	-11.5101
ຂຶ້ນກວ່າເກົ່າ	-11.5101
▁ການສອນ	-11.5101
ໂບນັດ	-11.5102
ເຈນ	-11.5103
ຫນ້າຕາ	-11.5104
▁Min	-11.5106
ເປັນບັນຫາ	-11.5107
▁ນໍາໂດຍ	-11.5109
ຢ່າງພຽງພໍ	-11.5109
BA	-11.5112
ິວ	-11.5113
▁ຈັດຂຶ້ນ	-11.5113
ລາວບັນດາເຜົ່າ	-11.5113
ຊື່ຂອງ	-11.5115
ຜີວ	-11.5117
▁CEO	-11.5118
ຫລາກຫລາຍ	-11.512
ທິມ	-11.5121
ແມ່ນໍ້າ	-11.5122
ເກຍ	-11.5122
las	-11.5124
ການສັນຈອນ	-11.5124
ຂອງປະທານ	-11.5126
ລະຫວ່າງລັດຖະບານ	-11.5126
board	-11.5127
lay	-11.5128
pi	-11.5129
ກໍ່ບໍ່	-11.513
ຄັ້ງທີ່	-11.5132
global	-11.5133
▁Carolina	-11.5133
▁Morsi	-11.5133
▁ອອງຊານ	-11.5133
▁Francisco	-11.5133
▁zombies	-11.5133
ຂອງທະນາຄານ	-11.5134
▁Sony	-11.5135
▁Suu	-11.5135
ປະຊາສໍາພັນ	-11.5139
▁ຝະລັ່ງ	-11.514
ປະຈໍາການ	-11.5141
▁ໃນຂໍ້ຫາ	-11.5142
ຈັດວາງ	-11.5144
▁ຮ່ອມ	-11.5144
▁ພາຍນອກ	-11.5145
▁ຫລົບຫນີ	-11.5146
ໃຫຍ່ຂອງ	-11.5148
ໃນບ້ານ	-11.5149
▁ຈູງ	-11.515
ປູກຝັງ	-11.515
ການໃຊ້ຄວາມຮຸນແຮງ	-11.515
▁he	-11.5151
▁Gen	-11.5151
ທີ່ຢູ່ອາໄສ	-11.5152
ບັນດາຂະແຫນງການ	-11.5155
ຂີປະນາວຸດ	-11.5158
▁ລະຫັດຜ່ານ	-11.5159
ສອງສາມ	-11.5162
ດິ້ງ	-11.5162
▁ບ່ອນນັ່ງ	-11.5163
▁ອີກຕໍ່ໄປ	-11.5163
ຼີ	-11.5164
ຖະຫນົນຫົນທາງ	-11.5165
ບັນດາກົມ	-11.5166
ຈຸດຫມາຍ	-11.5166
▁ໃນຂະນະດຽວກັນ	-11.5169
ຊຸກ	-11.5169
ນັກກາລະຕະຫຼາດ	-11.5171
ໃນຕົວເມືອງ	-11.5172
CH	-11.5172
ເພື່ອພັດທະນາ	-11.5172
▁ພະຈິກນີ້	-11.5173
▁ເຊື່ອມໂຍງ	-11.5173
ດ່ານສາກົນ	-11.5173
▁Admin	-11.5174
▁===>	-11.5175
ດຽວກັນກັບ	-11.5177
ສະຫ	-11.5177
ໄຫມ້	-11.5179
▁ກໍຕາມ	-11.518
ຊຸ່ມ	-11.518
▁ເທດສະຫະລັດ	-11.518
ama	-11.5183
ນ້ອງນັກຮຽນ	-11.5183
▁ທີ່ພວມ	-11.5183
ຄິວ	-11.5184
ມາດຖານ	-11.5185
ມຸ	-11.5185
ໂມ້	-11.5187
▁ບົ່ມ	-11.5189
ແກງ	-11.5189
ແມ່ຍິງລາວ	-11.5193
ເພື່ອປັບປຸງ	-11.5193
ເຕັກ	-11.5194
ລົດຖີບ	-11.5194
9/2018	-11.5195
ທາງຫລວງ	-11.5195
▁Green	-11.5195
ໃນການຊອກຫາ	-11.5196
▁Pet	-11.52
ນໍາສົ່ງ	-11.5201
ແສງຕາເວັນ	-11.5202
ສີລາ	-11.5204
▁SharePoint	-11.5206
▁Netanyahu	-11.5206
ໃສ່ໃຈ	-11.5206
▁co	-11.5209
ບັນດາເປົ້າຫມາຍ	-11.5212
▁350	-11.5212
ຫ່າງຈາກ	-11.5212
▁WTO	-11.5213
ພັງ	-11.5213
ໂດຍສານ	-11.5215
▁ago	-11.5215
▁ເຊື່ອຫມັ້ນວ່າ	-11.5215
▁ເຫວ້	-11.5218
ຕະຫຼອດເວລາ	-11.5221
ປິນ	-11.5222
ໃຫ້ຜູ້	-11.5222
TS	-11.5223
▁ຫມູນ	-11.5223
ມາໂດຍ	-11.5225
ປະສານສົມທົບກັບ	-11.5228
▁ທ່ານມີ	-11.5228
ລຽງ	-11.5231
AI	-11.5231
▁Dis	-11.5232
▁ຂຶ້ນຢ່າງ	-11.5233
int	-11.5233
ໂຄງການພັດທະນາ	-11.5235
▁ຄົ້ນຄ້ວາ	-11.5235
ສີເຫຼືອງ	-11.5236
▁2)	-11.5237
ຮົ້ວ	-11.5238
▁Ja	-11.5238
ດິດ	-11.5241
ໄອຍະການ	-11.5241
▁ຈະຫຼວດ	-11.5241
ປະເທດຍີ່ປຸ່ນ	-11.5244
ເຫມາະ	-11.5245
▁ພາຍໃນປີ	-11.5245
ແບກ	-11.5246
▁ແມ່ນບໍ່	-11.5246
-2018	-11.5249
ns	-11.525
ຫຸ້ມ	-11.525
▁ທ່ານຈໍາເປັນຕ້ອງ	-11.5256
ຫັ	-11.5257
▁Series	-11.5259
tch	-11.526
ຜົນສໍາເລັດຂອງ	-11.526
▁ຮ່	-11.526
ວິສະວະກໍາ	-11.5261
▁ໃຫ້ບໍລິການ	-11.5261
ຄູສອນ	-11.5263
ກໍານົດໄວ້	-11.5264
ກໍາປູ	-11.5265
▁ປະເພນີ	-11.5266
▁ນັກວິທະຍາສາດ	-11.5267
ຫມາກພ້າວ	-11.5267
ຖະແຫລງ	-11.5267
ຮັກຊາດ	-11.5267
qui	-11.5268
ຂຸນ	-11.5268
ດໍາເນີນໄປ	-11.5269
▁ເຖົ້າ	-11.5269
▁Chan	-11.5269
ເລັບ	-11.527
ຈົມ	-11.527
▁ຂອງກະຊວງ	-11.5271
ທິດສະດີການເມືອງ	-11.5272
ພະອົງ	-11.5273
ຍິນດີ	-11.5273
▁ທີ່ສູນ	-11.5273
▁ວໍລະ	-11.5275
ບໍ່ເຂົ້າໃຈ	-11.5279
▁CAPTCHA	-11.528
▁Target	-11.528
ເຫງົາ	-11.528
ແອັບເປິ້ນ	-11.528
▁Jigsaw	-11.528
1628	-11.5281
▁Za	-11.5281
▁Je	-11.5281
▁Youth	-11.5282
ຖ່ານຫີນ	-11.5283
▁ປະຕິບັດຫນ້າທີ່	-11.5284
ໂສ	-11.5285
▁ຂຶ້ນໃນ	-11.5285
▁ມີລັກສະນະ	-11.5286
-25	-11.5287
ຫມາຍເລກ	-11.5289
ສໍາຜັດ	-11.529
ສະແກນ	-11.5292
▁26,	-11.5294
cer	-11.5294
its	-11.5296
ເຂດທົ່ງພຽງ	-11.5296
▁ໃນປະຈຸບັນ	-11.5297
ລົງນາມ	-11.5299
໋ອງ	-11.5299
▁ພວກເຮົາສາມາດ	-11.53
ເປັນພື້ນຖານ	-11.5302
▁ບໍ່ມີເງິນຝາກ	-11.5305
▁ປະລິນຍາເອກ	-11.5305
ຢ່າງແຂງແຮງ	-11.5307
ວິວັດການ	-11.5309
IM	-11.531
▁ຕັດອິດສະຫຼະພາບ	-11.5311
▁ແຫລ່ງ	-11.5312
ມີສ່ວນຮ່ວມໃນ	-11.5313
ໄດ້ປະກອບສ່ວນ	-11.5314
▁ຂອງແຂວງ	-11.5315
ເຕີບໃຫຍ່	-11.5315
ຫິນ	-11.5316
ເຊັນບົດບັນທຶກ	-11.5316
pper	-11.5317
▁ເມື່ອຍ	-11.5317
ປະທາ	-11.532
ລາດຕະເວນ	-11.5322
ຫົວຫນ້າກົມ	-11.5323
ສະຫນັບສະຫນູນຈາກ	-11.5324
ville	-11.5324
▁snow	-11.5326
▁ຮຸນແຮງ	-11.5328
ຫຼໍ່	-11.533
▁ດັດຊະນີ	-11.5331
▁ໂຊກດີ	-11.5332
ທີ່ຈະສ້າງ	-11.5333
▁Management	-11.5333
▁ການອຸດຫນູນ	-11.5335
ium	-11.5335
OP	-11.5336
ເທດສະການ	-11.5337
ເຢເມນ	-11.5338
ຈົງ	-11.5341
ສາທິດ	-11.5342
ຕ້ອງໄດ້ຮັບການ	-11.5342
▁ຂໍ້ຂັດແຍ້ງ	-11.5343
▁ຊັບສິນ	-11.5344
ທ່ານຕ້ອງການ	-11.5344
▁ກາງຂອງ	-11.5345
ຮັ່ງມີ	-11.5345
ral	-11.5346
▁ນ້ໍາຖ້ວມ	-11.5346
▁ກອງປະຊຸມຄັ້ງນີ້	-11.5347
ຈາກທ່ານ	-11.5347
ໃຫ້ຄໍາປຶກສາ	-11.5348
▁ດີງາມ	-11.535
ກໍ່ຍັງ	-11.5353
▁stylish	-11.5355
▁Cisco	-11.5355
▁ໂປດຊາບ	-11.5355
ຶ່ງ	-11.5355
▁po	-11.5358
▁ປັດຈຸບັນນີ້	-11.5359
▁ປະມວນພາບ	-11.5359
ທະບຽນຄອບຄົວ	-11.5359
ຄາດຫວັງ	-11.536
▁ເກມອອນ	-11.5361
ກ່າວເຖິງ	-11.5362
ໄດ້ປະຕິບັດ	-11.5364
ເປັນເອກະພາບກັນ	-11.5365
ຈັດອັນດັບ	-11.5365
ພື້ນຖານຂອງ	-11.5365
ອັກ	-11.5366
▁ແດດ	-11.5366
ໃນຄອບຄົວ	-11.5366
94	-11.5367
▁we	-11.5369
ສະມາທິ	-11.537
awa	-11.5371
▁ເກັບພາສີ	-11.5374
ລາຍການຜະລິດຕະພັນ	-11.5374
▁ta	-11.538
ຍອມຮັບວ່າ	-11.5381
▁ວິທະຍຸກະຈາຍສຽງ	-11.5384
ພະນັກງານວິຊາການ	-11.5384
ຄົນຕ່າງປະເທດ	-11.5391
ive	-11.5394
▁ບາບ	-11.5394
ກໍາປັ່ນ	-11.5394
ຢ່າງເປັນປົກກະຕິ	-11.5396
▁ອອນລາຍ	-11.5396
ມະນຸດສະທໍາ	-11.5397
-7	-11.5397
▁ຜືນ	-11.5397
ger	-11.54
▁ໄລຍະເວລາ	-11.54
ປະຕິບັດສໍາເລັດ	-11.5401
▁ການວິເຄາະ	-11.5401
▁ໄດ້ສົມທົບກັບ	-11.5401
▁ແມ່ນເພື່ອ	-11.5402
▁ວງ	-11.5403
▁ໄສ້	-11.5403
▁ການລົງໂທດ	-11.5404
5,000	-11.5405
ບີບ	-11.5405
ທຸດຈະລິດ	-11.5405
ຄ້າຍຄືກັບ	-11.5405
ທາງການແພດ	-11.5407
▁ທະເລຕາເວັນອອກ	-11.5408
ຄລິກ	-11.5408
ຈາກບັນດາ	-11.5409
▁ຕົ້ມ	-11.5409
ເງິນກູ້	-11.541
▁ການຂົນສົ່ງ	-11.5411
▁Th	-11.5412
▁ສ່ວນຮ້ອຍ	-11.5413
ຊິວິດ	-11.5413
ໂງ່	-11.5415
▁ປັກກິ່ງ	-11.5415
ຖອຍ	-11.5415
ຕໍານານ	-11.5416
ຖ້ຽວບິນ	-11.5417
ວີຊາ	-11.5421
▁ຕີງ	-11.5421
▁12,	-11.5421
▁an	-11.5422
▁Sun	-11.5422
▁40%	-11.5422
▁ທາງພາກ	-11.5424
▁Mike	-11.5427
dar	-11.5427
ຢ່າງຮອບດ້ານ	-11.5427
ການນໍາພາ	-11.5428
▁bitcoin	-11.543
▁crusher	-11.543
▁Skype	-11.543
▁ດຶງຂໍ້ມູນຈາກ	-11.543
ແດດ	-11.5431
ຖາມວ່າ	-11.5431
ແມ່ນ້ໍາລ້ານຊ້າງ	-11.5431
▁Luang	-11.5432
▁2016-2020	-11.5432
▁ພັບ	-11.5433
▁ພາວະ	-11.5433
ບັນດາຜະລິດຕະພັນ	-11.5433
ຮີດ	-11.5433
ສູງສຸດຂອງ	-11.5436
▁ຄະນະກໍາມະ	-11.5436
▁ລົດໄຟ	-11.5438
ມີທ່າແຮງ	-11.5439
/11	-11.5441
▁ລາຍການຂ່າວ	-11.5443
ໃນຖານະ	-11.5445
▁ໂຄ່ນ	-11.5446
ເຊື່ອມໂຍງກັບ	-11.5446
ຢ່າງຫລວງຫລາຍ	-11.5446
FA	-11.5447
▁ຜູກ	-11.5447
▁ສະກຸນເງິນ	-11.545
ເດັນ	-11.5451
▁ໄດ້ໄຂຂຶ້ນ	-11.5452
ກັງວົນ	-11.5454
▁ຂອງຫວຽດນາມ	-11.5454
ສິ່ງໃດ	-11.5454
▁System	-11.5456
ຢາກໄດ້	-11.5456
ພະຈັນ	-11.5457
ພັກກອມມູນິດ	-11.5458
▁ມຸ້ງ	-11.5458
▁Blue	-11.5459
ກົດດັນ	-11.5461
ຂະນະ	-11.5463
ພາກທຸລະກິດ	-11.5464
▁ດຶງດູດ	-11.5464
▁location	-11.5465
ສະທ້ອນໃຫ້ເຫັນ	-11.5466
ການຕອບສະຫນອງ	-11.547
+3	-11.547
▁Ed	-11.547
ບາງປະເທດ	-11.5471
ເຂົ້າໃສ່	-11.5471
▁ອີຢິບ	-11.5471
ເປັນແບບຢ່າງ	-11.5473
▁TPP	-11.5474
▁ຄ່ອຍໆ	-11.5474
ສະຫຼຸບວຽກງານ	-11.5475
ບ່ອນນັ່ງ	-11.5475
ຮ່ວມມືໃນຂົງເຂດ	-11.5476
ເກັດ	-11.5477
ຜ່ານຜ່າ	-11.5477
▁Read	-11.5478
ນຽນ	-11.5479
ເວີນ	-11.5481
ເສຍໃຈ	-11.5481
▁ຫຼານ	-11.5481
cu	-11.5481
▁ພຸດທະ	-11.5482
▁ຮົ່ວ	-11.5484
້ຽວ	-11.5486
ໂດຍທົ່ວໄປ	-11.5489
▁ບັນນາທິການ	-11.5491
ແຜນນະໂຍບາຍ	-11.5492
ເຜົາ	-11.5493
ທືນ	-11.5493
ຣຸດ	-11.5494
edu	-11.5495
ເອນ	-11.5498
▁ເຊິ່ງກັນ	-11.5501
▁ແລ້ງ	-11.5501
ສະພາປະຊາຊົນ	-11.5502
ພັດລົມ	-11.5502
ໄວຂຶ້ນ	-11.5503
-14	-11.5503
ບັນດານັກລົງທຶນ	-11.5504
ບິດ	-11.5506
▁Education	-11.5506
▁People	-11.5506
ຄ່າດອງ	-11.5506
ເຮັດໃຫ້ເກີດ	-11.5506
ປອ	-11.5507
▁ກໍາມະສິດ	-11.5507
ຜູກ	-11.5509
▁Eric	-11.5511
ຂອງລະບົບ	-11.5511
ບັນເທົາທຸກ	-11.5514
ທ່ານອາດຈະ	-11.5514
▁ຮ້ອງຂໍ	-11.552
▁War	-11.552
▁ພ້ອມດຽວກັນນີ້	-11.5521
ແຫ	-11.5522
ການໂຈມຕີທາງອາກາດ	-11.5522
ປະຈໍາສົກຮຽນ	-11.5526
ຊ່ອຍເຫຼືອ	-11.5527
▁Pay	-11.5527
▁ດ້	-11.5527
ຈະເລີ່ມ	-11.5529
▁ຜີ	-11.5531
▁Mon	-11.5531
ມະເຮັງ	-11.5533
▁ສິງກະ	-11.5535
▁Hacks	-11.5535
TV	-11.5536
ດີທີ່ສຸດສໍາລັບ	-11.5537
▁ຄໍາຮ້ອງສະຫມັກ	-11.5539
▁ຕາຫນ່າງ	-11.554
ord	-11.554
ການເປັນປະທານຂອງ	-11.5544
▁ແນມ	-11.5546
▁ຈາກທັງຫມົດ	-11.5547
▁ມືດ	-11.5548
ມາດຕະການແກ້ໄຂ	-11.5549
ຮ່ວມມືລະຫວ່າງ	-11.555
ປ້ອງກັນຊາຍແດນ	-11.5551
ຄວາມສໍາເລັດຂອງ	-11.5552
ຈັດຕັ້ງຜັນຂະຫຍາຍ	-11.5554
▁ຮ່ອງ	-11.5554
ທີ່ເຊື່ອຖືໄດ້	-11.5554
we	-11.5555
ສະບັບນຶ່ງ	-11.5559
▁ການລົງ	-11.5561
▁Club	-11.5561
ແກ້ໄຂບັນດາ	-11.5561
▁ພັກສັນນິບາດ	-11.5562
ໄດ້ເຂົ້າ	-11.5562
5.000	-11.5562
▁ຊຸກຍູ້ການຮ່ວມມື	-11.5562
ຟອມ	-11.5564
ດໍາເນີນຄະດີ	-11.5565
ບ່າວ	-11.5565
ພັກກອມມູນິດຈີນ	-11.5566
▁ໂດຍພາຍໃຕ້ການ	-11.5568
່ອຍ	-11.5571
ນາບຂູ່	-11.5572
ປຸ້ນ	-11.5574
ຮັກສາສຸຂະພາບ	-11.5574
ຫົດ	-11.5574
ການຊີ້ນໍາ	-11.5574
je	-11.5574
.4	-11.5575
▁ນາວ	-11.5576
ທີ່ທ່ານກໍາລັງ	-11.5576
▁ເດືອນຕຸລາ	-11.5577
PC	-11.5578
ງູ	-11.558
ໃນນາມ	-11.5581
ຕາເວັນ	-11.5581
▁ຈັນຍາລາດ	-11.5582
▁fabric	-11.5582
▁Development	-11.5582
ງານວິວາ	-11.5584
▁Best	-11.5584
ໄອເຕັກ	-11.5585
▁ແນ່ນອນວ່າ	-11.5586
▁NO	-11.5586
ທຶນການສຶກສາ	-11.5588
ຄວາມອາດສາມາດ	-11.5589
ຂັງ	-11.5592
▁vovworld	-11.5593
▁ຮ້ານຄ້າ	-11.5596
▁->	-11.5597
▁ສຽງເພງ	-11.5597
ຈັດສົ່ງ	-11.5601
ປະເທດອື່ນໆ	-11.5601
▁ໂຊມ	-11.5602
ຫາດ	-11.5608
ທີ່ຊັດເຈນ	-11.5614
ສ່ວນປະກອບ	-11.5616
ການຄາດຄະເນ	-11.5616
▁ລາຍງານຈາກ	-11.5617
ໃຫ້ພວກເຮົາ	-11.562
ສົງໄສວ່າ	-11.562
▁ລາວໄດ້	-11.5621
ສີ່ງ	-11.5621
ສະມາຄົມມິດຕະພາບ	-11.5622
▁ຕະພາບ	-11.5623
ໃຫ້ຖືກຕ້ອງ	-11.5623
ປົກກະຕິແລ້ວ	-11.5626
ແມ່ນຈະ	-11.5626
▁ດອກໄມ້	-11.5627
▁Network	-11.5628
ການຮ່ວມມືກັບ	-11.5631
ໃນຫົວຂໍ້	-11.5632
ສາມາດສ້າງ	-11.5632
ຜົນກະທົບຂອງ	-11.5633
ຫ້ອງນອນ	-11.5636
ສົງໄສ	-11.5637
▁ກາມ	-11.5637
▁ນັກຄົ້ນຄວ້າ	-11.5639
▁ທີ່ພວກ	-11.5639
ພາສາຕ່າງປະເທດ	-11.564
▁ມື້ວານນີ້	-11.564
ສົງຄາມການຄ້າ	-11.5641
▁ແຕ່ກໍ່	-11.5644
▁ໃນສະພາ	-11.5646
ການລົງ	-11.5647
ດີກ່ວາ	-11.5648
▁ໄດ້ນໍາ	-11.5648
▁1999	-11.5649
ອາຊີວະສຶກສາ	-11.5649
ອຸດົມໄຊ	-11.565
ເນັ້ນໃສ່	-11.565
ຕ້ອງໃຊ້	-11.565
ຫຼາຍປີ	-11.5651
▁ໂຄງການດັ່ງກ່າວ	-11.5654
▁Em	-11.5655
ອາຫານທີ່	-11.5656
ຟ້ອງ	-11.5656
▁ພໍ່ແມ່ປະຊາຊົນ	-11.5656
▁ໂດຍທົ່ວໄປ	-11.5656
ຜ່ານທາງຢູທູບ	-11.5659
▁Republican	-11.566
▁ໄຊຍະລາດ	-11.566
ດ້ານຄວາມປອດໄພ	-11.5661
▁ແລ້ວນີ້	-11.5661
ຫນອງຄາຍ	-11.5662
▁ແນວຄິດ	-11.5663
ເຫລັກ	-11.5663
▁ໂຣຮິງ	-11.5664
ອິສຣາ	-11.5664
ຝຶກແອບ	-11.5665
▁ມາຮອດປະຈຸບັນ	-11.5666
ບ້ານເກີດ	-11.5667
▁ກັງ	-11.5669
ane	-11.5669
▁91	-11.5673
▁ໃນຂະນະນັ້ນ	-11.5673
ການສະຫນັບສະຫນຸນ	-11.5675
ST	-11.5675
ຊີງ	-11.5675
ເກັບກູ້ລະເບີດ	-11.5676
▁ຂອງໂຄງການ	-11.5678
ຜູ້ຂາຍ	-11.5682
ພວກເຮົາກໍາລັງ	-11.5682
▁ໂສກ	-11.5684
▁ອໍ	-11.5688
▁ສູນກາງພັກ	-11.5689
ໃນສະຖານທີ່	-11.5689
ass	-11.5689
ຮັງ	-11.569
ທີ່ອຸດົມສົມບູນ	-11.5691
ມຸງຄຸນ	-11.5692
ນັກຂ່າວຕ່າງປະເທດ	-11.5693
LO	-11.5694
▁ກົນໄກ	-11.5695
cs	-11.5698
▁DC	-11.5699
ໂຈະ	-11.57
▁ບ່ວງ	-11.5701
ເຫຼືອງ	-11.5701
ພົບປະກັນ	-11.5704
▁Sc	-11.5704
▁ຮັບຮູ້	-11.5705
▁ຈົນເຖິງ	-11.5705
ສິມ	-11.5705
▁ບຸລິມະສິດ	-11.5706
ທຶນຮອນ	-11.5706
ຍັງບໍ່ມີ	-11.571
▁15/	-11.5711
ໄດ້ນໍາໃຊ້	-11.5712
ຍານພາຫະນະ	-11.5713
ເຄື່ອງນຸ່ງ	-11.5713
ພິການ	-11.5714
ອຸປະກອນການ	-11.5718
▁ຣັກ	-11.5719
/3/	-11.5722
ຝູງ	-11.5723
ຕົກແຕ່ງ	-11.5724
ກ່ຽວກັບສະພາບການ	-11.5726
ໃນຫ້ອງ	-11.5726
ຄວາມບາບ	-11.5727
ປ່ອງຢ້ຽມ	-11.5729
ຢູເຄຣນ	-11.5729
ຟ້າວ	-11.573
ວິນາທີ	-11.573
ມີຜູ້	-11.5732
ເສື່ອມ	-11.5733
▁ວຽນ	-11.5734
ຊົນຊາດ	-11.5734
ຈັງຫວະ	-11.5735
▁ລົ້ນ	-11.5735
▁October	-11.5736
ຫງວຽນຊວນຟຸກ	-11.5737
ຈູງມື	-11.5738
▁Gmail	-11.5739
strong	-11.5739
the	-11.5739
▁ລ້ານປອນ	-11.574
▁2016-2017	-11.574
▁ATM	-11.5741
▁Service	-11.5741
ເສີມສ້າງ	-11.5742
ກ່ຽວກັບບັນຫາ	-11.5742
▁ທົບທວນ	-11.5742
▁ນອກນັ້ນທ່ານຍັງ	-11.5747
ດ້າ	-11.5747
ເປັນອັນດັບ	-11.5747
ຄຸນນະພາບສູງ	-11.5747
ທາດເຫຼັກ	-11.5749
ພຸດ	-11.5749
ບົດບັນທຶກ	-11.5749
ໂຊນ	-11.575
ປີນ	-11.5753
ໄດ້ຮັບຄວາມເສຍຫາຍ	-11.5753
bank	-11.5753
ເປັນຈໍານວນຫຼາຍ	-11.5753
▁ການພົບປະ	-11.5754
ກອງປະຊຸມຄົບຄະນະ	-11.5754
ຟລີ	-11.5754
▁ຕັບ	-11.5756
ກໍ່ຕ້ອງ	-11.5757
▁3000	-11.576
ປຸງແຕ່ງອາຫານ	-11.5763
▁ດາຣາ	-11.5764
▁ປາກເຊ	-11.5764
▁ຄັດເລືອກ	-11.5764
ອະດີດນາຍົກ	-11.5764
▁ແທັບເລັດ	-11.5768
▁170	-11.5768
▁ໂຄດ	-11.5769
▁ບິດາ	-11.5771
ອຸປະ	-11.5772
▁ບົກ	-11.5772
▁ລັດຖະມົນຕີການ	-11.5772
MM	-11.5773
ຄະນະກໍາມະ	-11.5777
ຍາກທີ່ຈະ	-11.5777
ດ໌	-11.5779
ຄັກ	-11.578
ph	-11.578
ວັນອາທິດ	-11.5781
ຄຸ	-11.5781
ດີເລີດ	-11.5782
▁ເຕົາ	-11.5782
ລູກສອນ	-11.5784
▁ທ່າແຂກ	-11.5787
ການເຂົ້າຊົມ	-11.579
ນີ້ແລ້ວ	-11.5791
▁ຕິດກັບ	-11.5791
EU	-11.5795
▁Code	-11.5798
ຫລັກການ	-11.5799
This	-11.5801
ຮັບມື	-11.5804
▁ການເຮັດວຽກ	-11.5806
ການລົງທະບຽນ	-11.5806
ທ່າທີ	-11.5807
ບັນດາການນໍາ	-11.5807
▁125	-11.581
ລິເລີ່ມ	-11.581
ແມ່ນຫນຶ່ງໃນ	-11.5811
ລາຍງານຂ່າວ	-11.5812
ຊອຟແວ	-11.5814
▁Emirates	-11.5815
▁Tillerson	-11.5815
▁ສີສະຫງຽນ	-11.5815
wikipedia	-11.5815
▁Thomas	-11.5815
▁Jerry	-11.5815
yan	-11.5815
▁ໄຕງວຽນ	-11.5815
▁ນັກລົງທຶນ	-11.5816
▁ດ້ວຍຫົວຂໍ້	-11.5816
▁ຈິຣະ	-11.5816
▁ໄດ້ສໍາເລັດ	-11.5817
▁ພ້ອມກັນນີ້	-11.5817
ທຸກປະເພດ	-11.5818
CC	-11.582
▁ທ່ານຕ້ອງ	-11.5823
ສຶບຕໍ່	-11.5823
▁ຂັ້ນສູງ	-11.5824
ທີ່ມີຄຸນນະພາບສູງ	-11.5827
▁ຫຼວງຫຼາຍ	-11.5828
▁ດອງ	-11.5829
ຕອນເຊົ້າ	-11.5829
▁ເຮົາຈະ	-11.583
ອ້ອມຮອບ	-11.583
ໃນຕອນ	-11.5831
▁ຕົວເລກ	-11.5833
ວິຫານ	-11.5833
ຢູ່ບ່ອນ	-11.5835
ສີມື	-11.5836
ຮາວ	-11.5837
ສາລີ	-11.5838
ບັນຍາຍ	-11.5838
ຄໍາຂວັນ	-11.5844
▁Ex	-11.5844
ຄວັນ	-11.5845
ເສລີພາບ	-11.5846
▁ໄອຊີທີ	-11.5846
ໄດ້ຍົກໃຫ້ເຫັນ	-11.5847
▁ພັນໂທ	-11.5847
▁Toy	-11.5849
ຄະແນນສຽງ	-11.585
▁(25	-11.5851
ພວກປະທ້ວງ	-11.5851
▁ຂອງຂ້າພະເຈົ້າ	-11.5855
ບໍ່ສົນໃຈ	-11.5856
▁ເຊື່ອມຊຶມ	-11.5856
ສະແດງອອກ	-11.5856
ສໍາລັບທຸລະກິດ	-11.5857
▁ຄວາມເປັນມາ	-11.5859
ຢູ່ໃກ້	-11.586
ໃນທຸກຂົງເຂດ	-11.586
▁Thi	-11.5861
▁ທໍ	-11.5862
▁ທີ່ມາຈາກ	-11.5862
RO	-11.5864
ການເກີດ	-11.5865
ຢ່າງຮ້າຍແຮງ	-11.5866
ລົ້ນ	-11.5867
▁ເນື້ອຫາ	-11.5867
▁ດໍາລັດວ່າດ້ວຍ	-11.5867
ໄດ້ນໍາ	-11.5869
ກົງຈັກ	-11.587
ມີຄວາມສະຫງົບ	-11.5871
▁ເປີເຊັນຂອງ	-11.5872
▁ມີສິດ	-11.5873
ພັຍ	-11.5874
▁ເປັນປະເທດ	-11.5874
▁ການເຊື່ອມຕໍ່	-11.5877
ຊີວິດຂອງ	-11.5879
ຄິງ	-11.588
▁ເຫ້ວ	-11.588
ທອດ	-11.588
ລວດລາຍ	-11.5881
▁ຕໍ່ທ່ານ	-11.5882
▁ທີ່ນີ້	-11.5883
▁ອາຟຣິກາໃຕ້	-11.5885
ປະຕິບັດບັນດາ	-11.5886
ຫນ່ວຍກູ້ໄພ	-11.5889
▁ວກ	-11.5889
ກວດສອບແຫ່ງລັດ	-11.5889
ເຊັກ	-11.5891
ເສັຍ	-11.5893
ອັດສະລິຍະ	-11.5893
▁Puppy	-11.5893
▁FSX	-11.5893
▁Ethereum	-11.5893
ການໃຊ້ງານເທິງ	-11.5895
ens	-11.5896
ica	-11.5896
ການລັກລອບ	-11.5897
▁ມາຍັງ	-11.5897
ທີ່ເປັນອັນຕະລາຍ	-11.5899
ຖ່ານ	-11.59
ປະເຊີນກັບ	-11.5901
ຈໍາແນກ	-11.5901
ໂຮງຮຽນປະຖົມ	-11.5902
ຄາຍ	-11.5902
ໄປອີກ	-11.5903
ເປີດກ້ວາງ	-11.5903
ເພື່ອຮັບປະກັນ	-11.5903
▁ທິ້ງ	-11.5903
▁Dan	-11.5904
ຂອງອາເມລິກາ	-11.5904
ຍັງຈະ	-11.5904
▁ຈະເປັນແນວໃດ	-11.5904
▁ວັກ	-11.5904
nd	-11.5906
ເຮັດໃຫ້ມີ	-11.5907
ຫໍ່	-11.5909
ເພີ່ມຕື່ມ	-11.5909
▁ນິງ	-11.591
ug	-11.5911
▁ພົນລະເຮືອນ	-11.5912
ເຊິ່ງກັນແລະກັນ	-11.5913
ຕາມທິດ	-11.5913
▁ອົງຄະ	-11.5913
-17	-11.5914
ຄົນໃດ	-11.5915
▁ເດືອນພະຈິກ	-11.5917
ຄວາມເຈັບປວດ	-11.5919
ກ່ອນທີ່	-11.5919
▁ທາງເລືອກ	-11.592
ຄວນມີ	-11.592
kan	-11.5921
▁Richard	-11.5924
tc	-11.5927
:20	-11.5928
ເຂົ້າຊົມ	-11.5928
່ວງ	-11.5929
▁ອາໄສ	-11.5929
ເຂດບ້ານ	-11.5931
ສ້າງຄວາມເສຍຫາຍ	-11.5933
ກະບົດ	-11.5934
ເປັນຕົ້ນແມ່ນ	-11.5934
▁ແຕ່ມັນ	-11.5936
▁ນັ້ນກໍ	-11.5938
ຈິນ	-11.5938
ຄໍາຫລັກ	-11.5941
ໄຫ້	-11.5942
▁ຕິດຄຸກ	-11.5942
ລາຊະ	-11.5943
ປ່ຽນເສັ້ນທາງ	-11.5946
ອາຍຸການ	-11.5946
ລະດັບສາກົນ	-11.5948
LS	-11.5949
▁ຮ່າງກົດຫມາຍ	-11.595
▁ຢາຍ	-11.595
▁ຊາວກະສິກອນ	-11.5952
ເພື່ອຕອບສະຫນອງ	-11.5952
ກວ	-11.5953
ສິວ	-11.5955
▁ຍ່ອຍ	-11.5956
ຈົກ	-11.5956
▁ຮ່ວາງ	-11.5957
ຄາບ	-11.5959
ມຸດສະລິມ	-11.5961
▁໒໐໐	-11.5962
▁ຂວັນໃຈ	-11.5965
ກັບຄືນສູ່	-11.5966
ດັ້ງເດີມ	-11.5966
ນັກຮຽນເກັ່ງ	-11.5967
▁ຈັບກຸມ	-11.5967
uck	-11.5968
ຄອຍ	-11.597
ໃນປະເທດຈີນ	-11.597
ອີກວ່າ	-11.597
▁ນຽບ	-11.5971
▁ກວຕ	-11.5971
ລະງັບ	-11.5973
ເບີກບານມ່ວນຊື່ນ	-11.5973
ຢູ່ນະຄອນ	-11.5973
ອອກແຮງງານ	-11.5974
ຄວາມຮູ້ຄວາມສາມາດ	-11.5975
ຢູ່ໃກ້ກັບ	-11.5976
▁Work	-11.5977
▁Jobs	-11.5977
ຊໍ	-11.5978
ຂູ່	-11.5979
ທີ່ນໍາໃຊ້	-11.598
▁Games	-11.598
▁ກໍາມະ	-11.598
▁ມງານ	-11.5981
ຄ້ໍາປະກັນ	-11.5981
ບັນດາປະເທດອາຊຽນ	-11.5981
ຮັບປະທານ	-11.5983
ການຈັບກຸມ	-11.5984
▁ປີແລ້ວ	-11.5984
ພຣະອົງຊົງ	-11.5986
▁ນ້ໍາຕົກຕາດ	-11.5987
ປ່ອນ	-11.5987
pl	-11.5988
ການຍົກລະດັບ	-11.5988
ຕຽນ	-11.5988
ເວບໄຊທ໌	-11.5988
▁ການປົກປ້ອງ	-11.5991
ວິວ	-11.5994
▁ການສົນທະນາ	-11.5995
ຂົ່ມຂູ່	-11.5995
▁ການໂຈມ	-11.5996
ເກມອອນໄລນ໌	-11.5996
ຄ້າຍຄືກັນ	-11.5997
ຝົນຕົກ	-11.5997
▁ມາລາ	-11.5999
ure	-11.5999
▁ແປ້ງ	-11.5999
▁ລ້ຽງສັດ	-11.5999
ແຊກແຊງ	-11.5999
ຈໍານວນຂອງ	-11.6
ລອກ	-11.6
ເຟີ	-11.6
▁ເດືອນຜ່ານມາ	-11.6001
ປາບປາມ	-11.6001
ເຫນ	-11.6004
▁ແມວ	-11.6004
ບູລິມະສິດ	-11.6005
▁81	-11.6007
/12	-11.6007
▁ມອບໃຫ້	-11.6008
ຈໍາເປັນຕ້ອງຊື້	-11.6012
ອ້ອມຂ້າງແຂວງ	-11.6013
ເຫດການທີ່	-11.6016
ໄດ້ສົ່ງ	-11.6019
▁ຮັບສະຫມັກ	-11.602
ຫ່າງໄກສອກຫຼີກ	-11.6021
▁all	-11.6022
ພວກເຮົາມີ	-11.6023
▁LO	-11.6025
▁language	-11.6026
ພາຍໃນປີ	-11.6027
ແສ	-11.6027
▁ສໍາເລັດການ	-11.6029
▁ເຫຼົ້າ	-11.6029
▁ເຄົາ	-11.6033
▁ລິງ	-11.6034
ໂລມ	-11.6034
ການປ່ອຍສິນເຊື່ອ	-11.6034
ຄ່ອຍ	-11.6035
ຮີບ	-11.6035
▁ເສືອ	-11.6036
old	-11.6036
ken	-11.6037
ink	-11.6039
▁ເຈື່ອນ	-11.6039
ຂະບວນການແຂ່ງຂັນ	-11.6041
▁ສໍ	-11.6041
ທາງດ້ານວິຊາການ	-11.6042
ແຊ່	-11.6043
▁ແມ່ນໍ້າຂອງ	-11.6043
▁ຖືກສອບ	-11.605
ເກັບກູ້	-11.605
ທີ່ໂດດເດັ່ນ	-11.605
▁ປະເທດຍີ່ປຸ່ນ	-11.6051
ປະຕິບັດນະໂຍບາຍ	-11.6053
▁Firefox	-11.6053
▁ປີແຫ່ງການ	-11.6054
ໃນພິທີ	-11.6055
▁VR	-11.6055
ໃຫ້ມີການ	-11.6056
▁ຂອງຂວັນ	-11.6056
▁ກ່າວຕໍາຫນິ	-11.6057
ວກ	-11.6063
ໄກສອນພົມວິຫານ	-11.6064
▁ຂະບວນລົດ	-11.6065
ຢູ່ໃນເຂດ	-11.6066
ແທດຈິງ	-11.6066
ສໍານັກຂ່າວສານ	-11.6067
ສືກສາ	-11.6067
▁ນິນ	-11.6069
ມີຄວາມຮູ້	-11.6071
ແບບສະຫມັກໃຈ	-11.6071
ການຖ່າຍຮູບ	-11.6074
▁ຫ້ອງນອນ	-11.6075
ການຕິດຕາມກວດກາ	-11.6076
ອັນຍິ່ງໃຫຍ່	-11.6077
▁ໄດ້ສົ່ງ	-11.6077
ທ້າທາຍ	-11.6077
▁ຊົດ	-11.6078
ໄດ້ກໍານົດ	-11.6079
▁ສະມຸດ	-11.6079
▁ຢ່າງໃດ	-11.6082
ເຊີນຊວນ	-11.6086
▁ເປືອກ	-11.6087
ເຫຼົ່າ	-11.6088
▁ລີກ	-11.6088
ບໍລິຫານງານ	-11.6088
ເລີມ	-11.6088
▁ເຮີ	-11.609
ໄຫ	-11.6092
ໃນສະໄຫມ	-11.6096
ຂໍ້ຈໍາກັດ	-11.6097
ຊັ້ນນໍາ	-11.6101
ງາມໆ	-11.6104
▁ແມ່ນແລ້ວ	-11.6105
ຈິດວິນຍານ	-11.6106
▁ງຽບ	-11.6106
ລູກນ້ອຍ	-11.6107
ເຫລົ່າ	-11.6107
▁ວັດສະດຸ	-11.6108
ທົ່ວແຂວງ	-11.6108
ຂໍ້ລິເລີ່ມ	-11.6108
▁ໄຂກອງປະຊຸມ	-11.6108
▁83	-11.6109
ເປັນສິ່ງ	-11.6109
ວັດຖຸບູຮານ	-11.611
ຜູ້ບາດເຈັບ	-11.611
mes	-11.6111
ຊຽມ	-11.6111
more	-11.6112
ຜ່າຕັດ	-11.6113
ມີຈຸດປະສົງ	-11.6113
ໃຫ້ຄົນ	-11.6116
ring	-11.6116
▁ຮ່ວມມືເພື່ອ	-11.6117
ມີດີ	-11.6118
ດ້ານປ້ອງກັນຊາດ	-11.6119
ືກ	-11.6119
▁ຫວໍ	-11.6119
ນ້ໍາໃຈ	-11.612
ຕາມປະເພນີ	-11.612
ໃຫ້ກຽດເຂົ້າຮ່ວມ	-11.6121
ຄວາມຖີ່	-11.6123
ຕາມແຜນ	-11.6124
ຈະສ້າງ	-11.6124
ຫຼົບ	-11.6126
ດົກ	-11.6126
ຣົງ	-11.6126
ແກວ	-11.6128
cia	-11.613
ອີກຕໍ່ໄປ	-11.613
▁ທີ່ນະຄອນຫລວງ	-11.6131
ແລະວິທີການ	-11.6132
ສອງປີ	-11.6132
▁ລໍາດັບ	-11.6133
▁PayPal	-11.6133
ທໍາມາຫາກິນ	-11.6133
▁ASIAD	-11.6134
ເຊື່ອຖື	-11.6134
ສ່ຽວ	-11.6134
ຕິດຕໍ່ກັບ	-11.6134
ສະຫນອງການ	-11.6134
ກໍາມະ	-11.6135
ມີເນື້ອໃນ	-11.6136
of	-11.6138
ທ່ານຮອງ	-11.6139
/7/2018	-11.6139
▁ອອນໄລນ	-11.6141
ພະນັນ	-11.6142
▁ສາລີ	-11.6142
ED	-11.6146
ໄຮ່	-11.6146
ເປັນທີ່	-11.6149
ຕູ້ໄປສະນີ	-11.615
ປະນາມ	-11.6151
BC	-11.6152
▁ການຕັດສິນໃຈ	-11.6152
ເຂົ້າຮັບຕໍາແຫນ່ງ	-11.6152
ເປັນມິດ	-11.6154
ທີມຊາດລາວ	-11.6155
ທີ່ດີທີ່ສຸດຂອງ	-11.6156
ເຮັດໃຫ້ປະລາດ	-11.6157
ຄວາມເຂັ້ມແຂງ	-11.6157
ປະຊາຊົນຫວຽດນາມ	-11.6158
ຈາກປະຊາຊົນ	-11.6159
ບອລ	-11.616
ເປັນອັນຕະລາຍ	-11.6161
ຈະເຫັນ	-11.6161
▁ຄະນິດສາດ	-11.6165
▁ໃນປີນີ້	-11.6165
▁ໄລຍະທີ	-11.6165
ຄວາມຢ້ານກົວ	-11.6166
▁ຂະນະດຽວກັນ	-11.6166
ເຕີ້	-11.6167
-18	-11.6168
▁Ab	-11.6169
ສອດຄ່ອງ	-11.6171
▁ADB	-11.6172
ໂຍງເຂົ້າກັບສາກົນ	-11.6174
ຕິງ	-11.6174
▁86	-11.6175
ຕີລາຄາສູງ	-11.6175
ເປັນພະຍາດ	-11.6175
▁93	-11.6177
▁ຂ້າພະເຈົ້າຈະ	-11.6178
ຕໍ່ສຸຂະພາບ	-11.6179
ຢ່າງມີປະສິດທິພາບ	-11.618
ໃຫມ່ທີ່	-11.6183
ຊ່ວຍເຫຼືອລ້າ	-11.6183
▁ຜູ້ລົງທຶນ	-11.6183
ຂາຍຍ່ອຍ	-11.6188
ຊຸກຍູ້ການ	-11.6188
ິນດີຕ້ອນຮັບໂບນັດ	-11.619
▁ເກົາຫລີເຫນືອ	-11.619
ບັນດາພະນັກງານ	-11.6192
▁ໄດ້ເຂົ້າ	-11.6193
▁ຄົນຍ່າງ	-11.6193
ຄວາມຄິດສ້າງສັນ	-11.6194
▁ຢ່າງເຂັ້ມງວດ	-11.6194
▁ຢູ່ເທິງ	-11.6195
ຄໍາຮ້ອງ	-11.6195
ຖົມ	-11.6196
ວັນຊາດ	-11.6196
ຮັບປະກັນວ່າ	-11.6198
ຄວາມບໍ່	-11.6198
▁am	-11.6199
▁ເຫມາະສົມ	-11.6199
▁ຍູ້ແຮງການ	-11.6201
ຂອງສອງ	-11.6201
ເຄິ່ງຫນຶ່ງ	-11.6202
▁Real	-11.6202
ແມ່ຂອງ	-11.6203
▁ທ່ານກ່າວວ່າ	-11.6203
ຊື່ສຽງ	-11.6204
▁(5	-11.6207
▁ເມືອງໄຊ	-11.6209
ຮອດປີ	-11.6209
▁ໄດ້ເກີດເຫດ	-11.621
ອັກຄີໄພ	-11.6211
ຫນ້າຮູ້	-11.6212
▁su	-11.6214
ຮິນດູ	-11.6215
▁Samloem	-11.6215
▁ວັຈນານຸກົມ	-11.6215
wiktionary	-11.6215
▁14.	-11.6215
ການແຂ່ງຂັນກິລາ	-11.6216
▁ແລ່ນຕໍາ	-11.6217
▁ໄອຍະການ	-11.6217
▁ເຢຊູ	-11.6218
▁Data	-11.6218
ເນື່ອງໃນໂອກາດນີ້	-11.6219
▁ສ່ອງພາບ	-11.6219
ເປັນພັກລັດຖະບານ	-11.6219
▁ມີຫລາຍ	-11.6219
ການປູກ	-11.6219
▁ຈີຣະ	-11.622
▁ໃນໂອກາດດັ່ງກ່າວ	-11.622
▁Bonuses	-11.622
ຕາມຮູບ	-11.6221
ໂປແກຼມ	-11.6221
▁ເດືອນທ້າຍປີ	-11.6222
▁ຫຼັງສົງຄາມ	-11.6222
ຊຸດປັດຈຸບັນ	-11.6223
ຕົ້ນຕໍແມ່ນ	-11.6225
ລາຍລະອຽດຂອງ	-11.6227
ຄວາມໂປ່ງໃສ	-11.6227
▁28,	-11.6228
ທີ່ນໍາມາ	-11.6228
ise	-11.6231
ເປັນຈິງ	-11.6231
ບໍ່ພຽງພໍ	-11.6232
world	-11.6232
ແບ່ງເປັນ	-11.6233
ທົ່ວປວງຊົນ	-11.6233
▁online	-11.6233
ຖ້າທ່ານຕ້ອງການ	-11.6234
ປາບ	-11.6235
ສິດອໍານາດ	-11.6237
VI	-11.6238
ຂ້າພະເຈົ້າຈະ	-11.6238
ບໍາລຸງສ້າງ	-11.6239
▁Champa	-11.6242
ໄຮ້	-11.6246
ມີຄວາມປອດໄພ	-11.6247
ຮຸນ	-11.6251
▁ຫນ້າຮັກ	-11.6251
ສະຫງົບ	-11.6253
box	-11.6253
ໄປໄດ້	-11.6254
▁ຫນ້າທາງການ	-11.6258
ບັບ	-11.6259
▁ເມກ	-11.6259
gg	-11.6259
ການເພີ່ມ	-11.6261
ນັ້ນໄດ້	-11.6267
ເຂົ້າເປັນ	-11.627
ຫວານຊື	-11.6271
▁ເຄື່ອງຫມາຍ	-11.6272
▁ປົ່ງ	-11.6273
ໄດ້ໄປຢ້ຽມຢາມ	-11.6274
▁Auto	-11.6274
ນີ້ກໍ່	-11.6277
-11	-11.6277
ລະດູຮ້ອນ	-11.6279
ການຊ່ວຍເຫລືອ	-11.6281
ເທດສະຫນາ	-11.6283
ກຣີ	-11.6283
ຊ່	-11.6284
▁ແສງຕາ	-11.6284
ມັນຮຽກຮ້ອງ	-11.6286
▁ແຂ	-11.6288
ໃນເວລາດຽວກັນ	-11.629
▁TOPI	-11.629
▁ບ່າວ	-11.6292
▁ຄະນະວິຊາ	-11.6292
▁ເປື້ອນ	-11.6292
ສົມເດັດ	-11.6293
ລີນ	-11.6293
▁Cor	-11.6295
▁desktop	-11.6297
▁ຫງວຽນຊວັນຝຸກ	-11.6297
▁Francois	-11.6297
▁Justice	-11.6297
ເຕີບ	-11.6297
ຟອກ	-11.6297
ຮ່ວມແຮງຮ່ວມໃຈ	-11.6297
ສ້າງເງື່ອນໄຂ	-11.6297
ພິທີອັດກອງປະຊຸມ	-11.6298
▁Slots	-11.6299
ບັດເຄຣດິດ	-11.63
▁ລະນະ	-11.63
▁ກໍ່ຈະ	-11.6301
ຫຼານ	-11.6301
▁ເມວ	-11.6302
▁ຕາມທ່ານ	-11.6304
ປະເທດໃດ	-11.6305
ວາງຂາຍ	-11.6305
▁views	-11.6305
▁ປະລິນຍາ	-11.6305
ວັນອັງຄານວານນີ້	-11.6305
ການນໍາພັກ	-11.6306
▁ເຟີ	-11.6306
▁Express	-11.6306
ກວນ	-11.6307
▁8:30	-11.6307
ບັນດາບໍລິສັດ	-11.6307
▁ພະຍານ	-11.6308
ໄປໃນ	-11.6309
ແຈກຢາຍ	-11.6309
ຟິລິບປິນ	-11.6309
ກົມໃຫຍ່ການເມືອງ	-11.631
ການຫຼຸດຜ່ອນ	-11.631
ຂັບລົດຕູ້	-11.6311
ພວກກໍ່ການຮ້າຍ	-11.6311
▁ຈຽງ	-11.6311
▁ຫງວຽນວັນ	-11.6313
▁ສັດລ້ຽງ	-11.6314
ດັ່ງລຸ່ມນີ້	-11.6315
ອາຍແກັສ	-11.6316
LC	-11.6316
ລີສອດ	-11.6317
ຫ້ອງນໍ້າ	-11.6317
ກຸ່ມບ້ານ	-11.6319
ອຸດ	-11.6319
▁ວັນຊາດ	-11.6319
ຕໍາ່	-11.6319
ຮົງກົງ	-11.6319
ຝລັ່ງ	-11.632
ແມງ	-11.6321
ຫງວຽນ	-11.6321
81	-11.6322
▁2010.	-11.6322
▁Ram	-11.6323
▁Bulgaria	-11.6325
ຫມົດທຸກຄົນ	-11.6325
ຕາມລໍາດັບ	-11.6326
ດັກ	-11.6326
ເຫມາະສົມກັບ	-11.6327
ອັນດັບທີ	-11.6329
ປ່ຽນໃຫມ່	-11.6331
ກົ້ນ	-11.6332
ເບື້ອງຊ້າຍ	-11.6334
▁000	-11.6339
ຄະດີອາຍາ	-11.6341
ຫີ	-11.6342
▁BCEL	-11.6343
໊ອກ	-11.6344
ຕອນເຊົ້າວັນທີ	-11.6344
▁ແກັສ	-11.6345
▁115	-11.6346
ເຊື້ອສາຍ	-11.6346
▁ເພື່ອສົ່ງເສີມ	-11.6346
ລວມກັນ	-11.6347
read	-11.6347
ກາວ	-11.635
▁ຍຸງ	-11.6352
ແຈ້ງເຕືອນ	-11.6352
ອີກຫຼາຍ	-11.6354
ale	-11.6355
ອົງການມູນມໍລະດົກ	-11.6356
ຖັນແຖວ	-11.6358
ເລີ່ມຕົ້ນການ	-11.6358
▁Show	-11.6359
▁time	-11.6362
ມີຫລາຍ	-11.6362
ຂາອອກ	-11.6367
ຜູ້ປ່ວຍ	-11.6367
ຊຸມປີ	-11.6367
FI	-11.6367
ເດີມພັນ	-11.637
ເຂົ້າຈີ່	-11.6373
ທ່ານຫມໍ	-11.6374
ຂອງອາຊຽນ	-11.6374
໋ນ	-11.6377
▁ລົດບັນທຸກ	-11.6378
ພໍ່ຄ້າ	-11.6379
ັນເທິງມື້ນີ້ພາມາ	-11.6379
ນັ້ນຈະ	-11.6379
ເຂົ້າວິວາ	-11.638
ອະນຸກໍາມະການ	-11.6382
▁ຊິ້ນ	-11.6383
ເຊັກໂກ	-11.6387
ທີ່ເກີດຂື້ນ	-11.639
ເທິງຍົນ	-11.6392
ຜູ້ຕ້ອງຫາ	-11.6393
ພໍດີ	-11.6394
ໂດຍມີ	-11.6394
ເພື່ອເປັນການ	-11.6395
ໃນການນໍາໃຊ້	-11.6396
ຂອງພວກເຮົາໄດ້	-11.6396
▁ເຈື່ອງ	-11.6398
ເວັນ	-11.6398
wi	-11.6398
ບໍານານ	-11.64
ກ້ວຍ	-11.6401
ດ້ານມະນຸດສະທໍາ	-11.6401
ສ້າງໃຫມ່	-11.6401
▁Mal	-11.6402
▁buy	-11.6402
▁ພະຈິກທີ່ຜ່າ	-11.6402
▁ບ່າ	-11.6402
ທະນາຄານກາງ	-11.6404
ເຕົາ	-11.6405
ແບນຊິກ	-11.6405
ຊັບຊ້ອນ	-11.6405
ດັດຊະນີ	-11.6405
▁ການເຮັດ	-11.6406
ກ້ອງຖ່າຍຮູບ	-11.6406
ຊອຍ	-11.6406
ການວາງ	-11.6406
ສົກ	-11.6407
ສູ່ຄອມພິວເຕີ	-11.6409
ຢ່າງຫນັກຫນ່ວງ	-11.641
ຫາທາງ	-11.6411
ລີ່	-11.6411
ຫລີ້ນ	-11.6411
ພືດຜັກ	-11.6411
ເດີນທາງຢ້ຽມຢາມ	-11.6413
ແທນທີ່ຈະ	-11.6413
ໃນວັນທີ່	-11.6413
ds	-11.6414
ກາແດງ	-11.6414
ການປະກາດ	-11.6416
ການອ່ານ	-11.6417
▁ໂອກາດດັ່ງກ່າວ	-11.6418
ວຽກງານວິຊາສະເພາະ	-11.6418
▁ໂມງເຊົ້າ	-11.6418
ແດ	-11.6419
▁sp	-11.6421
ເຄື່ອງຂອງ	-11.6423
ຣັງ	-11.6424
▁1997	-11.6425
ss	-11.6425
▁ຂໍເຊີນ	-11.6426
ef	-11.6426
ຄວາມນິຍົມ	-11.6426
ໃນຕອນກາງຄືນ	-11.6428
▁ລົດເມ	-11.6428
▁ສອງລັດ	-11.6428
ແຊັມ	-11.643
▁ເລາະ	-11.6431
ການຫຼີ້ນການພະນັນ	-11.6432
ຄະນະໂຄສະນາອົບຮົມ	-11.6432
“.	-11.6432
▁tra	-11.6432
ສະໄຫມທີ	-11.6433
ຢາມ	-11.6434
ship	-11.6434
ນິ້ວ	-11.6436
▁ບຣູໄນ	-11.644
▁ມືສອງ	-11.644
ທີ່ສອງ	-11.6442
ວຽກງານປ້ອງກັນ	-11.6442
ສາມາດໃຊ້	-11.6444
/3	-11.6445
▁ເພື່ອປ້ອງກັນ	-11.6448
ຮັບມືກັບ	-11.6448
ການແບ່ງປັນ	-11.6448
▁ຫວາງ	-11.6448
ນປະຊາຊົນຂັ້ນຕົ້ນ	-11.6449
▁ປະທານຄະນະ	-11.6449
▁ມຸມ	-11.645
ກິໂລ	-11.645
ມາພ້ອມກັບ	-11.6451
ທາງທຸລະກິດ	-11.6451
ປາຣີ	-11.6451
ຍາງ	-11.6452
▁ພິກ	-11.6453
ear	-11.6455
ແຄມທາງ	-11.6456
ເຕັກນິກການ	-11.6457
ໄດ້ມອບ	-11.6457
xay	-11.6459
ແຊມ	-11.6459
ທຸກຈົນ	-11.646
▁ຕວກກີ	-11.6461
▁LogmeOnce	-11.6463
▁ທີ່ນະຄອນໂຕຣອນໂຕ	-11.6463
▁ທ່າແຕງ	-11.6463
▁Square	-11.6463
▁Resort	-11.6463
▁ຕອນຄ່ໍາວັນ	-11.6463
▁Lisa	-11.6464
ສ່ອງພາ	-11.6464
▁ບຸກຄົນທົ່ວໄປ	-11.6465
ງງານວິວາ	-11.6465
ນັບມື້	-11.6466
້ງໃນວັນທີ	-11.6466
ເສດຖະກິດມະຫາພາກ	-11.6466
▁ເບິ່ງວີດິໂອ	-11.6467
700	-11.6467
ໃຫ້ຂໍ້ມູນ	-11.6467
ການຮ່ວມມືດ້ານ	-11.6468
▁taxi	-11.6468
ນໍ້າໃຈ	-11.6469
ບໍ່ຮອດ	-11.6469
ເຂື່ອນເຊປຽນ	-11.647
ess	-11.6471
dia	-11.6471
▁ກອງປະຊຸມໃຫຍ່ພັກ	-11.6472
▁ຄະນະລັດຖະບານ	-11.6473
▁ນອກເຫນືອຈາກ	-11.6473
▁20,000	-11.6474
▁ຄໍາພັນ	-11.648
ແຕ້ມຮູບ	-11.6481
▁ອີ່	-11.6481
▁ຊໍ້າ	-11.6482
ພີມ	-11.6482
▁Tha	-11.6483
▁ພົບເຫັນ	-11.6483
ກ່ຽວຂ້ອງເຖິງ	-11.6485
▁ພັນທະມິດ	-11.6486
ຕາມທ້ອງຖະຫນົນ	-11.6486
ຕ່າງກັນ	-11.6487
ຜູ້ອື່ນ	-11.6487
ພະນັກງານນໍາພາ	-11.6487
▁ສັນຍາລັກ	-11.6488
▁Featured	-11.6488
▁ພະນັກງານວິຊາການ	-11.6489
ທີ່ຜ່ານ	-11.649
ພົບກັນ	-11.649
້ໍາ	-11.649
ໃນຫນ້າ	-11.6492
ບັນດິດ	-11.6492
Bourgas	-11.6493
▁ຄໍາເວົ້າ	-11.6493
ບໍຣິສັດ	-11.6493
▁ຫນ່າຍ	-11.6493
▁ຄວ	-11.6494
ໃຫ້ຮູ້	-11.6498
▁Viettel	-11.6498
▁Toyota	-11.6498
ຢ້ານກົວ	-11.6499
▁ພວກກະບົດ	-11.6499
▁ຂອງຄະນະ	-11.6501
ລບ	-11.6501
▁ໄດ້ເລີ່ມ	-11.6503
▁Time	-11.6504
ding	-11.6505
▁ຮ້າຍແຮງ	-11.6507
ອະທິປະໄຕ	-11.6509
▁ວັນເດືອນປີເກີດ	-11.6512
▁ໂຟ	-11.6514
▁Tan	-11.6516
▁ຊຸກຍູ້ການ	-11.6516
ຕ່າງຊາດ	-11.6523
ສະແດງສິລະປະ	-11.6523
DI	-11.6523
ທີ່ທ່ານໄດ້ຮັບ	-11.6526
▁ທີ່ຜ່ານມານີ້	-11.6527
▁ໄດ້ກ່າວຕໍ່	-11.6529
ປົກຄຸມ	-11.6531
pad	-11.6532
ເພີ້	-11.6535
▁ພວກເຮົາກໍາລັງ	-11.6539
▁ຄອຍ	-11.6542
▁ສໍາເນົາ	-11.6545
ປັ້ນ	-11.6545
ວ່າການ	-11.6546
▁Flex	-11.6547
ໃຊ້ວິຈາລະນະຍານ	-11.6547
▁about	-11.6547
▁Merkel	-11.6547
▁delicious	-11.6547
▁like	-11.6548
▁ເອົາຊະນະ	-11.6548
-3	-11.6548
ເພັນສ໌	-11.6548
ເນີນ	-11.6549
▁ຜູ້ແທນ	-11.6549
ປັ່ນ	-11.6551
▁flash	-11.6551
▁ການສົ່ງເສີມ	-11.6553
ໄດ້ຮັບບາດເຈັບ	-11.6553
▁ທີມຊາດລາວ	-11.6554
ງານລ້ຽງ	-11.6554
ເປັນຂະບວນຟົດຟື້ນ	-11.6554
▁ເດືອນມີນາ	-11.6554
ອອກສູ່	-11.6554
ສໍາຜັດກັບ	-11.6557
ໃນຍຸກ	-11.6557
▁not	-11.6558
ຮໍາ	-11.656
ກະທໍາຜິດ	-11.656
ຊິ້ນສ່ວນ	-11.6561
ຢູ່ພາຍໃນປະເທດ	-11.6563
▁ມອນ	-11.6564
ການອະນຸມັດ	-11.6565
▁ຮອງລັດຖະມົນຕີກ	-11.6567
▁ປະມົງ	-11.6567
ສັງເກດການ	-11.6568
▁ພວກຫົວຮຸນແຮງ	-11.6575
▁ຫັ້ນ	-11.6575
ຄິດຮອດ	-11.6576
ຢ່າງຈິງຈັງ	-11.6578
ຄຶ	-11.658
ສະເປນ	-11.658
ເຫຼືອດ້ານພາສາ	-11.6581
ຢູ່ປະເທດ	-11.6581
▁MH	-11.6581
ເມັກຊິໂກ	-11.6582
ປທສ	-11.6582
ຊຸກຍູ້ການພົວພັນ	-11.6583
ນ້ໍາຕານ	-11.6583
▁Cha	-11.6588
▁ແຫຼ່ງຂ່າວ	-11.659
▁ບຸບຜາ	-11.6591
ເທຣດ	-11.6594
ກົນຈັກ	-11.6595
▁ທ່ານຈະຕ້ອງ	-11.6595
ກັນລະຫວ່າງ	-11.6595
ມຽນ	-11.6595
ກົດຫມາຍສະບັບນີ້	-11.6599
La	-11.66
▁ອາລ	-11.66
▁ອາດີດ	-11.6601
ແປພາສາ	-11.6602
ແຜ່ຂະຫຍາຍ	-11.6603
ສະບັບໃຫມ່	-11.6604
▁1,5	-11.6605
▁Joe	-11.6608
ສຸພາບ	-11.6611
ອຸ່ນ	-11.6612
ເຮົາໄດ້	-11.6613
ຸ	-11.6614
ຂັບຂີ່	-11.6615
▁ທັງສອງຝ່າຍ	-11.6615
ໃນອິນເຕີເນັດ	-11.6618
▁Sch	-11.6618
▁ບໍາລຸງສ້າງ	-11.6619
ology	-11.6621
▁ອຸຕຸ	-11.6622
ຫັນມາ	-11.6622
ປະເທດຝຣັ່ງ	-11.6623
ແລວທາງ	-11.6623
▁West	-11.6623
▁ຍໍ	-11.6624
▁ຈໍາເປັນ	-11.6625
ອອກເປັນ	-11.6625
ຊະນິດຫນຶ່ງ	-11.6626
ືອງ	-11.663
ເຂົ້າໄປເບິ່ງ	-11.663
▁13.	-11.6631
ອະໄພຍະໂທດ	-11.6631
▁ຫງວຽນຟູ໋ຈ້ອງ	-11.6631
ເຂົ້າເບີສຸກເສີນ	-11.6632
▁Health	-11.6632
ລໍາບາກ	-11.6632
ib	-11.6633
▁sell	-11.6633
▁ເດືອນກໍລະກົດ	-11.6635
▁ກັນນັ້ນ	-11.6635
ຈັດການແຂ່ງຂັນ	-11.6637
▁(9)	-11.6637
ven	-11.6637
▁ພັກດີ	-11.6638
ຮຽກວ່າ	-11.6638
▁Gar	-11.6639
ຫຼາຍປະເທດ	-11.664
▁ໂມດູນ	-11.6641
ຄວາມຈິງທີ່ວ່າ	-11.6641
ໄລຍະທາງ	-11.6641
ຊ່າ	-11.6643
▁ລຽບ	-11.6643
ພຸ່ງ	-11.6645
ໂອ້	-11.6645
▁ປະທານປະເທດແຫ່ງ	-11.6647
ຫນ້າດິນ	-11.6649
ໂຕເລກ	-11.6649
ຫມູນໃຊ້	-11.6651
2015	-11.6652
ວິລະຊົນ	-11.6652
ຄຣິສຕຽນ	-11.6653
▁ຂອງຊາວ	-11.6654
ເຄື່ອງຊ່ວຍເຫຼືອ	-11.6654
ກົມການເມືອງ	-11.6654
ຂໍ້ມູນຈາກ	-11.6655
ຣັນ	-11.6657
ການຊໍາລະ	-11.6658
ການສົ່ງເສີມການ	-11.6658
▁ຫຼາຍຂຶ້ນ	-11.6658
▁ຜູ້ປົກຄອງ	-11.6659
ລັນ	-11.666
▁ໂດຍບໍ່ເສັຽຄ່າ	-11.6661
ສາມັນ	-11.6661
▁Yes	-11.6665
▁Chen	-11.6666
ຮຸກຮານ	-11.6667
▁ເຣື່ອງ	-11.6667
ຟົດຟື້ນ	-11.6667
▁ແຟ	-11.6668
ທໍາຄວາມສະອາດ	-11.6668
ພ້ອມດ້ວຍພະນັກງານ	-11.6669
▁o	-11.6669
8]	-11.667
▁ຫມູ່ເພື່ອນ	-11.667
ອະວະກາດ	-11.6671
▁ພົບປະແລກປ່ຽນ	-11.6671
▁ການລະ	-11.6671
ປະທານາ	-11.6672
UN	-11.6674
ການຄ້າມະນຸດ	-11.6675
ິບໍ	-11.6675
▁ນິກາຍ	-11.6676
▁ການກໍ່	-11.6676
ມີສະຕິ	-11.6677
ການຮ່ວມເພດ	-11.6678
▁Social	-11.6681
▁="	-11.6681
▁Kou	-11.6681
wan	-11.6683
ວ່າມັນ	-11.6684
▁ຄົນນຶ່ງ	-11.6685
ເຄາະ	-11.6686
▁ຕຸລານີ້	-11.6686
ຊາວຈີນ	-11.6688
56	-11.669
▁(23	-11.6691
ການຂຸດຄົ້ນ	-11.6692
▁Bra	-11.6692
▁facebook	-11.6693
ບໍລິຫານງານພັກ	-11.6694
ບໍ່ດົນ	-11.6694
▁Ver	-11.6696
ສະຫນາມບິນສາກົນ	-11.6696
ຈີງ	-11.6697
ງວດ	-11.6698
▁ຄວນຈະ	-11.6698
▁ກອງປະຊຸມຂັ້ນສູງ	-11.6699
▁ແຕ	-11.6701
▁ຄວາມຮູ້ສຶກ	-11.6701
ສະມັກ	-11.6702
໋ຍ	-11.6703
ກໍາອໍານາດ	-11.6703
▁2016)	-11.6704
▁030	-11.6706
port	-11.6706
▁ເອເລັກໂຕຣນິກ	-11.6707
ນໍ້າມັນເຊື້ອໄຟ	-11.6707
▁ສ່ວນຕົວ	-11.6708
ຊື	-11.6708
▁ຍົກເລີກການຕອບ	-11.671
▁ເສນາ	-11.6711
ໃນເວັບໄຊທ໌	-11.6711
ຊາວນາ	-11.6714
▁Vietnam	-11.6715
ພະນັກງານລັດຖະກອນ	-11.6715
ຫວັດ	-11.6716
Electric	-11.6717
▁Hewitt	-11.6717
▁enemy	-11.6717
▁CNN	-11.6717
▁Bas	-11.6717
▁Saudi	-11.6718
▁ນິຕິສາດ	-11.6718
▁ຕລອດຊີວິດ	-11.6718
▁Fair	-11.6718
▁ນາງສາວ	-11.6719
▁Room	-11.6719
ທ້ອງຖີ່ນ	-11.6719
▁າມ	-11.6719
ພະພຸດທະຮູບ	-11.6719
ເດີນທາງໄປຢ້ຽມຢາມ	-11.6719
-10	-11.672
▁ດາວໂຫຼດຟຣີ	-11.672
ແຫ່ງການຮຽນຮູ້	-11.6722
ເຕົ້າ	-11.6722
AM	-11.6723
ບໍ່ດົນມານີ້	-11.6724
ເຈົາ	-11.6725
▁Sol	-11.6726
ມີປະສິດທິພາບ	-11.6726
▁ໄດ້ໃຫ້ການ	-11.6728
▁Intel	-11.6728
▁ໃຫ້ພວກ	-11.6728
▁89	-11.6729
ກຸ່ມຫົວຮຸນແຮງ	-11.673
ຕະຫຼາດຫຼັກຊັບລາວ	-11.6731
▁ພ້ອມໆ	-11.6732
▁ສັງຄົມນິຍົມ	-11.6733
ຈຸລັງ	-11.6734
▁ຈາກການຄ້າມະນຸດ	-11.6735
▁ການຮັກສາ	-11.6739
ພຣະສົງ	-11.6739
ຈາກທີມງານ	-11.6739
ແນ່ໃຈວ່າ	-11.6741
ຮັກສາໄວ້	-11.6741
ຕໍ່ລະບຽບກົດຫມາຍ	-11.6742
▁Pe	-11.6743
ຮ່ອງຮອຍ	-11.6744
▁ລຶກ	-11.6744
[...]
