<unk>	0
<s>	0
</s>	0
ານ	-0
▁ເ	-1
ັນ	-2
ອງ	-3
ການ	-4
▁ແ	-5
▁ສ	-6
່າ	-7
ທີ	-8
ລະ	-9
ໍາ	-10
້າ	-11
ັບ	-12
ັດ	-13
ທີ່	-14
▁ກ	-15
ປະ	-16
າມ	-17
່ງ	-18
າຍ	-19
ດ້	-20
ໃນ	-21
ຂອງ	-22
ິດ	-23
▁ທ	-24
▁ຫ	-25
້ນ	-26
ົນ	-27
▁ແລະ	-28
▁ຕ	-29
ອນ	-30
▁ຄ	-31
▁ນ	-32
າດ	-33
▁ລ	-34
▁ພ	-35
ໄດ້	-36
ັກ	-37
ື່	-38
ັງ	-39
▁ມ	-40
່ານ	-41
ໃຫ	-42
ໍ່	-43
▁ການ	-44
▁ອ	-45
າກ	-46
▁ວ	-47
າວ	-48
▁ບ	-49
ສະ	-50
ຫນ	-51
▁ຈ	-52
າງ	-53
ປັນ	-54
▁ທີ່	-55
ົ້າ	-56
▁ໃນ	-57
ໃຫ້	-58
່ວ	-59
ຫຼ	-60
▁ຊ	-61
ວກ	-62
▁ຂ	-63
▁ໂ	-64
ີ້	-65
▁ປະ	-66
່ນ	-67
່າງ	-68
ະນ	-69
▁ຮ	-70
ົາ	-71
▁2	-72
ົງ	-73
▁ປ	-74
ວາມ	-75
ົດ	-76
ູ້	-77
ູ່	-78
▁ໄດ້	-79
ອກ	-80
▁ຂອງ	-81
ພາ	-82
້ງ	-83
▁ສະ	-84
ຸດ	-85
້ອງ	-86
ມີ	-87
ິນ	-88
ັ້ນ	-89
່າວ	-90
ວງ	-91
▁ໄ	-92
▁ຢ	-93
ວ່າ	-94
ົມ	-95
ຽນ	-96
ື່ອ	-97
ໍາລ	-98
▁1	-99
▁ທ່ານ	-100
້ອ	-101
ອບ	-102
ເຮ	-103
ິງ	-104
ເປັນ	-105
ເຂ	-106
ມື	-107
ສາ	-108
ົບ	-109
▁ດ	-110
ົວ	-111
ຫມ	-112
ທດ	-113
▁ຜ	-114
່ຽ	-115
ລາວ	-116
ງານ	-117
ຖະ	-118
▁ຍ	-119
ິ່ງ	-120
ີນ	-121
ັ້ງ	-122
ທະ	-123
ຄວາມ	-124
ວຽ	-125
ມ່ນ	-126
01	-127
▁ເປັນ	-128
▁ມີ	-129
ຸກ	-130
▁(	-131
ເລ	-132
ວນ	-133
ໍາລັບ	-134
້າງ	-135
ຈະ	-136
ົກ	-137
▁A	-138
ມາ	-139
ຫລ	-140
ູນ	-141
ດຍ	-142
ກິດ	-143
ິກ	-144
▁ເພ	-145
le	-146
ທາງ	-147
in	-148
ເອ	-149
▁ໃຫ້	-150
ຈົ້າ	-151
ບັນ	-152
ີດ	-153
້ານ	-154
ວັນ	-155
ເຊ	-156
▁-	-157
ລັດ	-158
ລາ	-159
ເກ	-160
▁201	-161
ພວກ	-162
່ມ	-163
▁ຫຼ	-164
ທ່ານ	-165
ເສ	-166
ຶ່ງ	-167
ເທດ	-168
ຽງ	-169
er	-170
ມືອງ	-171
▁ວ່າ	-172
▁ເກ	-173
ຸມ	-174
ເພ	-175
ວິ	-176
ຕໍ່	-177
ໍານ	-178
ບໍ່	-179
ລິ	-180
ຕ່	-181
ຕິ	-182
▁ເຂ	-183
ັ່ງ	-184
ຮັບ	-185
▁ຄວາມ	-186
▁ໃ	-187
▁S	-188
..	-189
▁ຈະ	-190
າຊ	-191
ດີ	-192
ຢູ່	-193
ໄປ	-194
▁ກັບ	-195
ຈາກ	-196
▁ເຊ	-197
ຫນ້າ	-198
່ວມ	-199
້ວ	-200
ຖື	-201
ຕີ	-202
▁ສໍາລັບ	-203
ເຮົາ	-204
ກັບ	-205
ນີ້	-206
ເຂົ້າ	-207
an	-208
on	-209
▁ຫນ	-210
ດນ	-211
ຊ້	-212
ີໂ	-213
ຫາ	-214
ົ່ງ	-215
ວຍ	-216
ະນະ	-217
▁ຢູ່	-218
▁ເຮ	-219
▁ເລ	-220
ຫວ	-221
ກັນ	-222
ໍ້	-223
ພາບ	-224
▁ນີ້	-225
ຸນ	-226
ແລະ	-227
ມ່	-228
00	-229
ີໂອ	-230
ຶກ	-231
ປະຊ	-232
▁ລາຍ	-233
ດາ	-234
ຶ້ນ	-235
ພະ	-236
ປະເທດ	-237
ວກັບ	-238
ຕະ	-239
ອດ	-240
▁ບໍ່	-241
▁ບັນ	-242
ທິ	-243
່ຽວກັບ	-244
ຂວງ	-245
່ວນ	-246
ທະຍ	-247
ແມ່ນ	-248
▁ຄົນ	-249
ີກ	-250
▁ເພື່ອ	-251
ພວກເຮົາ	-252
ື່ອງ	-253
ໍລິ	-254
▁ອາ	-255
ເວ	-256
ຜູ້	-257
ຫະ	-258
ຫ່ງ	-259
▁ລະ	-260
ກະ	-261
ະນາ	-262
ົ້ນ	-263
▁3	-264
່ຽວ	-265
ເບ	-266
▁ໂດຍ	-267
▁ປີ	-268
ດນາມ	-269
ວຽດນາມ	-270
ຖານ	-271
▁ພວກ	-272
▁ລາວ	-273
▁ຜູ້	-274
▁C	-275
ເຫ	-276
▁M	-277
ວດ	-278
▁ແມ່ນ	-279
ີໂອເອ	-280
້ອຍ	-281
ນະ	-282
ຖືກ	-283
ຄົນ	-284
ດ້ວຍ	-285
ຕັ້ງ	-286
▁ວັນ	-287
ar	-288
▁ຂ່າວ	-289
ຮງ	-290
າມາດ	-291
ພັນ	-292
້ອມ	-293
ປີ	-294
່ອນ	-295
▁ລັດ	-296
ີໂອເອລາວ	-297
ືອນ	-298
ຮ່ວມ	-299
່າຍ	-300
ັດທ	-301
ຖິງ	-302
ຢ່າງ	-303
ລາຍ	-304
▁ມາ	-305
ຊາດ	-306
ໃຈ	-307
▁ກະ	-308
ເຄ	-309
ເຈົ້າ	-310
ໂລ	-311
ລ້ວ	-312
ຕາມ	-313
▁ເສ	-314
▁P	-315
ຊີ	-316
▁ຈາກ	-317
ືອ	-318
ບັດ	-319
ທານ	-320
ແນ	-321
ຫານ	-322
ສ້າງ	-323
ເດ	-324
ro	-325
່ວຍ	-326
▁ເອ	-327
ໃຊ້	-328
es	-329
▁ຕິດ	-330
at	-331
ວິທະຍ	-332
ລົງ	-333
້າຍ	-334
ໄລ	-335
▁“	-336
ເນ	-337
▁B	-338
ທໍາ	-339
ືນ	-340
▁ຕໍ່	-341
ຫຼາຍ	-342
oo	-343
ດ້ານ	-344
ສຸດ	-345
▁ລາຍການ	-346
▁ພາ	-347
ຄອນ	-348
▁ນະ	-349
ສໍາ	-350
ຕ່າງ	-351
▁ພະ	-352
ບບ	-353
ເມືອງ	-354
ຫມາຍ	-355
▁ເຈົ້າ	-356
ື້ນ	-357
▁ແຕ່	-358
ື່ອນ	-359
▁ໄປ	-360
▁T	-361
ຍ່	-362
ກ່າວ	-363
▁ເດ	-364
ນັ້ນ	-365
ຈໍາ	-366
ຈັດ	-367
ເຮັດ	-368
en	-369
ມະ	-370
ໃຫມ່	-371
ຄໍາ	-372
id	-373
ເທ	-374
al	-375
້ມ	-376
ຫຍ	-377
ອາ	-378
▁ເວ	-379
▁ຫມ	-380
ູງ	-381
ີ່ມ	-382
ໃຫຍ່	-383
▁ສໍາ	-384
ຂະ	-385
▁ເຂົ້າ	-386
ສານ	-387
ແກ	-388
▁ເກມ	-389
ລັດຖະ	-390
ຂຶ້ນ	-391
or	-392
▁ກັນ	-393
▁ກໍ	-394
▁ຖ	-395
ງິນ	-396
▁5	-397
ບານ	-398
▁ກ່າວ	-399
ວິທະຍຸ	-400
ກໍາ	-401
ພິ	-402
▁4	-403
າຊົນ	-404
▁ຮັບ	-405
▁ລາຍການວິທະຍຸ	-406
▁ເມືອງ	-407
ເມ	-408
▁ສົ່ງ	-409
ຸ່ມ	-410
ທັງ	-411
ເບິ່ງ	-412
ຕ້ອງ	-413
ອອກ	-414
as	-415
ສາມາດ	-416
▁L	-417
▁ເທດ	-418
▁ທາງ	-419
່ອງ	-420
ຕາ	-421
ສະຫນ	-422
ບໍລິ	-423
ົ່ວ	-424
ນໍາ	-425
ູບ	-426
▁ເຄ	-427
ຄົມ	-428
ມົນ	-429
▁ຢ່າງ	-430
ແຫ່ງ	-431
ຜົນ	-432
pp	-433
ໂນ	-434
ຕ້	-435
ປະຊຸມ	-436
▁ສາ	-437
▁ເມ	-438
ຂໍ້	-439
ົ່າ	-440
ື່ນ	-441
ຽມ	-442
້ໍາ	-443
ຮຽນ	-444
ມູນ	-445
▁ນັ້ນ	-446
ສໍາລັບ	-447
ວມ	-448
ກອງ	-449
ີຍ	-450
▁ແຂວງ	-451
▁An	-452
ເຕ	-453
ັດທະນາ	-454
ໄຊ	-455
ວິດ	-456
ສ່ວນ	-457
ຊວງ	-458
...	-459
ພາສາ	-460
▁ກ່ຽວກັບ	-461
ມົນຕີ	-462
ຕິບັດ	-463
ຶກສາ	-464
▁F	-465
ື້	-466
ື້ອ	-467
ແຕ່	-468
▁ວິ	-469
▁ຟ	-470
ໂດຍ	-471
▁H	-472
ພັກ	-473
ງການ	-474
ະລ	-475
▁ທີ	-476
ດງ	-477
ົງການ	-478
ອີກ	-479
ເສດ	-480
ັງກິດ	-481
▁ຫວຽດນາມ	-482
ໍານວນ	-483
ສັດ	-484
gle	-485
▁ເຮັດ	-486
ຈັນ	-487
▁ຮຽນ	-488
ຫຼວງ	-489
ື່ມ	-490
ຮູ້	-491
ູກ	-492
oogle	-493
▁ເຫ	-494
ສ່	-495
▁ຫນ້າ	-496
▁R	-497
▁ປະຊ	-498
it	-499
ອ່ານ	-500
ຄ້າ	-501
ເພື່ອ	-502
▁D	-503
Google	-504
ຕົວ	-505
▁ຫລ	-506
ic	-507
ປະກ	-508
ຸລະ	-509
▁_	-510
▁:	-511
ຫວ່າງ	-512
ວຽກ	-513
ອຍ	-514
dro	-515
▁ລັດຖະ	-516
ເກມ	-517
▁2018	-518
▁ກອງ	-519
▁App	-520
ບັນດາ	-521
ໂຄ	-522
າທິ	-523
OS	-524
ເຫັນ	-525
▁ນໍາ	-526
droid	-527
ຜນ	-528
ຍາ	-529
▁Android	-530
ແບບ	-531
ແຂວງ	-532
▁ຄໍາ	-533
ໍາລັງ	-534
ໃນການ	-535
▁ຕ່າງ	-536
ັ່ງກ່າວ	-537
om	-538
▁N	-539
ເຂດ	-540
ແລ້ວ	-541
▁ທະ	-542
ັ່ນ	-543
ເງິນ	-544
▁ງານ	-545
ເຖິງ	-546
▁ບັນດາ	-547
▁ອອກ	-548
▁Apple	-549
ືອກ	-550
ມານ	-551
▁ຍັງ	-552
ອັງກິດ	-553
▁6	-554
ີມ	-555
is	-556
ອມ	-557
ຽກ	-558
ຸງ	-559
▁ຫຼື	-560
ກໍ່	-561
iOS	-562
ໃດ	-563
້ອນ	-564
ກ່ຽວກັບ	-565
▁ຊີ	-566
ຫະລັດ	-567
ຸລະກິດ	-568
▁.	-569
ຜ່ານ	-570
ຍະ	-571
່ຽນ	-572
▁ນັກ	-573
ພາະ	-574
ຕົ້ນ	-575
▁ກໍາ	-576
ຶນ	-577
ຂອງທ່ານ	-578
ສູງ	-579
ູດ	-580
▁ຂ່າວວ	-581
▁,	-582
ing	-583
▁ຂ່າວວີໂອເອລາວ	-584
▁ວີໂອເອລາວ	-585
▁ລິ	-586
▁ງ	-587
ຣະ	-588
▁ທັງ	-589
ຍັງ	-590
ໄດ້ຮັບ	-591
ເປ	-592
▁ສົ່ງໃຫ້	-593
ຫວຽດນາມ	-594
ເບິ່ງທາງ	-595
ທຸກ	-596
ou	-597
▁I	-598
▁ສົ່ງໃຫ້ອ່ານ	-599
ຂ່າວ	-600
ກົດ	-601
▁ຈີນ	-602
ສັນ	-603
▁ສ້າງ	-604
ຍິງ	-605
ລະບ	-606
ິ້ນ	-607
ຽບ	-608
ພາກ	-609
ນາ	-610
▁ລົງ	-611
ະລິດ	-612
ຣີ	-613
▁G	-614
ໄວ	-615
ວັນທີ	-616
ສົມ	-617
ມັນ	-618
ວີ	-619
▁ຂຶ້ນ	-620
ເຫຼ	-621
ຖະກິດ	-622
▁ເນ	-623
ຄື	-624
ພາສາອັງກິດ	-625
ດັບ	-626
ສິດ	-627
▁ເຖິງ	-628
ວຽງ	-629
▁ຮ່ວມ	-630
▁ເບ	-631
ac	-632
ວາງ	-633
ສາດ	-634
▁ໂຄ	-635
▁ແຫ່ງ	-636
ທີ່ມີ	-637
ວັດ	-638
▁ນະຄອນ	-639
ສົ່ງ	-640
ເຈ	-641
▁W	-642
າະ	-643
ປະຕິບັດ	-644
▁ປະທານ	-645
▁ພ້ອມ	-646
▁ບໍລິ	-647
ລກ	-648
ີ່	-649
ເຂົາ	-650
▁ຕາມ	-651
ແດງ	-652
ຕິດ	-653
▁ແກ	-654
ສັງ	-655
▁ຂໍ້	-656
▁ສປ	-657
am	-658
re	-659
▁ຊຶ່ງ	-660
ເອົາ	-661
ກວ່າ	-662
ຊາ	-663
ໄຂ	-664
▁2017	-665
ຄັນ	-666
▁ແນ	-667
ຄອງ	-668
▁ຝ	-669
▁V	-670
▁s	-671
▁10	-672
ລີ	-673
ລັດຖະມົນຕີ	-674
▁ມັນ	-675
ກໍ	-676
ປະທານ	-677
ບໍ	-678
ແຂ	-679
el	-680
▁ພິ	-681
ບ້ານ	-682
▁7	-683
ພັດທະນາ	-684
▁ແລ້ວ	-685
▁ພາກ	-686
▁ເຊິ່ງ	-687
ເວລາ	-688
ໄພ	-689
▁ດ້ວຍ	-690
ິ່ນ	-691
ປະຊາຊົນ	-692
▁/	-693
▁ຫົວ	-694
▁ຫາ	-695
▁ສຸດ	-696
ສື	-697
▁ສີ	-698
ທລະ	-699
ທີ່ຈະ	-700
ຫມົດ	-701
ທຶນ	-702
▁t	-703
ໃສ່	-704
▁ຕັ້ງ	-705
▁ກໍ່	-706
ໂນໂລ	-707
ຫນຶ່ງ	-708
ສະເ	-709
▁ຕ້ອງ	-710
ສອງ	-711
ັກໂນໂລ	-712
ໍ້າ	-713
▁ຂະ	-714
▁ເປ	-715
▁ຊາດ	-716
ຕ່າງໆ	-717
▁ຄັ້ງ	-718
ີບ	-719
▁ນາ	-720
ໂລກ	-721
▁"	-722
ັກງານ	-723
ບຸກ	-724
ທີ່ສຸດ	-725
ກາງ	-726
▁ໃຊ້	-727
▁ຖະ	-728
▁K	-729
ຄາ	-730
▁ຖືກ	-731
ວຽງຈັນ	-732
ບົດ	-733
ແຕ	-734
ຄັ້ງ	-735
ຊ່ວຍ	-736
ສິນ	-737
▁ເທ	-738
ມ້	-739
▁ດີ	-740
ຄະນະ	-741
▁ຣ	-742
ຊີວິດ	-743
ແຮງ	-744
ສຶກສາ	-745
201	-746
ແທ	-747
ປ່ຽນ	-748
▁ຕິດຕໍ່	-749
ຫົວ	-750
ເຕີ	-751
ສະພາ	-752
et	-753
▁ເຮົາ	-754
ຮັກ	-755
້າພະ	-756
▁8	-757
▁0	-758
▁ກະຊວງ	-759
ເຊຍ	-760
▁ຜົນ	-761
ad	-762
▁ທໍາ	-763
າຍົກ	-764
ແຫນ	-765
ກາ	-766
ທະວີ	-767
▁ຫຼາຍ	-768
້ຍ	-769
▁9	-770
▁E	-771
້ຽມ	-772
ສີ	-773
ຽດ	-774
ລົດ	-775
ຽວ	-776
ຈຸ	-777
ຸ່ນ	-778
▁ກ່ຽວ	-779
ແຫ່ງຊາດ	-780
▁ເຂດ	-781
▁ອົງການ	-782
ຮູບ	-783
ed	-784
ພາຍ	-785
▁ນາງ	-786
ຈີ	-787
▁ສປປ	-788
ນ໌	-789
▁ຄະນະ	-790
ກອງປະຊຸມ	-791
ນັກ	-792
ຜະລິດ	-793
▁ມະ	-794
▁ສ່ວນ	-795
ເຫດ	-796
ao	-797
ຈີນ	-798
ອນໄລ	-799
ຂໍ້ມູນ	-800
▁ບ້ານ	-801
▁U	-802
ຍາດ	-803
ໄຟ	-804
ຍາກ	-805
ພື້ນ	-806
ຊົນ	-807
ຈັດຕັ້ງ	-808
▁ຈັດ	-809
▁ຕິດຕໍ່ພວກເຮົາ	-810
▁ແອ	-811
້າວ	-812
ໂຕ	-813
▁c	-814
▁ເສດ	-815
▁ເອົາ	-816
ຸ້ມ	-817
▁ຕິດຕາມ	-818
ເຟ	-819
▁ເມື່ອ	-820
ຄ່າ	-821
ບໍດີ	-822
▁ໃຈ	-823
▁ເດືອນ	-824
▁ຮອງ	-825
າລະ	-826
il	-827
▁ປະເທດ	-828
▁ພັນ	-829
ສູນ	-830
ຜິດ	-831
ສິ່ງ	-832
us	-833
▁ສະຫະລັດ	-834
▁ຜ່ານ	-835
ເຮັດໃຫ້	-836
ຮ່ວມມື	-837
ຊິກ	-838
ອນໄລນ໌	-839
ion	-840
▁ອັນ	-841
▁ລາ	-842
▁ຕື່ມ	-843
ຈັກ	-844
ດັ່ງກ່າວ	-845
ທ່ຽວ	-846
▁ສິ່ງ	-847
ັຟ	-848
ter	-849
ທິດ	-850
▁d	-851
▁ຕຸ	-852
ແຜນ	-853
ອັນ	-854
ess	-855
ຕົກ	-856
ຫນີ	-857
ຄິດ	-858
ເລືອກ	-859
▁ຈໍາ	-860
ເພີ່ມ	-861
ົວພັນ	-862
▁ພາຍ	-863
ຢູ່ໃນ	-864
ສຽງ	-865
ນ້ອຍ	-866
▁ເຕ	-867
ສໍາຄັນ	-868
ຕອນ	-869
ບາຍ	-870
▁ເຈ	-871
າຍົກລັດຖະມົນຕີ	-872
▁ລົດ	-873
ຊາຍ	-874
້າພະເຈົ້າ	-875
▁p	-876
ິກາ	-877
ສັງຄົມ	-878
ອື່ນ	-879
ປາ	-880
ຄະ	-881
ມາຊິກ	-882
ປົກ	-883
▁J	-884
▁ໄລ	-885
ທົ່ວ	-886
▁ເຫັນ	-887
▁ຕາ	-888
ແກ່	-889
▁ກິ	-890
ເກີດ	-891
ເສຍ	-892
ບາດ	-893
າກົນ	-894
▁ພັກ	-895
ຈຸບັນ	-896
າທິບໍດີ	-897
ມີຄວາມ	-898
ຈ້ງ	-899
ແປ	-900
ຄານ	-901
▁ຕົວ	-902
ຕົນ	-903
ບາງ	-904
▁ພາບ	-905
ລະຫວ່າງ	-906
▁ສາມາດ	-907
ສະແດງ	-908
ຫຼີ	-909
▁ຄື	-910
ທົບ	-911
▁ແຕ	-912
່ອງທ່ຽວ	-913
▁ດ້ານ	-914
ກໍາລັງ	-915
▁–	-916
ປ້ອງ	-917
▁ທຸລະກິດ	-918
ມີການ	-919
ash	-920
ຫນ້າທີ່	-921
ສອນ	-922
ຮ້ອງ	-923
ໃຕ້	-924
ທັງຫມົດ	-925
▁ຕະ	-926
ຫຍາຍ	-927
ສະຫ	-928
000	-929
ນະຄອນ	-930
ເຄື່ອງ	-931
ຢາມ	-932
▁ຄະ	-933
ເຜ	-934
▁ແບບ	-935
▁ກົດ	-936
ເຊື່ອ	-937
▁ໄຟ	-938
ຣໍາ	-939
▁20	-940
ເສດຖະກິດ	-941
▁ກ່ຽວກັບພວກເຮົາ	-942
ເຂົ້າຮ່ວມ	-943
ຣ໌	-944
▁ເວລາ	-945
▁ມື	-946
ຫລັບ	-947
ແນວ	-948
ະນັກງານ	-949
ວຽນ	-950
▁ວຽກ	-951
▁ຖ້າ	-952
▁ລິ້ງ	-953
▁ປະກ	-954
ໍາເນ	-955
▁ປະຊາຊົນ	-956
ຕ່າງປະເທດ	-957
່ອຍ	-958
▁ລັດຖະບານ	-959
ພົບ	-960
▁ສັງ	-961
ອິດ	-962
▁b	-963
ຫນືອ	-964
ັມ	-965
ir	-966
ເອກ	-967
ຊາວ	-968
ເທັກໂນໂລ	-969
un	-970
lo	-971
▁ບົດ	-972
ສບຸກ	-973
ag	-974
ໍາເນີນ	-975
he	-976
ເດືອນ	-977
້ຽມຢາມ	-978
ur	-979
ແມ່	-980
ປະກອບ	-981
▁ເຂົາ	-982
▁ລ້ານ	-983
ຫລາຍ	-984
▁ອີກ	-985
ວາ	-986
ສັບ	-987
ົບຮ	-988
▁ໃນການ	-989
ັບປ	-990
ນ້ໍາ	-991
ເປີດ	-992
▁ຕີ	-993
▁ໄວ	-994
ເຕີ້	-995
ຈໍານວນ	-996
▁ຕື່ມອີກ	-997
ິວ	-998
ພຽງ	-999
▁ອີ	-1000
▁ຊາວ	-1001
▁19	-1002
▁ສໍາຫລັບ	-1003
▁ເດັກ	-1004
▁O	-1005
ເຟສບຸກ	-1006
▁ຍິງ	-1007
ວຽກງານ	-1008
▁ສອງ	-1009
ເຂົ້າຫາ	-1010
ຮອງ	-1011
ປະຈໍາ	-1012
▁m	-1013
ຕ້ອງການ	-1014
ເທັກໂນໂລຈີ	-1015
ຄືນ	-1016
ລູກ	-1017
▁ໃຫມ່	-1018
▁ແອັຟ	-1019
▁ຕິດຕາມພວກເຮົາ	-1020
▁ທຣໍາ	-1021
▁ອາຣ໌	-1022
▁ສໍາຫລັບເຂົ້າຫາ	-1023
ໄມ້	-1024
ອາດ	-1025
ແນກ	-1026
▁ສູງ	-1027
ie	-1028
ມັດ	-1029
▁ໂລກ	-1030
ຊື່	-1031
ສະຫຼ	-1032
▁ຫງ	-1033
▁ຮູບ	-1034
▁ຮັກ	-1035
▁ດັ່ງ	-1036
and	-1037
ອກາດ	-1038
ay	-1039
້ໄຂ	-1040
▁ເພີ່ມ	-1041
ໂມ	-1042
ກ່ຽວ	-1043
ເລັດ	-1044
▁ມາດ	-1045
▁ນະຄອນຫຼວງ	-1046
ອອນໄລນ໌	-1047
▁ແຜນ	-1048
ທະວີຕ	-1049
ທະວີຕເຕີ້	-1050
ເບິ່ງທາງເຟສບຸກ	-1051
ຈມ	-1052
ເອງ	-1053
ົາຫຼີ	-1054
▁ເຄື່ອງ	-1055
ເວັບ	-1056
ນີ	-1057
▁ແຂ	-1058
▁ກ່ອນ	-1059
ຶດ	-1060
ກະຊວງ	-1061
ກົດຫມາຍ	-1062
ຄວ	-1063
ຂາຍ	-1064
em	-1065
ທ່ອງທ່ຽວ	-1066
ອາຊ	-1067
▁ມານ	-1068
ສາມ	-1069
ໂຍ	-1070
▁12	-1071
▁ຊ່ວຍ	-1072
່ຍ	-1073
ໍານົດ	-1074
▁ເງິນ	-1075
▁ປະຈໍາ	-1076
▁ອຸ	-1077
ch	-1078
ກວດ	-1079
ປະສ	-1080
ຂັ້ນ	-1081
ໄວ້	-1082
ພຣະ	-1083
ຈິງ	-1084
ໂຮງ	-1085
▁ຫລາຍ	-1086
▁2016	-1087
ພົວພັນ	-1088
▁ກອງປະຊຸມ	-1089
▁ໂທລະ	-1090
▁ໄຊ	-1091
▁ສຽງ	-1092
▁ອະ	-1093
ສາຫະ	-1094
▁ບໍລິສັດ	-1095
▁ກໍາລັງ	-1096
ຢາ	-1097
ໄລຍະ	-1098
▁ນອກ	-1099
▁ໂຄງການ	-1100
▁ສັນ	-1101
▁ເວົ້າ	-1102
ol	-1103
ເຄື່ອນ	-1104
ອັດ	-1105
um	-1106
ເດັກ	-1107
ບໍລິການ	-1108
▁ຮູ້	-1109
ສິ	-1110
▁ໃຫຍ່	-1111
ະນຸ	-1112
້ນໍາ	-1113
▁ຫ້ອງ	-1114
ແລ	-1115
ຟ້າ	-1116
.”	-1117
ໄຫວ	-1118
▁ເພາະ	-1119
ະນໍາ	-1120
ຂັນ	-1121
ອະ	-1122
ິສ	-1123
ຫ້ອງ	-1124
▁ກາ	-1125
ລະບົບ	-1126
ຕໍາ	-1127
ທຸລະກິດ	-1128
ນໍາໃຊ້	-1129
▁ສະຫ	-1130
▁ມື້	-1131
ent	-1132
ົ່ານ	-1133
ສົນ	-1134
▁ຫຼັງ	-1135
ໄທ	-1136
ທີ່ດີ	-1137
▁ສົມ	-1138
້າມ	-1139
ລື	-1140
▁ຫງວຽນ	-1141
ກອນ	-1142
ສູ່	-1143
▁ທຸກ	-1144
▁ຈໍານວນ	-1145
▁ໂອ	-1146
ອົງການ	-1147
ດໍາເນີນ	-1148
▁ນຶ່ງ	-1149
ສະຖານ	-1150
▁15	-1151
▁ເບິ່ງ	-1152
▁ເຫດ	-1153
▁ລະຫວ່າງ	-1154
▁ວັນທີ	-1155
▁ອັດ	-1156
ຄົ້ນ	-1157
ໂດ	-1158
ຄົວ	-1159
ຫຼັງ	-1160
▁Lao	-1161
▁ຫົວຫນ້າ	-1162
ດິນ	-1163
▁ພຽງ	-1164
ak	-1165
ຄຸນ	-1166
▁ຕອນ	-1167
ປະມານ	-1168
ືອບ	-1169
ລັດຖະບານ	-1170
▁ກຸ່ມ	-1171
ອີ	-1172
▁ປາ	-1173
▁ແຮງ	-1174
ສາຍ	-1175
ໂຄງການ	-1176
▁ເປີດ	-1177
ໄຫມ	-1178
ສອບ	-1179
ຸ້ນ	-1180
▁ໃດ	-1181
▁ຕົກ	-1182
os	-1183
ຂອງການ	-1184
▁f	-1185
▁ຫວ	-1186
ຜ່ານມາ	-1187
ສາກົນ	-1188
ຂະຫຍາຍ	-1189
ປ້ອງກັນ	-1190
ສືບ	-1191
▁ໂຮງ	-1192
ຊອບ	-1193
ລວມ	-1194
▁ພາສາ	-1195
ທະຍາ	-1196
ກ້	-1197
ເຫຼືອ	-1198
▁ສະພາ	-1199
▁ກວ່າ	-1200
ມະນ	-1201
▁ສູນ	-1202
ress	-1203
▁ທ່ານນ	-1204
ັດທະນະ	-1205
▁ທັນ	-1206
▁ຊົນ	-1207
▁ເສຍ	-1208
ັບປຸງ	-1209
▁ເກີດ	-1210
ເຂົາເຈົ້າ	-1211
▁ເລື່ອງ	-1212
ia	-1213
▁ດາ	-1214
ເວົ້າ	-1215
ຸ້ມຄອງ	-1216
▁ກິດ	-1217
▁ຫລື	-1218
ຕັດ	-1219
ຫຼື	-1220
ພາຍໃນ	-1221
ສະເພາະ	-1222
ເມື່ອ	-1223
ລັກ	-1224
່ງຂັນ	-1225
ແຜ	-1226
ທັບ	-1227
ow	-1228
ກາຍ	-1229
ລົງທຶນ	-1230
ສຸກ	-1231
▁ຫມາຍ	-1232
ຫຼາດ	-1233
່ວງ	-1234
ທໍາອິດ	-1235
ສໍາເລັດ	-1236
ອຸ	-1237
▁ຈັນ	-1238
▁ໂຕ	-1239
ມະການ	-1240
ລະດັບ	-1241
▁ພັດທະນາ	-1242
ຂ້ອງ	-1243
▁ແມ່	-1244
ຫຼັກ	-1245
ີ່ປ	-1246
▁ຊາ	-1247
ຫລວງ	-1248
▁ລັບ	-1249
ທັນ	-1250
▁ນ້ໍາ	-1251
▁ຕ່າງໆ	-1252
ຮັກສາ	-1253
ເພດ	-1254
▁ພົບ	-1255
ກັດ	-1256
ກິ	-1257
ັດທະນະທໍາ	-1258
ອບຄົວ	-1259
ສະຫະລັດ	-1260
ສິດທິ	-1261
ເນື້ອ	-1262
ແຫຼ	-1263
ຫວັດ	-1264
ຍາຍ	-1265
▁11	-1266
▁ສື	-1267
▁ມູນ	-1268
ພ້ອມ	-1269
▁ລັດຖະມົນຕີ	-1270
ot	-1271
▁ເລືອກ	-1272
ັບສະຫນ	-1273
ບ່ງ	-1274
ແປງ	-1275
ບັນຫາ	-1276
ບໍລິສັດ	-1277
▁ເອກ	-1278
ul	-1279
▁ດັ່ງກ່າວ	-1280
ບິນ	-1281
ຫນົນ	-1282
ກຸ່ມ	-1283
ແກ້ໄຂ	-1284
ໄດ້ຮັບການ	-1285
ຄົງ	-1286
▁ຫຼິ້ນ	-1287
ີ່ປຸ່ນ	-1288
ລັງ	-1289
ab	-1290
ຂາ	-1291
im	-1292
ut	-1293
າກາດ	-1294
▁ຕົນ	-1295
ງາມ	-1296
ອາຫານ	-1297
ບັບ	-1298
ທູດ	-1299
▁ນັບ	-1300
ແຈ້ງ	-1301
▁ອາດ	-1302
▁ປົກ	-1303
▁w	-1304
ຫມັ້ນ	-1305
▁ທິ	-1306
ອໍານ	-1307
ບູ	-1308
ີນທາງ	-1309
ອື່ນໆ	-1310
▁ລະບ	-1311
ລາຍງານ	-1312
ອຽດ	-1313
ໄສ	-1314
ເວັບໄຊ	-1315
ັດຈຸບັນ	-1316
ນໍ້າ	-1317
າຍຸ	-1318
▁ເສດຖະກິດ	-1319
of	-1320
▁ປະຕິບັດ	-1321
▁ປະທານາທິບໍດີ	-1322
▁ລວມ	-1323
ຄວນ	-1324
ຮມ	-1325
▁ໃສ່	-1326
ບໍ່ມີ	-1327
▁ຕໍາ	-1328
ເຄື່ອນໄຫວ	-1329
!!	-1330
ຫັດ	-1331
ຢ້ຽມຢາມ	-1332
ອຸດ	-1333
▁ອື່ນ	-1334
▁ນະຄອນຫຼວງວຽງຈັນ	-1335
ມິດ	-1336
▁h	-1337
▁ໄຂ	-1338
ແຊ	-1339
ໂອກາດ	-1340
ກໍ່ສ້າງ	-1341
▁ສະຫນ	-1342
ເຮັດວຽກ	-1343
ວົງ	-1344
ຟຣີ	-1345
ຫນາດ	-1346
ຢັນ	-1347
ແທນ	-1348
ຮ່	-1349
▁ຕຸ້ຍ	-1350
ຂໍ	-1351
ຜິດຊອບ	-1352
ິກໍາ	-1353
ທາງການ	-1354
ວະ	-1355
▁ຮຽນພາສາອັງກິດ	-1356
▁ມານີ	-1357
▁ສືບ	-1358
▁ຕິ	-1359
ັງສື	-1360
ຕະພັນ	-1361
▁ແທ	-1362
▁14	-1363
ິກິ	-1364
▁ເຊຍ	-1365
ack	-1366
▁ວັດ	-1367
ຫຍັງ	-1368
▁16	-1369
▁ຕົ້ນ	-1370
ເສີມ	-1371
່ຽງ	-1372
▁ແກ່	-1373
▁ສະຫະ	-1374
▁ໄດ້ຮັບ	-1375
▁ເຊື່ອ	-1376
ຂ້າພະເຈົ້າ	-1377
▁ຍົກ	-1378
▁ຝ່າຍ	-1379
▁ໂດ	-1380
/201	-1381
ຫຍດ	-1382
ລາຄາ	-1383
ັ້ມ	-1384
▁ຊີວິດ	-1385
ຊົມ	-1386
ຫາກ	-1387
▁ຊາຍ	-1388
ation	-1389
ື້ອງ	-1390
ຖາ	-1391
າວິ	-1392
ຸນາ	-1393
ສຸ	-1394
ers	-1395
ob	-1396
▁200	-1397
ap	-1398
▁ຜິດ	-1399
ສະຫມ	-1400
▁13	-1401
ງົບ	-1402
ຫນຸ່ມ	-1403
▁ຫນຶ່ງ	-1404
▁ທົ່ວ	-1405
ນິ	-1406
▁ຢູ	-1407
ອິນ	-1408
20	-1409
▁St	-1410
ັດເຊຍ	-1411
ຽກຮ້ອງ	-1412
▁ສິດ	-1413
ການຄ້າ	-1414
ສະຫະ	-1415
eb	-1416
ເຫນືອ	-1417
▁ແລ	-1418
▁ໄພ	-1419
▁[	-1420
ສະນາ	-1421
ເລື່ອງ	-1422
▁ລູກ	-1423
ລກປ່ຽນ	-1424
ພະນັກງານ	-1425
HO	-1426
ik	-1427
ig	-1428
▁ແດງ	-1429
▁ສານ	-1430
ຍູ້	-1431
ປະກັນ	-1432
▁ອິນ	-1433
ມາດ	-1434
ໂທລະ	-1435
▁ຂໍ	-1436
▁ຈຸດ	-1437
ຄຸ້ມຄອງ	-1438
ຈຸດ	-1439
▁ນ້ອຍ	-1440
ກໍານົດ	-1441
ທ້ອງ	-1442
ວິທີ	-1443
▁ອາຊ	-1444
-1	-1445
ອະນຸ	-1446
▁ຄັ້ງທີ	-1447
ຂ່າວສານ	-1448
iv	-1449
ກ່ຽວຂ້ອງ	-1450
ລ້ອມ	-1451
ຣຍ	-1452
ຸດທະ	-1453
▁ນາມ	-1454
▁ເຊັ່ນ	-1455
ເມລ	-1456
ຝ່າຍ	-1457
▁Ch	-1458
ປອດ	-1459
ສະມາຊິກ	-1460
▁ສຫລ	-1461
▁ສິງ	-1462
▁ກົມ	-1463
▁ປ້ອງ	-1464
ທະນາ	-1465
ແຂ່ງຂັນ	-1466
ine	-1467
ປະໂ	-1468
ປະຕິ	-1469
ສູນກາງ	-1470
ລະອຽດ	-1471
com	-1472
▁ບາງ	-1473
ມື້	-1474
ຶງ	-1475
ສງ	-1476
ຄຸມ	-1477
▁25	-1478
ຮ້າຍ	-1479
ທີ່ທ່ານ	-1480
▁ຄ້າ	-1481
ທີ່ເປັນ	-1482
▁ເຜ	-1483
ເລີ່ມ	-1484
▁ຂ້າ	-1485
ເວັນ	-1486
▁ກາງ	-1487
▁ໃຕ້	-1488
ຸບ	-1489
▁ກົດຫມາຍ	-1490
ຍາຍາມ	-1491
ຫນັກ	-1492
ພິມ	-1493
ຂື້ນ	-1494
ພູ	-1495
▁ພື້ນ	-1496
ສູ້	-1497
ົບຮົມ	-1498
ທ໌	-1499
ເຮືອນ	-1500
ov	-1501
OV	-1502
ຣາ	-1503
ສັກ	-1504
5)	-1505
ພິທີ	-1506
ຄູ່	-1507
▁ສາຍ	-1508
ຍົກ	-1509
ແວດ	-1510
▁ກໍລະ	-1511
▁ປະຊຸມ	-1512
ຢືນ	-1513
ສະພາບ	-1514
,000	-1515
ວກັນ	-1516
ເກມນີ້	-1517
ປູ	-1518
າທິການ	-1519
▁ບັດ	-1520
ong	-1521
ເຊື່ອມ	-1522
ູ້ນໍາ	-1523
ຫຼວດ	-1524
ຣິກາ	-1525
ກ່ອນ	-1526
▁ສິນ	-1527
ທະຫານ	-1528
ສະເຫນີ	-1529
ລາດ	-1530
ລຸ	-1531
ຸກຍູ້	-1532
▁ບຸນ	-1533
▁ສໍານ	-1534
ຊອກ	-1535
▁ຖານ	-1536
້ວນ	-1537
ພື້ນຖານ	-1538
▁ສະຖານ	-1539
ew	-1540
ີ້ມ	-1541
ຊັບ	-1542
ເກັບ	-1543
▁100	-1544
ແຕກ	-1545
▁ວິກິ	-1546
ແວດລ້ອມ	-1547
ປະກອນ	-1548
ບໍລິຫານ	-1549
▁ບ່ອນ	-1550
ອົງ	-1551
av	-1552
ເຊື້ອ	-1553
ຕະຫຼາດ	-1554
ທ້າຍ	-1555
ຍອດ	-1556
ີ້ນ	-1557
▁ອິດ	-1558
ຈາ	-1559
ປາກ	-1560
ໂມງ	-1561
ເງ	-1562
▁ຫມົດ	-1563
ຽວກັນ	-1564
ແດນ	-1565
▁ແປ	-1566
ປະສົບ	-1567
ian	-1568
ເຊັ່ນ	-1569
▁ສະມາຊິກ	-1570
▁ເຮັດໃຫ້	-1571
▁ຖື	-1572
ບໍ່ໄດ້	-1573
▁18	-1574
▁ປະກອບ	-1575
▁ວຽງ	-1576
ມະຊາດ	-1577
▁ຂັ້ນ	-1578
ແຍ	-1579
▁30	-1580
▁ກວດ	-1581
ຂອງຕົນ	-1582
ແພ	-1583
ຂວາງ	-1584
ຢູ	-1585
▁In	-1586
ໂຍບາຍ	-1587
ໂປ	-1588
ຖິ່ນ	-1589
ກິລາ	-1590
ທະເລ	-1591
▁ກ່າວວ່າ	-1592
ສະຫນອງ	-1593
ຕອບ	-1594
▁l	-1595
ຫນ່ວຍ	-1596
ິບ	-1597
ພິເສດ	-1598
ບຸນ	-1599
▁ຍ້ອນ	-1600
ຂອບ	-1601
▁ສຸ	-1602
ນຶ່ງ	-1603
ແຜນການ	-1604
ເມລິກາ	-1605
ຮອບ	-1606
ຊື້	-1607
▁2015	-1608
ັສ	-1609
ປະໂຫຍດ	-1610
▁ວິທີ	-1611
ໄກ	-1612
▁ກິລາ	-1613
▁Win	-1614
ຖ້າ	-1615
▁Fl	-1616
▁...	-1617
ອົບຮົມ	-1618
ສັນຍາ	-1619
າລະນະ	-1620
ເລກ	-1621
ົ້າຫມາຍ	-1622
ຕົກລົງ	-1623
ການເມືອງ	-1624
▁ຄ່າ	-1625
ແທ້	-1626
ບວນ	-1627
ປ່າ	-1628
ບ່ອນ	-1629
▁Y	-1630
ມະນຸດ	-1631
ຸ່ງ	-1632
▁ນິ	-1633
ສໍາລັບການ	-1634
ສະພາແຫ່ງຊາດ	-1635
ວຽດ	-1636
).	-1637
ັບສະຫນູນ	-1638
▁ຂ້າພະເຈົ້າ	-1639
▁ຍາ	-1640
▁ຊອບ	-1641
້ວງ	-1642
ຍົມ	-1643
ຫມາະ	-1644
ຈອນ	-1645
▁ພຣະ	-1646
ບັນດ	-1647
▁ຫາກ	-1648
▁ໄທ	-1649
▁ແນວ	-1650
ອາກາດ	-1651
▁17	-1652
ເຊັນ	-1653
ເອກະ	-1654
ດີດ	-1655
▁ຜະລິດ	-1656
ຕ້ານ	-1657
tr	-1658
ໃຫ້ແກ່	-1659
▁ຊື່	-1660
ip	-1661
▁ເກົາຫຼີ	-1662
▁ດໍາ	-1663
▁ຄືນ	-1664
▁ວາງ	-1665
ຮອດ	-1666
ang	-1667
ທາລະນະ	-1668
ຕ້ອນ	-1669
ຖາມ	-1670
ແບ່ງ	-1671
▁ຖະຫນົນ	-1672
art	-1673
▁ດິນ	-1674
ົ່ມ	-1675
▁ງາມ	-1676
ກູ້	-1677
ສາວ	-1678
ສາຫະກໍາ	-1679
▁ທະຫານ	-1680
ມອບ	-1681
ຂ້າງ	-1682
ແຕ່ລະ	-1683
▁ຈຶ່ງ	-1684
ຫາຍ	-1685
ວິທະຍາ	-1686
ອັກ	-1687
ສົງ	-1688
ເປັນການ	-1689
ວ້າງ	-1690
ແນນ	-1691
op	-1692
ey	-1693
ແມ່ຍິງ	-1694
EC	-1695
ub	-1696
ຫຼິ້ນ	-1697
້ຽງ	-1698
ຈ່າຍ	-1699
ມັກ	-1700
ສິກໍາ	-1701
▁ພວກເຮົາ	-1702
ຈິກ	-1703
ກົມ	-1704
ສວນ	-1705
ໂຈມ	-1706
▁ປະກາດ	-1707
▁ຄົ້ນ	-1708
io	-1709
▁ບໍ	-1710
ພີ	-1711
ສະນະ	-1712
ແຂງ	-1713
ສັ່ງ	-1714
▁ບັນຫາ	-1715
ປອດໄພ	-1716
ໄຕ	-1717
ເຜີຍ	-1718
▁r	-1719
ໂຄສະນາ	-1720
ຂອງພວກເຮົາ	-1721
▁ເຂົ້າຮ່ວມ	-1722
▁ຄິດ	-1723
ພວກເຂົາ	-1724
ເພື່ອນ	-1725
▁ນາຍົກລັດຖະມົນຕີ	-1726
ສະໄຫມ	-1727
▁dress	-1728
▁ໄວ້	-1729
▁ສົນ	-1730
ເຂົ້າໄປ	-1731
▁ເຕີ	-1732
ີດີໂອ	-1733
▁ພິທີ	-1734
▁ເຮືອນ	-1735
ລາງ	-1736
ex	-1737
ແຜ່	-1738
▁ປິດ	-1739
ຊະນະ	-1740
ືອງ	-1741
▁ຫລັງ	-1742
ັ້ນທາງ	-1743
▁ຕັດ	-1744
ຂະພາບ	-1745
ນະຄອນຫຼວງ	-1746
ຢາກ	-1747
ລະດ	-1748
▁ຄຸນ	-1749
ຜະລິດຕະພັນ	-1750
ໃບ	-1751
ຊ່ວຍເຫຼືອ	-1752
ດຽວກັນ	-1753
ເລືອກຕັ້ງ	-1754
▁ເຫຼ	-1755
▁ບານ	-1756
ທະຍາໄລ	-1757
ທາງດ້ານ	-1758
ຮ່າງ	-1759
▁ສາດ	-1760
▁ໂມ	-1761
▁ມີຄວາມ	-1762
▁ດາວ	-1763
ຂະຫນາດ	-1764
ກະທົບ	-1765
ຫມູ່	-1766
▁ຂະນະ	-1767
ck	-1768
ຄວ້າ	-1769
▁ຫນ່ວຍ	-1770
ແຕ່ງ	-1771
▁ຫານ	-1772
ຈໍາເປັນ	-1773
ຕາເວັນ	-1774
▁ໃນວັນທີ	-1775
ຈັດຕັ້ງປະຕິບັດ	-1776
▁າ	-1777
▁ທີ່ມີ	-1778
),	-1779
▁ເປີ	-1780
ົ່ານັ້ນ	-1781
ສະຫນາ	-1782
ປັບປຸງ	-1783
▁ໂຈມ	-1784
ຫົວຫນ້າ	-1785
ຍາກອນ	-1786
▁ຢາ	-1787
ພົນ	-1788
▁ເນື່ອງ	-1789
ແລະການ	-1790
▁ຫຼັງຈາກ	-1791
alt	-1792
▁»	-1793
ຄອມ	-1794
▁ຕື້	-1795
ໄຟຟ້າ	-1796
ເດີນທາງ	-1797
ລົມ	-1798
ສື່	-1799
ຊາການ	-1800
ທີ່ດີທີ່ສຸດ	-1801
ໃສ	-1802
▁ພະແນກ	-1803
ຝຶກ	-1804
▁ສຸກ	-1805
▁ເນີນ	-1806
ຊຸດ	-1807
▁ລັກ	-1808
ປ່ຽນແປງ	-1809
▁&	-1810
ຕາການ	-1811
▁AP	-1812
ສິນຄ້າ	-1813
▁g	-1814
▁1.	-1815
່ວາ	-1816
▁ມິ	-1817
ເກົາຫຼີ	-1818
ຂຽນ	-1819
▁ອຸດ	-1820
ປັດຈຸບັນ	-1821
▁ກໍລະກົດ	-1822
ອະນຸຍາດ	-1823
ຕ້ອນຮັບ	-1824
ພອນ	-1825
▁ແຫນ	-1826
▁ຮັກສາ	-1827
ໂອ	-1828
ເລີຍ	-1829
ເວັບໄຊທ໌	-1830
ຸກົມ	-1831
ກີບ	-1832
▁ຫະ	-1833
▁in	-1834
▁ອື່ນໆ	-1835
▁ສໍານວນ	-1836
ອໍານວຍ	-1837
▁ພະນັກງານ	-1838
ຄາມ	-1839
ະນານ	-1840
ເທິງ	-1841
ທໍາມະຊາດ	-1842
▁ວິດ	-1843
ເຮົ	-1844
ຜ່ອນ	-1845
ແຫນງ	-1846
▁ຢືນ	-1847
ຟັງ	-1848
ec	-1849
▁ປ່າ	-1850
ເກົ່າ	-1851
ຄາດ	-1852
ສຶກ	-1853
ຄອບຄົວ	-1854
ແລກປ່ຽນ	-1855
▁ບາ	-1856
▁ກັນຍາ	-1857
ລະບຽບ	-1858
▁Flash	-1859
▁24	-1860
▁ສັດ	-1861
ເທື່ອ	-1862
ເດຍ	-1863
la	-1864
▁ເທົ່າ	-1865
▁(1	-1866
ook	-1867
ບຄຸມ	-1868
/1	-1869
▁of	-1870
▁ສັງຄົມ	-1871
▁ອົງ	-1872
ບູນ	-1873
▁ແຈ້ງ	-1874
ຫາວິ	-1875
▁ເຊື້ອ	-1876
▁ເທື່ອ	-1877
▁ຄາ	-1878
▁ປ່ຽນ	-1879
-201	-1880
▁ຢູ່ໃນ	-1881
▁ບາດ	-1882
ວັນນະ	-1883
ສ້າງຕັ້ງ	-1884
▁ແຕ່ງ	-1885
ມື້ນ	-1886
ຍານ	-1887
ພະແນກ	-1888
▁ຊົ່ວ	-1889
▁Sp	-1890
ພໍ	-1891
ຫນັງສື	-1892
ການຮ່ວມມື	-1893
ພະຍາກອນ	-1894
ອານ	-1895
ລັບ	-1896
ລົບ	-1897
ແນະນໍາ	-1898
ຮູ້ວ່າ	-1899
ຄັ້ງນີ້	-1900
ome	-1901
ກົງ	-1902
ra	-1903
▁21	-1904
ໂຈມຕີ	-1905
ທີມ	-1906
ແຫນ່ງ	-1907
ໂພ	-1908
▁Up	-1909
▁ຟັງ	-1910
▁ໄລຍະ	-1911
▁ວານ	-1912
ພຽງແຕ່	-1913
ກວດກາ	-1914
asha	-1915
ໂກ	-1916
ນິກ	-1917
ປົກຄອງ	-1918
ພາດ	-1919
ນາມ	-1920
ທິການ	-1921
ເມີ	-1922
▁ພຶດ	-1923
▁ຊອກ	-1924
ະນານຸກົມ	-1925
ຈະນານຸກົມ	-1926
▁ເຫນືອ	-1927
ສືບຕໍ່	-1928
ຕໍ	-1929
ົບຮອບ	-1930
ລາຍການ	-1931
ວ່າການ	-1932
ເຜົ່າ	-1933
ts	-1934
ຂ້ອຍ	-1935
ເຊົ້າ	-1936
ຕະພາບ	-1937
▁ຄູ່	-1938
▁ທ່ານນາງ	-1939
▁k	-1940
th	-1941
▁ສອບ	-1942
ເຊິ່ງ	-1943
າກອນ	-1944
▁X	-1945
▁ພົນ	-1946
▁ເຄື່ອນ	-1947
▁ເວັນ	-1948
ຮັບຜິດຊອບ	-1949
▁ພະຈິກ	-1950
▁ຄອງ	-1951
ກ້າວ	-1952
▁ຣັດເຊຍ	-1953
ຖຸນາ	-1954
ວ່າຈະ	-1955
ບູລີ	-1956
▁ຄາດ	-1957
▁ເວັບ	-1958
ລັງງານ	-1959
ຂາວ	-1960
ທົດ	-1961
ຫນ້ອຍ	-1962
▁Masha	-1963
ສະຫຼອງ	-1964
ຽນມາ	-1965
▁ທ່າ	-1966
ຈະກໍາ	-1967
ກຽດ	-1968
▁ຕຸລາ	-1969
▁ບິນ	-1970
▁ປະຕິ	-1971
ອາຊຽນ	-1972
ເລ່ຍ	-1973
▁ຫວຽດ	-1974
LA	-1975
ັກໂນໂລຊີ	-1976
▁ແຫຼ	-1977
▁ປະຊາ	-1978
▁50	-1979
ຸດທະສາດ	-1980
ໃກ້	-1981
ເກາະ	-1982
ືອດ	-1983
ເຈຍ	-1984
▁ຫມັ້ນ	-1985
ຫຼາຍກວ່າ	-1986
ວັດຈະນານຸກົມ	-1987
▁ມີນ	-1988
ຈາລະ	-1989
ແຮງງານ	-1990
ຈານ	-1991
▁ວັດທະນະທໍາ	-1992
ປະທານາທິບໍດີ	-1993
ມະນາ	-1994
ຊວນ	-1995
▁ວົງ	-1996
/5)	-1997
ຫມາກ	-1998
ທີ່ກ່ຽວຂ້ອງ	-1999
ເສບ	-2000
▁ສາມ	-2001
ນະພາບ	-2002
▁ໄມ້	-2003
ຕໍ່ໄປ	-2004
▁ດຽວ	-2005
ການພົວພັນ	-2006
ທີ່ໄດ້	-2007
ເຂັ້ມ	-2008
ເສຍຊີວິດ	-2009
▁ຕອບ	-2010
ງ່າຍ	-2011
▁ແຜ	-2012
ກີ	-2013
ຄີ	-2014
▁ມອບ	-2015
/2018	-2016
▁ຊຸດ	-2017
ສາຫະກິດ	-2018
ຊູ	-2019
ກຽມ	-2020
ປະສິດທິ	-2021
▁ໂຣ	-2022
ຕື່ມ	-2023
▁ຄົມ	-2024
ຄ້າຍ	-2025
ຫມໍ	-2026
ຣັ່ງ	-2027
ົ່ານີ້	-2028
ຂາດ	-2029
▁Tr	-2030
up	-2031
ລະຈາ	-2032
▁ສຶກສາ	-2033
ທ່າ	-2034
ກ່ຽວກັບການ	-2035
ທາ	-2036
ດັ່ງ	-2037
▁ຊຸມ	-2038
ໂທລະສັບ	-2039
▁ສອນ	-2040
ບຽນ	-2041
emalt	-2042
ປຶກສາ	-2043
ທ້ອງຖິ່ນ	-2044
ຈິດ	-2045
ຊອກຫາ	-2046
ຂະບວນ	-2047
▁ເຊີນ	-2048
ກໍາມະການ	-2049
▁ສົງ	-2050
▁ສິງຫາ	-2051
/0	-2052
▁)	-2053
ກັບການ	-2054
ໂຮງຮຽນ	-2055
▁23	-2056
▁ບຸກ	-2057
one	-2058
▁4.	-2059
▁ຄວນ	-2060
▁ອາທິດ	-2061
▁ອ່ານ	-2062
▁ລະບົບ	-2063
▁ວຽກງານ	-2064
ສະຫມັກ	-2065
ເຈັບ	-2066
ຕັດສິນ	-2067
ຊານ	-2068
ຫລີ	-2069
▁ເຈົ້າຫນ້າທີ່	-2070
ຫຼອດ	-2071
ຈາກການ	-2072
▁Bar	-2073
▁ທະນາ	-2074
ແຄ	-2075
▁2.	-2076
▁ໄຫວ	-2077
ai	-2078
ການຕ່າງປະເທດ	-2079
▁ທັນວາ	-2080
ກສ	-2081
▁ສໍາຄັນ	-2082
ຕາການເກມນີ້	-2083
ເບີດ	-2084
ສະບັບ	-2085
▁ນໍ້າ	-2086
▁ໂນ	-2087
ອາດຈະ	-2088
▁ຕ່າງປະ	-2089
ສະຖານທີ່	-2090
ຍາວ	-2091
ຸ້ງ	-2092
ສົດ	-2093
▁ຂອງທ່ານ	-2094
າວຸດ	-2095
ກິນ	-2096
▁ໂຍ	-2097
▁26	-2098
ry	-2099
ເຫລ	-2100
▁ມັງ	-2101
ce	-2102
▁ກຸມ	-2103
ຕິດຕາມ	-2104
ບອກ	-2105
▁ຄວ	-2106
ປູເຈຍ	-2107
▁ຫມູ່	-2108
▁ຮຽກຮ້ອງ	-2109
ອາທິດ	-2110
▁Semalt	-2111
ເຫຼີມ	-2112
ທີ່ບໍ່	-2113
ຊັ້ນ	-2114
▁ຕູ້	-2115
ສົນໃຈ	-2116
ໃຫ້ເຫັນ	-2117
▁ເສີມ	-2118
ຫາລື	-2119
ທອງ	-2120
▁໌	-2121
ເຕີມ	-2122
ຈົນ	-2123
▁ເນື້ອ	-2124
ກາດ	-2125
ສະດ	-2126
NG	-2127
▁ສະພາບ	-2128
▁ສູ່	-2129
▁ດັ່ງນັ້ນ	-2130
ເມຣິກາ	-2131
▁ລະດັບ	-2132
ປື	-2133
ການສຶກສາ	-2134
ຄັ້ງທີ	-2135
ພະບາງ	-2136
ຄູ	-2137
ປະເພດ	-2138
ນາຍົກລັດຖະມົນຕີ	-2139
ພົບປະ	-2140
ົງເຂດ	-2141
▁ບໍ່ມີ	-2142
▁v	-2143
▁22	-2144
▁ໂດຍສະເພາະ	-2145
ື່ອນໄຂ	-2146
ຄວາມເປັນ	-2147
-0	-2148
▁ຂຽນ	-2149
ນາງ	-2150
ຄໍາເຫັນ	-2151
▁ກາຍ	-2152
▁Home	-2153
ສູດ	-2154
▁ທ້າວ	-2155
eg	-2156
ຕູ	-2157
▁ຫມາກ	-2158
▁ເກັບ	-2159
ແກ້ວ	-2160
ປະກາດ	-2161
ຂະນະ	-2162
ເປັນທາງການ	-2163
ົ້ມ	-2164
ໂທດ	-2165
ຄວບຄຸມ	-2166
▁ຮ້າຍ	-2167
ເຫມາະ	-2168
ການພັດທະນາ	-2169
ຜົນກະທົບ	-2170
ມ່ວນ	-2171
ຊຽງ	-2172
າມາ	-2173
ລູກຄ້າ	-2174
ນັບ	-2175
▁ເອງ	-2176
ເດັກນ້ອຍ	-2177
▁ສໍາລັບການ	-2178
▁້	-2179
▁ໂລ	-2180
▁ອາຍຸ	-2181
od	-2182
ເດີ	-2183
les	-2184
▁ລີ	-2185
ື່ງ	-2186
ດ້ວຍການ	-2187
ພະຍາຍາມ	-2188
ເປົ້າຫມາຍ	-2189
▁ທີ່ໄດ້	-2190
ຍິ່ງ	-2191
ໃຊ	-2192
our	-2193
▁Sh	-2194
ຈັບ	-2195
▁ສະຫາຍ	-2196
▁ເຊື່ອມ	-2197
ist	-2198
og	-2199
▁ກໍາມະການ	-2200
ບັນຊີ	-2201
ືອບິນ	-2202
ອອກແບບ	-2203
▁ຊັບ	-2204
ມູນຄ່າ	-2205
▁ໃນປີ	-2206
ຣັດ	-2207
ອາຍຸ	-2208
▁ນອກຈາກ	-2209
ies	-2210
▁ສິ	-2211
▁ແທນ	-2212
▁ບໍລິການ	-2213
▁ມະນ	-2214
ons	-2215
▁ຂໍ້ມູນ	-2216
▁ຢ້ຽມຢາມ	-2217
tt	-2218
ປົວ	-2219
້ວມ	-2220
▁ໂປ	-2221
▁2014	-2222
ສະຫນັບສະຫນູນ	-2223
▁ຈົນ	-2224
ກວ້າງ	-2225
ຫຼຸດ	-2226
▁ຈິງ	-2227
▁ຫຼວງ	-2228
▁ອາຊຽນ	-2229
ເຢ	-2230
ບັງ	-2231
ໃນປີ	-2232
ເຊີນ	-2233
▁ຢ່າ	-2234
ມືຖື	-2235
▁ໆ	-2236
ອໍານວຍການ	-2237
ມາຈາກ	-2238
ເທົ່າ	-2239
▁ຟຣີ	-2240
ແນວໃດ	-2241
▁ແຂ່ງ	-2242
iss	-2243
ທີ່ຖືກ	-2244
ປະກອບສ່ວນ	-2245
ຣິກ	-2246
ເສບຕິດ	-2247
▁ຮ້ອງ	-2248
▁ແຕກ	-2249
ສະຫງົບ	-2250
ົາຫລີ	-2251
ການເງິນ	-2252
▁ກອນ	-2253
ລໍາ	-2254
▁ເງ	-2255
ປ່ອຍ	-2256
▁ຮ້ານ	-2257
ຕາຍ	-2258
ຟຸກ	-2259
ຣັກ	-2260
ເຄີຍ	-2261
ສົມບູນ	-2262
▁ຢາກ	-2263
ເຕະ	-2264
ເຣຍ	-2265
ໂຄ່ງ	-2266
▁New	-2267
ຖາບັນ	-2268
ຕິພາບ	-2269
ລອງ	-2270
ເດັ່ນ	-2271
ຍ້າຍ	-2272
▁ພັດ	-2273
ວັດທະນະທໍາ	-2274
qu	-2275
ແອ	-2276
▁APEC	-2277
▁ເລິກ	-2278
▁n	-2279
າງຫນ້າ	-2280
ໂຣ	-2281
▁ເອກະ	-2282
ືດ	-2283
ຈຶ່ງ	-2284
ທັງສອງ	-2285
est	-2286
▁ຍີ່ປຸ່ນ	-2287
ຂັດ	-2288
▁ປະມານ	-2289
ຄຸນນະພາບ	-2290
ເຮືອ	-2291
ສົ່ງເສີມ	-2292
ໍາລາຍ	-2293
ສູງສຸດ	-2294
ການເປັນ	-2295
ແນນສຽງ	-2296
▁ນີ	-2297
ກະຕິ	-2298
ເພງ	-2299
ໂຊ	-2300
ເຂົ້າໃຈ	-2301
▁ທະນາຄານ	-2302
ຣິດ	-2303
▁ທີ່ຈະ	-2304
▁ໂຄງ	-2305
ຫລັງ	-2306
▁ຕ້ອນ	-2307
▁ອາຫານ	-2308
▁ລາຍງານ	-2309
ພໍ່	-2310
▁ປກສ	-2311
ສິໂນ	-2312
▁©	-2313
ເພາະ	-2314
ຫາວິທະຍາໄລ	-2315
ev	-2316
ກ່າວວ່າ	-2317
OR	-2318
ເທີ	-2319
ຖິ	-2320
▁ເພງ	-2321
ເຈົ້າຫນ້າທີ່	-2322
▁ພູ	-2323
▁ຂ້ອຍ	-2324
▁ຄອບຄົວ	-2325
SA	-2326
▁ເລີ່ມ	-2327
ສື່ສານ	-2328
ຂາທິການ	-2329
▁ແຜນການ	-2330
▁3.	-2331
▁ຕົກລົງ	-2332
ວັງ	-2333
▁ສະແດງ	-2334
ສະຫນາມ	-2335
30	-2336
ແຕກຕ່າງ	-2337
▁ມິຖຸນາ	-2338
ເຫຼີມສະຫຼອງ	-2339
ສົບ	-2340
ທັດ	-2341
▁ອະດີດ	-2342
att	-2343
▁ທົດ	-2344
▁ມີນາ	-2345
ard	-2346
ຮ້ານ	-2347
ຢັ້ງ	-2348
▁ພຶດສະພາ	-2349
▁ປາກ	-2350
ib	-2351
ຈາລະນາ	-2352
▁ເລັດ	-2353
ພະຍາດ	-2354
ງວນ	-2355
ລາມ	-2356
-2	-2357
ເຕັມ	-2358
▁ຫວ່າງ	-2359
▁ໃຫ້ການ	-2360
ony	-2361
ພັດ	-2362
ສົກ	-2363
▁ທິດ	-2364
▁ເຜີຍ	-2365
ກະສິກໍາ	-2366
▁ນະຄອນຫລວງ	-2367
ໃຈໃສ່	-2368
▁ທຶນ	-2369
ະຄອນ	-2370
ຄະດີ	-2371
ດາວ	-2372
ກອງທັບ	-2373
▁ໄສ	-2374
az	-2375
ປູກ	-2376
ly	-2377
ທະບຽນ	-2378
▁ສາກົນ	-2379
▁ແດນ	-2380
▁ລາຄາ	-2381
ວນຊົນ	-2382
▁VOV	-2383
▁ອໍານ	-2384
▁ສະບັບ	-2385
ປັກ	-2386
່ໍາ	-2387
▁ເປັນຕົ້ນ	-2388
▁ຈັບ	-2389
▁ຂາຍ	-2390
ating	-2391
ມື້ນີ້	-2392
ດຽວ	-2393
ant	-2394
▁ໃບ	-2395
▁ເຫລ	-2396
▁ແກ້	-2397
ຂົງເຂດ	-2398
ລິບ	-2399
▁ທ່ຽວ	-2400
▁a	-2401
້ານີ້	-2402
ຝາກ	-2403
▁ຕ້ານ	-2404
ຖ່າຍ	-2405
ວິທະຍາສາດ	-2406
▁Pr	-2407
າຊາດ	-2408
▁ແມ່ຍິງ	-2409
ile	-2410
ຄືກັນ	-2411
ຫວັດສາດ	-2412
ະການ	-2413
ເກມອອນໄລນ໌	-2414
ail	-2415
ບັນລຸ	-2416
ຄົ້ນຄວ້າ	-2417
ຍືນ	-2418
ເດັກຍິງ	-2419
▁ເພດ	-2420
▁ຄັນ	-2421
ດົນ	-2422
ພາກພື້ນ	-2423
▁ເລກ	-2424
ຫມັ້ນຄົງ	-2425
II	-2426
ຕໍາແຫນ່ງ	-2427
ວິທີການ	-2428
▁ດົນ	-2429
▁ປອດ	-2430
ໂທ	-2431
ປະໄຕ	-2432
▁ແສງ	-2433
ປິດ	-2434
ous	-2435
▁ດັບ	-2436
ຊວນຟຸກ	-2437
▁ກໍ່ສ້າງ	-2438
ລ້ຽງ	-2439
ino	-2440
ແດ	-2441
ວັນນະເຂດ	-2442
ເຫມາະສົມ	-2443
ທາດ	-2444
ເຕີບ	-2445
ຫ້ອງການ	-2446
▁ສັບ	-2447
▁ຫຼັກ	-2448
▁ກາດ	-2449
if	-2450
ຮຸນ	-2451
ສິ່ງທີ່	-2452
ຣ່ານ	-2453
▁28	-2454
▁40	-2455
▁ເຫນີ	-2456
ອຸປະກອນ	-2457
▁the	-2458
ຫນອງ	-2459
▁ປັກ	-2460
LD	-2461
▁ນິວ	-2462
ທຶກ	-2463
▁!	-2464
ໂດລາ	-2465
▁ການຄ້າ	-2466
▁ຂອບ	-2467
▁ທອງ	-2468
ຕໍ່ສູ້	-2469
▁Q	-2470
ost	-2471
່ນອນ	-2472
ການເຄື່ອນໄຫວ	-2473
▁Z	-2474
▁ເຢ	-2475
ະນິດ	-2476
ຮູບແບບ	-2477
▁Google	-2478
▁ພວມ	-2479
▁ເປີເຊັນ	-2480
ເຊື່ອມຕໍ່	-2481
ep	-2482
ຍີ່ປຸ່ນ	-2483
▁ຮອບ	-2484
ແຫຼ່ງ	-2485
ສຸຂະພາບ	-2486
ud	-2487
ສນ	-2488
ແສງ	-2489
▁(2	-2490
ເຄາະ	-2491
▁ແປງ	-2492
▁ໂມງ	-2493
ມາຄົມ	-2494
ຊາວຫນຸ່ມ	-2495
ມາດຕະ	-2496
ake	-2497
ຄັດ	-2498
ຜູ້ແທນ	-2499
ຝຶກອົບຮົມ	-2500
▁#	-2501
ເສັ້ນທາງ	-2502
ໃຫ້ການ	-2503
▁ພົວພັນ	-2504
▁NA	-2505
▁th	-2506
ຂັບ	-2507
ຍຸດທະສາດ	-2508
ກ່ວາ	-2509
▁ລໍາ	-2510
▁ໄກ	-2511
ເພີ່ມເຕີມ	-2512
▁ຍຸ	-2513
ອຸດສາຫະກໍາ	-2514
ຂົນ	-2515
ື້ອຍ	-2516
ືມ	-2517
ຕັນ	-2518
▁ມັງກອນ	-2519
▁ແນນ	-2520
້າສຸດ	-2521
ຮົບ	-2522
▁ວຽງຈັນ	-2523
oh	-2524
▁ແຍ	-2525
▁Mar	-2526
ເກີນ	-2527
ຊຸມ	-2528
▁ຍາມ	-2529
▁+	-2530
ຕາເວັນອອກ	-2531
ຮ້ອຍ	-2532
ລິດ	-2533
iz	-2534
ວເຕີ	-2535
ໃນໄລຍະ	-2536
ຂ່າຍ	-2537
ຊາຍແດນ	-2538
▁ກິນ	-2539
ປະສົງ	-2540
▁2012	-2541
ຊຸກຍູ້	-2542
ວ່າທ່ານ	-2543
▁ະ	-2544
ຢາເສບຕິດ	-2545
ເນື່ອງ	-2546
ບຸກຄົນ	-2547
▁ມີການ	-2548
st	-2549
▁ຫງວຽນຊວນຟຸກ	-2550
ດູ	-2551
ຕົນເອງ	-2552
▁ຫ້ອງການ	-2553
ເນື້ອໃນ	-2554
ສູນກາງພັກ	-2555
▁THO	-2556
▁ຊື້	-2557
▁Winx	-2558
ລິນ	-2559
▁ອອນໄລນ໌	-2560
▁ໂທລະໂຄ່ງ	-2561
ຫວັງ	-2562
▁ເຮືອ	-2563
▁ໃນວັນ	-2564
▁ລົບ	-2565
▁ສໍານັກ	-2566
▁ໂຊ	-2567
ຈັດການ	-2568
▁ຊຸກຍູ້	-2569
▁ເພື່ອນ	-2570
ast	-2571
ທົ່ວໂລກ	-2572
ໃຫ້ທ່ານ	-2573
▁ຜູ້ນໍາ	-2574
ສະດວກ	-2575
LAK	-2576
HONG	-2577
▁Barb	-2578
▁ຫາຍ	-2579
ແຫນ້ນ	-2580
ແມ່ນມີ	-2581
ກາຍເປັນ	-2582
▁ແຊ	-2583
▁ເວົ້າວ່າ	-2584
ຂອງຜູ້	-2585
ຢູ່ທີ່	-2586
ity	-2587
ັກຄີ	-2588
▁ເທີ	-2589
LAKHONG	-2590
▁THOLAKHONG	-2591
ຂອງປະເທດ	-2592
ຂະສິດ	-2593
ໍລະ	-2594
▁Vi	-2595
▁ຍະ	-2596
▁ນາຍ	-2597
▁ເບີດ	-2598
▁ພ້ອມດ້ວຍ	-2599
ຜົນສໍາເລັດ	-2600
ຄາວ	-2601
ທົ່ວໄປ	-2602
ລືມ	-2603
ຫັນ	-2604
ໍາລົງ	-2605
ໍານຽບ	-2606
▁i	-2607
ກໍລະ	-2608
ຮຽກຮ້ອງ	-2609
▁ແມັດ	-2610
ຂຶ້ນໃນ	-2611
▁ທ່ານສາມາດ	-2612
ັງຄານ	-2613
▁ສະເລ່ຍ	-2614
ແຫນງການ	-2615
▁ສໍານັກງານ	-2616
▁ອັງກິດ	-2617
ວະກາດ	-2618
▁ຕ້ອງການ	-2619
▁'	-2620
ສໍານ	-2621
▁and	-2622
▁ທີມ	-2623
▁ສາວ	-2624
ໂຄງ	-2625
▁27	-2626
▁ໂອກາດ	-2627
▁ໃນຕອນ	-2628
▁ສູ້	-2629
”.	-2630
are	-2631
ນານ	-2632
▁ໃກ້	-2633
ການນໍາ	-2634
▁ໂທລະສັບ	-2635
ເລີ່ມຕົ້ນ	-2636
ort	-2637
ຣິກັນ	-2638
ລາງວັນ	-2639
▁ລັງ	-2640
▁ເມສາ	-2641
▁ກຸມພາ	-2642
ຊີ້	-2643
ຫລດ	-2644
ເຫມີ	-2645
ບາ	-2646
▁ກໍານົດ	-2647
21	-2648
tern	-2649
ສັນຈອນ	-2650
▁ຢືນຢັນ	-2651
▁ໂພ	-2652
ເວນ	-2653
ອັນດັບ	-2654
▁ຫວັງ	-2655
▁ຄົບຮອບ	-2656
oun	-2657
ອໍານາດ	-2658
▁ທ້ອງ	-2659
່າໂນ	-2660
ຄົດ	-2661
▁ໄດ້ຈັດ	-2662
ີນີ້	-2663
▁ເປົ້າ	-2664
▁ຫມວດ	-2665
ທົ່ວປະເທດ	-2666
ຖ້ວມ	-2667
ສຸດຍອດ	-2668
ໃຊ້ເວລາ	-2669
▁ອອນ	-2670
VOV	-2671
ື່ມວນຊົນ	-2672
▁1,	-2673
▁ອີງ	-2674
ອາເມລິກາ	-2675
ww	-2676
▁ຊົມ	-2677
ໄດ້ຖືກ	-2678
▁ຂະຫຍາຍ	-2679
ORLD	-2680
ເຊີຍ	-2681
▁ເຈັບ	-2682
ພາກສ່ວນ	-2683
ຢຸດ	-2684
▁ເຣຍ	-2685
ເຜີຍແຜ່	-2686
▁ສສ	-2687
ລະເບີດ	-2688
▁ຮັບຜິດຊອບ	-2689
ນອກ	-2690
ah	-2691
▁ໂທດ	-2692
ແຫຼງ	-2693
▁2013	-2694
▁ຄອນ	-2695
ate	-2696
▁ປັບປຸງ	-2697
▁ໂຮງຮຽນ	-2698
ຍຸ	-2699
ລະປະ	-2700
ເອກະສານ	-2701
▁ມົນ	-2702
ຜູ້ນໍາ	-2703
ິ່ນປົວ	-2704
ທີ່ສໍາຄັນ	-2705
ຄວາມຄິດ	-2706
ເທົ່ານັ້ນ	-2707
▁ກີ	-2708
▁ຮ່າງ	-2709
ສາທາລະນະ	-2710
ສໍາລັບເດັກຍິງ	-2711
ina	-2712
▁ຢູ່ທີ່	-2713
WORLD	-2714
ນະໂຍບາຍ	-2715
ຈິ	-2716
ມິດຕະພາບ	-2717
VOVWORLD	-2718
....	-2719
▁ພ້ອມທັງ	-2720
ເຫຼົ່ານີ້	-2721
ຫລາດ	-2722
ຊິງ	-2723
▁ແຄ	-2724
▁ຮຸນ	-2725
່າໂນ້ຍ	-2726
ຄວາມຮູ້	-2727
ld	-2728
ປະຊາຊາດ	-2729
ພິວເຕີ	-2730
▁by	-2731
ລານ	-2732
ຂະນະທີ່	-2733
▁ລາຍລະອຽດ	-2734
▁ແພ	-2735
▁ໍ	-2736
່ຽວຊານ	-2737
▁ພາກັນ	-2738
ຊະ	-2739
▁ວີ	-2740
ational	-2741
ເສັງ	-2742
▁ປັດຈຸບັນ	-2743
ເລກທີ	-2744
▁2011	-2745
ok	-2746
ມານີ້	-2747
▁ຂັບ	-2748
ອຸດົມ	-2749
ຂະບວນການ	-2750
ເຂັ້ມແຂງ	-2751
--	-2752
▁ອາເມລິກາ	-2753
ກູ້ໄພ	-2754
▁ທ້າຍ	-2755
▁ເດັກນ້ອຍ	-2756
▁Com	-2757
▁ອະນຸ	-2758
ຖືກຕ້ອງ	-2759
ລຍ	-2760
▁on	-2761
ເວລາທີ່	-2762
ອະນາ	-2763
ແມັດ	-2764
▁ຮອດ	-2765
ອັດຕະ	-2766
▁ມຽນມາ	-2767
▁ຕ່າງປະເທດ	-2768
▁ທາ	-2769
ເງື່ອນໄຂ	-2770
ິສຖານ	-2771
50	-2772
▁ຫນັງສື	-2773
▁ຄະແນນສຽງ	-2774
▁ຢຸດ	-2775
▁ຕ້ອນຮັບ	-2776
oc	-2777
▁ສັ່ງ	-2778
.000	-2779
ເນັດ	-2780
ປະທານປະເທດ	-2781
▁ມິດ	-2782
ອາເມຣິກາ	-2783
ແພງ	-2784
ພູມ	-2785
້ວຍ	-2786
ອອກຈາກ	-2787
asino	-2788
ຕິດຕໍ່	-2789
▁ຫລວງ	-2790
oin	-2791
▁ຍຸດ	-2792
ran	-2793
ແຫ	-2794
ຜົນງານ	-2795
ວິສາຫະກິດ	-2796
ໂຮມ	-2797
ຮຸນແຮງ	-2798
▁ສືບຕໍ່	-2799
ເວົ້າວ່າ	-2800
ຈໍາເປັນຕ້ອງ	-2801
▁ຊຽນ	-2802
ທະນາຄານ	-2803
air	-2804
ັກນິກ	-2805
ທຸກຍາກ	-2806
ປົກກະຕິ	-2807
ປະຕິວັດ	-2808
▁ວີດີໂອ	-2809
▁ເຊັນ	-2810
ສໍາພັນ	-2811
ລັກສະນະ	-2812
▁ມັກ	-2813
ອະວະກາດ	-2814
▁Ph	-2815
ີງ	-2816
ebook	-2817
ment	-2818
ແທ້ຈິງ	-2819
ord	-2820
ັດທະນ	-2821
▁On	-2822
▁ເດີນທາງ	-2823
igh	-2824
▁ຍິ່ງ	-2825
ຄວາມປອດໄພ	-2826
▁rating	-2827
ອັກຄະ	-2828
▁Barbie	-2829
▁ນີ້ແມ່ນ	-2830
ite	-2831
ຍົງ	-2832
▁ສຶກ	-2833
ກວດສອບ	-2834
ຄັບ	-2835
ຣນ	-2836
ill	-2837
ເພີ່ມຂຶ້ນ	-2838
▁ສາທາລະນະ	-2839
▁sp	-2840
▁ໄຕ	-2841
ຣິ	-2842
ກໍາມະ	-2843
ຮູບພາບ	-2844
▁ມະນຸດ	-2845
age	-2846
▁ສະຫຼ	-2847
ທ້ວງ	-2848
▁ຫັນ	-2849
ຄົບ	-2850
ug	-2851
▁ຟ້າ	-2852
ລະວັນ	-2853
▁ເອີ້ນ	-2854
▁Th	-2855
ວານ	-2856
▁ສື່	-2857
ສົມບັດ	-2858
ສ່ຽງ	-2859
ປຶກສາຫາລື	-2860
ປາຍ	-2861
ການບິນ	-2862
▁ສັນຍາ	-2863
ຫນັງ	-2864
▁29	-2865
▁ຄຸ້ມ	-2866
ຂອບໃຈ	-2867
ສະຫຼຸບ	-2868
ື່ອກ	-2869
▁ທານ	-2870
ໄອ	-2871
ການຜະລິດ	-2872
ຕາງຫນ້າ	-2873
ຫນ້ານີ້	-2874
ຕຸ	-2875
ຂະຫຍາຍຕົວ	-2876
▁ໄຫມ	-2877
ເລືອດ	-2878
▁ແບ່ງ	-2879
ຊິ	-2880
ທຸກຄົນ	-2881
ຂັ້ນສູງ	-2882
▁ຈໍາກັດ	-2883
ທີ່ຜ່ານມາ	-2884
ທີ່ມີຄວາມ	-2885
ໃຫ້ນ	-2886
ກິດຈະກໍາ	-2887
ເຕີບໂຕ	-2888
ຄ້າຍຄືກັນ	-2889
▁ກົງ	-2890
▁ຄຸມ	-2891
▁ປ່ອຍ	-2892
▁>	-2893
ວີດີໂອ	-2894
ພະລັງງານ	-2895
all	-2896
cess	-2897
▁ເນັ້ນ	-2898
ເຂົ້າມາ	-2899
▁ພະຍາຍາມ	-2900
▁ຄູ	-2901
ເວທີ	-2902
▁Fac	-2903
▁ລົມ	-2904
ປິນ	-2905
ວິຊາການ	-2906
ຍອມ	-2907
ລ້ານ	-2908
▁ຂົງ	-2909
▁ຫນັກ	-2910
ຊົ່ວ	-2911
ັຍ	-2912
ດອກ	-2913
ສຸມ	-2914
າມີ	-2915
ເກືອບ	-2916
▁ຈັກ	-2917
ont	-2918
▁The	-2919
ສະເຫຼີມສະຫຼອງ	-2920
55	-2921
▁Al	-2922
ff	-2923
ຄວາມສະຫງົບ	-2924
ຟນ	-2925
ຊີ້ນໍາ	-2926
ເກດ	-2927
▁ຖ້າຫາກ	-2928
ມາກ	-2929
▁ກອງທັບ	-2930
▁ກີບ	-2931
ຣັດເຊຍ	-2932
▁ປຸງ	-2933
ຍະບູລີ	-2934
ນິຍົມ	-2935
▁ທ່ອງ	-2936
ກວາງ	-2937
ຂ້າມ	-2938
ump	-2939
ດອນ	-2940
▁ບັງ	-2941
ຖະຫນົນ	-2942
ຮອບດ້ານ	-2943
ເພື່ອນມິດ	-2944
ແຕກຕ່າງກັນ	-2945
▁ພໍ່	-2946
▁ທັງຫມົດ	-2947
▁ປະຈໍາປີ	-2948
ish	-2949
ຊົງ	-2950
▁ບູ	-2951
ທຸກໆ	-2952
▁Intern	-2953
orld	-2954
ຂີ້	-2955
ບໍ່ທັນ	-2956
▁ປະລະ	-2957
ມະນາຄົມ	-2958
▁ແກ້ໄຂ	-2959
▁ລົງທຶນ	-2960
ອາຍ	-2961
▁ຂ້າງ	-2962
ຮັບຮອງ	-2963
ນອນ	-2964
ໂຫລດ	-2965
ໃຊ້ງ	-2966
່ວ່າ	-2967
ລຸນາ	-2968
ະນັ້ນ	-2969
ລາຍຮັບ	-2970
▁ນະໂຍບາຍ	-2971
ຈະມີ	-2972
ອິນເຕີ	-2973
▁ເພື່ອໃຫ້	-2974
ເອີ້ນ	-2975
ຂອງລາວ	-2976
▁NASA	-2977
▁ຈ່າຍ	-2978
ເກີດຂຶ້ນ	-2979
ຈົບ	-2980
ຢັ້ງຢືນ	-2981
▁ສິ່ງແວດລ້ອມ	-2982
ain	-2983
ຕະລາຍ	-2984
ວ່າດ້ວຍ	-2985
ຣົບ	-2986
ຂັດແຍ	-2987
ບັດຕິ	-2988
▁ອໍານາດ	-2989
dow	-2990
ພາບຫວຽດນາມ	-2991
▁ການຮ່ວມມື	-2992
ເບື້ອງ	-2993
ເຫດການ	-2994
▁to	-2995
ປະສານ	-2996
▁$	-2997
ຮ້ອນ	-2998
ຄໍາສັ່ງ	-2999
▁ເຕັກໂນໂລຊີ	-3000
▁ທູດ	-3001
▁ເດີນ	-3002
▁500	-3003
▁ການສັນຈອນ	-3004
ບັນດາປະເທດ	-3005
ປາສັກ	-3006
▁ປະຈຸບັນ	-3007
ສະເຫມີ	-3008
▁ເດັກຍິງ	-3009
▁ຂ່າວພາບຫວຽດນາມ	-3010
ແວ	-3011
▁ຈັດຕັ້ງ	-3012
ເຕືອນ	-3013
ບັດຕິເຫດ	-3014
ເຈລະຈາ	-3015
ບໍ່ສາມາດ	-3016
▁ພຽງແຕ່	-3017
ັບສະຫນຸນ	-3018
ປັດ	-3019
▁ເຫຼືອ	-3020
ຮັບປະກັນ	-3021
ມານູ	-3022
ອະທິ	-3023
▁ສິດທິ	-3024
ປະຈຸບັນ	-3025
ອາຊີ	-3026
ຫນຶ່ງໃນ	-3027
▁ປະກອບສ່ວນ	-3028
▁ສວນ	-3029
ວາງສະແດງ	-3030
TA	-3031
▁ໃນໄລຍະ	-3032
▁ວາ	-3033
act	-3034
ືອຂ່າຍ	-3035
▁Cl	-3036
▁ຂົນ	-3037
▁ທ້ວງ	-3038
▁31	-3039
ຫົວຂໍ້	-3040
ຍ້ອນ	-3041
ຫນັງສືພິມ	-3042
▁ໂກ	-3043
▁ໃຫ້ແກ່	-3044
ອົບ	-3045
ສິງ	-3046
ປັບ	-3047
ເລັກ	-3048
ທວນ	-3049
ຂ້າ	-3050
▁Qu	-3051
ອາຊີບ	-3052
ໃຜ	-3053
ຄວາມສາມາດ	-3054
aw	-3055
▁ນາທີ	-3056
ສະຫະພັນ	-3057
ຖົມ	-3058
▁News	-3059
ຂອງປະຊາຊົນ	-3060
▁y	-3061
ສົນທະນາ	-3062
▁?	-3063
line	-3064
▁ໄອ	-3065
ຕ່ໍາ	-3066
ຫລວດ	-3067
ເສີນ	-3068
ຂອງພວກ	-3069
ປະຊາ	-3070
ແຮມ	-3071
ຂອງເຂົາເຈົ້າ	-3072
ແຊງ	-3073
ເລິກ	-3074
▁ຕັດສິນ	-3075
ທຽບ	-3076
ຈົດ	-3077
ສະນີ	-3078
▁ຊີ້	-3079
▁ຕລາຍ	-3080
ຕິທໍາ	-3081
ຍົບ	-3082
▁ປູ	-3083
ເອົາໃຈໃສ່	-3084
ຂະແຫນງ	-3085
ຕໍາຫຼວດ	-3086
ຫນາ	-3087
▁Pro	-3088
ໂສ	-3089
ປະຫວັດສາດ	-3090
▁ປະລະມານູ	-3091
▁ຊັ້ນ	-3092
ດານ	-3093
▁ຢ່າລືມ	-3094
▁ແລະການ	-3095
ແຈ	-3096
ດິດ	-3097
▁ຮວມ	-3098
▁ອຸປະກອນ	-3099
ຊັບພະຍາກອນ	-3100
▁ໃນອະວະກາດ	-3101
ton	-3102
ເຂື່ອນ	-3103
ເປັນຜູ້	-3104
89	-3105
ລັ	-3106
ບົດຮຽນ	-3107
ph	-3108
▁ເລິກເຂົ້າໄປ	-3109
ບັນທຶກ	-3110
ສະຫວັນ	-3111
▁ສ້າງໂມງ	-3112
▁ຫນ້ອຍ	-3113
▁60	-3114
ແຜ່ນ	-3115
ທສ	-3116
!!!	-3117
ຊໍາ	-3118
ເນື້ອຫາ	-3119
log	-3120
ຮາກ	-3121
▁ເຂັ້ມ	-3122
▁ປັດ	-3123
▁ອາກາດ	-3124
▁ຂະແຫນງ	-3125
60	-3126
▁ກ້າວ	-3127
ໃຊ້ງານ	-3128
▁•	-3129
▁ອົບ	-3130
ນັກຮຽນ	-3131
ທີ່ຄ້າຍຄືກັນ	-3132
ລິກ	-3133
ສະຫລ	-3134
▁ວິທະຍາ	-3135
▁ເກົາຫລີ	-3136
ແຊກ	-3137
ເມວ	-3138
າວະ	-3139
ule	-3140
▁ຂະຫນາດ	-3141
ພາສີ	-3142
ເພື່ອໃຫ້	-3143
11	-3144
ປະທ້ວງ	-3145
ໍານຽບຂາວ	-3146
▁Prin	-3147
▁ກວດກາ	-3148
▁ໃນນັ້ນ	-3149
າວ່າ	-3150
ອີງ	-3151
ູ້ນ	-3152
ຖຸ	-3153
ung	-3154
ລະຫັດ	-3155
ທີ່ດິນ	-3156
ຜົນປະໂຫຍດ	-3157
▁ຕໍ່ການ	-3158
ສົງຄາມ	-3159
▁Facebook	-3160
ີ່ງ	-3161
▁ວໍ	-3162
▁ແຜ່ນ	-3163
ແຫລ	-3164
▁ແຂງ	-3165
ບໍລິຫານງານ	-3166
ຄະນະພັກ	-3167
▁ເຮືອບິນ	-3168
ພິຈາລະນາ	-3169
ປາໄສ	-3170
▁ວິທີການ	-3171
ສ່ວນແບ່ງ	-3172
▁ດຣ	-3173
ive	-3174
▁ຈົ່ງ	-3175
ຫລັກ	-3176
▁ແທ້	-3177
ົ້ງ	-3178
▁ເລຂາ	-3179
▁ອຸດສາຫະກໍາ	-3180
ຕະຫຼອດ	-3181
▁ເອີ	-3182
▁ທີ່ຢູ່	-3183
ດໍາເນີນການ	-3184
▁st	-3185
entian	-3186
ເອົ	-3187
▁ອິສ	-3188
ປະສິດທິຜົນ	-3189
ຂາທິການໃຫຍ່	-3190
ປລ	-3191
▁ຍາກ	-3192
ຈາຍ	-3193
ໂຍງ	-3194
▁ຍານ	-3195
AN	-3196
▁ເຕືອນ	-3197
ຮ່ວມກັນ	-3198
▁ຂ່າວສານ	-3199
▁ແກ້ວ	-3200
ຮູ້ຈັກ	-3201
າຊີ	-3202
▁ໂທ	-3203
ວິຊາ	-3204
ພື້ນທີ່	-3205
ອ້ອມ	-3206
ປະສົບການ	-3207
ສິ້ນ	-3208
ການລົງທຶນ	-3209
ສື່ມວນຊົນ	-3210
ຄະນະກໍາມະການ	-3211
▁ຍາດ	-3212
▁ທັດ	-3213
າທິປະໄຕ	-3214
▁ເຫດການ	-3215
ass	-3216
ເດດ	-3217
▁ແລກປ່ຽນ	-3218
ສາມັນ	-3219
▁ຢູ່ນ	-3220
▁ພື້ນຖານ	-3221
ຜູ້ທີ່	-3222
▁ອັກ	-3223
ale	-3224
ເຂົ	-3225
▁ເກາະ	-3226
▁ໃນລະຫວ່າງ	-3227
ພະນ	-3228
▁ຫຼິ້ນເກມ	-3229
▁ເຟ	-3230
ປົກປ້ອງ	-3231
ຟື້ນ	-3232
ເຫລືອ	-3233
▁ຈຸ	-3234
ຄອມພິວເຕີ	-3235
ນີ້ແມ່ນ	-3236
▁ຈິດ	-3237
▁ບອກ	-3238
▁ກໍໄດ້	-3239
▁ຖາມ	-3240
entiane	-3241
▁ຫນ້າທີ່	-3242
:00	-3243
ຮ່າງກາຍ	-3244
ສິ່ງແວດລ້ອມ	-3245
ເມີນ	-3246
▁ຫນ້າທໍາອິດ	-3247
ຄົມມະນາຄົມ	-3248
ຍິນ	-3249
▁ລວມທັງ	-3250
ປານ	-3251
ອານາ	-3252
▁ຫຼຸດ	-3253
ເຖ	-3254
ກໍລະນີ	-3255
▁iP	-3256
▁ຂ້າພະ	-3257
▁ກໍາປູເຈຍ	-3258
ຕົ້ນຕໍ	-3259
ດື່ມ	-3260
▁ກົນ	-3261
▁45	-3262
ສ໌	-3263
ຜັນ	-3264
ລິຂະສິດ	-3265
ລຸນ	-3266
▁ດອກ	-3267
▁ເຊົ້າ	-3268
▁Un	-3269
ຄົນຫຼິ້ນ	-3270
ປະເທດຊາດ	-3271
ຕິນ	-3272
ສ່ວນຕົວ	-3273
▁ເກມສໍາລັບ	-3274
▁ຝຣັ່ງ	-3275
▁ຖິ່ນ	-3276
ນ້ອງ	-3277
▁ສະຫມ	-3278
▁ຂື້ນ	-3279
▁ສະນັ້ນ	-3280
urf	-3281
▁ປທສ	-3282
▁ເລ່ຍ	-3283
ສຸດທ້າຍ	-3284
ກັບເພື່ອນມິດ	-3285
ຢ້ຽມ	-3286
ໄມ	-3287
umb	-3288
▁ຍິນ	-3289
ney	-3290
ທໍາລາຍ	-3291
▁ສໍາລັບການຟຣີ	-3292
ຊ້ອນ	-3293
ໂດເນ	-3294
▁En	-3295
ເນັ້ນ	-3296
▁ລາຍລະອຽດເກມ	-3297
ຖວ	-3298
ເສຍຫາຍ	-3299
▁ສົງຄາມ	-3300
ງົບປະມານ	-3301
ຂອບເຂດ	-3302
onster	-3303
▁ໄດ້ຮັບການ	-3304
▁ເຄີຍ	-3305
▁ກຽມ	-3306
▁ພິມ	-3307
ບົດບາດ	-3308
ຕິກ	-3309
ຊື່ເກມ	-3310
ສາມັກຄີ	-3311
ພິດ	-3312
ຂອງພັກ	-3313
ແມ່ນວ່າ	-3314
▁ສິນຄ້າ	-3315
ສວຍ	-3316
ໍ່າ	-3317
ຖະແຫຼງ	-3318
▁ດູ	-3319
ໃນໂລກ	-3320
▁ຫຼິ້ນແນວ	-3321
out	-3322
▁ບັນລຸ	-3323
ກ່ຽວກັບອັດ	-3324
▁ຫຼິ້ນເກມຟຣີ	-3325
▁ເດັກຍິງອອນໄລນ໌	-3326
▁ບົດບາດ	-3327
▁2019	-3328
▁ກິໂລ	-3329
ແຮ່	-3330
▁ພາກສ່ວນ	-3331
▁ແລະສ່ວນແບ່ງ	-3332
▁ຊ່ອງ	-3333
▁ປະເພດ	-3334
▁e	-3335
ຢູ່ນ	-3336
ຸ້ງຍາກ	-3337
ຕໍ່ການ	-3338
ຫຼັງຈາກ	-3339
ໃດກໍ່	-3340
ວ່ານ	-3341
▁ປັບ	-3342
ຫນູນ	-3343
ຈໍາກັດ	-3344
eng	-3345
▁ຄອມ	-3346
ພັດທະນາເສດຖະກິດ	-3347
▁ອັບ	-3348
▁ເສົາ	-3349
▁Casino	-3350
▁ເທິງ	-3351
▁ກະລຸນາ	-3352
▁ຕັນ	-3353
▁ພຸດ	-3354
▁ພາຍໃນ	-3355
ax	-3356
ຍາມ	-3357
▁ນວນ	-3358
ກໍຕາມ	-3359
ແມ່ນການ	-3360
▁ເຂົ້າສູ່	-3361
▁Vientiane	-3362
▁ໂຮມ	-3363
ຣິສ	-3364
ທົບທວນ	-3365
▁Princess	-3366
ຫຼດ	-3367
▁Rad	-3368
ທີ່ຫນ້າ	-3369
way	-3370
ໍາລຸງ	-3371
ດຶງ	-3372
ຢາງ	-3373
ທຽມ	-3374
ກະໂປ	-3375
▁ກອບ	-3376
ຕິກໍາ	-3377
ເຄື່ອງມື	-3378
ຄ້ານ	-3379
▁ກ່ຽວກັບການ	-3380
▁ຜູ້ອໍານວຍການ	-3381
ຫນອງບ	-3382
ແດ່	-3383
ໃນວັນ	-3384
ໄຈ	-3385
▁ງ່າຍ	-3386
ຕົວຈິງ	-3387
ຶມ	-3388
ຊ່ວງ	-3389
▁ເກືອບ	-3390
▁re	-3391
▁ຍອດ	-3392
ຍືນຍົງ	-3393
▁*	-3394
ຫຼວງພະບາງ	-3395
▁ການລົງທຶນ	-3396
ຕັ້ງແຕ່	-3397
ສັນຕິພາບ	-3398
ໃຊ້ຈ່າຍ	-3399
ໃນວັນທີ	-3400
▁Mic	-3401
ໄປດ້ວຍ	-3402
ແມ່ນມີຄົນຫຼິ້ນ	-3403
▁ລ້ອມ	-3404
ສົມທົບ	-3405
ຊ້າງ	-3406
ກຸມ	-3407
ຕິດຕັ້ງ	-3408
ປັກຮັກສາ	-3409
▁ລາງ	-3410
ຢ່າງເປັນທາງການ	-3411
▁ອັດຕາການເກມນີ້	-3412
▁ຫຍ	-3413
ຮຽນຮູ້	-3414
▁ພະຍາດ	-3415
▁ຜະລິດຕະພັນ	-3416
▁ເກມທີ່ຄ້າຍຄືກັນ	-3417
▁International	-3418
ລ້າງ	-3419
▁ມະຫາ	-3420
▁ປຶກສາ	-3421
ຊ່ຽວຊານ	-3422
ທາຍ	-3423
ຫາຊົນ	-3424
▁Hack	-3425
10	-3426
▁ຖາ	-3427
▁ແຫຼ່ງ	-3428
ary	-3429
ຖອນ	-3430
ອອນ	-3431
ຕາລີ	-3432
ລາຍລະອຽດ	-3433
ດູດ	-3434
▁ໂດຍບໍ່	-3435
▁ຈີ	-3436
ຝຣັ່ງ	-3437
▁ສະເ	-3438
▁ບໍລິຫານ	-3439
oy	-3440
▁36	-3441
ຟູ	-3442
▁ເສັ້ນທາງ	-3443
▁ລິດ	-3444
ບ້ານເມືອງ	-3445
ສຸກເສີນ	-3446
ຂໍ້ຕົກລົງ	-3447
ສ້າງຄວາມ	-3448
▁Radio	-3449
▁ໃນຂະນະທີ່	-3450
ພີເດຍ	-3451
▁ເສັ້ນ	-3452
ກະທໍາ	-3453
ພົນລະ	-3454
ພັດທະນ	-3455
▁ເອກະສານ	-3456
ຈໍ	-3457
▁ລອງ	-3458
▁ອາຊີ	-3459
ທີ່ຢູ່	-3460
▁Trump	-3461
ປະຈໍາປີ	-3462
ອບາມາ	-3463
dows	-3464
▁ຕະຫຼາດ	-3465
▁ສັງຫານ	-3466
ເຍ	-3467
▁ພົມ	-3468
▁ເວັບໄຊ	-3469
ຂົນສົ່ງ	-3470
ບັນດານ	-3471
▁ເຮັດວຽກ	-3472
ປະສິດທິພາບ	-3473
ear	-3474
ຈະໄດ້	-3475
ອັດຕາ	-3476
ຂໍ້ຄວາມ	-3477
IC	-3478
▁ປະສົບ	-3479
▁ແຕ່ລະ	-3480
ລະດູ	-3481
ສໍານັກງານ	-3482
▁Laos	-3483
▁ຄວບ	-3484
▁ປະທານປະເທດ	-3485
ລະບົດ	-3486
▁ຫ້າມ	-3487
▁ໂດຍການ	-3488
ຮູ້ສຶກ	-3489
ບາດເຈັບ	-3490
▁ມັນເປັນ	-3491
ເຕັກໂນໂລຊີ	-3492
ມະຫາ	-3493
ຈະເປັນ	-3494
ເພີ່ມທະວີ	-3495
ຊິດ	-3496
ດໍາ	-3497
ດ່ວນ	-3498
▁ແສນ	-3499
▁ເກົ່າ	-3500
ນາທິການ	-3501
ທ້າ	-3502
▁ຄົງ	-3503
ົດສະ	-3504
ເດັດ	-3505
ພາກັນ	-3506
▁ຂ່າວຫນ້າ	-3507
ge	-3508
ຢືນຢັນ	-3509
ຊ່ອງ	-3510
ຄົ້ນຫາ	-3511
ວິດີໂອ	-3512
▁ຊົ່ວໂມງ	-3513
▁ເຕະ	-3514
ຂອງພຣະ	-3515
▁ວ່າດ້ວຍ	-3516
ສະຫະປະຊາຊາດ	-3517
ພຶດ	-3518
▁al	-3519
▁ແມ	-3520
▁ຄາສິໂນ	-3521
▁ສິ່ງທີ່	-3522
ໄປໄດ້	-3523
ໂດເນເຊຍ	-3524
▁ທ່ອງທ່ຽວ	-3525
▁ເປົ້າຫມາຍ	-3526
ລຸ່ມ	-3527
ເອກະລ	-3528
ນັດ	-3529
▁Sub	-3530
▁ໃຫ້ຮູ້ວ່າ	-3531
ດໍາລົງ	-3532
ຫລື	-3533
▁ບວນ	-3534
ຫນ່າຍ	-3535
▁ຕາຍ	-3536
ສະອາດ	-3537
▁ການສື່ສານ	-3538
▁ຕໍາຫຼວດ	-3539
▁ສະຫະພັນ	-3540
▁ຊູ	-3541
▁ທີ່ຖືກ	-3542
ork	-3543
▁ໄດ້ຖືກ	-3544
▁www	-3545
▁ເພີ່ມທະວີ	-3546
ມາດຕະຖານ	-3547
ລະບົດບາດ	-3548
ອ້າງ	-3549
ສອບເສັງ	-3550
ທຸກຢ່າງ	-3551
ຂະແຫນງການ	-3552
▁ສະຫງວນ	-3553
▁Ar	-3554
ລັດຖະທູດ	-3555
onus	-3556
ເທີງ	-3557
▁US	-3558
▁art	-3559
obile	-3560
ດາຍ	-3561
ເສັ້ນ	-3562
▁[1	-3563
▁ແວດ	-3564
ບໍ່ແມ່ນ	-3565
ອະນາຄົດ	-3566
uck	-3567
ແຂກ	-3568
ລິນຍາ	-3569
ເລີດ	-3570
▁ຄັດ	-3571
▁ທີ່ເປັນ	-3572
ເຮົາກ	-3573
▁ພາຍຫຼັງ	-3574
▁ຂໍ້ຕົກລົງ	-3575
▁ການພັດທະນາ	-3576
▁ຂາດ	-3577
ຜູ້ໃຊ້	-3578
▁ລະບຽບ	-3579
ອາວຸດ	-3580
▁ສຸຂະພາບ	-3581
ນັກສຶກສາ	-3582
▁ເລື້ອງ	-3583
ct	-3584
end	-3585
▁ໃສ	-3586
▁ມັດ	-3587
▁ສະຖາບັນ	-3588
ຂອງພວກເຂົາ	-3589
ell	-3590
ຂອງລັດ	-3591
ສົ່ງອອກ	-3592
irl	-3593
▁ແຂ່ງຂັນ	-3594
over	-3595
ຖິຕິ	-3596
▁ຣັດ	-3597
ອາຈານ	-3598
ກຸນ	-3599
▁Br	-3600
▁199	-3601
ຮາກຖານ	-3602
▁ເລີ້ມ	-3603
ຂໍ້ມູນຂ່າວສານ	-3604
ສັ້ນ	-3605
ພາຍໃຕ້	-3606
▁ຊັບພະຍາກອນ	-3607
icle	-3608
ແບ	-3609
▁ໂຮ່	-3610
▁ປົກຄອງ	-3611
▁ຫນຸ່ມ	-3612
▁ຮອງຫົວຫນ້າ	-3613
ລ໌	-3614
▁ຊະນະ	-3615
ໂຮງຫມໍ	-3616
ກັ້ນ	-3617
▁ສັກ	-3618
▁ຊ່ອຍ	-3619
▁ອະທິ	-3620
▁70	-3621
ເງົາ	-3622
ເຊື່ອມໂຍງ	-3623
ປ່າໄມ້	-3624
▁ອັດຕາ	-3625
▁ອານ	-3626
ກໍາປູເຈຍ	-3627
ust	-3628
ຊະນິດ	-3629
▁ຂາ	-3630
▁ຜະ	-3631
▁ແຫລ	-3632
ອອກມາ	-3633
▁ເຈລະຈາ	-3634
ການປະຕິບັດ	-3635
ທົດລອງ	-3636
▁ເສຍຊີວິດ	-3637
ເປັນເຈົ້າ	-3638
▁ເຈົ້າຫນ້າ	-3639
ັຖ	-3640
▁ໄດ້ມີ	-3641
ສາສະຫນາ	-3642
▁ທີ່ຜ່ານມາ	-3643
ໍາລັດ	-3644
ນະບົດ	-3645
ສະຫຼະ	-3646
ອີເມວ	-3647
▁Pony	-3648
▁ອຸບັດຕິເຫດ	-3649
ຂູ່	-3650
▁ນ້ອງ	-3651
ມາເຖິງ	-3652
ຍັງມີ	-3653
▁2017.	-3654
ປ້ອງກັນປະເທດ	-3655
ຜິວ	-3656
▁ວິກິພີເດຍ	-3657
ອັກຄະລັດຖະທູດ	-3658
ີໂຄ	-3659
▁5.	-3660
▁ຮາ	-3661
hone	-3662
▁ສະຫນັບສະຫນູນ	-3663
້ລົມ	-3664
ວາຍ	-3665
ink	-3666
▁Dis	-3667
▁ງົບ	-3668
▁ລ້ຽງ	-3669
ບ່າຍ	-3670
▁ຊະ	-3671
ທະບູລີ	-3672
ee	-3673
ເຄືອຂ່າຍ	-3674
▁ທຸກໆ	-3675
ແນ່ນອນ	-3676
ໃນໂອກາດ	-3677
▁ພະລັງງານ	-3678
ຮານ	-3679
ເອີ	-3680
ure	-3681
ຄ່ອງ	-3682
CO	-3683
ໂຫຼດ	-3684
ລິມານ	-3685
ທີມງານ	-3686
\\	-3687
▁ຫວັດ	-3688
▁ໄຟຟ້າ	-3689
ະນຸມ	-3690
▁ລ້ານໂດລາ	-3691
ຄວາມຕ້ອງການ	-3692
ວັນສ້າງຕັ້ງ	-3693
MS	-3694
ice	-3695
▁ຟີ	-3696
ເລຂາ	-3697
ss	-3698
ວ່າເປັນ	-3699
man	-3700
▁ເຕັມ	-3701
▁ພາຍໃຕ້	-3702
▁ສຸດຍອດ	-3703
ຍິ່ງໃຫຍ່	-3704
າຍັງ	-3705
ສະຖາບັນ	-3706
ພວມ	-3707
▁ເຜົ່າ	-3708
ຂົວ	-3709
ຂວັນ	-3710
ສາລະວັນ	-3711
▁Windows	-3712
▁ຄຸ້ມຄອງ	-3713
▁ຈາ	-3714
ພວກເຂົາເຈົ້າ	-3715
▁ປ້ອງກັນ	-3716
ພິບັດ	-3717
ການນໍາໃຊ້	-3718
▁ສປຊ	-3719
ແຂ່ງ	-3720
▁article	-3721
ໂບ	-3722
4)	-3723
ຫີນ	-3724
ບັນຊາການ	-3725
ໃຫ້ບໍລິການ	-3726
ຂັ້ນຕອນ	-3727
ber	-3728
▁ຫນູນ	-3729
ຜູ້ຊາຍ	-3730
ສາຍພົວພັນ	-3731
▁ຮັບປະກັນ	-3732
▁ດອນ	-3733
▁ສະຫນອງ	-3734
▁ເຂື່ອນ	-3735
▁ແນະນໍາ	-3736
▁ພໍ	-3737
ໃດໆ	-3738
ໃຫ້ມີ	-3739
▁SE	-3740
▁ແວ	-3741
ious	-3742
ຍົນ	-3743
ເວັ້ນ	-3744
ດ່ານ	-3745
▁ກູ້	-3746
▁ກິ່ງ	-3747
▁ສະເຫນີ	-3748
ler	-3749
▁ນອນ	-3750
ຕູ້	-3751
▁ດວງ	-3752
▁ສົບ	-3753
ຊຽງຂວາງ	-3754
ການບໍລິການ	-3755
,5	-3756
▁ແຈ	-3757
▁(201	-3758
ຫໍ	-3759
ຈອງ	-3760
ໍລະດ	-3761
sh	-3762
▁ເຫມາະ	-3763
▁Subway	-3764
ark	-3765
ຊັນ	-3766
▁ຍາວ	-3767
▁ອັງຄານ	-3768
ສະຫວັນນະເຂດ	-3769
ວິນ	-3770
▁Pre	-3771
urfers	-3772
ໍລະດົກ	-3773
▁ນັກຮຽນ	-3774
▁ປ່າໄມ້	-3775
ຕັດສິນໃຈ	-3776
▁ໄດ້ກ່າວ	-3777
▁Ad	-3778
ick	-3779
ແມ	-3780
ama	-3781
ນິວ	-3782
ຊື່ນ	-3783
▁ການຈັດ	-3784
▁ຜ່ານມາ	-3785
ath	-3786
▁ຝຶກ	-3787
ຝົນ	-3788
ສາກ	-3789
▁ບໍ່ໄດ້	-3790
ລໍ	-3791
▁2020	-3792
▁2010	-3793
ການປົກຄອງ	-3794
ຫຼ້າສຸດ	-3795
ອັນຕະລາຍ	-3796
▁ຜູ່	-3797
▁100%	-3798
້ຽວ	-3799
ຕານ	-3800
▁ພາສາລາວ	-3801
ຫຍໍ້	-3802
ອ່ອນ	-3803
ແຍກ	-3804
▁\\	-3805
ເລີກ	-3806
່ວັນ	-3807
ບໍລິເວນ	-3808
ສະແດງໃຫ້ເຫັນ	-3809
oft	-3810
▁ຕື້ກີບ	-3811
ແລນ	-3812
▁989	-3813
▁ປືນ	-3814
▁for	-3815
▁Rule	-3816
▁ເລີຍ	-3817
ພັກແຂວງ	-3818
ພາສາລາວ	-3819
ດັງ	-3820
▁Ab	-3821
▁ນິດ	-3822
ລົດຈັກ	-3823
▁=	-3824
▁ກະສິກໍາ	-3825
ເພນີ	-3826
▁ທະວີ	-3827
ັກຕາ	-3828
າລະສານ	-3829
ເຢັນ	-3830
▁90	-3831
▁ເນື່ອງຈາກ	-3832
▁ເກມອອນໄລນ໌	-3833
ຍລະ	-3834
▁IS	-3835
ຄຸກ	-3836
▁ch	-3837
ປະດາ	-3838
ຫ້າມ	-3839
ອາໄສ	-3840
▁ຊຽງ	-3841
ທະຍົມ	-3842
▁Online	-3843
▁ຕະຫຼອດ	-3844
ດີທີ່ສຸດ	-3845
ໃນປັດຈຸບັນ	-3846
▁໑	-3847
▁›	-3848
ສອດ	-3849
▁Fran	-3850
ປະຈໍາວັນ	-3851
▁ຫຍັງ	-3852
ມະສິດ	-3853
ສືບລັບ	-3854
ແມ່ນ້ໍາ	-3855
land	-3856
ໃຫ້ກັບ	-3857
▁ຣາ	-3858
▁ທໍານຽບຂາວ	-3859
ະນຸມັດ	-3860
▁ອາວຸດ	-3861
ອິນເຕີເນັດ	-3862
▁ຫລຸດ	-3863
ທ້າທາຍ	-3864
ຫນອງບຶກ	-3865
61	-3866
ໄຮ	-3867
ສຶກສາທິການ	-3868
ມະຫາວິທະຍາໄລ	-3869
erv	-3870
ແນ່	-3871
ext	-3872
▁Pl	-3873
▁ເຍ	-3874
▁ຂັດ	-3875
▁ເຈຍ	-3876
ປິ່ນປົວ	-3877
ພົ້ນ	-3878
ຈະບໍ່	-3879
ບານເຕະ	-3880
▁ແຜ່	-3881
ື້ນີ້	-3882
ສະແດງຄວາມ	-3883
▁80	-3884
▁ພະຫັດ	-3885
▁ຊົງ	-3886
▁ຈົດ	-3887
ເດີນ	-3888
ປີນີ້	-3889
ຄັ້ງທໍາອິດ	-3890
ore	-3891
▁0/5)	-3892
ເຕັກນິກ	-3893
▁ເພາະວ່າ	-3894
:1	-3895
ect	-3896
▁ສິ້ນ	-3897
ອສ	-3898
ຕຽນ	-3899
▁ຂອງການ	-3900
▁6.	-3901
▁ຫາດ	-3902
ປະຖົມ	-3903
pt	-3904
ຕີນ	-3905
▁ພິເສດ	-3906
ສະພາບການ	-3907
▁ໂດຍມີ	-3908
ເມນ	-3909
ans	-3910
ເບຍ	-3911
ລະກິດ	-3912
▁thumb	-3913
▁ຫມັ້ນຄົງ	-3914
▁ລັດຖະມົນຕີກະຊວງ	-3915
▁”	-3916
▁ຂ້າມ	-3917
ອີກດ້ວຍ	-3918
▁ມະຫາວິທະຍາໄລ	-3919
ບອງ	-3920
ຕໍ່ຕ້ານ	-3921
ອັດຕະປື	-3922
▁ເຊິ່ງເປັນ	-3923
໋ງ	-3924
ປະຕູ	-3925
▁ການນໍາ	-3926
ປະສົມ	-3927
▁ເລັກ	-3928
3,	-3929
▁ດື່ມ	-3930
ຄົນທີ່	-3931
▁ນານ	-3932
່ນ້ອງ	-3933
▁ດໍາເນີນ	-3934
▁ຢ່າງເປັນທາງການ	-3935
ຊົນເຜົ່າ	-3936
ນະຄອນຫຼວງວຽງຈັນ	-3937
ມູນິດ	-3938
ປະເມີນ	-3939
ins	-3940
▁ແຫ	-3941
້ວາງ	-3942
ອະດີດ	-3943
ມູນເຊື້ອ	-3944
ພຸດ	-3945
ດ້ານການ	-3946
ສະມາຄົມ	-3947
▁ຍູ້	-3948
ໂມສອນ	-3949
▁ບາຍ	-3950
▁Gr	-3951
ຄົບຮອບ	-3952
ແກ້	-3953
▁ອ້າງ	-3954
ຂະຫນາດໃຫຍ່	-3955
ຝິກ	-3956
▁ກວ້າງ	-3957
▁2018.	-3958
▁ສະໄຫມ	-3959
ຕົວຢ່າງ	-3960
▁Ben	-3961
ປັນຍາ	-3962
ອຍະການ	-3963
ໂຮງງານ	-3964
▁Post	-3965
ທົບທວນຄືນ	-3966
▁Bob	-3967
▁ດຶງ	-3968
ໄປສູ່	-3969
ພາກໃຕ້	-3970
ach	-3971
▁ກໍຄື	-3972
ລາຄາຖືກ	-3973
ທະນ	-3974
ເດີມ	-3975
▁ຢ້ຽມ	-3976
▁ເກີນ	-3977
ສອງປະເທດ	-3978
▁ຊິ	-3979
ລຸ້ນ	-3980
ີໂຄດ	-3981
ົາລົບ	-3982
ຫຍຸ້ງຍາກ	-3983
ເຂົ້າເຖິງ	-3984
ອາການ	-3985
▁2018,	-3986
▁ສະຖານທີ່	-3987
ຜັກ	-3988
ວິຫານ	-3989
ໃນຕອນ	-3990
▁ເຫລືອ	-3991
▁Girl	-3992
ຣັສ	-3993
ສັງເກດ	-3994
ຮ່າໂນ້ຍ	-3995
▁ວີໂອເອ	-3996
2,	-3997
ຫລຸດ	-3998
▁35	-3999
▁ຫລາຍກວ່າ	-4000
▁ວິທະຍາສາດ	-4001
ລອດ	-4002
ໃນຄັ້ງນີ້	-4003
ໂທລະສັບມືຖື	-4004
SE	-4005
▁ມາກ	-4006
ຊິງຕັນ	-4007
omb	-4008
ສໍາມະນາ	-4009
▁ອີງຕາມ	-4010
ອັບ	-4011
ໂຕ້	-4012
▁ລາດ	-4013
ເລເຊຍ	-4014
ຄາສິໂນ	-4015
▁ສະພາແຫ່ງຊາດ	-4016
ຕາດ	-4017
ດັນ	-4018
ແພດ	-4019
ທີ່ແຕກຕ່າງກັນ	-4020
▁£	-4021
▁ສະມາຄົມ	-4022
ຕິງ	-4023
ພະນັນ	-4024
ຽບຮ້ອຍ	-4025
ເຂົ້າໃນ	-4026
▁ເຈົ້າຂອງ	-4027
ເສົາ	-4028
▁ໂຄສົກ	-4029
ປະສົບໄພ	-4030
ຢອກ	-4031
▁ຢ້ານ	-4032
world	-4033
ຍຸຕິທໍາ	-4034
ຕອບສະຫນອງ	-4035
▁ໃຜ	-4036
ລັດເຊຍ	-4037
):	-4038
ມຽນມາ	-4039
ຄໍາຖາມ	-4040
ກົນ	-4041
ທີ່ມາ	-4042
ເຫັນວ່າ	-4043
ri	-4044
ຄຽງ	-4045
der	-4046
ide	-4047
ຕໍ່າ	-4048
ເມຣິກັນ	-4049
້ວກ	-4050
uper	-4051
ຕະການ	-4052
ລະພາບ	-4053
ໄຫຼ	-4054
▁Am	-4055
ການເປັນປະທານ	-4056
ກະກຽມ	-4057
ອຸດົມໄຊ	-4058
ວ່າຈະເປັນ	-4059
▁ພົວ	-4060
ຄໍາໄຊ	-4061
ທ່ອງ	-4062
ິຍົມ	-4063
▁ເດຍ	-4064
ຈະການ	-4065
ຂັດແຍ້ງ	-4066
ຍ່າງ	-4067
ຫລອດ	-4068
ໂຫວ	-4069
▁ຣີ	-4070
ider	-4071
▁ນໍາພາ	-4072
ນະຄອນຫລວງ	-4073
amp	-4074
ນາຍ	-4075
ສະກັດ	-4076
ຊາດລາວ	-4077
▁ສະຫນາມ	-4078
ຈໍາປາສັກ	-4079
▁ກະທົບ	-4080
ເຮືອບິນ	-4081
25	-4082
▁ອີຣ່ານ	-4083
ັຽ	-4084
▁໒	-4085
ສວຍງາມ	-4086
▁ຈະໄດ້	-4087
▁ພົນລະ	-4088
▁ເມືອງໄຊ	-4089
ໄປທີ່	-4090
ຄູ່ຮ່ວມມື	-4091
ank	-4092
ມິນ	-4093
ໄນ	-4094
tte	-4095
▁ເດີ	-4096
ທົດສອບ	-4097
ໄລ່	-4098
ໂດຍການ	-4099
▁ການສຶກສາ	-4100
ຂອງລັດຖະບານ	-4101
ial	-4102
▁ຮັບຮອງ	-4103
ໃນປະເທດ	-4104
ຊີເຣຍ	-4105
▁ແຫນງ	-4106
▁ອິ	-4107
ຊຶ່ງ	-4108
ມາທິການ	-4109
ຖະແຫຼງຂ່າວ	-4110
▁lo	-4111
▁ຈະມີ	-4112
ຕ້ອງໄດ້	-4113
ເຣ	-4114
ສະບາຍ	-4115
ຕໍ່ຫນ້າ	-4116
▁ພອນ	-4117
▁ອັຟ	-4118
▁ຫາລື	-4119
▁ອາດຈະ	-4120
ເຂົ້າສູ່	-4121
▁ກູ	-4122
▁ອຸດົມ	-4123
ອານາຈັກ	-4124
▁ເຂົ້າສູ່ລະບົບ	-4125
ຖຽນ	-4126
▁ການເຄື່ອນໄຫວ	-4127
▁ສໍານັກຂ່າວສານ	-4128
ຟິກ	-4129
ພຸດທະ	-4130
ບໄຊ	-4131
ຶ້ມ	-4132
ທົ່ງ	-4133
▁ປູກ	-4134
▁ຫອຍ	-4135
▁ເມີ	-4136
ຊື່ສຽງ	-4137
ສະຫງວນ	-4138
▁iPhone	-4139
▁ຫນັງສືພິມ	-4140
ລັດຖະມົນຕີກະຊວງ	-4141
ຍາກາດ	-4142
ບັງຄັບ	-4143
ຈໍານວນຫຼາຍ	-4144
▁ຍັງໄດ້	-4145
▁ກິດຈະກໍາ	-4146
▁ສັນຕິພາບ	-4147
ງວດ	-4148
ອັກສອນ	-4149
ໃຫ້ໄດ້	-4150
ປືນ	-4151
▁For	-4152
▁ບົບ	-4153
ຕະບອງ	-4154
▁ໂຍບາຍ	-4155
ຂຸດ	-4156
ລະບຸ	-4157
ເສດຖ	-4158
ຫນື່ງ	-4159
ສິລະປະ	-4160
ຮອຍ	-4161
ຫຼາຍໆ	-4162
ສີດ	-4163
NA	-4164
ue	-4165
▁ທັບ	-4166
ຊ່ວຍໃຫ້	-4167
ອມມູນິດ	-4168
▁ໂຄສະນາ	-4169
se	-4170
ຊີບ	-4171
▁ທາດ	-4172
ight	-4173
ການແຂ່ງຂັນ	-4174
ອິນເດຍ	-4175
▁ໂບ	-4176
ທໍານ	-4177
ພາກສາ	-4178
ລົດໄຟ	-4179
ສໍາພາດ	-4180
▁ວ່າການ	-4181
▁ອອກຈາກ	-4182
▁ປານ	-4183
▁ຊ່ວຍເຫຼືອ	-4184
ຫາດ	-4185
▁ຫໍ	-4186
▁ຄົບ	-4187
ກັບຄືນ	-4188
ຢ່າງໃດ	-4189
ຄວາມຫມັ້ນຄົງ	-4190
▁ນະຄອນຫລວງວຽງຈັນ	-4191
▁ທຽບ	-4192
ໂຮ່	-4193
▁ຕໍ່ຕ້ານ	-4194
▁ວິທະຍາໄລ	-4195
▁ວ່າດ້ວຍການ	-4196
ທີ່ແທ້ຈິງ	-4197
ohn	-4198
ຍຸກ	-4199
▁Sam	-4200
/2017	-4201
▁ຂະບວນ	-4202
ຈໍາຫນ່າຍ	-4203
ttp	-4204
▁ການບໍລິການ	-4205
ເຫດຜົນ	-4206
ີໂຄດຕະບອງ	-4207
▁ງົບປະມານ	-4208
ຂັງ	-4209
ື້ອຍໆ	-4210
▁ອ້ອມ	-4211
ວິເຄາະ	-4212
▁ມື້ນີ້	-4213
ອິ	-4214
▁j	-4215
ກ້າວຫນ້າ	-4216
▁ລ່າ	-4217
▁ທ່ານຈະ	-4218
ແບ່ງປັນ	-4219
ສະຫລອງ	-4220
ຫຼາຍຂຶ້ນ	-4221
▁ພວກເຂົາເຈົ້າ	-4222
ຂອງໂລກ	-4223
ຫມູ່ເກາະ	-4224
ຕໍ່ເນື່ອງ	-4225
▁Re	-4226
▁Bonus	-4227
ອອນລາຍ	-4228
ສອງຝ່າຍ	-4229
ຄໍາວ່າ	-4230
ຕະຫລາດ	-4231
▁ເພິ່ນ	-4232
ຂະຫນາດນ້ອຍ	-4233
ຖານະ	-4234
ເປັນເວລາ	-4235
ປະເພນີ	-4236
▁ແຕ່ວ່າ	-4237
▁ລືມ	-4238
ແລ້ວນ	-4239
ເຊົ້າວັນທີ	-4240
ເລຂາທິການໃຫຍ່	-4241
ລະດົມ	-4242
▁ບັນຊີ	-4243
ທົນ	-4244
ຜ້າ	-4245
ພານ	-4246
erry	-4247
ຫ່າງ	-4248
▁ພ້ອມກັນ	-4249
▁ອະນຸຍາດ	-4250
urn	-4251
▁າວ	-4252
▁ທ່ານຮອງ	-4253
▁ເປັນການ	-4254
ພໍ່ແມ່	-4255
ວ່າມັນ	-4256
ພືດ	-4257
ເລຍ	-4258
▁ຊິກ	-4259
ສໍາລັບສອງ	-4260
ກອງປະຊຸມສຸດຍອດ	-4261
ຕັ້ງຫນ້າ	-4262
ປະຕິບັດການ	-4263
ຈີມ	-4264
▁Che	-4265
▁ໂຮງງານ	-4266
ອິສ	-4267
▁ອອນໄລນ໌ເກມ	-4268
ald	-4269
▁ຂປລ	-4270
▁ຖົ່ວ	-4271
ຮັບຮູ້	-4272
▁Cont	-4273
▁ພວກເຂົາ	-4274
ລ່າງ	-4275
ປະກົດ	-4276
ແຕ່ປີ	-4277
ໂດຍກົງ	-4278
ຕາເວັນຕົກ	-4279
▁ສະຫວັນນະເຂດ	-4280
ດ້າຍ	-4281
ເຢຊູ	-4282
ເພິ່ນ	-4283
ຫຼວງຫຼາຍ	-4284
ພັບ	-4285
▁ອັດຕະ	-4286
99	-4287
▁ຣິ	-4288
▁ໂຕ້	-4289
▁ກິໂລແມັດ	-4290
.)	-4291
ມິ	-4292
ບັນດາກ	-4293
▁Man	-4294
ພະຍົບ	-4295
ox	-4296
ຊໍາລະ	-4297
ົ່ມຂູ່	-4298
▁ຫນອງ	-4299
ຜ່ານການ	-4300
ire	-4301
▁ອັນດັບ	-4302
▁ຖ້າທ່ານ	-4303
ອົງການຈັດຕັ້ງ	-4304
▁ຊິງ	-4305
▁ຮ່ວມມື	-4306
24	-4307
enn	-4308
ຄວາມທຸກຍາກ	-4309
ລັອດ	-4310
▁ຊວງ	-4311
ຶບ	-4312
▁ເຕີບ	-4313
ສໍາຫຼວດ	-4314
ສືບສວນ	-4315
org	-4316
ເກົາຫລີ	-4317
ຈຸດປະສົງ	-4318
ຍໍ	-4319
ລົງໂທດ	-4320
ats	-4321
ຈີມິນ	-4322
ແຟ	-4323
ສໍ້	-4324
ring	-4325
▁ຍອມ	-4326
ທີ່ໄດ້ຮັບ	-4327
ເມຍ	-4328
▁Bl	-4329
▁ຊຶ່ງເປັນ	-4330
▁ປະຈໍາເດືອນ	-4331
ຊສ	-4332
▁ສໍາເລັດ	-4333
▁ຂາວ	-4334
▁John	-4335
▁ຫລັກ	-4336
ທັນສະໄຫມ	-4337
//	-4338
ory	-4339
ສິບ	-4340
▁ແຫນ່	-4341
ເຖິງການ	-4342
▁ແບ	-4343
ຈັນທະບູລີ	-4344
ຣມ	-4345
▁Car	-4346
ຈະຖືກ	-4347
ບົດຄວາມ	-4348
ອານຸ	-4349
▁ທົບ	-4350
ແນໃສ່	-4351
ໃນທາງ	-4352
▁ຈາກນັ້ນ	-4353
ທັມ	-4354
ປີ້	-4355
ອາກອນ	-4356
ຍັງໄດ້	-4357
▁ຕໍ່ສູ້	-4358
▁ລັດເຊຍ	-4359
▁ທ່	-4360
ເລີນ	-4361
▁ຊົ່ວຄາວ	-4362
▁ບົດຄວາມ	-4363
ເວີ	-4364
▁ປີແຫ່ງ	-4365
ຄະນະບໍລິຫານງານ	-4366
ບໍ່ໃຫ້	-4367
ພ້ອມກັນ	-4368
▁ການທ່ອງທ່ຽວ	-4369
ກູ	-4370
wit	-4371
ເຈນ	-4372
▁ຂີ້	-4373
ສະເລ່ຍ	-4374
ຂອງຫວຽດນາມ	-4375
ຣູ	-4376
ເອກະພາບ	-4377
▁ຄົ້ນຄວ້າ	-4378
0,	-4379
າວອນ	-4380
▁ເພີ່ມຂຶ້ນ	-4381
ປະກວດ	-4382
ໄອຍະການ	-4383
ຫຼາຍທີ່ສຸດ	-4384
ກ້າ	-4385
ເບີ	-4386
ock	-4387
▁ສາຂາ	-4388
:3	-4389
▁2,	-4390
▁ຖ່າຍ	-4391
ທີ່ນີ້	-4392
ຢີ	-4393
old	-4394
ຊັດ	-4395
ຄ້າງ	-4396
ຊົມເຊີຍ	-4397
▁ຢາງ	-4398
ນໍາພາ	-4399
ເຊກອງ	-4400
າຊະ	-4401
້ວາ	-4402
▁ຫັດ	-4403
ພັນທະ	-4404
▁ວິດີໂອ	-4405
ທັນທີ	-4406
▁ຟ້ອງ	-4407
ros	-4408
able	-4409
ຕື່ນ	-4410
ໍານານ	-4411
▁ໃນເດືອນ	-4412
ພົນລະເມືອງ	-4413
://	-4414
ຜາ	-4415
ລັອດຕິງ	-4416
▁ໂທລະຄົມມະນາຄົມ	-4417
ຊຶມ	-4418
▁ຄົວ	-4419
ກະຈາຍ	-4420
ໄດ້ຢ່າງ	-4421
ຜັນຂະຫຍາຍ	-4422
23	-4423
ຣົງ	-4424
▁Rou	-4425
▁ປີກ	-4426
▁ນາຍົກ	-4427
▁ຄະນະກໍາມະການ	-4428
6)	-4429
ເສີດ	-4430
ree	-4431
▁ການນໍາໃຊ້	-4432
uk	-4433
ຕູນ	-4434
ູ້	-4435
ຫນາວ	-4436
ໃກ້ຊິດ	-4437
ids	-4438
ຝັງ	-4439
ຫຼີກ	-4440
ໃຫ່ຍ	-4441
▁ເຄາະ	-4442
ຍລະມັນ	-4443
▁ຮູບພາບ	-4444
▁ແຂວງວຽງຈັນ	-4445
ໄປສະນີ	-4446
▁Super	-4447
▁ໃນໂອກາດ	-4448
▁ຂັນ	-4449
▁ຜັນ	-4450
ເຂົ້າໃນການ	-4451
ແຕ້ມ	-4452
ໄວ້ໃນ	-4453
▁ໄມ	-4454
ເຂົ້າເມືອງ	-4455
:4	-4456
ຂຽວ	-4457
▁ບົວ	-4458
ດັດ	-4459
ເສລີ	-4460
ໂດຍບໍ່	-4461
▁ວິທະຍ	-4462
ອະທິບາຍ	-4463
▁ເປັນຜູ້	-4464
ແລງ	-4465
ໄກ່	-4466
ທ້ອນ	-4467
▁ຍັງມີ	-4468
▁ຜົນງານ	-4469
ຊ່ອຍ	-4470
ບາງຢ່າງ	-4471
▁ນອກນັ້ນ	-4472
▁ເມຣິກັນ	-4473
ຂອງຂ້າພະເຈົ້າ	-4474
ທານີ	-4475
ຕີລາຄາ	-4476
ສິກ	-4477
▁ສະບາຍ	-4478
▁ແນ່ນອນ	-4479
-3	-4480
ຕະລາງ	-4481
ເຮົາມີ	-4482
▁China	-4483
ຕັ້ງຢູ່	-4484
▁ປະສິດທິ	-4485
▁Don	-4486
▁ບຸກຄົນ	-4487
iki	-4488
ຈ້າງ	-4489
▁ຂອງຕົນ	-4490
ໂພກ	-4491
່ວັນທີ	-4492
ສາລີ	-4493
ສະການ	-4494
▁ຄໍາສັ່ງ	-4495
lao	-4496
▁ຂ້ອງ	-4497
▁ວິຊາ	-4498
ຮ້າຍແຮງ	-4499
▁ສຽງອາເມຣິກາ	-4500
▁ຫຼາຍກວ່າ	-4501
mail	-4502
ແກ່ນ	-4503
ໂນມັດ	-4504
▁ສີສຸ	-4505
▁7.	-4506
▁ຢັ້ງ	-4507
▁ກໍລະນີ	-4508
▁ເສີມຂະຫຍາຍ	-4509
cr	-4510
ຂອງຄົນ	-4511
itc	-4512
ໄປຫາ	-4513
ຕົວເມືອງ	-4514
▁ຈຸດປະສົງ	-4515
▁ບຸ	-4516
້ອງຍໍ	-4517
▁ຮຽນຮູ້	-4518
▁ໃນເວ	-4519
ພຣະອົງ	-4520
▁ນິຍົມ	-4521
▁ເຮັກຕາ	-4522
ດົງ	-4523
▁ສວຍ	-4524
▁ຮ່າ	-4525
ຊ່ວຍເຫລືອ	-4526
▁ມ່ວນ	-4527
▁ລາງວັນ	-4528
ປົກປັກຮັກສາ	-4529
ana	-4530
-20	-4531
▁ແນກ	-4532
ຫຼີ້ນ	-4533
ຄໍາມ່ວນ	-4534
▁ບົດຮຽນ	-4535
▁ຫຼັງຈາກນັ້ນ	-4536
ຈະນໍາ	-4537
ລະວັງ	-4538
ຄັດເລືອກ	-4539
ປະເທດລາວ	-4540
▁ຕົວຢ່າງ	-4541
ເຈົ້າຂອງ	-4542
Lao	-4543
▁ນຸ	-4544
ເພີ້ມ	-4545
າຊີຟິກ	-4546
co	-4547
▁ໂສ	-4548
▁ສ່ຽງ	-4549
ແຄມ	-4550
▁ຄ້າຍ	-4551
ໂຄງລ່າງ	-4552
ແຕ່ງຕັ້ງ	-4553
▁ສົ່ງເສີມ	-4554
ປີກ	-4555
ໄຫມ້	-4556
▁ແພງ	-4557
▁ເບື້ອງ	-4558
▁ສະຫະພາບ	-4559
▁Next	-4560
ເບື້ອງຕົ້ນ	-4561
ເຫຍ	-4562
▁us	-4563
▁Tag	-4564
ເຕັ້ນ	-4565
▁ໂດລາ	-4566
ປະຕິບັດຕາມ	-4567
ສະບ	-4568
ດີຕ້ອນຮັບ	-4569
ith	-4570
ປຸງ	-4571
▁ro	-4572
ews	-4573
ຄະແນນ	-4574
▁ຈາກການ	-4575
ຜູ້ເສຍຊີວິດ	-4576
ຊ້າ	-4577
ປີໃຫມ່	-4578
ພາຍຫຼັງ	-4579
▁ຄວາມເປັນ	-4580
▁ເປັນຫຍັງ	-4581
ST	-4582
▁Leg	-4583
▁ປິນ	-4584
▁ແຍກ	-4585
ເສດຖາທິ	-4586
ເຂົ້າໄປໃນ	-4587
ix	-4588
ຊາບ	-4589
▁Ob	-4590
ສະວະ	-4591
▁ສະຫລ	-4592
▁ເຕັກ	-4593
ການຮ້າຍ	-4594
▁ການຕໍ່ສູ້	-4595
ໂພນ	-4596
▁ລັດຖະທູດ	-4597
ສະນ	-4598
▁(2)	-4599
▁ບົນ	-4600
▁ໂຣບ	-4601
ປະທານສະພາແຫ່ງຊາດ	-4602
ອັງຄານ	-4603
ສິ້ນສຸດ	-4604
ແຈ້ງການ	-4605
▁ເນື້ອໃນ	-4606
▁ຟອງ	-4607
▁ໃດໆ	-4608
▁Prev	-4609
ບັນລຸໄດ້	-4610
ໄຊຍະບູລີ	-4611
ດ໌	-4612
▁Ex	-4613
▁ສົນທະນາ	-4614
ein	-4615
ຄລິບ	-4616
ກໍໄດ້	-4617
ຄໍ	-4618
ແສ	-4619
ບ້າ	-4620
ທາງເລືອກ	-4621
ະຄອນຫຼວງ	-4622
ກະຕ	-4623
ກຸງ	-4624
ໄສທັດ	-4625
ບັນດານັກ	-4626
ຄວາມຮັບຜິດຊອບ	-4627
ຕຸລາ	-4628
▁ເພີ້ມ	-4629
▁ຫມູ່ເກາະ	-4630
ດໍາລົງຊີວິດ	-4631
ຜ່າ	-4632
ລອບ	-4633
edit	-4634
itcoin	-4635
▁]	-4636
▁ແຂກ	-4637
ເຫັນດີ	-4638
ໂຮງແຮມ	-4639
ມາດຕະການ	-4640
ຊ້າຍ	-4641
ໄພພິບັດ	-4642
ໄປຢ້ຽມຢາມ	-4643
▁ພີ	-4644
ດ້ວຽ	-4645
ປະຊາຄົມ	-4646
▁ກໍ່ໄດ້	-4647
ການທ່ອງທ່ຽວ	-4648
▁ສໍານັກຂ່າວ	-4649
▁pl	-4650
▁ຝັນ	-4651
▁ແລ່ນ	-4652
ສະຫມຸດ	-4653
ໃຫ້ເປັນ	-4654
ຊັກ	-4655
▁ກຽດ	-4656
▁ເຈີ	-4657
▁Miss	-4658
▁ເລກທີ	-4659
ຜູ້ນ	-4660
ຫຼາຍຄົນ	-4661
ເງິນຝາກ	-4662
▁ຜູ້ທີ່	-4663
ພາກເຫນືອ	-4664
່ຽມ	-4665
▁ບັນດ	-4666
ຮຽບຮ້ອຍ	-4667
ສະຫນັບສະຫນຸນ	-4668
▁SMS	-4669
ຮັບໃຊ້	-4670
▁ທາງດ້ານ	-4671
ປະດິດ	-4672
ປະລິມານ	-4673
ພົບເຫັນ	-4674
ແບບຍືນຍົງ	-4675
▁ປອ	-4676
ຫວານ	-4677
ແລ່ນ	-4678
▁ໃນເຂດ	-4679
▁ການເງິນ	-4680
▁ຕັ້ງຢູ່	-4681
ສີໂຄດຕະບອງ	-4682
ery	-4683
min	-4684
▁ລຸ	-4685
▁ກຸງ	-4686
ຄິດວ່າ	-4687
▁ສຸມ	-4688
ບໍາລຸງ	-4689
ໄຊຊະນະ	-4690
ກວ້າງຂວາງ	-4691
ຂອງຕົນເອງ	-4692
▁ເມືອງຈັນທະບູລີ	-4693
ທີ່ເຫມາະສົມ	-4694
▁ຄອບ	-4695
ສຸມໃສ່	-4696
ໃດກໍ່ຕາມ	-4697
▁ແຈ້ງການ	-4698
▁ເນື່ອງໃນໂອກາດ	-4699
mer	-4700
ສະຫາຍ	-4701
▁ມາດຕາ	-4702
ສ່ວນໃຫຍ່	-4703
ລົງນາມ	-4704
▁ພົບປະ	-4705
▁ທໍາລາຍ	-4706
▁ໃນປັດຈຸບັນ	-4707
▁ບໍ່ວ່າຈະເປັນ	-4708
ຂອງຈີນ	-4709
ທີ່ມີການ	-4710
ເອີ້ນວ່າ	-4711
ວົນ	-4712
ວັນທີ່	-4713
ຂອງແຂວງ	-4714
▁ໃນເວລາ	-4715
ຂອງວັນທີ	-4716
ຈິດໃຈ	-4717
ລິມ	-4718
▁ແຫນ້ນ	-4719
▁monster	-4720
▁ຫນ້າຫຼັກ	-4721
uc	-4722
ດິ	-4723
ົ່ນ	-4724
▁300	-4725
ຖ້າຫາກ	-4726
▁ປະຫວັດ	-4727
ສະໄຫມສາມັນ	-4728
ຢ້ານ	-4729
ເມີດ	-4730
▁ທາງການ	-4731
▁ທີ່ເມືອງ	-4732
ທ້າວ	-4733
ະນີ້	-4734
ວຍພອນ	-4735
▁2016.	-4736
▁ຮ່າໂນ້ຍ	-4737
/2	-4738
ພະຍາ	-4739
▁ຢາມ	-4740
▁ວິນ	-4741
▁ຄຣິດ	-4742
ຄິດເຫັນ	-4743
▁Disney	-4744
ja	-4745
ຜູ່	-4746
ມັງ	-4747
ຖ້ວນ	-4748
▁ຄະດີ	-4749
▁Previous	-4750
ການກໍ່ສ້າງ	-4751
ເທື່ອນ	-4752
ມາຢ້ຽມຢາມ	-4753
ດ້າຍກວາງ	-4754
▁01	-4755
ຄຣິສ	-4756
pl	-4757
ເປີ	-4758
▁ຜັກ	-4759
▁ແນ່	-4760
▁ຕໍ່ໄປ	-4761
ເກີດເຫດ	-4762
1)	-4763
▁lao	-4764
▁ສົກ	-4765
▁ອໍາ	-4766
ຢ່າງແຮງ	-4767
▁ຂອງພັກ	-4768
ics	-4769
ຈ້ອງ	-4770
attoo	-4771
▁ກໍ່ຄື	-4772
▁ປະກັນ	-4773
ສະຖິຕິ	-4774
ero	-4775
▁ຕໍ	-4776
lish	-4777
lette	-4778
ສະເຫນ	-4779
້ອມແປງ	-4780
ອ້ອມຂ້າງ	-4781
▁ເຣ	-4782
ມະນີ	-4783
▁com	-4784
▁ຮ້ອຍ	-4785
ທີ່ໃຊ້	-4786
▁ກັບການ	-4787
ບີ	-4788
▁ເຄລຍ	-4789
ວິທະຍາໄລ	-4790
▁ພິຈາລະນາ	-4791
▁ລຸ້ນ	-4792
ຄາດຫມາຍ	-4793
aly	-4794
ood	-4795
ຝັນ	-4796
▁ພ້ອມກັບ	-4797
ຕ໌	-4798
ຸສ	-4799
ກອກ	-4800
▁021	-4801
▁ທ້າ	-4802
ໃນເວລາ	-4803
ຕົ້ນດ້ວຽ	-4804
▁ດ້ວຍການ	-4805
ຕົ້ນສະບັບ	-4806
▁ຖອນ	-4807
ກອມມູນິດ	-4808
ພື້ນຖານເສດຖະກິດ	-4809
▁ເສບ	-4810
ຍຸດ	-4811
ເພັດ	-4812
▁ປິ່ນປົວ	-4813
▁ສະຫງວນລິຂະສິດ	-4814
ush	-4815
ເອກະລັກ	-4816
ert	-4817
ກສາ	-4818
ຂີ່	-4819
ຢັດ	-4820
ments	-4821
▁ສົມທົບ	-4822
ການຈັດຕັ້ງ	-4823
ech	-4824
▁Web	-4825
▁ສົດ	-4826
ວ່າມີ	-4827
▁ຫ່າງ	-4828
ວາງແຜນ	-4829
ໃຫ້ນັກ	-4830
ບໍລິຈາກ	-4831
ເປັນທີ່	-4832
▁ເງື່ອນໄຂ	-4833
ແມ່ນ້ໍາຂອງ	-4834
▁ພາລະບົດບາດ	-4835
ຜູ້ອໍານວຍການ	-4836
▁ວັງ	-4837
▁http	-4838
▁ດ່ວນ	-4839
ພັນລາວ	-4840
ງ່າຍດາຍ	-4841
ຕື່ມອີກ	-4842
▁ໄຊຍະບູລີ	-4843
▁ໂພນ	-4844
ຫວັດດີ	-4845
ike	-4846
ທອດ	-4847
ທໍ່	-4848
agic	-4849
ft	-4850
▁03	-4851
ມໍລະດົກ	-4852
▁ນໍາໃຊ້	-4853
ຫຼຸດຜ່ອນ	-4854
▁Eng	-4855
▁ຮຽກ	-4856
ອອກໄປ	-4857
▁ຍ້າຍ	-4858
▁ເງື່ອນ	-4859
▁ຂະນະທີ່	-4860
▁ໄດ້ມີການ	-4861
ປະຕິບັດງານ	-4862
ທີ່ສາມາດ	-4863
ປະສານງານ	-4864
ບຫນ້າ	-4865
ອາຄານ	-4866
ຮູບເງົາ	-4867
ລົງທະບຽນ	-4868
ເປີດເຜີຍ	-4869
▁ທ່ານໄດ້	-4870
▁ຄຽງ	-4871
▁ຕໍາແຫນ່ງ	-4872
ບັນນາທິການ	-4873
ປຸກ	-4874
▁SEO	-4875
▁ສຖານ	-4876
ການຮຽນ	-4877
ທີ່ຂຶ້ນ	-4878
▁ພັນລາວ	-4879
▁IT	-4880
ຮຸ້ນ	-4881
ສປ	-4882
▁ມວນ	-4883
ລະປິນ	-4884
▁ຮ້ອນ	-4885
▁Spong	-4886
ຂອງບັນດາ	-4887
ເຈົ້າແຂວງ	-4888
▁ຢືນຢັນວ່າ	-4889
ich	-4890
ຈັດຂຶ້ນ	-4891
▁ຮວມທັງ	-4892
▁ສູດ	-4893
▁ເກດ	-4894
ພະຫັດ	-4895
▁Lego	-4896
▁ຊ່ວງ	-4897
▁ຈະບໍ່	-4898
▁ພັນທະ	-4899
ຄຣິດ	-4900
ນັ່ງ	-4901
ຊື້ຂາຍ	-4902
ຈົ່ງ	-4903
ໂອ້ລົມ	-4904
▁ປິດສະ	-4905
ຂອງບໍລິສັດ	-4906
ສູນເສຍ	-4907
ເກີນໄປ	-4908
▁ຂັ້ນຕອນ	-4909
▁Contact	-4910
3)	-4911
ຄອບ	-4912
▁ເເ	-4913
ower	-4914
▁ອາການ	-4915
ຈົດຫມາຍ	-4916
▁ຕໍາຫລວດ	-4917
ທີ່ເປັນປະໂຫຍດ	-4918
DP	-4919
ign	-4920
ເຄລຍ	-4921
▁VII	-4922
ຫມາຍຄວາມ	-4923
▁ເຖິງແມ່ນວ່າ	-4924
▁ການເມືອງ	-4925
າດາ	-4926
ຝັ່ງ	-4927
ໂຫວດ	-4928
▁ຫນູ	-4929
ໄດ້ມີ	-4930
▁ທິການ	-4931
ເກັບກໍາ	-4932
ແລະຄວາມ	-4933
▁ດັດ	-4934
▁Spider	-4935
▁Roulette	-4936
ຄະນະຜູ້ແທນ	-4937
ສະກຸນ	-4938
ຢູ່ແຂວງ	-4939
ອະນຸຍາດໃຫ້	-4940
."	-4941
▁ອ້າຍ	-4942
▁ຖະຫນົນເສດຖາທິ	-4943
80	-4944
▁ແຟ	-4945
ເກັ່ງ	-4946
ຍອມຮັບ	-4947
ບໍ່ແກ້ວ	-4948
ຂອງແມ່ຍິງ	-4949
own	-4950
▁ສູນກາງ	-4951
▁ໂອບາມາ	-4952
▁ສີສຸລິດ	-4953
ໃນເວລາທີ່	-4954
ພຽງພໍ	-4955
▁ທອງລຸນ	-4956
uy	-4957
ຕ້າ	-4958
▁ດໍ	-4959
ອາຍາ	-4960
▁ຊໍາ	-4961
ປາກົດ	-4962
▁Obama	-4963
ຂວາ	-4964
lock	-4965
ໃດຫນຶ່ງ	-4966
▁ເອີຣົບ	-4967
ແຮ	-4968
▁un	-4969
ອ້າຍ	-4970
ເຂົ້າຊົມ	-4971
▁09	-4972
▁ລ້າງ	-4973
▁32	-4974
ເຫຼັກ	-4975
▁fair	-4976
▁ທະເລ	-4977
▁ຊຸດທີ	-4978
▁ແບ່ງປັນ	-4979
ເກົາຫຼີເຫນືອ	-4980
ual	-4981
▁ໂຣກ	-4982
▁ເວທີ	-4983
▁ຄານ	-4984
▁2009	-4985
▁ນອກຈາກນັ້ນ	-4986
ຢ່າ	-4987
▁Sn	-4988
ໃຫ້ກຽດ	-4989
▁ລໍ	-4990
ພີ່ນ້ອງ	-4991
ເຮັດໄດ້	-4992
ທອນ	-4993
ແຖວ	-4994
ຊັບສິນ	-4995
▁2017,	-4996
ປົດ	-4997
▁Mai	-4998
ລາຍໄດ້	-4999
▁ທີ່ດີທີ່ສຸດ	-5000
ລະບາດ	-5001
ຫົວໃຈ	-5002
ແນວຄິດ	-5003
ຫ້າ	-5004
ລົ້ມ	-5005
▁ນິກ	-5006
▁ມະຕິ	-5007
ພີມ	-5008
▁ກວາງ	-5009
ຄວາມສະດວກ	-5010
▁ອາເມຣິກາ	-5011
ann	-5012
ຣັຖ	-5013
ates	-5014
ຕິດເຊື້ອ	-5015
▁ກ່າວຄໍາເຫັນ	-5016
▁ເມືອງສີໂຄດຕະບອງ	-5017
ມວນ	-5018
▁3,	-5019
▁ວາລະສານ	-5020
ຂຸດຄົ້ນ	-5021
▁ເຊື່ອມຕໍ່	-5022
▁ຫລັງຈາກ	-5023
▁ສາຍການບິນ	-5024
▁ປາດ	-5025
ດຶງດູດ	-5026
ຫຼາຍຢ່າງ	-5027
ເຂັ້ມງວດ	-5028
ຄ໌	-5029
ator	-5030
▁ສະຫນັບສະຫນຸນ	-5031
iew	-5032
ຖິ້ມ	-5033
▁Nin	-5034
ໃດກໍຕາມ	-5035
ນຸ່ງ	-5036
▁ຂົວ	-5037
▁ທ່ີ	-5038
-2018	-5039
ປະທັບ	-5040
▁ຄ້ານ	-5041
.1	-5042
ram	-5043
▁II	-5044
ຫຼຽນ	-5045
ສິດທິມະນຸດ	-5046
▁ສາທາລະນະລັດ	-5047
witter	-5048
ເຄື່ອງຈັກ	-5049
▁ກ່ຽວຂ້ອງ	-5050
▁ຂະແຫນງການ	-5051
▁ຜູ້ຕາງຫນ້າ	-5052
ha	-5053
ແຫ່ງການ	-5054
▁ບໍ່ແມ່ນ	-5055
ມຸດ	-5056
▁ມິນ	-5057
▁ເບຍ	-5058
ໃນເຂດ	-5059
ປະເສີດ	-5060
ອງປະຊຸມ	-5061
ກໍາມະບານ	-5062
▁ການຄຸ້ມຄອງ	-5063
ຕ່າງປະເທດລາຍງານ	-5064
for	-5065
ການສອນ	-5066
ໂທລະພາບ	-5067
▁ກ່ອນຫນ້ານີ້	-5068
ລາຍຊື່	-5069
ຄົນອື່ນ	-5070
33	-5071
▁You	-5072
▁ອິສລາມ	-5073
▁ລັກສະນະ	-5074
rom	-5075
▁ເຕີມ	-5076
▁ນອກຈາກນີ້	-5077
ໄດ	-5078
ລ່າ	-5079
▁197	-5080
▁ຍີ່	-5081
▁ຜ່ອນ	-5082
ວານນີ້	-5083
ເນື້ອທີ່	-5084
ປ້ອງກັນຊາດ	-5085
▁ທຸລະ	-5086
▁fairy	-5087
▁ສະຫມັກ	-5088
ວ່າດ້ວຍການ	-5089
▁ປະຊາທິປະໄຕ	-5090
ມືອນ	-5091
▁ປາກົດ	-5092
ກັບທ່ານ	-5093
▁out	-5094
▁ເມັດ	-5095
▁ເຂົ້າໃຈ	-5096
ົວກ	-5097
▁av	-5098
ກ້ອງ	-5099
ສະໄລ	-5100
▁ຊານ	-5101
▁ຫຼີ	-5102
rosoft	-5103
ເຊື່ອຖື	-5104
▁400	-5105
ັງວົນ	-5106
itt	-5107
ສີ່	-5108
ຕົ້ນໄມ້	-5109
▁ຮອງປະທານ	-5110
▁ເຂົາເຈົ້າ	-5111
▁ປູຕິນ	-5112
ີ່ນ	-5113
▁Off	-5114
ຊົມໃຊ້	-5115
ສະຫວ່າງ	-5116
ສະໂມສອນ	-5117
ົ້ງສາລີ	-5118
ດໍາເນີນທຸລະກິດ	-5119
ໄຫ	-5120
▁Ed	-5121
▁ໂຕນ	-5122
ເກມອອນໄລນ໌ຟຣີ	-5123
1,	-5124
PA	-5125
ທໍ້	-5126
ວັດຖຸ	-5127
▁ໄຊຍະ	-5128
ເຊື່ອງ	-5129
ບົດທີ່ກ່ຽວຂ້ອງ	-5130
ດວງ	-5131
ທິດທາງ	-5132
ມື້ນັບ	-5133
ຫະນະ	-5134
▁ອະນາ	-5135
ການິສຖານ	-5136
ລັດຖະກອນ	-5137
▁ການສ້າງ	-5138
▁ການໂຈມຕີ	-5139
▁ປະເທດລາວ	-5140
ens	-5141
ໂອນ	-5142
▁ລື	-5143
ໃນຂົງເຂດ	-5144
▁ປະຊາຊົນລາວ	-5145
ຕຣາ	-5146
ຫອມ	-5147
ເອີຣົບ	-5148
▁ປະຕິວັດ	-5149
ທ່ານໃດ	-5150
ຫົວພັນ	-5151
ສາທາລະນະສຸກ	-5152
▁ການແຂ່ງຂັນ	-5153
▁ວິທະຍຸ	-5154
ເທດສະຫນາ	-5155
ທ້ອງຖະຫນົນ	-5156
ຫນີ້	-5157
ເປັນປະທານ	-5158
urg	-5159
ຍ່ອຍ	-5160
ໄຟລ໌	-5161
▁ຟື້ນ	-5162
ຊຸມຊົນ	-5163
▁ດໍາລັດ	-5164
ຄໍາແນະນໍາ	-5165
▁ມິດຕະພາບ	-5166
▁ທົ່ວປະເທດ	-5167
ິ້ມ	-5168
ເສດຖາ	-5169
ຈະຕ້ອງ	-5170
ການຄຸ້ມຄອງ	-5171
”,	-5172
ຖະຫນາ	-5173
ກັບຄວາມ	-5174
▁ເປັນຕົ້ນມາ	-5175
ຄວາມເປັນສ່ວນຕົວ	-5176
▁ໂຊກ	-5177
ຫຼຸດລົງ	-5178
▁ສິງກະໂປ	-5179
ລວງ	-5180
ໃນລາວ	-5181
ການທູດ	-5182
▁ມູນຄ່າ	-5183
ທ່ານສາມາດ	-5184
ແຫລງ	-5185
ຈະເລີນ	-5186
▁ຊອກຫາ	-5187
enc	-5188
ນຸມ	-5189
ຣານ	-5190
▁USD	-5191
▁Le	-5192
ອຸ່ນ	-5193
▁(1)	-5194
ເປັນຕົ້ນ	-5195
▁spring	-5196
▁ໄດ້ກ່າວວ່າ	-5197
uto	-5198
ເຊີ	-5199
ເອກະຊົນ	-5200
▁ອັດຕະປື	-5201
ຈະເຮັດໃຫ້	-5202
▁ຍືນ	-5203
ຈັດງານ	-5204
▁ຊີເຣຍ	-5205
akeover	-5206
ແຫຼງການ	-5207
▁08	-5208
ແມ່ນໍ້າ	-5209
▁ໃນຕອນເຊົ້າ	-5210
ໂຣບ	-5211
▁ແດ	-5212
ປັ່ນ	-5213
ຍັງບໍ່	-5214
ພຣະເຈົ້າ	-5215
▁38	-5216
ຕະຖານ	-5217
ບຸ	-5218
▁ວະ	-5219
▁ອີຣັກ	-5220
▁ເຈິ່ນ	-5221
ຄືບຫນ້າ	-5222
ໃນແຕ່ລະ	-5223
ຄາຍ	-5224
ທັກ	-5225
າຊີບ	-5226
▁ເພັດ	-5227
ໂດຍສານ	-5228
▁ອອກແບບ	-5229
ຖຽນລະພາບ	-5230
ອົບພະຍົບ	-5231
ກໍ່ການຮ້າຍ	-5232
▁ເອົາໃຈໃສ່	-5233
ຫວຽດ	-5234
່າວກ	-5235
ປ້າຍ	-5236
ະພາບ	-5237
ລະເມີດ	-5238
▁ຕໍ່ການເລືອກຕັ້ງ	-5239
06	-5240
ົ້ວ	-5241
▁ນົດ	-5242
▁Donald	-5243
▁ນັກສຶກສາ	-5244
ult	-5245
ລາກ	-5246
▁Mc	-5247
▁ປັນ	-5248
▁pony	-5249
ສະໄລດ໌	-5250
ຄໍາຮ້ອງ	-5251
▁ເປັນເຈົ້າ	-5252
ER	-5253
els	-5254
▁ເດດ	-5255
ເລີ້ມ	-5256
▁ການທົບທວນຄືນ	-5257
ປຽບ	-5258
▁ກັດ	-5259
▁list	-5260
ຜິດຕໍ່	-5261
▁surfers	-5262
▁ວໍຊິງຕັນ	-5263
22	-5264
ຫງ	-5265
ຈັງ	-5266
atch	-5267
▁ນຸດ	-5268
ຈອດ	-5269
▁de	-5270
່ອງໄວ	-5271
▁ຫຼຽນ	-5272
▁ກະກຽມ	-5273
ໃບອະນຸຍາດ	-5274
ຟອງ	-5275
▁33	-5276
▁ຮັດ	-5277
▁ເດັດ	-5278
▁ເລີ່	-5279
ກອງທຶນ	-5280
ຫ້ອງປະຊຸມ	-5281
ຈໍານວນຫນຶ່ງ	-5282
ວ່າງ	-5283
▁ລົງວັນທີ	-5284
ປະຊາຊົນລາວ	-5285
54	-5286
ຫ້ວຍ	-5287
ເຊົາ	-5288
▁ວາຍ	-5289
▁ຫວານ	-5290
ຄຸນຄ່າ	-5291
ພາລະກິດ	-5292
▁ຫ້ອງວ່າການ	-5293
ula	-5294
▁ຍ່າງ	-5295
ອັດຕະໂນມັດ	-5296
▁ໄດ້ປະກອບສ່ວນ	-5297
bo	-5298
ຍັດ	-5299
ຟອມ	-5300
▁LA	-5301
▁ໂອ້	-5302
▁ນັ່ງ	-5303
ເລັກໂຕ	-5304
▁ຫະກິດ	-5305
ປະລິນຍາ	-5306
▁ສະບາຍດີ	-5307
▁ສາສະຫນາ	-5308
ສະກັດກັ້ນ	-5309
ລຸກ	-5310
ມາເປັນ	-5311
▁ຂົນສົ່ງ	-5312
ເທື່ອນຶ່ງ	-5313
▁ເຄື່ອງມື	-5314
ware	-5315
ຕົວແທນ	-5316
▁37	-5317
▁ຂຸດ	-5318
▁ທາຍ	-5319
▁ລິບ	-5320
ສະຫນິດ	-5321
▁ທີ່ຕັ້ງ	-5322
▁Microsoft	-5323
ແຂນ	-5324
▁ເພີ້	-5325
ໄປເຖິງ	-5326
ທັດສະນະ	-5327
ບໍລິໂພກ	-5328
GI	-5329
ກວ່າເກົ່າ	-5330
OU	-5331
▁ສິບ	-5332
ຜິດພາດ	-5333
ນໍາເອົາ	-5334
▁ປະຫວັດສາດ	-5335
ບົນ	-5336
ທຣໍາ	-5337
▁ສີ່	-5338
▁ເວນ	-5339
ຄໍາພີ	-5340
▁ລະອຽດ	-5341
ເປັນຢ່າງ	-5342
ເລືອກເອົາ	-5343
▁ເທົ່ານັ້ນ	-5344
▁ອງ	-5345
▁(4)	-5346
▁Kiss	-5347
ຂອງມັນ	-5348
ລາດບັງ	-5349
▁ເຫຼົ່າ	-5350
▁ຕາງຫນ້າ	-5351
▁ແນະ	-5352
ເຊົ່າ	-5353
ອີງໃສ່	-5354
ສອດຄ່ອງ	-5355
▁ປີຜ່ານມາ	-5356
▁ສະຖານທູດ	-5357
▁ແລະອື່ນໆ	-5358
ການປ່ຽນແປງ	-5359
-02	-5360
▁Top	-5361
ເຄັ່ງ	-5362
▁ກໍາມະ	-5363
▁ແຫ່ງຊາດ	-5364
7)	-5365
▁ໄນ	-5366
ົາວະ	-5367
▁Min	-5368
▁Dress	-5369
ມະຫາຊົນ	-5370
ແຫ່ງນີ້	-5371
ຕ້ອງການທີ່ຈະ	-5372
ຣາມ	-5373
ີ້ງ	-5374
ໂຊກ	-5375
▁0,	-5376
ding	-5377
ນ້ໍາຖ້ວມ	-5378
ເຄມີ	-5379
ຄວາມຈິງ	-5380
▁ພາຍຫລັງ	-5381
ສະພາບແວດລ້ອມ	-5382
ric	-5383
ຮວມ	-5384
ົດສະຕາລີ	-5385
ມະຕິ	-5386
its	-5387
▁55	-5388
▁Kerry	-5389
ແນ່ໃຈ	-5390
ລາຊະ	-5391
ເຝິກ	-5392
ຫວັດດີການ	-5393
ຄ່າໃຊ້ຈ່າຍ	-5394
IA	-5395
ຟີ	-5396
ູບາ	-5397
read	-5398
ສະດີ	-5399
▁ຕະການ	-5400
ການສ້າງ	-5401
ED	-5402
orn	-5403
▁Sy	-5404
▁UN	-5405
ສະຕິ	-5406
▁Con	-5407
▁ເທີກີ	-5408
ບາບ	-5409
ໂປຣ	-5410
ປ່ອງ	-5411
ຫຼັກສູດ	-5412
ເລິກເຊິ່ງ	-5413
▁ຄະນະຜູ້ແທນ	-5414
▁ໂຈ	-5415
ເຈລະ	-5416
ບັນເທີງ	-5417
ໃນເດືອນ	-5418
ສ່ວນຮ່ວມ	-5419
▁Makeover	-5420
▁ອິນໂດເນເຊຍ	-5421
ຽກງານ	-5422
▁Clin	-5423
▁2015.	-5424
▁ນິວຢອກ	-5425
estr	-5426
ບູຮານ	-5427
ມັດທະຍົມ	-5428
ເນີດ	-5429
▁ກ່ວາ	-5430
ຂີ້ເຫຍ	-5431
▁ພືດ	-5432
ຂອງຂ້ອຍ	-5433
▁ສະຫວັນ	-5434
ການຕະຫຼາດ	-5435
▁ອີກເທື່ອນຶ່ງ	-5436
ຼຍ	-5437
▁Sc	-5438
▁ຫນັງ	-5439
ທໍານຽມ	-5440
ບໍ່ດົນ	-5441
▁ປະສານ	-5442
▁ເລຂາທິການ	-5443
▁ທີ່ຕ້ອງການ	-5444
ett	-5445
ທ້າຍປີ	-5446
▁Buck	-5447
ຟື້ນຟູ	-5448
ຢ່າງມີ	-5449
ເງີນ	-5450
ລິມະສິດ	-5451
ແຟນ	-5452
▁8.	-5453
▁Co	-5454
ກໍ່ໄດ້	-5455
ພ້ອມກັບ	-5456
▁ຈະເປັນ	-5457
▁ເຜີຍແຜ່	-5458
▁ການກໍ່ສ້າງ	-5459
້ຽນ	-5460
onic	-5461
ໄອທີ	-5462
ຕະກໍາ	-5463
▁ສະຫຼຸບ	-5464
ets	-5465
▁San	-5466
▁ເຫມີ	-5467
ແກ້ໄຂບັນຫາ	-5468
▁ໂດຍສະເພາະແມ່ນ	-5469
ສີນ	-5470
ກໍຄື	-5471
ຄະເນ	-5472
▁ໂຫຍ	-5473
ຖ່າຍຮູບ	-5474
ລານີ້	-5475
ຫນຶ່ງຂອງ	-5476
ຮຽກຮ້ອງໃຫ້	-5477
▁ເຈົ້າແຂວງ	-5478
/10	-5479
:30	-5480
ara	-5481
▁Is	-5482
▁Turn	-5483
▁ເຊີດ	-5484
▁Bitcoin	-5485
▁ກະບົດ	-5486
ປະກອບມີ	-5487
ES	-5488
ວີດ	-5489
າວຸ	-5490
▁sh	-5491
▁ກວມ	-5492
ປະກອບການ	-5493
ເຄາະຮ້າຍ	-5494
ເສີມຂະຫຍາຍ	-5495
ຸຍ	-5496
ບາກ	-5497
▁ລະດູ	-5498
ombies	-5499
ຕົ້ນປີ	-5500
ເຄິ່ງ	-5501
ທິສັນຍາ	-5502
ກາລະ	-5503
ຄ່ໍາ	-5504
ລ່ວງ	-5505
▁ທົ່ງ	-5506
▁ກາຍເປັນ	-5507
ei	-5508
ກ້ອນ	-5509
ຖືວ່າ	-5510
ລິບປິນ	-5511
ປະເທດໄທ	-5512
▁Bucket	-5513
▁ອົງການຈັດຕັ້ງ	-5514
▁ອ່ອນ	-5515
▁ກະທໍາ	-5516
ດີເດັ່ນ	-5517
▁ເພື່ອກ	-5518
ັກໂນໂລຢີ	-5519
▁ເມື່ອວັນທີ	-5520
່ວາງ	-5521
▁ປົວ	-5522
▁ສປປລາວ	-5523
▁ຮູ້ສຶກ	-5524
▁ກ້ອນ	-5525
▁ຕ່ໍາ	-5526
▁ວັນນະ	-5527
▁ທ່ານກໍາລັງ	-5528
ໄອຍະການປະຊາຊົນ	-5529
ແທກ	-5530
▁ex	-5531
▁ຫີນ	-5532
▁ຫ່ວງ	-5533
ທໍາການ	-5534
ເລື້ອງ	-5535
ເລື້ອຍໆ	-5536
▁ປະຕິເສດ	-5537
▁ຂຽນເມື່ອ	-5538
ປະຊາທິປະໄຕ	-5539
ມືອ	-5540
ມົງ	-5541
▁ດູດ	-5542
ອະນຸມັດ	-5543
ຊ້ອມ	-5544
▁ຊາບ	-5545
ດີຂຶ້ນ	-5546
▁ກໍາປູ	-5547
ໃນລະດັບ	-5548
▁Twitter	-5549
ໃຫ້ຮູ້ວ່າ	-5550
2.	-5551
ກາຕູນ	-5552
▁Stre	-5553
ແຕ່ວັນທີ	-5554
▁Clinton	-5555
ສົ່ງຂໍ້ມູນ	-5556
6,	-5557
ace	-5558
▁avi	-5559
af	-5560
ກວມ	-5561
▁ຈິ້ນ	-5562
ສັງຫານ	-5563
▁ມາຮອດ	-5564
▁ທີມງານ	-5565
ືກ	-5566
▁ຫມວດທີ່ຂຶ້ນ	-5567
ກະທ	-5568
ຈອງປີ້	-5569
ແບບນີ້	-5570
▁ບັນດານ	-5571
▁ຕັ້ງຫນ້າ	-5572
▁ທີ່ນະຄອນ	-5573
ແຍງ	-5574
rypt	-5575
▁ແຍ້	-5576
▁ແອບ	-5577
▁ພາສີ	-5578
▁Frank	-5579
ປະທັບໃຈ	-5580
ນໍ້າຖ້ວມ	-5581
▁ເລັ່ງ	-5582
▁ແມ່ນມີ	-5583
▁ແຜ່ນດິນ	-5584
ຶ່ອງ	-5585
ປຸງແຕ່ງ	-5586
PP	-5587
ນາໆ	-5588
▁120	-5589
▁ຜ້າ	-5590
ຣີພັບ	-5591
▁ສະເພາະ	-5592
▁ມາເລເຊຍ	-5593
ເນັ້ນຫນັກ	-5594
ຊັ່ນ	-5595
▁ບັບ	-5596
obilet	-5597
ວໍ	-5598
ູມ	-5599
ດັ່ງນີ້	-5600
ມັນເປັນ	-5601
ສໍ້ລາດບັງ	-5602
ວບ	-5603
ວນີ້	-5604
ovworld	-5605
ເວທີປາໄສ	-5606
▁aviobilet	-5607
40	-5608
ປາດ	-5609
ຫັກ	-5610
▁Dr	-5611
▁ຄຸກ	-5612
▁ມີບັນດາ	-5613
▁ຂະບວນການ	-5614
ຂອງເນື້ອຫາ	-5615
▁ຫຼວງພະບາງ	-5616
▁ສະເຫຼີມສະຫຼອງ	-5617
▁ສາຍການບິນຈອງປີ້	-5618
len	-5619
ກັກ	-5620
ຕິດພັນ	-5621
▁ຄວາມຫມັ້ນຄົງ	-5622
ໄວໆ	-5623
ບັນຍາກາດ	-5624
▁ເຂົ້າໃນ	-5625
▁ເຖ	-5626
ສິງກະໂປ	-5627
▁ຮ່ວມກັບ	-5628
▁ເຂົ້າໄປ	-5629
▁ສໍາລັບທ່ານໃດ	-5630
ພໍໃຈ	-5631
ເບົາ	-5632
ສອບສວນ	-5633
▁ສະຫງົບ	-5634
ບັນດາເຜົ່າ	-5635
ໃຫຍ່ທີ່ສຸດ	-5636
28	-5637
▁ນຸ່ງ	-5638
ການເຮັດວຽກ	-5639
ຄວາມເຂົ້າໃຈ	-5640
ables	-5641
▁ເອົາໄປ	-5642
▁ໂຮງຫມໍ	-5643
▁ເຊິ່ງມີ	-5644
ສົມທົບກັບ	-5645
by	-5646
ave	-5647
ເນຍ	-5648
dress	-5649
ຊົ່ວຄາວ	-5650
ຮ່ວມງານ	-5651
ແຜ່ນດິນ	-5652
▁ໄດ້ເປີດ	-5653
ຣັບ	-5654
▁ໄຮ	-5655
▁Tags	-5656
ຄວາມໄວ	-5657
▁ຈັນທະ	-5658
ເທື່ອທີ	-5659
▁ລ້ານກີບ	-5660
ux	-5661
raft	-5662
▁Hol	-5663
▁ຊິນ	-5664
ເລັ່ງ	-5665
ຫນ່ວຍພັກ	-5666
ຫ້ອງວ່າການ	-5667
5.	-5668
ິ້ງ	-5669
ໂນລ	-5670
▁Be	-5671
ຂັບລົດ	-5672
▁ໃນເວລາທີ່	-5673
▁ເກົາຫຼີເຫນືອ	-5674
5,	-5675
ອຟ	-5676
▁Kh	-5677
▁ຈໍ	-5678
ຂອງເຮົາ	-5679
▁ຄາດວ່າ	-5680
▁ອໍານວຍ	-5681
ສະຫນາມບິນ	-5682
▁ພ້ອມດ້ວຍຄະນະ	-5683
▁02	-5684
▁150	-5685
▁ເວັບໄຊທ໌	-5686
▁ການສະຫຼຸບ	-5687
ma	-5688
ຕຸນ	-5689
ລໍຖ້າ	-5690
ສາເຫດ	-5691
ອີຣ່ານ	-5692
▁ມີຜູ້	-5693
ຟ້າອາກາດ	-5694
▁ດາວໂຫລດ	-5695
ງານວາງສະແດງ	-5696
▁Gu	-5697
▁ຫນາ	-5698
ດົນຕີ	-5699
ຂອງຊາວ	-5700
ຍົກສູງ	-5701
ທ່ານໄດ້	-5702
ເປັນຄົນ	-5703
HA	-5704
ແປກ	-5705
ແສນ	-5706
ົກກະ	-5707
ຢາບ້າ	-5708
ປາຍທາງ	-5709
ອັບເດດ	-5710
ປະຕິເສດ	-5711
▁ທິບໍດີ	-5712
ຂອງທັງສອງ	-5713
ປະຈໍາຊາດ	-5714
▁ພົມວິຫານ	-5715
ອິນໂດເນເຊຍ	-5716
LI	-5717
ໂຮ	-5718
ຄຸ້ມ	-5719
▁ໄລ່	-5720
ຊາຊີບ	-5721
▁ເຫຼື	-5722
▁ໂນ້ຍ	-5723
ຄົນນຶ່ງ	-5724
▁ໃນເມືອງ	-5725
ind	-5726
ົ້ານ	-5727
▁Nar	-5728
▁app	-5729
ສັກຢາ	-5730
ອານຸຍາດ	-5731
▁Kissing	-5732
ela	-5733
▁No	-5734
▁is	-5735
ນິທິ	-5736
າວັນ	-5737
ຫລິ້ນ	-5738
ຊັດເຈນ	-5739
▁ເລືອດ	-5740
▁ຂຽນໂດຍ	-5741
▁ຕາມການ	-5742
ດັ່ງນັ້ນ	-5743
ວຽງຈັນໃຫມ່	-5744
▁ໂທລະສັບມືຖື	-5745
▁ອັງ	-5746
ຕຣາລີ	-5747
▁2008	-5748
ແນວທາງ	-5749
▁ບ້ານຊຽງ	-5750
▁ອົງການສືບລັບ	-5751
▁ໄຕ້	-5752
ສະບານ	-5753
ຂອງຊາດ	-5754
ໃຫ້ຜູ້	-5755
ພຣະເຢຊູ	-5756
▁ສໍາພາດ	-5757
ບົດລາຍງານ	-5758
▁ຍຸດທະສາດ	-5759
ລາຄາຖືກຈາກ	-5760
ນັກທ່ອງທ່ຽວ	-5761
ສູບ	-5762
▁(0	-5763
▁07	-5764
ແກຣມ	-5765
▁ເດັ່ນ	-5766
▁ແມ່ນຄໍາ	-5767
▁ບິນລາຄາຖືກຈາກ	-5768
▁ໂຮ	-5769
ລໍາດັບ	-5770
▁ອິສຣາ	-5771
ປະຕິເຫດ	-5772
▁ທ້ອງຖິ່ນ	-5773
??	-5774
ໂຢ	-5775
amb	-5776
ແຫ້ງ	-5777
ເສົ້າ	-5778
າຍຄວາມ	-5779
ີມສະຫລອງ	-5780
▁ຄວາມສາມາດ	-5781
▁ວິກ	-5782
ຖາວອນ	-5783
ທໍາມະ	-5784
ເອເຊຍ	-5785
ການຢ້ຽມຢາມ	-5786
ຢ່າງຕໍ່ເນື່ອງ	-5787
/11	-5788
ສົງໄສ	-5789
▁ເຮັງ	-5790
ປະຊາກອນ	-5791
ສ້າງຊາດ	-5792
▁ຖືກຕ້ອງ	-5793
▁ປະເທດໄທ	-5794
lic	-5795
▁Mac	-5796
▁ແພດ	-5797
▁ສືບສວນ	-5798
ຍັງບໍ່ທັນ	-5799
ຣດ	-5800
row	-5801
ຂີດ	-5802
▁ຍຶດ	-5803
▁ກ້ອງ	-5804
▁ມະຫາຊົນ	-5805
▁ລາຍການສົດ	-5806
ບັນນາທິການໃຫຍ່	-5807
ທາທິການ	-5808
ແຫ່ງລັດ	-5809
ລະບຽບການ	-5810
3.	-5811
ໂດດ	-5812
▁39	-5813
ຫວັນ	-5814
ຍາກໍາ	-5815
▁Mark	-5816
ະນະນໍາ	-5817
ແຂງແຮງ	-5818
ຂັດແຍ່ງ	-5819
ເປັນເອກະພາບ	-5820
ຫຼັບ	-5821
▁ແອນ	-5822
ຟຣິກາ	-5823
ຂຶ້ນມາ	-5824
ເຄົາລົບ	-5825
ລີ້	-5826
ົນທາງ	-5827
▁ງການ	-5828
▁ທີ່ບໍ່	-5829
ທີ່ບໍ່ມີ	-5830
ກອງປະຊຸມໃຫຍ່	-5831
ລອຍ	-5832
ຂອງປີ	-5833
▁Ninja	-5834
ຊົ່ວໂມງ	-5835
ສ້ອມແປງ	-5836
ຂີ້ເຫຍື້ອ	-5837
ົາກ	-5838
ແຂ້ວ	-5839
▁Pap	-5840
▁monsters	-5841
▁ທໍາມະຊາດ	-5842
▁ເນັ້ນຫນັກ	-5843
▁ພາສາອັງກິດ	-5844
ພື້ນຖານໂຄງລ່າງ	-5845
ເອກອັກຄະລັດຖະທູດ	-5846
yp	-5847
ateg	-5848
▁Bak	-5849
-2017	-5850
ປະຫວັດ	-5851
ກໍາເນີດ	-5852
ນັກຂ່າວ	-5853
ໄດ້ມີການ	-5854
ໄປຍັງ	-5855
▁ເຕົ້າ	-5856
▁ຈຸດຫມາຍ	-5857
▁ບ້ານຊຽງຍືນ	-5858
88	-5859
▁Air	-5860
▁hair	-5861
▁ຫນີ້	-5862
ຫນ້າຈໍ	-5863
▁ພຽງແຕ່ທ່ານ	-5864
▁ຫົວຫນ້າກົມ	-5865
▁ກົດຫມາຍວ່າດ້ວຍ	-5866
uss	-5867
▁ປາຍ	-5868
▁ຕໍ່າ	-5869
▁ນັບແຕ່	-5870
▁ບັງຄັບ	-5871
▁ມາກຣົງ	-5872
ລາວສ້າງຊາດ	-5873
ຄວາມຄິດເຫັນ	-5874
ໂຣກ	-5875
ຕະວັດ	-5876
▁ຫົວຂໍ້	-5877
ຂອງອົງການ	-5878
iper	-5879
ຫຼາກ	-5880
ແອັບ	-5881
▁Slo	-5882
▁ໂຮງແຮມ	-5883
▁ຢູ່ແຂວງ	-5884
ໂດຍສະເພາະ	-5885
▁Comments	-5886
▁ທ່ານປະທານປະເທດ	-5887
ຕຶກ	-5888
ສປປ	-5889
▁6,	-5890
▁Cr	-5891
enter	-5892
▁ບ່ອນທີ່	-5893
ກໍາມາທິການ	-5894
ຄ້ວາ	-5895
▁Lou	-5896
ມາຮອດ	-5897
ຄົນລາວ	-5898
▁ພະຍົບ	-5899
▁ຫລາຍໆ	-5900
ID	-5901
TC	-5902
ດຣ	-5903
ຶ່	-5904
ພັງ	-5905
▁iOS	-5906
▁ສອດ	-5907
▁ນັກຮົບ	-5908
▁ເຫດຜົນ	-5909
ກິດຈະການ	-5910
▁ລິຂະສິດ	-5911
ບໍລິຄໍາໄຊ	-5912
OA	-5913
ere	-5914
lob	-5915
ຄ່ອຍ	-5916
▁ຊີບ	-5917
▁ລະບຸ	-5918
▁ຫຍາຍ	-5919
ໄດ້ທີ່	-5920
▁ການໃຫ້	-5921
▁ທັງນີ້	-5922
▁ນິສຖານ	-5923
ກົດຫມາຍບ້ານເມືອງ	-5924
66	-5925
▁ASE	-5926
▁Cut	-5927
▁ຖານະ	-5928
▁ປ່ອນ	-5929
ວິນຍານ	-5930
▁ຊຽງຂວາງ	-5931
▁ນ້ໍາມັນ	-5932
ນໍາ້	-5933
▁ແຮ່	-5934
▁ຫນາວ	-5935
ລະຫັດຜ່ານ	-5936
▁ຈໍາປາສັກ	-5937
▁ມາດຕະຖານ	-5938
▁pro	-5939
ຕົວເອງ	-5940
▁ຖືວ່າ	-5941
ລຸ່ມນີ້	-5942
▁ວຽງຈັນທຸລະກິດ	-5943
IS	-5944
▁ຊວນ	-5945
ດີງາມ	-5946
ຮັບມື	-5947
ເຕົ້າ	-5948
▁ສາລະ	-5949
ຄວາມຮັກ	-5950
▁ຄົ້ນຫາ	-5951
▁Monster	-5952
ຢ່າງຫນ້ອຍ	-5953
:5	-5954
ໄຟຟ	-5955
ຍ້ອງຍໍ	-5956
ສົມຄວນ	-5957
ດໍາເນີນງານ	-5958
ສຸກເສີນຕ່າງໆ	-5959
ict	-5960
້ອາ	-5961
ຖະກະ	-5962
▁ແລງ	-5963
ທີ່ວ່າ	-5964
▁ຫຼາຍໆ	-5965
ດຽວກັນກັບ	-5966
ທີ່ສວຍງາມ	-5967
▁ສ້າງຕັ້ງ	-5968
▁ເລີ່ມຕົ້ນ	-5969
▁ໃນການຊ່ວຍເຫຼືອ	-5970
ໂຈ	-5971
▁ປັ່ນ	-5972
▁ເສລີ	-5973
ຕັດໃຫມ່	-5974
▁ຕະຫລອດ	-5975
ຂໍອານຸຍາດ	-5976
ສະຫະພັນແມ່ຍິງ	-5977
ກົດຫມາຍວ່າດ້ວຍ	-5978
ຢືມ	-5979
ແອລ	-5980
ions	-5981
▁ຊຸກ	-5982
▁ຜົມ	-5983
▁ຊ້າງ	-5984
▁tables	-5985
ຍົກລະດັບ	-5986
ສສ	-5987
ໍ່ໆ	-5988
▁ປົດ	-5989
▁ຫ້າ	-5990
ເຮັດງານ	-5991
▁ປີກ່ອນ	-5992
▁ການພົວພັນ	-5993
▁ຕິດຕາມທາງ	-5994
▁ຮອງຜູ້ອໍານວຍການ	-5995
▁Ac	-5996
▁ກັກ	-5997
▁ໃຫ້ມີ	-5998
ຈະສາມາດ	-5999
ແຂ່ງລົດ	-6000
▁ຜູ້ຊາຍ	-6001
ຫົວຫນ່ວຍ	-6002
ໃນລະຫວ່າງ	-6003
▁ໃນນະຄອນຫຼວງ	-6004
▁່	-6005
ode	-6006
ນຶກ	-6007
ໄຕ້	-6008
ໃຫ້ເກີດ	-6009
▁ວຽກງານກູ້ໄພ	-6010
ຄູນ	-6011
ບົກ	-6012
▁ພູມ	-6013
▁ແລະມີ	-6014
ຈະມາເຖິງ	-6015
ທີ່ຖືກຕ້ອງ	-6016
AP	-6017
ູ່	-6018
ຣາຊ	-6019
ຊີ້ນ	-6020
ຫມາກຜົນ	-6021
▁ດາວໂຫຼດ	-6022
ກໍານົດໄວ້	-6023
▁ບັນດາອົງການ	-6024
ແຖ	-6025
ເຮັງ	-6026
ນາຍົກ	-6027
▁Stein	-6028
່ນສາມາດ	-6029
▁ໄຊຊະນະ	-6030
ຂອບໃຈແກ່	-6031
▁ໃນເວບໄຊ	-6032
ຂອງເນື້ອຫາຕ່າງໆ	-6033
ata	-6034
ປານໃດ	-6035
ລວມທັງ	-6036
▁ອາຈານ	-6037
ທີ່ເຮັດໃຫ້	-6038
ນໍາໃຊ້ໃນທາງ	-6039
▁ຜູ່ປະສົບໄພ	-6040
▁ພຽງແຕ່ທ່ານແຈ້ງ	-6041
ຂ່າວສານບ້ານເມືອງ	-6042
▁ສາມາດສົ່ງຂໍ້ມູນ	-6043
sp	-6044
ivers	-6045
▁VIII	-6046
▁ປະຕູ	-6047
▁ທີ່ຜ່ານ	-6048
▁ປະລິນຍາ	-6049
▁ບໍ່ຜິດຕໍ່	-6050
▁ທ່າ່ນສາມາດ	-6051
▁ໃນເວບໄຊນີ້	-6052
▁ຂໍ້ມູນທຸກຢ່າງ	-6053
▁ທາງທ້ອງຖະຫນົນ	-6054
▁ທີ່ຕ້ອງການລົງ	-6055
ຕົ້ນສະບັບຂໍ້ມູນ	-6056
▁ເຫດສຸກເສີນຕ່າງໆ	-6057
▁ແມ່ນຄໍາຂອບໃຈແກ່	-6058
ເມັດ	-6059
ກັບບັນດາ	-6060
▁ແຂວງສາລະວັນ	-6061
▁ການເລືອກຕັ້ງ	-6062
py	-6063
ລີກ	-6064
▁ແຖ	-6065
ຫຸ້ມ	-6066
▁ຫນັບ	-6067
ປະເຊີນ	-6068
▁ອັຟກາ	-6069
▁ອິນເດຍ	-6070
ບ່າຍວັນທີ	-6071
▁ໄດ້ປະກາດ	-6072
ຂອງສະຫະລັດ	-6073
ັທ	-6074
Man	-6075
▁ຈົບ	-6076
ກ້ວາງ	-6077
▁ຊີວະ	-6078
▁ຖ້າຫາກວ່າທ່ານ	-6079
ani	-6080
▁ເກົາ	-6081
▁ເລີກ	-6082
ຫນ່ວຍງານ	-6083
▁ສາລະວັນ	-6084
ຜະ	-6085
ມອບຫມາຍ	-6086
▁Street	-6087
DF	-6088
ອັຟ	-6089
ຄລິກ	-6090
▁ຝົນ	-6091
▁ເຈີ່ນ	-6092
▁ຄວບຄຸມ	-6093
ການເປັນຢູ່	-6094
▁Sm	-6095
▁ທຽມ	-6096
▁ແລກ	-6097
▁ປິ່ນ	-6098
▁ດໍາລົງ	-6099
4.	-6100
ງ່	-6101
▁ທະນ	-6102
ມາວ່າ	-6103
ຄະແນນສຽງ	-6104
▁ບ້ານຫນອງບຶກ	-6105
ຕັດໃຫມ່ຫນອງບຶກ	-6106
Sh	-6107
▁42	-6108
ປື້ມ	-6109
ສໍາປະທານ	-6110
▁ປົກກະຕິ	-6111
▁ເພື່ອເປັນການ	-6112
-18	-6113
ຜັດ	-6114
ສິກອນ	-6115
ີດຄອງ	-6116
▁989.	-6117
ແຊກແຊງ	-6118
▁Cutie	-6119
ລະບຽບກົດຫມາຍ	-6120
▁ບ້ານຫນອງບຶກໃຕ້	-6121
13	-6122
9,	-6123
ັລ	-6124
ond	-6125
ອດນ	-6126
ສັດປ່າ	-6127
ern	-6128
oon	-6129
ຄະລ	-6130
ວັງວຽງ	-6131
ສູງຂຶ້ນ	-6132
ຄຸນສົມບັດ	-6133
▁ຮຽກຮ້ອງໃຫ້	-6134
▁Rap	-6135
ມາໄດ້	-6136
ສືກສາ	-6137
ວົງການ	-6138
ເຂດທະເລ	-6139
▁ການບິນ	-6140
ອົກ	-6141
ວິໄລ	-6142
▁ຕຶກ	-6143
ສະນັ້ນ	-6144
ຄົບຖ້ວນ	-6145
ຊົນນະບົດ	-6146
▁ຢັ້ງຢືນ	-6147
unz	-6148
▁Su	-6149
▁ວຸດ	-6150
▁ຫມາ	-6151
▁ຄວ້າ	-6152
ໂອບາມາ	-6153
▁ສະກັດ	-6154
ຫລາຍກວ່າ	-6155
▁ນັກຂ່າວ	-6156
▁ທຸ	-6157
reat	-6158
▁ນາໆ	-6159
ຄວນຈະ	-6160
ໃນມື້	-6161
ໍານັບ	-6162
ມັງກອນ	-6163
ສະທ້ອນ	-6164
▁ລິ້ງຄ໌	-6165
▁ຮູບແບບ	-6166
ການພະນັນ	-6167
rad	-6168
ິໂອ	-6169
▁EU	-6170
ດິຈິ	-6171
▁ຜູ້	-6172
▁ສໍ້	-6173
ທ່ານນາງ	-6174
ດິນຟ້າອາກາດ	-6175
▁ແຂວງອຸດົມໄຊ	-6176
ິມ	-6177
iam	-6178
ວາດ	-6179
ເຜົາ	-6180
ຕາຕະລາງ	-6181
▁ນີ້ວ່າ	-6182
▁ແຂວງສະຫວັນນະເຂດ	-6183
COM	-6184
ວ່ອງໄວ	-6185
ອິສລາມ	-6186
▁ທີ່ການ	-6187
▁ບັນທຶກ	-6188
ຄໍາຫມັ້ນ	-6189
▁Frankie	-6190
ພວກເຮົາຈະ	-6191
ສະຖານະການ	-6192
und	-6193
ດອງ	-6194
ດີນ	-6195
ຫຸ້ນ	-6196
າທິປະ	-6197
▁ໃຫ້ກຽດ	-6198
son	-6199
ຕະນາ	-6200
▁ແຊກ	-6201
ມະນູນ	-6202
ກັງວົນ	-6203
ເຮັດງານທໍາ	-6204
ຮາ	-6205
ວິໄຈ	-6206
▁ກ້າ	-6207
▁ຊ້າ	-6208
▁ເຄຣນ	-6209
ຖະແຫລງ	-6210
16	-6211
▁ຟູ	-6212
load	-6213
ດ້ອຍ	-6214
ຫ່ວງ	-6215
ໄດ້ຈັດ	-6216
ບໍ່ເຄີຍ	-6217
▁ໂທລະພາບ	-6218
ປະກອບດ້ວຍ	-6219
TO	-6220
amm	-6221
ຍຶດ	-6222
ໂຟນ	-6223
ປ່ອນ	-6224
▁Ang	-6225
ໃຈກາງ	-6226
ເທົ່າໃດ	-6227
▁ຂອງພວກ	-6228
4,	-6229
ຝຸ່ນ	-6230
ັບປັບປຸງ	-6231
▁ສາມັກຄີ	-6232
▁63	-6233
▁ອັກຄະ	-6234
ຕຸນິຍົມ	-6235
ຫຍໍ້ທໍ້	-6236
ົາວະຊົນ	-6237
▁ສອງຝ່າຍ	-6238
▁ສະໄຫມທີ	-6239
▁ເງິນຝາກ	-6240
ຕອງ	-6241
▁ຮາກ	-6242
▁Word	-6243
ເຖິງຄວາມ	-6244
▁ຂໍ້ຄວາມ	-6245
▁ເປັນປະທານ	-6246
2018	-6247
ປະດັບ	-6248
▁ໂຫຍດ	-6249
▁ຢ່າງໃດກໍຕາມ	-6250
IP	-6251
ຂີ	-6252
▁sc	-6253
▁ຈາຍ	-6254
▁ນັດ	-6255
ກະບົດ	-6256
ຊຸດທີ	-6257
ກອງບັນຊາການ	-6258
ດັ່ງກ່າວນີ້	-6259
▁ການຈັດຕັ້ງ	-6260
70	-6261
▁ເຢຍ	-6262
ໄປຕາມ	-6263
ສໍາມະນ	-6264
▁ຍົກສູງ	-6265
▁ລະເບີດ	-6266
▁ຄວາມຮູ້	-6267
ກີລາ	-6268
ມີສິດ	-6269
ຂອງເມືອງ	-6270
ທີ່ສຸດໃນ	-6271
ສິນເຊື່ອ	-6272
ກະຊວງຖະແຫຼງຂ່າວ	-6273
▁ໂດຍການເປັນປະທານ	-6274
ອາສາ	-6275
ແຜນທີ່	-6276
ໄຂ່	-6277
▁Equ	-6278
craft	-6279
▁Serv	-6280
▁ຂວາງ	-6281
▁ບໍາລຸງ	-6282
▁ຜົນການ	-6283
ສະຖານທູດ	-6284
ເມື່ອວັນທີ	-6285
▁Dog	-6286
▁Kim	-6287
ຕັ້ງຄ່າ	-6288
▁ເຫຼືອງ	-6289
ກົດລະບຽບ	-6290
▁ຢູ່ບ້ານ	-6291
▁4,	-6292
▁Cal	-6293
ຈີຕອນ	-6294
ທົກກະ	-6295
▁ທີ່ມາ	-6296
ໃນປະຈຸບັນ	-6297
%,	-6298
າທີ	-6299
ສະຫນົມ	-6300
ເກີດຂື້ນ	-6301
/7	-6302
ests	-6303
ກວ່ານ	-6304
ົບຫນີ	-6305
▁Mine	-6306
້ວນແຕ່	-6307
ຫຼັກຖານ	-6308
▁Naruto	-6309
▁ໂຮ່ຈີມິນ	-6310
▁ຫົວຫນ້າພະແນກ	-6311
ໃຫມ	-6312
່ອມ	-6313
ence	-6314
ແນັດ	-6315
▁ຊັກ	-6316
lobal	-6317
ຮ່ວມກັບ	-6318
▁ຕາເວັນ	-6319
▁ເຫລົ່າ	-6320
▁ນັບຕັ້ງແຕ່	-6321
ດຽ	-6322
▁;	-6323
unzel	-6324
ເວລາດ	-6325
ຄວນຮູ້	-6326
ເຮັດແນວໃດ	-6327
any	-6328
ull	-6329
ພົດ	-6330
udio	-6331
ຄື້ນ	-6332
ໄດ້ດີ	-6333
▁ເຈືອງ	-6334
ຂຶ້ນກັບ	-6335
%.	-6336
sung	-6337
ສັນຍານ	-6338
ໃນອະນາຄົດ	-6339
ໄດ້ຮັບຄວາມ	-6340
▁ປື	-6341
▁ຜິວ	-6342
▁ພາດ	-6343
ຢູ່ບ້ານ	-6344
ຫຼັກຊັບ	-6345
▁ຄໍາມ່ວນ	-6346
າວິສາຫະກິດ	-6347
ແຫ່ງຊາດລາວ	-6348
▁05	-6349
▁ad	-6350
edia	-6351
▁ພຊສ	-6352
ລາຈອນ	-6353
ໃຫມ່ຂອງ	-6354
▁ຮູ້ຈັກ	-6355
▁ເຕັກນິກ	-6356
ດ້ານເສດຖະກິດ	-6357
ຫວັດດີການສັງຄົມ	-6358
▁ກະຊວງສຶກສາທິການ	-6359
ame	-6360
▁ລີມ	-6361
▁ຜູ້ນ	-6362
▁ສ້າງຄວາມ	-6363
▁ແມ່ນຫຍັງ	-6364
con	-6365
ຊະນ	-6366
ັ໋ງ	-6367
▁De	-6368
ເບ້ຍ	-6369
▁ປຽບ	-6370
▁ຍຸຕິ	-6371
ພັກເມືອງ	-6372
ຫຼາກຫຼາຍ	-6373
ທີ່ໃຊ້ເວລາ	-6374
▁ເພື່ອເຮັດໃຫ້	-6375
ເລົ່າ	-6376
ບັນຍັດ	-6377
▁ວັດຖຸ	-6378
ຍົກຍ້າຍ	-6379
ທາງອາກາດ	-6380
▁Rapunzel	-6381
ທີ່ຍິ່ງໃຫຍ່	-6382
▁ແຂວງຫຼວງພະບາງ	-6383
200	-6384
▁ຈັງ	-6385
▁ປຸກ	-6386
ຢູ່ເຂດ	-6387
▁ເຄັ່ງ	-6388
▁ໃຫ້ເປັນ	-6389
▁ນັ້ນແມ່ນ	-6390
".	-6391
ນໍ	-6392
ແອບ	-6393
▁Koh	-6394
ບໍ່ດີ	-6395
ພິການ	-6396
▁ປຶ້ມ	-6397
▁ປຸ່ນ	-6398
ອະນຸລັກ	-6399
ຄວາມສ່ຽງ	-6400
ລັດຖະສະພາ	-6401
▁ຂອງຣັດເຊຍ	-6402
▁ໄດ້ຈັດພິທີ	-6403
▁ຍິນດີຕ້ອນຮັບ	-6404
▁en	-6405
uter	-6406
▁Pie	-6407
▁ກິມ	-6408
▁ງົດ	-6409
▁ລອນ	-6410
ສະເຫລ	-6411
ດ່ານັ້ງ	-6412
▁ແມ່ນໄດ້	-6413
ຫົວຮຸນແຮງ	-6414
▁ເຄື່ອນໄຫວ	-6415
ອົດ	-6416
▁Pet	-6417
▁kids	-6418
MA	-6419
▁As	-6420
▁ຝາກ	-6421
▁ພອມ	-6422
iller	-6423
▁ວໍລະ	-6424
▁ອາຄານ	-6425
ໃຫ້ຄວາມ	-6426
ໃຫ້ມີຄວາມ	-6427
era	-6428
ສາຂາ	-6429
ະລາດ	-6430
▁ISS	-6431
▁ຂີດ	-6432
ຫມາຍເຖິງ	-6433
▁ເກມແຂ່ງລົດ	-6434
▁ເລຂາທິການໃຫຍ່	-6435
ອລ	-6436
ube	-6437
ທຽນ	-6438
estria	-6439
▁Mario	-6440
ໃນບັນດາ	-6441
ເຊິ່ງກັນ	-6442
▁English	-6443
▁ສັບປະດາ	-6444
ອູ	-6445
ສະຖາ	-6446
▁ອາຊີບ	-6447
-5	-6448
ors	-6449
▁06	-6450
▁ດັນ	-6451
▁ຮົບ	-6452
ທໍາມະນູນ	-6453
ເລັກນ້ອຍ	-6454
nt	-6455
ium	-6456
▁He	-6457
▁Wh	-6458
ebob	-6459
ກົນໄກ	-6460
ທັງຫຼາຍ	-6461
ຂ້າງຫນ້າ	-6462
▁ຊາວຫນຸ່ມ	-6463
ທີ່ຕ້ອງການ	-6464
▁Equestria	-6465
▁ຕອນເຊົ້າວັນທີ	-6466
ເນົາ	-6467
▁ມ້າ	-6468
▁ສະດ	-6469
▁ອາຍ	-6470
anews	-6471
ເລື່ອນ	-6472
ໄປແລ້ວ	-6473
ພັກຜ່ອນ	-6474
ສັບປະດາ	-6475
ເງິນສົດ	-6476
ຈົດທະບຽນ	-6477
▁Zombies	-6478
ເວັບໄຊທ໌ຂອງທ່ານ	-6479
MB	-6480
▁dog	-6481
ພາຫະນະ	-6482
▁ສອບຖາມ	-6483
▁ປາຊີຟິກ	-6484
▁ກ່າວຄໍາເຫັນທີ່	-6485
ບົວ	-6486
ເຫມ	-6487
ໂຕນ	-6488
▁Sw	-6489
▁ມຊ	-6490
ສ່ອງ	-6491
▁Haz	-6492
ອະນາໄມ	-6493
▁ເຂົ້າມາ	-6494
ຄວາມຮຸນແຮງ	-6495
/09	-6496
▁ໄດ	-6497
▁ໄກ່	-6498
ປະຢັດ	-6499
▁ເງົາ	-6500
ຫຼັກການ	-6501
▁Spongebob	-6502
ແລະມີ	-6503
ພິພາກສາ	-6504
▁ຮ່າງກາຍ	-6505
ທີ່ພວກເຮົາ	-6506
ຂຸ້ນ	-6507
▁eat	-6508
▁ທີ່ທ່ານ	-6509
▁ອາເມຣິກັນ	-6510
▁ການປະຕິບັດ	-6511
mp	-6512
ົ໋	-6513
ນໍາມາ	-6514
▁ສີສັນ	-6515
▁Sniper	-6516
ເຢຍລະມັນ	-6517
▁ເປັນທີ່	-6518
ບວກ	-6519
▁ນູ	-6520
ສັດຕູ	-6521
ການຈັດ	-6522
ຈະແຈ້ງ	-6523
ຫຼືບໍ່	-6524
ສະພາສູງ	-6525
▁ລ້ານຄົນ	-6526
▁ບັນດານັກ	-6527
▁ຢູ່ນະຄອນ	-6528
ທ່ອງທ່ຽວລາວ	-6529
▁ກອງປະຊຸມສຸດຍອດ	-6530
ຖີ	-6531
ເຫວ	-6532
ແຄນ	-6533
▁ຟ້າມ	-6534
▁ຫລັບ	-6535
ສະຫະພາບ	-6536
▁Posted	-6537
ນໍາເຂົ້າ	-6538
ສັນຍາລັກ	-6539
▁ກອງປະຊຸມໃຫຍ່	-6540
ໄດ້ຮັບຜົນກະທົບ	-6541
▁PST	-6542
▁ປຶກ	-6543
▁ແຂ້ວ	-6544
ຂອງກະຊວງ	-6545
ສະມາຊິກພັກ	-6546
▁ບັນດາປະເທດ	-6547
14	-6548
26	-6549
9)	-6550
VN	-6551
ສພ	-6552
TAR	-6553
▁Put	-6554
ກໍາໄລ	-6555
ທິພົນ	-6556
ລົງມາ	-6557
ເຮືອງ	-6558
▁Blog	-6559
ນີ້ໄດ້	-6560
ຄືນໃຫມ່	-6561
ລົດໃຫຍ່	-6562
▁ເກມເກມ	-6563
ຈ່າຍເງິນ	-6564
ສ່ວນຫຼາຍ	-6565
unn	-6566
ປອມ	-6567
▁ເລຍ	-6568
ທ່າແຮງ	-6569
ົດເຊີຍ	-6570
▁ຫຼັກສູດ	-6571
▁ຮອງເລຂາ	-6572
irt	-6573
ຫນົມ	-6574
▁PSTV	-6575
▁ເຄືອ	-6576
▁ໄວຣັສ	-6577
ດີຈີຕອນ	-6578
ລະບຽບຮຽບຮ້ອຍ	-6579
▁ແມນ	-6580
ຕໍ່ມາ	-6581
▁ພົ້ນ	-6582
ສໍາພັດ	-6583
▁ປປ	-6584
ikor	-6585
ແລ້ວກ	-6586
▁ຫຼວດ	-6587
▁ບາຣັກ	-6588
ວັດທະນາ	-6589
▁໒໐	-6590
ທ່ຽງ	-6591
ຂ້າພະ	-6592
ກັບຜູ້	-6593
ວີໂອເອ	-6594
ມືແຮງງານ	-6595
າກ່ຽວກັບ	-6596
▁ພິພາກສາ	-6597
▁ແມ່ນການ	-6598
ມີຄວາມສຸກ	-6599
▁Minecraft	-6600
ຮຽກ	-6601
ຫນົດ	-6602
ຫມວດ	-6603
▁Papa	-6604
ສະຫມອງ	-6605
▁Sonic	-6606
▁ໄກສອນ	-6607
ພື້ນເມືອງ	-6608
▁ອັນຕະລາຍ	-6609
ເດັກນ້ອຍຊາຍ	-6610
▁ແຂວງບໍ່ແກ້ວ	-6611
77	-6612
ພາຍຸ	-6613
▁ຫມີ	-6614
ພະຈິກ	-6615
ມາຍັງ	-6616
dresser	-6617
ຂອງກຸ່ມ	-6618
ສາຍການບິນ	-6619
-12	-6620
ກິ່ງ	-6621
▁ລຸນ	-6622
▁ຈິ່ງ	-6623
▁Hazel	-6624
▁ເຄິ່ງ	-6625
ຂົ່ມຂູ່	-6626
▁ທີ່ວ່າ	-6627
▁ຫງວຽນທ	-6628
▁ທັງຫຼາຍ	-6629
ສາຍີ່ປຸ່ນ	-6630
ເຈີ	-6631
▁ຄາມ	-6632
▁ຫມໍ	-6633
ງານບຸນ	-6634
▁ຟຣິກາ	-6635
▁ສູ້ກັນ	-6636
ຄວາມພະຍາຍາມ	-6637
ກະແສ	-6638
ດູແລ	-6639
ມຸ່ງ	-6640
▁ໂປຣ	-6641
ອິດສະ	-6642
▁ຖ້ວມ	-6643
ທີ່ຕັ້ງ	-6644
ບາດກ້າວ	-6645
ຂອງລູກຄ້າ	-6646
▁ຫລຸດຜ່ອນ	-6647
ທີ່ທ່ານຕ້ອງການ	-6648
RI	-6649
ລູ	-6650
ປິກ	-6651
ສາບ	-6652
▁El	-6653
▁ມູ	-6654
ເບີກ	-6655
ສໍາຮອງ	-6656
ສ້າງສັນ	-6657
ໃນທົ່ວໂລກ	-6658
ຊຸດປະຈໍາຊາດ	-6659
▁04	-6660
ນາທີ	-6661
ປຶ້ມ	-6662
▁ຫນີ	-6663
ຄຸມຂັງ	-6664
▁ຊ່ຽວຊານ	-6665
▁ປະເທດຊາດ	-6666
▁ແຕ່ຢ່າງໃດ	-6667
▁ຫນ່ວຍກູ້ໄພ	-6668
ເພື່ອເຮັດໃຫ້	-6669
TM	-6670
ກຸ	-6671
▁34	-6672
▁Tim	-6673
ຈຸດສຸມ	-6674
ທະເລຈີນ	-6675
ຜົ້ງສາລີ	-6676
▁Samsung	-6677
▁ຢ່າງຫນ້ອຍ	-6678
ບັນດາຜົນງານ	-6679
/3	-6680
==	-6681
lex	-6682
ໂຈະ	-6683
▁5,	-6684
▁Sk	-6685
ount	-6686
ວາລະ	-6687
▁ໂຍງ	-6688
ຂອງສານ	-6689
ສະວະກໍາ	-6690
ເອກະລາດ	-6691
ກໍາມະກອນ	-6692
▁ອະນຸມັດ	-6693
▁ເຫັນວ່າ	-6694
▁ອະທິປະໄຕ	-6695
▁ຄະນະປະຈໍາ	-6696
▁ຄະນະບໍລິຫານງານ	-6697
19	-6698
SS	-6699
/12	-6700
ແທງ	-6701
ຈໍາລ	-6702
ຜົນການ	-6703
ພາຍນອກ	-6704
ໄດ້ວ່າ	-6705
▁ອັບເດດ	-6706
ສ່ວນບຸກຄົນ	-6707
TT	-6708
▁ທໍ່	-6709
▁ຟຸກ	-6710
▁ເບີ	-6711
▁ຝັ່ງ	-6712
▁ເຊີ່ງ	-6713
▁ສະຖານີ	-6714
▁ເຄົາລົບ	-6715
▁ການຜະລິດ	-6716
▁ເພື່ອສ້າງ	-6717
▁ສະແດງໃຫ້ເຫັນ	-6718
ຖີບ	-6719
ຣນິກ	-6720
ັ່ງມີ	-6721
▁Power	-6722
▁ຊະນິດ	-6723
▁ບໍ່ໃຫ້	-6724
ຖະແຫຼງການ	-6725
ທີ່ຈໍາເປັນ	-6726
ສະເຫລີມສະຫລອງ	-6727
ກະດ	-6728
▁ກອມ	-6729
ໄດ້ໃນ	-6730
ການໃຊ້	-6731
▁ພຣະອົງ	-6732
ມ່ວນຊື່ນ	-6733
ລ້ານຊ້າງ	-6734
▁ເຊິ່ງໄດ້	-6735
ແຈກ	-6736
▁ຂີ່	-6737
▁ນິຕິ	-6738
ຄໍາສັບ	-6739
▁ໃນນະຄອນ	-6740
ຜິດກົດຫມາຍ	-6741
▁ປົກປັກຮັກສາ	-6742
▁198	-6743
ຍັງຄົງ	-6744
ພວກເຂົ	-6745
▁ສິລະປະ	-6746
ຮຸ່ງ	-6747
▁Ser	-6748
▁ແກ່ນ	-6749
▁ມານີ້	-6750
ປະຕິຮູບ	-6751
▁ໃນຂະນະ	-6752
ພຣະຄໍາພີ	-6753
▁ຮອບດ້ານ	-6754
EN	-6755
▁ຂດ	-6756
ບັ້ນ	-6757
▁ແລນ	-6758
າວຸໂສ	-6759
▁ປ້າຍ	-6760
▁ຄຸນນະພາບ	-6761
ຕິກອງປະຊຸມ	-6762
▁ການປ່ຽນແປງ	-6763
▁hairdresser	-6764
▁ໂຄງການກໍ່ສ້າງ	-6765
ຜີ	-6766
rop	-6767
ດ່ຽວ	-6768
▁ບຽນ	-6769
edding	-6770
▁ແລະໄດ້	-6771
▁ຂໍຂອບໃຈ	-6772
ເທບ	-6773
▁99	-6774
▁Gal	-6775
▁ນົກ	-6776
ຊື່ວ່າ	-6777
▁Louie	-6778
▁Mobile	-6779
▁ເຊີດຊູ	-6780
▁ອຸດົມໄຊ	-6781
▁ຄວາມເຫັນ	-6782
ທີ່ຫນ້າສົນໃຈ	-6783
ພາວະ	-6784
ລັອກ	-6785
ມາແລ້ວ	-6786
ສົກຮຽນ	-6787
▁Grand	-6788
ຊະນະເລີດ	-6789
ແມ່ນໍ້າຂອງ	-6790
▁ເຫຼົ່ານີ້	-6791
▁ການເດີນທາງ	-6792
ແນວລາວສ້າງຊາດ	-6793
▁Ge	-6794
ຫມູນ	-6795
ເສື້ອ	-6796
▁ເສີນ	-6797
ຄໍາເວົ້າ	-6798
ທົກກະສາດ	-6799
▁ລັດຖະສະພາ	-6800
ກຽວ	-6801
▁9.	-6802
▁ຟິ	-6803
ency	-6804
ຫລາຍໆ	-6805
▁ການສະ	-6806
ພວກທ່ານ	-6807
▁ຕີລາຄາ	-6808
ຍັງສາມາດ	-6809
ຢູ່ພາຍໃນ	-6810
▁ຮ້ານອາຫານ	-6811
▁ໃນກອງປະຊຸມ	-6812
lad	-6813
ver	-6814
ລ້າ	-6815
ຫາງ	-6816
ຈິມິນ	-6817
▁້ເກມ	-6818
ກັນກັບ	-6819
▁Kikor	-6820
▁Quests	-6821
vovworld	-6822
ົດສະຕຣາລີ	-6823
▁Kikoriki	-6824
▁ເກມກາຕູນ	-6825
ການເຊື່ອມຕໍ່	-6826
▁ຍິງສໍາລັບສອງ	-6827
▁ສູ້ກັນສໍາລັບສອງ	-6828
▁ເກມສໍາລັບທັງສອງ	-6829
zh	-6830
▁Se	-6831
ຊຸມນຸມ	-6832
▁ຂໍໃຫ້	-6833
▁ປີນີ້	-6834
ເພື່ອສ້າງ	-6835
▁ຢູ່ເມືອງ	-6836
▁ເຊື້ອຊາດ	-6837
ດ້ານເນື້ອໃນ	-6838
500	-6839
ດົມ	-6840
ໄຂ້	-6841
▁ເຢັນ	-6842
ເຈລະຈາກ	-6843
ຕື່ນເຕັ້ນ	-6844
ເປີດກວ້າງ	-6845
ໃນຂະນະທີ່	-6846
▁ໃນຂອບເຂດ	-6847
ທີ່ໄດ້ຮັບການ	-6848
▁ຈິ	-6849
ical	-6850
▁ປາບ	-6851
▁ອານາ	-6852
ແລ້ວນີ້	-6853
▁ຊົມເຊີຍ	-6854
ເຄື່ອງຫມາຍ	-6855
▁ຖ້າຫາກວ່າ	-6856
▁ງານວາງສະແດງ	-6857
ຂໍ້ມູນກ່ຽວກັບ	-6858
ຮັດ	-6859
▁ມໍ	-6860
ຫນ້ານ	-6861
▁ລະຫັດ	-6862
▁Surfers	-6863
ພາລະບົດບາດ	-6864
ເຊື່ອຫມັ້ນ	-6865
ິຕິ	-6866
ໃຊ້ອ	-6867
▁ມຸ່ງ	-6868
ຕໍາຫລວດ	-6869
▁ຜ່ານການ	-6870
▁ອະທິບາຍ	-6871
ປະຕິວັດລາວ	-6872
ເຕັມໄປດ້ວຍ	-6873
ຊັງ	-6874
ຣາດ	-6875
ທະພັນ	-6876
ນັກຮົບ	-6877
ອວຍພອນ	-6878
▁ຄວາມງາມ	-6879
▁ເປັນເວລາ	-6880
ສົ່ງເສີມການ	-6881
▁STAR	-6882
ຄໍາຕອບ	-6883
ພົ້ນເດັ່ນ	-6884
au	-6885
yn	-6886
ຫິດ	-6887
ຸງການ	-6888
▁ຊື່ນ	-6889
ນໍາກັນ	-6890
ບາງຄົນ	-6891
ຂອງຄວາມ	-6892
ຫມູ່ບ້ານ	-6893
▁ຂົ່ມຂູ່	-6894
▁ຜູ້ກ່ຽວ	-6895
▁ວິໄສທັດ	-6896
▁ຄໍາແນະນໍາ	-6897
▁ມາຢ້ຽມຢາມ	-6898
ກົມການເມືອງ	-6899
ool	-6900
ຈອມ	-6901
ຊາກ	-6902
ຊີງ	-6903
ານີ້	-6904
ື້ອນ	-6905
ແທ້ໆ	-6906
▁Har	-6907
▁ຍຸກ	-6908
▁ຫວັນ	-6909
ກົດດັນ	-6910
▁ໃນຖານະ	-6911
▁ໄປສະນີ	-6912
ທີ່ທ່ານສາມາດ	-6913
ier	-6914
ໂມນ	-6915
ມານະ	-6916
▁ລົ້ມ	-6917
ເຕະບານ	-6918
ນ້ໍາມັນ	-6919
ຫຼາຍກ່ວາ	-6920
▁ມັດທະຍົມ	-6921
▁ເຮືອນເລກທີ	-6922
CE	-6923
ຕຶງ	-6924
ຫໍ້	-6925
ຍື່ນ	-6926
ກັນຍາ	-6927
ສົກປີ	-6928
ເປົ້າ	-6929
ດອກໄມ້	-6930
ລະດັບສູງ	-6931
ເອເລັກໂຕ	-6932
▁ຕໍ່ຫນ້າ	-6933
ປະດິດສ້າງ	-6934
▁ຂອງປະເທດ	-6935
▁ວິສາຫະກິດ	-6936
ຫມາຍຄວາມວ່າ	-6937
ສະຫນິດສະຫນົມ	-6938
▁ຄວາມຄິດເຫັນ	-6939
▁ແຂວງຈໍາປາສັກ	-6940
▁(←	-6941
▁Rep	-6942
ເພື່ອກ	-6943
ໄຟຟ້ານ	-6944
▁ເລົ່າ	-6945
▁tattoo	-6946
▁ອົດສະຕາລີ	-6947
ພົມ	-6948
ທໍລະ	-6949
ຄືກັບ	-6950
ມາເລຍ	-6951
▁Putin	-6952
▁ຄົນທີ່	-6953
▁ຕະຫລາດ	-6954
▁ແຮງງານ	-6955
ເປັນຢ່າງດີ	-6956
ເກີ	-6957
▁you	-6958
▁ຄວາ	-6959
ights	-6960
▁World	-6961
▁ສະດວກ	-6962
▁ແນໃສ່	-6963
▁ພັດທະນ	-6964
▁ໄດ້ລົງ	-6965
ເຂົ້າກັບ	-6966
ສໍາລັບຜູ້	-6967
▁ສະລັອດຕິງ	-6968
ດໍາເນີນຄະດີ	-6969
ອີເມວຂອງທ່ານ	-6970
▁ການຄ້າມະນຸດ	-6971
▁ໃນລະຫວ່າງວັນທີ	-6972
ົລ	-6973
▁ຈອນ	-6974
ອດຖອນ	-6975
▁ເເລະ	-6976
▁ແຫຼງ	-6977
▁ແລ້ວນ	-6978
▁ຢູ່ລາວ	-6979
ຫນູນຊ່ວຍ	-6980
າມາດຕະການ	-6981
ເນື່ອງຈາກ	-6982
▁ບໍ່ສາມາດ	-6983
ການຫຍໍ້ທໍ້	-6984
▁ໄດ້ຈັດກອງປະຊຸມ	-6985
AR	-6986
▁ຕູ	-6987
▁ຍົງ	-6988
ານນີ້	-6989
irates	-6990
ຊີ້ວັດ	-6991
▁ຄັ້ງນີ້	-6992
▁ທີ່ແຂວງ	-6993
▁ບາດເຈັບ	-6994
▁ບໍລິຈາກ	-6995
▁ອຸທົກກະສາດ	-6996
▁ເພື່ອແນໃສ່	-6997
ຕາກ	-6998
ລິຍາ	-6999
▁ໂດດ	-7000
ຄົນນີ້	-7001
ຮອງຮັບ	-7002
▁ເຕັ້ນ	-7003
ຈະລາຈອນ	-7004
ດາວໂຫລດ	-7005
▁ຈັດການ	-7006
▁ຄໍາເຫັນ	-7007
▁ຮຽນຮູ້ກ່ຽວກັບ	-7008
ອໍານວຍຄວາມສະດວກ	-7009
▁ຂະແຫນງທ່ອງທ່ຽວ	-7010
:0	-7011
ON	-7012
▁64	-7013
▁IP	-7014
▁Res	-7015
▁ຈິນ	-7016
ໄກ່ເກ	-7017
ຄ້າຂາຍ	-7018
▁ຖະແຫຼງ	-7019
ຂໍ້ສະເຫນີ	-7020
ສະລັອດຕິງ	-7021
▁ສື່ມວນຊົນ	-7022
ໃນທົ່ວປະເທດ	-7023
▁ຂອງສະຫະລັດ	-7024
▁ສະຫະປະຊາຊາດ	-7025
ົສ	-7026
ຜົວ	-7027
▁ຣະ	-7028
▁ອນ	-7029
ຖັ໋ງ	-7030
ີໂດຍ	-7031
ໂຫຍດ	-7032
▁ປວດ	-7033
ບັນທຸກ	-7034
▁ອົບຮົມ	-7035
ຢືນຢັນວ່າ	-7036
▁o	-7037
ida	-7038
ປາມ	-7039
▁ດິບ	-7040
▁ນີວ	-7041
ລວມມີ	-7042
ມືອາຊີບ	-7043
▁ຍັງບໍ່	-7044
ສໍ້ລາດບັງຫຼວງ	-7045
8)	-7046
ນຍ	-7047
ase	-7048
ຟົດ	-7049
ບິ່ງ	-7050
ພວກເຮົາກ	-7051
hy	-7052
low	-7053
ຣີສ	-7054
ະຊວງ	-7055
▁ບັ້ນ	-7056
▁ແຕ້ມ	-7057
ລັກລອບ	-7058
ບ່ອນທີ່	-7059
ອົບອຸ່ນ	-7060
ຂອງແຕ່ລະ	-7061
ປະຈໍາການ	-7062
ບົດບັນທຶກ	-7063
▁ການອອກແບບ	-7064
ມ້າ	-7065
▁ນວ	-7066
▁5/5)	-7067
ຜູ້ຄົນ	-7068
ພາບພົດ	-7069
ສອບຖາມ	-7070
ການໂຫວດ	-7071
▁ທີ່ສຸດ	-7072
▁ສົມບັດ	-7073
ເຊັ່ນກັນ	-7074
ຂຶ້ນໃນວັນທີ	-7075
ເຕີບໂຕຢ່າງແຮງ	-7076
be	-7077
urr	-7078
▁GDP	-7079
▁ເຊີຍ	-7080
▁magic	-7081
ກະສິກອນ	-7082
▁ຫົວພັນ	-7083
ຢ່າງຫຼວງຫຼາຍ	-7084
ane	-7085
ລຸດ	-7086
▁00	-7087
▁ເຊີ	-7088
ແຫລ່ງ	-7089
▁ກະຈາ	-7090
ຂອງກາງ	-7091
ສະຫຼາດ	-7092
ພະເຈົ້າ	-7093
▁ເພື່ອເປັນ	-7094
▁ຫົວຫນ້າຄະນະ	-7095
ກອບ	-7096
ຫມູ	-7097
ance	-7098
ລະຍາ	-7099
ຫວາດ	-7100
ເຄຼຍ	-7101
ເດີ້	-7102
▁Des	-7103
▁pre	-7104
ຫຼ່ຽມ	-7105
ພາກກາງ	-7106
ແມ່ນໄດ້	-7107
▁ແລະທ່ານ	-7108
ເດີນທາງໄປ	-7109
ສໍາລັບທ່ານ	-7110
▁ປຶກສາຫາລື	-7111
▁(15)	-7112
ບອກວ່າ	-7113
ຂອງຄະນະ	-7114
ຄົ້ນພົບ	-7115
▁ຍອມຮັບ	-7116
▁ບັນດາກ	-7117
▁ຄະນະພັກ	-7118
ອອກແຮງງານ	-7119
de	-7120
ຜົມ	-7121
ຣົດ	-7122
ແຈງ	-7123
▁65	-7124
▁ຣັຖ	-7125
▁ແຄມ	-7126
▁Park	-7127
▁ຍສຽງ	-7128
▁ດັ້ງ	-7129
▁ແລ້ວກ	-7130
ໃນມື້ນີ້	-7131
▁ຂ່າວທ້ອງຖິ່ນ	-7132
ya	-7133
ala	-7134
ກົວ	-7135
ອີຣັກ	-7136
ທີ່ສະແດງ	-7137
ໃນພາກພື້ນ	-7138
ຫຼັງຈາກນັ້ນ	-7139
ມ໌	-7140
ໂຫ	-7141
ສະດາ	-7142
▁ທ່ຽງ	-7143
▁ຫນາດ	-7144
ສະຖານີ	-7145
▁ການປະ	-7146
▁ສະຫມອງ	-7147
▁ເມຣິກາ	-7148
ອັນດີງາມ	-7149
ໃຫຍ່ຫຼວງ	-7150
▁ປະຊາທິປະ	-7151
▁Pe	-7152
▁Rob	-7153
ຢ່າງເປັນ	-7154
ັບປຸງການ	-7155
▁ແຂວງອັດຕະປື	-7156
▁Hu	-7157
ຫລານ	-7158
ເດັນ	-7159
▁ໄດ້ຈັດຕັ້ງ	-7160
▁ລັດວິສາຫະກິດ	-7161
▁41	-7162
ບູຊາ	-7163
ລິ້ນ	-7164
▁ຂ່າຍ	-7165
ຈະໄດ້ຮັບການ	-7166
2)	-7167
-10	-7168
onn	-7169
▁IC	-7170
▁ຜ່າ	-7171
ບັນຈຸ	-7172
▁Free	-7173
▁ຢູ່ເຂດ	-7174
▁ສະຫລອງ	-7175
▁ສຸດທ້າຍ	-7176
ການເຕີບໂຕ	-7177
ຜົນກະທົບຕໍ່	-7178
ຮ່າງກົດຫມາຍ	-7179
ັ້	-7180
ບອດ	-7181
ຕໍາລ	-7182
ຍິນດີ	-7183
▁ເຄັດ	-7184
ຢູ່ລາວ	-7185
ຄວາມເຫັນ	-7186
▁ຂະຫຍາຍຕົວ	-7187
ທະເລຕາເວັນອອກ	-7188
ປະສົບຜົນສໍາເລັດ	-7189
ຮີບ	-7190
▁48	-7191
▁ຮູ	-7192
ສະຫງ	-7193
ແຟ້ນ	-7194
▁ຖົງ	-7195
▁ລອດ	-7196
▁ງ່າຍໆ	-7197
ກະຈາຍສຽງ	-7198
▁ເອກະຊົນ	-7199
ສະກຸນເງິນ	-7200
ສະບັບປັບປຸງ	-7201
6.	-7202
ຮູ	-7203
ຊິນ	-7204
▁Sat	-7205
▁ກົວ	-7206
▁ອົດ	-7207
▁ເມີດ	-7208
ກໍາແພງ	-7209
▁ດາລາຍ	-7210
ຄ່າທໍານຽມ	-7211
ີດຄອງປະເພນີ	-7212
▁ຂອງພວກເຮົາ	-7213
▁ອະທິປະໄຕເຂດທະເລ	-7214
bag	-7215
rist	-7216
ສັງລວມ	-7217
ພຶດສະພາ	-7218
ເຕັມທີ່	-7219
▁ບໍ່ແຮ່	-7220
ຕໍ່ໄປນີ້	-7221
▁ແມ່ນ້ໍາ	-7222
ການໃຊ້ງານ	-7223
ອາເມຣິກັນ	-7224
▁ຂອງອົງການ	-7225
▁ຮອງລັດຖະມົນຕີ	-7226
PS	-7227
osh	-7228
ourg	-7229
ກັ່ນ	-7230
ເກັດ	-7231
aster	-7232
ພາກລັດ	-7233
ະນະນີ້	-7234
ownload	-7235
ໄວຫນຸ່ມ	-7236
▁ຄໍາຖາມ	-7237
ຢູ່ໃນການ	-7238
ການໂຄສະນາ	-7239
ເຕັກໂນໂລຢີ	-7240
ທີ່ມີຊື່ສຽງ	-7241
▁ເປັນຕົ້ນແມ່ນ	-7242
ຫນັງສືພິມສຶກສາ	-7243
GH	-7244
ດຍິງ	-7245
▁Bre	-7246
▁ຍື່ນ	-7247
▁ຕື່ນ	-7248
ມະເຮັງ	-7249
ສິລະປິນ	-7250
▁ທັງສອງ	-7251
▁ຄວາມຮັກ	-7252
▁ທ່ານຫມໍ	-7253
▁ເພື່ອນໍາ	-7254
▁ຫງວຽນຖັ໋ງ	-7255
ຄວາມສໍາເລັດ	-7256
pr	-7257
ຮໍ	-7258
ັອກ	-7259
ໂພສ	-7260
ling	-7261
ໄທມ໌	-7262
ລະບອບ	-7263
ສັນຕິ	-7264
▁ພາຍຸ	-7265
▁ສະຖິຕິ	-7266
▁ຂ້າພະເຈົ້າໄດ້	-7267
▁ຈັດຕັ້ງປະຕິບັດ	-7268
▁Ky	-7269
▁ບີ	-7270
ເຊັກ	-7271
▁10.	-7272
▁APK	-7273
▁Rong	-7274
▁Black	-7275
ລິເລີ່ມ	-7276
▁ສໍາພັນ	-7277
▁ຕ້ອງໄດ້	-7278
▁ໂດຍທ່ານ	-7279
▁ກ້າວຫນ້າ	-7280
US	-7281
າມະ	-7282
▁ຄໍ	-7283
ແຊັມ	-7284
▁Sim	-7285
▁Apps	-7286
ພະຍາບານ	-7287
ຢູ່ເມືອງ	-7288
ເກັບຮັກສາ	-7289
▁ຄວາມປອດໄພ	-7290
7,	-7291
ger	-7292
iet	-7293
ເປັນກຽດ	-7294
ຫນຶ່ງທີ່	-7295
ອຸຕຸນິຍົມ	-7296
▁ຈຸດຫມາຍປາຍທາງ	-7297
ປຸ່ມ	-7298
ນັບຖື	-7299
▁(11)	-7300
ຊົດເຊີຍ	-7301
EF	-7302
sk	-7303
let	-7304
angu	-7305
ຊ້ໍາ	-7306
▁ດົງ	-7307
▁ດ່ານ	-7308
ຮັບຟັງ	-7309
ຜູ້ຕາງຫນ້າ	-7310
ຕື້	-7311
ວັດທ	-7312
▁Sch	-7313
ໃນງານ	-7314
▁ບ່າຍ	-7315
ເຫຼືອງ	-7316
ຄາດຄະເນ	-7317
ວິຊາຊີບ	-7318
ຍົກເວັ້ນ	-7319
ຢູ່ທີ່ນີ້	-7320
▁ແຂວງຄໍາມ່ວນ	-7321
▁ອອກໃບອະນຸຍາດ	-7322
mm	-7323
▁ໃຫ	-7324
▁McC	-7325
▁min	-7326
ແຊງແຊກ	-7327
▁2012.	-7328
ຜິວຫນັງ	-7329
▁ລົດຈັກ	-7330
ຊໍາລະເງິນ	-7331
▁ທີ່ປະເທດ	-7332
ເກົາຫຼີໃຕ້	-7333
45	-7334
oth	-7335
ປາບ	-7336
▁ທຶກ	-7337
ກໍ່ຄື	-7338
ຖະກໍາ	-7339
ປະຫານ	-7340
ສະທໍາ	-7341
▁ນະພາ	-7342
▁ປະຈຸ	-7343
▁ລ່ວງ	-7344
▁ຮຸ່ນ	-7345
▁ເມັກ	-7346
ຂັ້ນຕົ້ນ	-7347
ຄົ້ນຄ້ວາ	-7348
ໃບຢັ້ງຢືນ	-7349
ດໍາເນີນຢູ່	-7350
▁ການແຊງແຊກ	-7351
ອຸດົມສົມບູນ	-7352
▁ນິວຢອກໄທມ໌	-7353
▁ໄດ້ຂັດແຍ້ງ	-7354
een	-7355
ital	-7356
ຫົ່ມ	-7357
ງ່າຍໆ	-7358
▁ເລີດ	-7359
ຈາຍສຽງ	-7360
ຖະກະຖາ	-7361
ກວ່າກີບ	-7362
▁ສະຫຼອງ	-7363
ໃນຂອບເຂດ	-7364
▁ບາດກ້າວ	-7365
1.	-7366
key	-7367
▁Ha	-7368
ອອນໄລ	-7369
▁1606	-7370
▁ສ່ອງ	-7371
▁ຂອບໃຈ	-7372
▁ດໍໂນລ	-7373
ທິດສະດີ	-7374
ນໍາສະເຫນີ	-7375
ຄວາມສໍາພັນ	-7376
▁ການຢ້ຽມຢາມ	-7377
▁ເມືອງໄຊທານີ	-7378
▁x	-7379
ດີໆ	-7380
ມກາງ	-7381
ໍ່ສ້າງ	-7382
▁ປະກົດ	-7383
▁ປະສົມ	-7384
▁ໂຈມຕີ	-7385
ເບິ່ງຄື	-7386
ທາງລົດໄຟ	-7387
ນະສົມບັດ	-7388
ກໍາລັງກາຍ	-7389
ser	-7390
ຕະນ	-7391
ຜິງ	-7392
▁DI	-7393
▁ຣິກ	-7394
ສິງຫາ	-7395
ໄວຣັສ	-7396
ຈະຊ່ວຍ	-7397
▁ເວັ້ນ	-7398
ປ່ອນບັດ	-7399
ມູນນິທິ	-7400
ຈະໄດ້ຮັບ	-7401
ອິດສະຫຼະ	-7402
▁ສັ່ງໃຫ້	-7403
ລາຍງານວ່າ	-7404
ມີສ່ວນຮ່ວມ	-7405
ໃຫ້ພວກເຮົາ	-7406
▁ອົງການຄວບຄຸມ	-7407
90	-7408
St	-7409
▁@	-7410
ICP	-7411
ຖົງ	-7412
▁tr	-7413
roup	-7414
ຫຍິບ	-7415
▁ຟິກ	-7416
▁back	-7417
ອາວຸໂສ	-7418
ດິຈິຕອນ	-7419
ເຕີເນັດ	-7420
ສະເຫມີພາບ	-7421
▁ບໍ່ພຽງແຕ່	-7422
ຂອງກອງປະຊຸມ	-7423
ໃຫ້ເຂົາເຈົ້າ	-7424
▁ຮັບຜິດຊອບຕົ້ນຕໍ	-7425
ຝງ	-7426
ແຕງ	-7427
▁Ma	-7428
▁cl	-7429
▁cat	-7430
chain	-7431
▁ISSN	-7432
▁ຖິ້ມ	-7433
▁ພຸດທະ	-7434
ຍົກເລີກ	-7435
ຢ່າງຕັ້ງຫນ້າ	-7436
MG	-7437
▁z	-7438
ella	-7439
ຈື່ງ	-7440
▁III	-7441
-0261	-7442
▁ຊີ້ນ	-7443
▁ສັນຕິ	-7444
▁ຮັບເອົາ	-7445
▁1606-0261	-7446
▁ຜູ້ສະຫນອງ	-7447
get	-7448
ເວດ	-7449
▁600	-7450
▁ແລວ	-7451
ຫານີ້	-7452
ຮ້ອງຂໍ	-7453
ໄດ້ໂດຍ	-7454
▁2014.	-7455
ສໍາຄັນຂອງ	-7456
ແຫນ້ນແຟ້ນ	-7457
ຂອງປະເທດຊາດ	-7458
ດັ່ງກ່າວໄດ້	-7459
ປະຊາຊົນແຂວງ	-7460
▁ພ້ອມກັນນັ້ນ	-7461
ວຽກເຮັດງານທໍາ	-7462
ພຽວ	-7463
ຟ້ອງ	-7464
▁800	-7465
▁Dav	-7466
▁ບໍ່ຍອມ	-7467
AC	-7468
oe	-7469
ise	-7470
top	-7471
ປຽນ	-7472
ແລ້ງ	-7473
▁VOA	-7474
▁ດີກ	-7475
▁ເຝິກ	-7476
ທົ່ງພຽງ	-7477
ເຊື່ອວ່າ	-7478
ເຕົ້າໂຮມ	-7479
ບໍ່ທັນແຕກ	-7480
ທິນ	-7481
ລະນະ	-7482
ໃຈໃນ	-7483
ຊຸມປີ	-7484
ຖະສາດ	-7485
ສອນໄຟ	-7486
▁ໄດ້ໃຫ້	-7487
▁ມາດຕະການ	-7488
ທຸ	-7489
VNA	-7490
າຊາຍ	-7491
ໂນ້ມ	-7492
▁ຢັນ	-7493
ຕະຫລອດ	-7494
ທະຍາສາດ	-7495
▁Center	-7496
▁Market	-7497
▁ອະນາຄົດ	-7498
ຫມູ່ເພື່ອນ	-7499
ກ່ອນຫນ້ານີ້	-7500
ໆໆ	-7501
ແກນ	-7502
▁Sa	-7503
ames	-7504
ສີສັນ	-7505
▁Hill	-7506
▁ອຸ່ນ	-7507
▁ໄອທີ	-7508
▁ບັນຊາ	-7509
ຖ້າທ່ານ	-7510
ທໍາມະດາ	-7511
▁ຫຼັກການ	-7512
ຂອງໂຄງການ	-7513
▁ຄອມພິວເຕີ	-7514
ເຂົ້າຮ່ວມຂອງ	-7515
ຢຶດ	-7516
▁ຄີ	-7517
▁Ass	-7518
▁per	-7519
▁ຂັງ	-7520
▁ບຽບ	-7521
ຍະກໍາ	-7522
▁ກັ້ນ	-7523
ພັນດອນ	-7524
ໄວໆນີ້	-7525
▁ຫລິ້ນ	-7526
ິດສະຖານ	-7527
▁Bakery	-7528
▁ທໍາອິດ	-7529
ບັງຄັບໃຊ້	-7530
ຜ່ານມານີ້	-7531
▁ຜູ້ຈັດການ	-7532
ການພົວພັນຮ່ວມມື	-7533
ຫູ	-7534
ຮິ	-7535
▁At	-7536
▁Wik	-7537
▁ບູນ	-7538
▁ແທງ	-7539
▁crypt	-7540
▁ເສື້ອ	-7541
▁ໃນອີກ	-7542
ຄະລາກອນ	-7543
ແບບພິເສດ	-7544
ດ້ານການຄ້າ	-7545
▁ຕັ້ງແຕ່ປີ	-7546
▁ເກົາຫຼີໃຕ້	-7547
ຂ້າພະເຈົ້າໄດ້	-7548
ປະສັກ	-7549
ຄິດໄລ່	-7550
ວັນຊາດ	-7551
ຫ່າງໄກ	-7552
▁ກໍາມາທິການ	-7553
▁ແຂວງໄຊຍະບູລີ	-7554
EE	-7555
lam	-7556
ອາບ	-7557
ແທດ	-7558
▁May	-7559
▁ຈົງ	-7560
Press	-7561
▁ຫຼີກ	-7562
ຈັດສັນ	-7563
▁Univers	-7564
▁ຫມາຍເຖິງ	-7565
າຊະອານາຈັກ	-7566
ຄວາມເປັນຈິງ	-7567
ພໍ່ແມ່ປະຊາຊົນ	-7568
ປະຕິບັດຫນ້າທີ່	-7569
ນ້	-7570
ves	-7571
ວັກ	-7572
▁ແຮ	-7573
▁ຜິງ	-7574
▁ພະນ	-7575
ວົງຈອນ	-7576
ກັນຂ້າມ	-7577
▁ພວກນັກ	-7578
▁ມັນແມ່ນ	-7579
ເຍົາວະຊົນ	-7580
ຮັບຮອງເອົາ	-7581
▁ການແຊກແຊງ	-7582
▁ຄົນເຂົ້າເມືອງ	-7583
::	-7584
ນວນ	-7585
ສນາ	-7586
less	-7587
ແຫຼມ	-7588
▁All	-7589
▁PDF	-7590
ຕະຈັກ	-7591
ຈົບງາມ	-7592
ດ້ວຍຄວາມ	-7593
▁ຜົນກະທົບ	-7594
ຄວາມຮູ້ສຶກ	-7595
IV	-7596
sc	-7597
ຄາບ	-7598
ມາເລເຊຍ	-7599
▁ຜົນສໍາ	-7600
▁ໃນພິທີ	-7601
ມັດລະວັງ	-7602
ເບິ່ງແຍງ	-7603
lockchain	-7604
▁ທີ່ຢູ່ໃນ	-7605
ຄິດຄໍາເຫັນ	-7606
ອິນເຕີແນັດ	-7607
ສິ່ງບາງຢ່າງ	-7608
▁←	-7609
ຈິບ	-7610
▁(0)	-7611
ຜ່ານທາງ	-7612
▁ພາກພື້ນ	-7613
▁ໄດ້ແລ້ວ	-7614
▁ເຄືອຂ່າຍ	-7615
▁ພວກເຮົາໄດ້	-7616
ne	-7617
za	-7618
oll	-7619
ກວນ	-7620
ມີນາ	-7621
▁Net	-7622
▁ຕະພັນ	-7623
▁ອອກສຽງ	-7624
▁ພວກເຮົາຈະ	-7625
▁PC	-7626
▁Day	-7627
ປັດໄຈ	-7628
ວັນເກີດ	-7629
ອະທິຖານ	-7630
ໃນເມືອງ	-7631
▁ລູກຄ້າ	-7632
ຖານຂໍ້ມູນ	-7633
ປະເມີນຜົນ	-7634
ອຸບັດຕິເຫດ	-7635
ເຄື່ອນຍ້າຍ	-7636
ແນວຄວາມຄິດ	-7637
ທາງດ້ານເສດຖະກິດ	-7638
MP	-7639
red	-7640
ຊອມ	-7641
ແພ້	-7642
ຈິ່ງ	-7643
ຊີວະ	-7644
▁ເຄີ	-7645
ເຖົ້າ	-7646
▁ໃກ້ໆ	-7647
ຣີພັບບ	-7648
ໃຊ້ໄດ້	-7649
ເຈົ້າເມືອງ	-7650
ເປັນຈໍານວນ	-7651
▁WordPress	-7652
ເປັນເຈົ້າພາບ	-7653
ທິມ	-7654
istr	-7655
▁Met	-7656
▁Pay	-7657
▁ແຖວ	-7658
board	-7659
ໄປຮຽນ	-7660
ຂອງພຣະອົງ	-7661
▁ທ່ານທຣໍາ	-7662
▁ໄດ້ໃຫ້ການ	-7663
ເກນ	-7664
ແກຼ	-7665
ution	-7666
ນີ້ມີ	-7667
ໄປບ່ອນ	-7668
▁ທິດທາງ	-7669
▁ສ້າງສາ	-7670
ໃຫ້ມີການ	-7671
ທໍານຽບຂາວ	-7672
ດ້ວຍຕົນເອງ	-7673
▁ທີ່ມີຄວາມ	-7674
▁ບໍລິຄໍາໄຊ	-7675
ipp	-7676
ປວງ	-7677
ຜູກ	-7678
2017	-7679
itle	-7680
▁Slot	-7681
▁ແຫຼມ	-7682
ບໍ່ແຮ່	-7683
▁ASEAN	-7684
▁casino	-7685
ເປັນຫຍັງ	-7686
ຫນັງສືພີມ	-7687
ໃຫ້ປະຊາຊົນ	-7688
▁ເລື່ອງລາວ	-7689
ນິດ	-7690
ສະດຸ	-7691
▁Ind	-7692
▁ເດີມ	-7693
ຫົນທາງ	-7694
ທີ່ກໍາລັງ	-7695
ແອນ	-7696
▁ກະຕ	-7697
▁ຍົນ	-7698
▁ມຸສ	-7699
ດໍາລັດ	-7700
ທຽບໃສ່	-7701
▁Dread	-7702
ປ່ອງຢ້ຽມ	-7703
ຊີວິດການເປັນຢູ່	-7704
OP	-7705
asy	-7706
ວິວາ	-7707
ສົ້ມ	-7708
ິກິມ	-7709
ັກຮຽນ	-7710
▁ເທີງ	-7711
ຂອງນັກ	-7712
▁ຄູ່ມື	-7713
ອຸດຫນູນ	-7714
ໂດຍຜ່ານ	-7715
▁ດາວທຽມ	-7716
ຮ້ານອາຫານ	-7717
ໂຄງການກໍ່ສ້າງ	-7718
oud	-7719
ute	-7720
▁FM	-7721
▁ຄຸ	-7722
່ມັນ	-7723
▁ເມນ	-7724
ຣະມັນ	-7725
▁Tour	-7726
▁yula	-7727
▁ເນລະ	-7728
ຂຶ້ນໄປ	-7729
ຕົວເລກ	-7730
▁ພອມພຽວ	-7731
▁ເຈື່ອງ	-7732
ມານະພະຍາຍາມ	-7733
ຜູ້ເຂົ້າຮ່ວມ	-7734
▁ທະນາຄານແຫ່ງ	-7735
ທີ່ມີຄຸນນະພາບ	-7736
ອໍານາດການປົກຄອງ	-7737
AD	-7738
me	-7739
ສາລະ	-7740
ເມົາ	-7741
ສັກສິດ	-7742
▁ການວາງ	-7743
▁ວັນທີ່	-7744
▁ເຊື່ອງ	-7745
ກອງປະຊຸມສໍາມະນາ	-7746
ene	-7747
ຍີ່	-7748
ພູນ	-7749
▁Mu	-7750
azon	-7751
ອາຊະ	-7752
▁Dev	-7753
▁ນາດ	-7754
▁ຮາວ	-7755
▁ເມຍ	-7756
ທັນວາ	-7757
ທີສອງ	-7758
irtual	-7759
ຈັບກຸມ	-7760
ຢູ່ກັບ	-7761
ໄຟໄຫມ້	-7762
▁ຍານາງ	-7763
▁ຖະບານ	-7764
▁ທັນທີ	-7765
▁ໃນມື້	-7766
ປົດປ່ອຍ	-7767
ອີກຄັ້ງ	-7768
ຽງອາຫານ	-7769
ບັນດາການ	-7770
ໂຮ່ຈີມິນ	-7771
ຫນັກແຫນ້ນ	-7772
ຂອງແມ່ຍິງໃນການ	-7773
▁Ng	-7774
▁ໄຈ	-7775
ສົນທະນ	-7776
ຫັນປ່ຽນ	-7777
ທ່ອງເວັບ	-7778
▁ຄາດຫມາຍ	-7779
▁ໂທລະຄົມ	-7780
67	-7781
ival	-7782
▁Can	-7783
▁ສາບ	-7784
-2016	-7785
▁Char	-7786
▁ລຸ່ມ	-7787
ອີກວ່າ	-7788
ເຫມືອນ	-7789
▁ອົງສາ	-7790
▁ໄປຍັງ	-7791
anguage	-7792
▁ພາລະກິດ	-7793
▁ຊົນນະບົດ	-7794
ຕາມກົດຫມາຍ	-7795
▁ທີ່ສໍາຄັນ	-7796
ຂອງພຣະເຈົ້າ	-7797
▁ແຂວງຊຽງຂວາງ	-7798
▁75	-7799
ເຈາະ	-7800
▁ຊີງ	-7801
ຫະພູມ	-7802
ຕ້ອງມີ	-7803
▁ເຖິງວ່າ	-7804
ເຫຼົ່ານັ້ນ	-7805
▁ອັຟການິສຖານ	-7806
ຝູ	-7807
▁58	-7808
▁Sal	-7809
▁ພິດ	-7810
▁ສະບ	-7811
ໃນທຸກ	-7812
▁2030	-7813
▁Coin	-7814
▁ມະນີ	-7815
ບ້ານນາ	-7816
ວາງອອກ	-7817
▁ຈະຖືກ	-7818
ກໍລະກົດ	-7819
ຄວາມສາມັກຄີ	-7820
▁ມີປະສິດທິຜົນ	-7821
YO	-7822
ih	-7823
ຖຶກ	-7824
ທູບ	-7825
▁ບວກ	-7826
▁ເລີ	-7827
▁ເຊົາ	-7828
ປູກຝັງ	-7829
ເມື່ອຍ	-7830
ກໍ່ຕັ້ງ	-7831
ຕ່າງໆຂອງ	-7832
ສະຫນາມໄຊ	-7833
ແມ່ນຫຍັງ	-7834
▁ແມ່ນເປັນ	-7835
ແຂວງວຽງຈັນ	-7836
▁ຂອງລັດຖະບານ	-7837
fit	-7838
▁des	-7839
▁Tech	-7840
ມາກ່ອນ	-7841
ະໂຍບາຍ	-7842
ລາຍຈ່າຍ	-7843
ເປີດຕົວ	-7844
▁Global	-7845
ຕິດຕາມກວດກາ	-7846
ru	-7847
ເຝ	-7848
▁LMB	-7849
▁ດານ	-7850
▁ໄຫຼ	-7851
ບໍ່ຮູ້	-7852
ສັບສົນ	-7853
ອອກເປັນ	-7854
▁ວໍລະຈິດ	-7855
▁ຫຼ້າສຸດ	-7856
▁ເມື່ອວັນ	-7857
ຢູ່ຫວຽດນາມ	-7858
ສອດຄ່ອງກັບ	-7859
ຈື່	-7860
ເບີ່ງ	-7861
▁ກໍຈະ	-7862
ourgas	-7863
ດີກວ່າ	-7864
ັກສຶກສາ	-7865
ໂຄງສ້າງ	-7866
ເອກອັກຄະ	-7867
ການອອກແບບ	-7868
ສົມບູນແບບ	-7869
▁ຫົວຫນ່ວຍ	-7870
▁ແຕ່ງຕັ້ງ	-7871
▁ໄດ້ເຂົ້າຮ່ວມ	-7872
27	-7873
TU	-7874
ກັມ	-7875
ກາເຟ	-7876
ລັ່ງ	-7877
▁ໂອນ	-7878
ດນັ້ນ	-7879
▁ສັ້ນ	-7880
▁ເນັດ	-7881
ປາກຄໍາ	-7882
ຫນ້າເວັບ	-7883
ສະດວກສະບາຍ	-7884
ອາສາສະຫມັກ	-7885
▁ບົດລາຍງານ	-7886
/08	-7887
ize	-7888
ott	-7889
ຫໍ່	-7890
ຊ່າງ	-7891
ເທົາ	-7892
ortun	-7893
ນໍ້າທາ	-7894
ຕຸລາການ	-7895
ປະກັນໄພ	-7896
▁ຂົງເຂດ	-7897
ຫຸ້ນສ່ວນ	-7898
ເປັນສະມາຊິກ	-7899
▁ຮອງເຈົ້າແຂວງ	-7900
oto	-7901
າຊາ	-7902
▁AS	-7903
ated	-7904
ກ້ຽງ	-7905
ທຸລະ	-7906
ໄກສອນ	-7907
ກັນຢ່າງ	-7908
▁ການໃຊ້	-7909
▁ປະໂຫຍດ	-7910
▁ເອື້ອຍ	-7911
▁ດັ່ງນີ້	-7912
▁ຫນຶ່ງໃນ	-7913
▁ພາສາຍີ່ປຸ່ນ	-7914
▁ເງື່ອນໄຂການ	-7915
-4	-7916
IL	-7917
OC	-7918
we	-7919
/03	-7920
ເຖີງ	-7921
▁ອອສ	-7922
▁ເອົ	-7923
ສະມັດ	-7924
ມິຖຸນາ	-7925
ຫາດຊາຍ	-7926
▁ຢູໂຣບ	-7927
▁ກັບຄືນ	-7928
ທີ່ມີຢູ່	-7929
ຂໍ້ກໍານົດ	-7930
▁ສ່ວນໃຫຍ່	-7931
ຂຸ້ນໄປດ້ວຍ	-7932
▁ລັດຖະບານລາວ	-7933
lin	-7934
ofia	-7935
▁One	-7936
▁ເຊກອງ	-7937
ແມ່ນບໍ່	-7938
ໂດຍທ່ານ	-7939
▁ເລື່ອນ	-7940
▁ເຈົ້າເມືອງ	-7941
▁ນັກທ່ອງທ່ຽວ	-7942
ຫວຍ	-7943
ບົ່ມ	-7944
ຸວົງ	-7945
ທົດແທນ	-7946
ເອື້ອຍ	-7947
urrency	-7948
ຫວັງວ່າ	-7949
າວຽກງານ	-7950
▁Barack	-7951
▁ຄັດຄ້ານ	-7952
▁ໃນແຕ່ລະ	-7953
▁ນັກທຸລະກິດ	-7954
ປະຖ	-7955
▁ໍາ	-7956
ກໍຈະ	-7957
▁250	-7958
▁ແຟນ	-7959
ering	-7960
ເຈັບປ	-7961
ຂອງນາງ	-7962
▁ລວມມີ	-7963
▁ບວນການ	-7964
▁ຈຶ່ງໄດ້	-7965
ວິຊາສະເພາະ	-7966
18	-7967
ism	-7968
net	-7969
ຈິນ	-7970
ລຶກ	-7971
ໄຫລ	-7972
ຫຼານ	-7973
▁She	-7974
ພະລັງ	-7975
ມາແຕ່	-7976
ຕິດກັບ	-7977
▁ງານບຸນ	-7978
▁ສັງກັດ	-7979
ການເຂົ້າ	-7980
ຄໍາຕັດສິນ	-7981
ສ້າງພາບພົດ	-7982
ບໍ່ຈໍາເປັນຕ້ອງ	-7983
,”	-7984
ari	-7985
ບິດ	-7986
▁ພິວ	-7987
▁ຊີ້ນໍາ	-7988
▁ບຸນຍັງ	-7989
ຂ້າງເທິງ	-7990
ອຸປະຕິເຫດ	-7991
ຂໍ້ຂັດແຍ່ງ	-7992
oom	-7993
uan	-7994
ລຽນ	-7995
໊ອກ	-7996
▁--	-7997
▁me	-7998
▁Cap	-7999
ition	-8000
ຂອງວັນ	-8001
ປະລິນຍາຕີ	-8002
ໃນການສ້າງ	-8003
▁ຈະສືບຕໍ່	-8004
▁ຕອນບ່າຍວັນທີ	-8005
----	-8006
alls	-8007
▁SOU	-8008
▁ຕຶງ	-8009
▁ມຽນ	-8010
ສີຂຽວ	-8011
▁ຊໍາລະ	-8012
ເຄັ່ງຕຶງ	-8013
▁ພື້ນທີ່	-8014
IM	-8015
ຍົດ	-8016
ລໍ້	-8017
ເປນ	-8018
▁EC	-8019
▁Jun	-8020
▁ຕິນ	-8021
ລີກັນ	-8022
ເຮັດທ	-8023
ເອົາໄປ	-8024
ຟົດຟື້ນ	-8025
ປະຈໍາເດືອນ	-8026
ອັດຕາສະເລ່ຍ	-8027
▁ຕູ້ຫນັງສືພີມ	-8028
ນະຄອນຫລວງວຽງຈັນ	-8029
75	-8030
▁73	-8031
,500	-8032
ວນັ້ນ	-8033
ສິສັນ	-8034
▁ໄຫມ້	-8035
▁ການາດາ	-8036
▁ມະຫາວິ	-8037
▁ນິຕິກໍາ	-8038
ເລື່ອງນີ້	-8039
▁National	-8040
▁ເຂັ້ມຂຸ້ນໄປດ້ວຍ	-8041
▁Or	-8042
▁ລຶບ	-8043
ອາດມີ	-8044
ກ່າວຫາ	-8045
ສູ້ຊົນ	-8046
ວາລະສານ	-8047
▁ສົມບູນ	-8048
ພັນທະມິດ	-8049
▁ປະລິມານ	-8050
ຕີລາຄາສູງ	-8051
▁ພວກເຮົາມີ	-8052
ບໍ່ດົນມານີ້	-8053
ການຝຶກອົບຮົມ	-8054
▁020	-8055
▁ທອດ	-8056
▁ລີ້	-8057
press	-8058
ປາກເຊ	-8059
ໂດເມນ	-8060
ຝົນຕົກ	-8061
▁ແຫນ່ງ	-8062
ະນໍາທໍາ	-8063
▁ກວດສອບ	-8064
▁ມີຫຼາຍ	-8065
▁ພິເສດແມ່ນ	-8066
▁ປີຂ້າງຫນ້າ	-8067
ມີການປ່ຽນແປງ	-8068
ທຂ	-8069
ime	-8070
ຂານ	-8071
▁Te	-8072
▁le	-8073
▁ຜາ	-8074
▁ລອຍ	-8075
▁ພາລະ	-8076
ກະຕຸ້ນ	-8077
ທີ່ຍັງ	-8078
ຢາກໃຫ້	-8079
ເງິນຕາ	-8080
ໃກ້ຄຽງ	-8081
▁ຊຶ່ງມີ	-8082
▁ຜູ້ຄົນ	-8083
ສິສັນວັດທ	-8084
▁Dreadbag	-8085
▁ດ້ວຍຄວາມ	-8086
ຂອງທ່ານແລະ	-8087
ສ້າງພາບພົດປອດໄພ	-8088
ສິສັນວັດທະນໍາທໍາ	-8089
/01	-8090
LAO	-8091
ງົດ	-8092
ດຸນ	-8093
▁44	-8094
olog	-8095
ໂປ່ງ	-8096
▁Abd	-8097
ລົງມື	-8098
ເດີ່ນ	-8099
ຄົນເຈັບ	-8100
ສາມຫຼ່ຽມ	-8101
▁ຊຶ່ງໄດ້	-8102
▁ທາງທະຫານ	-8103
ae	-8104
esh	-8105
▁ມສ	-8106
ຂວາຍ	-8107
ສຖານ	-8108
▁4.0	-8109
▁ມົງ	-8110
▁ໄຂ່	-8111
ສະຈັນ	-8112
▁ຄ່ໍາ	-8113
▁ເບີກ	-8114
ookies	-8115
ວັດແທກ	-8116
▁ພະລັງ	-8117
ຸນຫະພູມ	-8118
▁ໂດຍສານ	-8119
▁ນິວເຄລຍ	-8120
▁ສະໂມສອນ	-8121
ໂຍທາທິການ	-8122
▁ຫຼຸດຜ່ອນ	-8123
▁ກົມອຸຕຸນິຍົມ	-8124
ັຕ	-8125
-16	-8126
anc	-8127
erg	-8128
ipt	-8129
ສະມາ	-8130
▁ຊັງ	-8131
ຈະລິດ	-8132
ຕະນາກ	-8133
▁ສະມາ	-8134
▁ຜູ້ຊ່ຽວຊານ	-8135
In	-8136
ສູ	-8137
ade	-8138
ຢາຍ	-8139
▁49	-8140
▁ອູ	-8141
ຮ່ອງ	-8142
▁web	-8143
▁ກໍມີ	-8144
▁ແອັບ	-8145
ຊີ້ຂາດ	-8146
▁Forex	-8147
ປາຊີຟິກ	-8148
ຮັບເອົາ	-8149
▁Amazon	-8150
ກວ່ານັ້ນ	-8151
611	-8152
erf	-8153
ເມສາ	-8154
ທະວົງ	-8155
ຫນ້າສົນໃຈ	-8156
▁ເດືອນຕົ້ນປີ	-8157
ຄໍາຫມັ້ນສັນຍາ	-8158
▁ເນັ້ນຫນັກວ່າ	-8159
ຮິງ	-8160
ກໍມີ	-8161
▁Mus	-8162
▁ຄັງ	-8163
ມະຫາກ	-8164
້ງຊອມ	-8165
▁ຊື່ງ	-8166
▁ຮຸ້ນ	-8167
ກາງຄືນ	-8168
ພົບກັບ	-8169
ສົມຮູ້	-8170
ບໍລິສຸດ	-8171
ແນ່ໃຈວ່າ	-8172
▁ປະກອບມີ	-8173
ການເດີນທາງ	-8174
▁ແຂວງເຊກອງ	-8175
▁ແຂວງຫົວພັນ	-8176
ບັນດາວິສາຫະກິດ	-8177
12	-8178
ote	-8179
ທຸງ	-8180
ື່ອຍ	-8181
ເສັຽ	-8182
▁ຕີນ	-8183
alent	-8184
ement	-8185
ຄູ່ມື	-8186
ແລະຜູ້	-8187
▁ກ່າວໂຈມຕີ	-8188
ສິ່ງທີ່ທ່ານ	-8189
axy	-8190
eed	-8191
▁ID	-8192
▁ນໍ	-8193
ີໂທລະ	-8194
▁Play	-8195
▁ຜແນກ	-8196
▁ຮ່ອງ	-8197
▁Island	-8198
ບໍ່ພຽງແຕ່	-8199
ເກັບລາຍຮັບ	-8200
▁ສະແດງຄວາມ	-8201
▁ຄົນເສຍຊີວິດ	-8202
IN	-8203
ວທ	-8204
▁ກວ	-8205
▁con	-8206
▁ແຈກ	-8207
▁ຫນຸນ	-8208
ວ່ານີ້	-8209
ໂປຣແກຣມ	-8210
▁Angela	-8211
▁ປະຈໍາວັນ	-8212
ເທື່ອຫນຶ່ງ	-8213
▁ສາຍພົວພັນ	-8214
IT	-8215
RL	-8216
uz	-8217
ມໍ	-8218
anh	-8219
ຄອຍ	-8220
▁ກຸ	-8221
ມີໄຊ	-8222
ເຄຣນ	-8223
▁ລຸງ	-8224
ປັດຕະ	-8225
ຕື່ມວ່າ	-8226
▁ໃນປະເທດ	-8227
▁ປະສົບການ	-8228
າວິທະຍາສາດ	-8229
▁ເນື່ອງຈາກວ່າ	-8230
7.	-8231
▁be	-8232
▁ຖຸ	-8233
ຫຼົງ	-8234
▁ລ່າງ	-8235
ionary	-8236
ດິນແດນ	-8237
ເກັບກູ້	-8238
▁outfit	-8239
▁43	-8240
▁ທັກ	-8241
▁ລຸກ	-8242
ທະວີບ	-8243
▁1000	-8244
ຖືເປັນ	-8245
ເສຍຄ່າ	-8246
▁ແຜນທີ່	-8247
ກໍາລັງແຮງ	-8248
ຂໍ້ມູນຈາກ	-8249
ຢ່າງກວ້າງຂວາງ	-8250
kh	-8251
ng	-8252
ມິງ	-8253
▁Par	-8254
ການປະ	-8255
ພິສູດ	-8256
ລະຄອນ	-8257
ທີ່ສູງ	-8258
ນັກກິລາ	-8259
ໂຊມາເລຍ	-8260
ການພົບປະ	-8261
ຕ່າງໆທີ່	-8262
▁ຫນ່ວຍງານ	-8263
▁ໃນນັ້ນມີ	-8264
ສະຖຽນລະພາບ	-8265
▁ການຝຶກອົບຮົມ	-8266
.,	-8267
ຊ້ມ	-8268
▁FB	-8269
າກັບ	-8270
▁ຈານ	-8271
ກຸມພາ	-8272
▁with	-8273
▁ຂວັນ	-8274
▁ປື້ມ	-8275
ນ໌ໂຫລດ	-8276
▁Analy	-8277
▁Cheats	-8278
▁ກວ່າຄົນ	-8279
ສິ່ງທ້າທາຍ	-8280
▁ຂອງປະຊາຊົນ	-8281
▁ຕອບຫຼ້າສຸດ	-8282
ກິໂລ	-8283
ປະປາ	-8284
ສາລາ	-8285
▁Log	-8286
ໂບນັດ	-8287
▁City	-8288
▁ຫຼ້າ	-8289
ຂອງເກມ	-8290
ຢູ່ຕາມ	-8291
ໃກ້ກັບ	-8292
ກວມເອົາ	-8293
ຢູ່ເທິງ	-8294
▁ອວຍພອນ	-8295
TAL	-8296
ອໍາ	-8297
ຖະຫນ	-8298
ແກຼມ	-8299
ກັບມາ	-8300
ຍາບັນ	-8301
ມາດຕາ	-8302
▁Comm	-8303
ວາງໄວ້	-8304
▁ປະຖົມ	-8305
▁ມາແລ້ວ	-8306
▁ໃຫ້ໄດ້	-8307
ເຊັ່ນດຽວກັນ	-8308
▁ສະຖຽນລະພາບ	-8309
▁ອະນຸຍາດໃຫ້	-8310
lay	-8311
ຄັງ	-8312
ideo	-8313
▁ຮອຍ	-8314
ໃນທົ່ວ	-8315
▁ເຫຼັກ	-8316
▁ໂອ້ລົມ	-8317
ຢ່າງຍິ່ງ	-8318
asax	-8319
▁ຣໍາ	-8320
eroes	-8321
ກະເສດ	-8322
▁ຮຸ່ງ	-8323
▁Categ	-8324
▁ໄດ້ອອກ	-8325
ຄວາມຫມາຍ	-8326
ນ້ໍາຫນັກ	-8327
ວໍຊິງຕັນ	-8328
ຄວາມສະອາດ	-8329
ວັນນະຄະດີ	-8330
ປາກິດສະຖານ	-8331
▁ສານປະຊາຊົນ	-8332
ງຽບ	-8333
ເສົ	-8334
▁68	-8335
ille	-8336
outh	-8337
▁ປີນ	-8338
▁ແຮມ	-8339
▁ຊ້ອນ	-8340
ຍາວນານ	-8341
ຂອງຂວັນ	-8342
ສົ່ງຜົນ	-8343
▁ຮ່ວມກັນ	-8344
ຫລວງພະບາງ	-8345
▁ເລືອກຕັ້ງ	-8346
ປະກັນສັງຄົມ	-8347
▁ກອງປະຊຸມສໍາມະນາ	-8348
ll	-8349
▁53	-8350
▁cr	-8351
ject	-8352
▁ແທດ	-8353
33611	-8354
ສາບສູນ	-8355
ທາດຫຼວງ	-8356
ກໍາລັງໃຈ	-8357
▁ຍ້ອນວ່າ	-8358
▁02133611	-8359
▁ທ່ານອາດຈະ	-8360
ທີ່ທັນສະໄຫມ	-8361
▁ເພື່ອພົບປະ	-8362
ສາກົນກ່ຽວກັບ	-8363
upp	-8364
ເຫນ	-8365
oint	-8366
▁ດັງ	-8367
-2020	-8368
ຕາມິນ	-8369
▁ຫລວດ	-8370
▁ເກີບ	-8371
▁ຄຸນພໍ່	-8372
........	-8373
ຂອງມະນຸດ	-8374
▁ເລື້ອຍໆ	-8375
▁ຊົນເຜົ່າ	-8376
ພາຍໃນປະເທດ	-8377
ບັນຫາສໍາຄັນ	-8378
68	-8379
ole	-8380
▁CP	-8381
▁ານ	-8382
link	-8383
ເພັງ	-8384
cript	-8385
ຮໍໂມນ	-8386
ໃຫມ່ໆ	-8387
ກູ້ຢືມ	-8388
ຂອງເຂົາ	-8389
ເຫັນໄດ້	-8390
▁ຂອງລາວ	-8391
ສັດຕະນາກ	-8392
▁ບໍ່ແກ້ວ	-8393
▁ລາຍງານວ່າ	-8394
▁ໄດ້ດໍາເນີນ	-8395
▁ອໍານາດການປົກຄອງ	-8396
-8	-8397
ME	-8398
▁ລາມ	-8399
ຢູ່ນອກ	-8400
▁SOULI	-8401
ຄັດຄ້ານ	-8402
ເຕີບໃຫຍ່	-8403
ໃນສັງຄົມ	-8404
▁ຂອງວັນທີ	-8405
▁ທ່ານໂອບາມາ	-8406
▁ເພື່ອຮັບປະກັນ	-8407
oot	-8408
vers	-8409
▁Ban	-8410
ໃນດ້ານ	-8411
▁ສະຖານະ	-8412
ທີ່ຢູ່ໃນ	-8413
ແຫ່ງນຶ່ງ	-8414
▁SOULIYO	-8415
▁ທີ່ບ້ານ	-8416
▁ສີພັນດອນ	-8417
ຖະແຫລງຂ່າວ	-8418
ຂອງພວກເຂົາເຈົ້າ	-8419
15	-8420
17	-8421
ທູ	-8422
ຟລ	-8423
/19	-8424
ສາງ	-8425
ີໂນ	-8426
ົ໋ວ	-8427
ives	-8428
ຫັ້ນ	-8429
.....	-8430
ເພີ່ນ	-8431
້ອາໄລ	-8432
▁ນໍາ້	-8433
▁ຕາແສງ	-8434
ຍັງເປັນ	-8435
▁ເຫມືອນ	-8436
ຫລາຍຂຶ້ນ	-8437
ຫລຸດຜ່ອນ	-8438
ອາກາດຫນາວ	-8439
ເພີ້ມຂຶ້ນ	-8440
ເວົ້າເຖິງ	-8441
100	-8442
ນົກ	-8443
▁an	-8444
ທາງເພດ	-8445
ປົກຄຸມ	-8446
ເປີດໂຕ	-8447
▁ວ່າມີ	-8448
▁ເຊົ່າ	-8449
ຕະນາການ	-8450
ການທະຫານ	-8451
▁ກວ້າງຂວາງ	-8452
▁ອີງຕາມການ	-8453
ວ່	-8454
▁54	-8455
site	-8456
▁Lin	-8457
▁ຊັດ	-8458
▁ເຮົ	-8459
ຕໍ່ປີ	-8460
ລະບົບການ	-8461
▁ຊາວບ້ານ	-8462
▁ວິຊາການ	-8463
ທາງການທູດ	-8464
ເສນາທິການ	-8465
▁ບັນຍາກາດ	-8466
▁ເຈົ້າພາບ	-8467
▁ເນື້ອທີ່	-8468
▁ຜົນສໍາເລັດ	-8469
ະຄອນຫຼວງວຽງຈັນ	-8470
/8	-8471
▁!!	-8472
▁br	-8473
ຫລີກ	-8474
ຮຸ່ນ	-8475
▁Gen	-8476
▁ຕຽມ	-8477
▁ປາມ	-8478
▁blog	-8479
▁cake	-8480
ບາງກອກ	-8481
ວີດິໂອ	-8482
ເຮົາຍັງ	-8483
▁ແລະເຮັດໃຫ້	-8484
29	-8485
ve	-8486
ble	-8487
per	-8488
ືອຍ	-8489
ໂຕະ	-8490
່ວິ	-8491
▁FR	-8492
aper	-8493
ບັ້ງ	-8494
ວີຊາ	-8495
▁ຍທຂ	-8496
ction	-8497
ວນຄືນ	-8498
ຜູ້ຖືກ	-8499
ໃຫ້ນັບ	-8500
ໄດ້ຍິນ	-8501
▁ການລົງ	-8502
▁ປ່ອຍໂຕ	-8503
▁ພໍ່ແມ່	-8504
/09/2018	-8505
▁ຊາວຫວຽດນາມ	-8506
ທີ່ໃຫຍ່ທີ່ສຸດ	-8507
ECH	-8508
ຫມາ	-8509
ິ່ມ	-8510
໋ອກ	-8511
ແຕ່ນ	-8512
ໄປໃນ	-8513
earch	-8514
▁Vlad	-8515
ananews	-8516
ຫມັ້ນໃຈ	-8517
▁ບາງກອກ	-8518
▁ເທົ່າກັບ	-8519
”(	-8520
ouse	-8521
ລຊິງ	-8522
ເຕັດ	-8523
▁win	-8524
▁ເວີ	-8525
▁Comp	-8526
▁ຫນົມ	-8527
▁ອານຸ	-8528
▁ເມືອ	-8529
▁ຕິດພັນ	-8530
▁ຈົດຫມາຍ	-8531
▁ຫນ້ານີ້	-8532
ຈັດການກັບ	-8533
▁Download	-8534
▁ເຊິ່ງແມ່ນ	-8535
▁ເພີ່ມເຕີມ	-8536
ສິ່ງທຸກຢ່າງ	-8537
▁ປະຕິບັດຕາມ	-8538
▁ຕອບຫຼ້າສຸດໂດຍ	-8539
ທີ່ເປັນມູນເຊື້ອ	-8540
ica	-8541
iel	-8542
ປີນ	-8543
ລາສ	-8544
ຫນິ	-8545
ຸກະ	-8546
▁ph	-8547
ໂລຫະ	-8548
▁ຍົມ	-8549
ຈັກກະ	-8550
▁https	-8551
ຈຶ່ງໄດ້	-8552
ິກິມເງິນ	-8553
▁ຕາຕະລາງ	-8554
▁ສິ້ນສຸດ	-8555
ບັນລຸໄດ້ຂອງປີ	-8556
▁ຫົວຫນ້າຫ້ອງການ	-8557
FA	-8558
ko	-8559
ໄບ	-8560
▁ບຸດ	-8561
ລຊິງກີ	-8562
ສໍາຜັດ	-8563
ບົ່ມຊ້ອນ	-8564
ແລກປ່ຽນກ່ຽວກັບ	-8565
ໄຊ້	-8566
▁ກະທ	-8567
▁ຈິບ	-8568
ວິວັດ	-8569
▁Sand	-8570
ຟັງການ	-8571
▁2016,	-8572
▁ລະວັງ	-8573
▁ມາເປັນ	-8574
▁ສື່ສານ	-8575
ແຮລຊິງກີ	-8576
▁ຍົກລະດັບ	-8577
▁ເຢຍລະມັນ	-8578
ອດຖອນບົດຮຽນ	-8579
▁ທີ່ກ່ຽວຂ້ອງ	-8580
▁ສິ່ງທີ່ຄວນຮູ້	-8581
olf	-8582
ແຍ້ງ	-8583
▁ຮານ	-8584
▁ຄ່ອຍ	-8585
▁ຈະນໍາ	-8586
ຢຸດຢັ້ງ	-8587
ລະດັບຊາດ	-8588
ໂຮ່ຈິມິນ	-8589
ເປັນໄປໄດ້	-8590
▁ທີ່ສາມາດ	-8591
ຢູ່ຕ່າງປະເທດ	-8592
▁ທີ່ແຮລຊິງກີ	-8593
▁ຈະບໍ່ອະນຸຍາດ	-8594
▁ລືມລະຫັດຜ່ານ	-8595
▁ເຈິ່ນດ້າຍກວາງ	-8596
ດຸ	-8597
າບ	-8598
ກີດ	-8599
ຈົງ	-8600
▁>>	-8601
▁VI	-8602
ເທຣດ	-8603
▁ຖັນ	-8604
ປະການ	-8605
ສະວັດ	-8606
▁Group	-8607
ຄໍາປາໄສ	-8608
ເວັບໄຊຕ໌	-8609
▁ສະກັດກັ້ນ	-8610
▁ບໍລິສັດຈີນ	-8611
▁ກະຊວງແຜນການ	-8612
ຄໍາຄິດຄໍາເຫັນ	-8613
▁Mal	-8614
▁ຮົງ	-8615
▁ເນຍ	-8616
▁ຊ້ອມ	-8617
▁2013.	-8618
▁ສະຫຼະ	-8619
▁ເຕະບານ	-8620
▁ໂດຍໄດ້	-8621
ອັຟການິສຖານ	-8622
ຢ່າງໃດກໍ່ຕາມ	-8623
▁ກອງບັນຊາການ	-8624
ຫົງ	-8625
dney	-8626
tics	-8627
▁ແດ່	-8628
ublic	-8629
ສີຂາວ	-8630
ຫນ່ວງ	-8631
ະລັ່ງ	-8632
▁ເຄມີ	-8633
ລາວໄດ້	-8634
ສະຕະວັດ	-8635
ໂທລະໂຄ່ງ	-8636
▁ຕ້ານການ	-8637
ຄຣິສຕະຈັກ	-8638
ປັບປຸງການ	-8639
ເຊື່ອງໄວ້	-8640
▁ສອບປາກຄໍາ	-8641
▁ໃຫ້ຣັດເຊຍ	-8642
ອອກກໍາລັງກາຍ	-8643
arm	-8644
ron	-8645
www	-8646
ກັສ	-8647
ນາກ	-8648
▁ມັສ	-8649
ຕັ້ງໃຈ	-8650
▁ສອດຄ່ອງ	-8651
▁ຮູບເງົາ	-8652
▁ໃນກໍລະນີ	-8653
▁ຄຸນສົມບັດ	-8654
ບາງສິ່ງບາງຢ່າງ	-8655
UN	-8656
ava	-8657
lah	-8658
now	-8659
ມາມ	-8660
ສອກ	-8661
ີຍະ	-8662
ເລດ	-8663
▁ຄັບ	-8664
ຍາວ່າ	-8665
ມາຂອງ	-8666
▁ກູບາ	-8667
▁Magic	-8668
ເສຍສະຫຼະ	-8669
ໃນຮູບແບບ	-8670
ຈັດອັນດັບ	-8671
ທີ່ເກີດຂຶ້ນ	-8672
▁ສົນທິສັນຍາ	-8673
▁ອະດີດເອກອັກຄະ	-8674
DA	-8675
-19	-8676
▁IV	-8677
▁em	-8678
itch	-8679
ຫຍ້າ	-8680
ໄຮເມີ	-8681
▁ຫມັກ	-8682
▁ທໍາມະ	-8683
ແຕ່ງງານ	-8684
▁ຖືເປັນ	-8685
ການສະແດງ	-8686
ເມື່ອວັນ	-8687
▁ບັນເທີງ	-8688
▁ປະຊາກອນ	-8689
▁ພິທີມອບ	-8690
ocurrency	-8691
ທາງສັງຄົມ	-8692
▁ຂອງສະພາແຫ່ງຊາດ	-8693
ຶ່ອ	-8694
▁7,	-8695
▁MH	-8696
▁My	-8697
▁[0	-8698
imir	-8699
ວ່າວ	-8700
▁ແຊງ	-8701
ນີ້ຈະ	-8702
ນ້ອຍໆ	-8703
▁[...	-8704
▁hack	-8705
ຸ້ນວາຍ	-8706
ແຊກຊຶມ	-8707
▁Email	-8708
▁ແຫລ່ງ	-8709
ນິຕິກໍາ	-8710
ໄກ່ເກ່ຍ	-8711
ການນໍາພາ	-8712
ພັດທະນາຊ	-8713
▁ເຖິງແມ່ນ	-8714
ປູກຕົ້ນໄມ້	-8715
ຂອງເວັບໄຊທ໌	-8716
gov	-8717
ຣິນ	-8718
ຕົ້ມ	-8719
ລິຍະ	-8720
້ໍາລ	-8721
▁ພົງ	-8722
▁2000	-8723
▁ໂຫລດ	-8724
▁ໃນໄທ	-8725
ຢ່າງບໍ່	-8726
▁Galaxy	-8727
ອັດຕາການ	-8728
▁ນໍ້າມັນ	-8729
▁ບໍລິເວນ	-8730
ອາຊະຍາກໍາ	-8731
▁ກິດຈະການ	-8732
ສົນທິສັນຍາ	-8733
▁ຍັງບໍ່ທັນ	-8734
▁ຜ່ານມານີ້	-8735
ps	-8736
ຈູງ	-8737
ຕັບ	-8738
໋າຍ	-8739
▁69	-8740
▁Me	-8741
▁ຄົດ	-8742
▁TECH	-8743
▁ຫນາມ	-8744
ຕໍ່ກັບ	-8745
▁ພົມມະ	-8746
▁ລໍຖ້າ	-8747
ສູງເຖິງ	-8748
ະນິດສາດ	-8749
ແບບຢ່າງ	-8750
▁ຕັ້ງແຕ່	-8751
▁ເຊິ່ງຈະ	-8752
▁ກະລຸນາໃສ່	-8753
▁ໃຫ້ມີຄວາມ	-8754
▁ຄັ້ງທໍາອິດ	-8755
EA	-8756
WS	-8757
dy	-8758
ຢູ່	-8759
ustr	-8760
ຄ້ໍາ	-8761
▁Jul	-8762
▁Mer	-8763
▁ສີດ	-8764
olden	-8765
ໂດຍໄວ	-8766
▁your	-8767
ອົງກອນ	-8768
▁ແລະພວກ	-8769
ຂັ້ນແຂວງ	-8770
ຢູ່ປະເທດ	-8771
ອິດທິພົນ	-8772
▁ເງິນສົດ	-8773
ເປັນພິເສດ	-8774
▁VOVworld	-8775
ບຸກຄະລາກອນ	-8776
ສິ່ງສໍາຄັນ	-8777
▁ສະຫນາມບິນ	-8778
ມີຄວາມສໍາຄັນ	-8779
te	-8780
ເນີ	-8781
໋ອງ	-8782
ອາໃສ	-8783
▁700	-8784
▁ຈອງ	-8785
ຫຼົ່ນ	-8786
▁ຈ້າງ	-8787
ກໍາຈັດ	-8788
ຕອນນີ້	-8789
▁ພຽງພໍ	-8790
ຈົນເຖິງ	-8791
ທີ່ເຮັດ	-8792
ຜູ້ກ່ຽວ	-8793
▁ຈະຕ້ອງ	-8794
ໃຫ້ບັນດາ	-8795
ຜູ້ປະສົບໄພ	-8796
▁ກ່ອນທີ່ຈະ	-8797
ລະຫວ່າງປະເທດ	-8798
ໃນການພັດທະນາ	-8799
▁ອັດຕາແລກປ່ຽນ	-8800
-6	-8801
atz	-8802
▁Je	-8803
ປະຖໍາ	-8804
ຕົກຕາດ	-8805
ທຶນຄືນ	-8806
ນ້ໍາທາ	-8807
ປວງຊົນ	-8808
▁ນັບຖື	-8809
▁ມາຈາກ	-8810
▁ມຸສລິ	-8811
ລ້ວນແຕ່	-8812
ນຸ່ງຫົ່ມ	-8813
▁ອີກດ້ວຍ	-8814
ແມ່ນເພື່ອ	-8815
ຄວາມເສຍຫາຍ	-8816
▁2017-2018	-8817
▁ທີ່ຖືກຄຸມຂັງ	-8818
/9	-8819
ບະ	-8820
ມຸນ	-8821
ອ່າງ	-8822
▁Cin	-8823
▁Col	-8824
▁ຮົມ	-8825
▁ຊ້າຍ	-8826
ຕໍາກັບ	-8827
ລົດຊາດ	-8828
▁ປະຫານ	-8829
ວິໄສທັດ	-8830
ຄະນະປະຈໍາ	-8831
ທີ່ດີເລີດ	-8832
ຮັບສະຫມັກ	-8833
▁ສະພາບການ	-8834
▁Analytics	-8835
ເຖິງແມ່ນວ່າ	-8836
▁ທ່ານລັດຖະມົນຕີ	-8837
ago	-8838
ape	-8839
ທືນ	-8840
▁72	-8841
ປັ້ນ	-8842
ັດທໍາ	-8843
ໃນຊ່ວງ	-8844
ກັ່ນຕອງ	-8845
▁ທຸກຄົນ	-8846
▁ມີທ່ານ	-8847
▁ຫມາຍເຫດ	-8848
▁ລະບຽບການ	-8849
▁ທະນາຍຄວາມ	-8850
▁ຜົນປະໂຫຍດ	-8851
.0	-8852
aj	-8853
akh	-8854
ຢິບ	-8855
laos	-8856
uang	-8857
ຄໍານ	-8858
ດາລາ	-8859
ພາລະ	-8860
▁ທໍານ	-8861
▁ເສັງ	-8862
ເດັດຂາດ	-8863
ແຈ້ງວ່າ	-8864
ການເຈລະຈາ	-8865
ທະເລຈີນໃຕ້	-8866
ເຮັດໃຫ້ການ	-8867
▁ພວກຄອບຄົວ	-8868
hip	-8869
vey	-8870
ກາກ	-8871
▁ໂຢ	-8872
▁ເຫມ	-8873
ຫງວຽນ	-8874
າຊ່ວຍ	-8875
▁Land	-8876
▁ເຈີນ	-8877
ສະຫລຸບ	-8878
ສໍານຶກ	-8879
ແຕ່ວ່າ	-8880
ແບບຟອມ	-8881
ສິ້ງຊອມ	-8882
▁ບັນທຸກ	-8883
ພະແນກການ	-8884
▁ຂອງກຸ່ມ	-8885
ເຊັນສັນຍາ	-8886
▁Marketing	-8887
▁ທີ່ໄດ້ຮັບ	-8888
▁ຈະໄດ້ທຶນຄືນ	-8889
▁ເມືອງໄຊເສດຖາ	-8890
▁ເລື່ອງລາວຂອງ	-8891
ຖຽງ	-8892
▁56	-8893
▁61	-8894
▁128	-8895
▁Fant	-8896
▁ໃນໂລກ	-8897
▁ສະຫລຸບ	-8898
ອົງປະກອບ	-8899
▁ໄດ້ສ້າງ	-8900
▁ສັ່ງໃຫ້ໂຈະ	-8901
ປີທ່ອງທ່ຽວລາວ	-8902
▁Go	-8903
ater	-8904
ມາລາ	-8905
ເປົາ	-8906
▁555	-8907
▁ຈອດ	-8908
GITAL	-8909
ຊອບແວ	-8910
ຮ່ວາງ	-8911
ເປົ່າ	-8912
ໂລຫິດ	-8913
▁ຄ້າງ	-8914
▁ໃນນີ້	-8915
ທີ່ເກີດ	-8916
▁ຊົງຣິດ	-8917
▁ໃຫ້ກັບ	-8918
▁DIGITAL	-8919
▁Vladimir	-8920
▁ປະທານສະພາ	-8921
▁ຜັນຂະຫຍາຍ	-8922
▁ຟັງລາຍງານ	-8923
ການເລືອກຕັ້ງ	-8924
▁ຄວາມຕ້ອງການ	-8925
▁ອົງການຕ່າງໆ	-8926
",	-8927
ຂົງ	-8928
▁at	-8929
▁Bel	-8930
▁Rev	-8931
▁ກາວ	-8932
▁ຊັນ	-8933
▁ໂພດ	-8934
▁Star	-8935
▁plug	-8936
ທີມຊາດ	-8937
ບໍ່ຄວນ	-8938
ຕ້ານການ	-8939
ຄົນຫນຶ່ງ	-8940
ເຮັດຫຍັງ	-8941
▁ຄວາມທຸກ	-8942
ເຈລະຈາກັບ	-8943
ໃນຕໍ່ຫນ້າ	-8944
ສະບຽງອາຫານ	-8945
▁ເພີ້ມຂຶ້ນ	-8946
▁ຂອງເຂົາເຈົ້າ	-8947
ຟິ	-8948
ots	-8949
ສຸນ	-8950
ເຄນ	-8951
▁wh	-8952
,...	-8953
reen	-8954
▁ອຽດ	-8955
ສະມາດ	-8956
▁ອີຢູ	-8957
ກັນວ່າ	-8958
ຕ່າງປະ	-8959
ມານັ້ນ	-8960
້ານ້ອຍ	-8961
▁ລະດົມ	-8962
ສ່ຽງໃຕ້	-8963
ທີ່ດີກວ່າ	-8964
▁Category	-8965
▁ທີ່ຜ່ານມາວ່າ	-8966
TUP	-8967
▁Er	-8968
▁Mag	-8969
▁Mon	-8970
ທັກສະ	-8971
ຜູ້ມີ	-8972
ວບລວມ	-8973
່ວຍສາ	-8974
▁ປະທາ	-8975
ໃນແຂວງ	-8976
▁Title	-8977
▁STARTUP	-8978
▁ກ່າວຕໍ່	-8979
▁ພວກເຮົາກ	-8980
▁ການປັບປຸງ	-8981
▁ລົງໂຄສະນາ	-8982
ມີຄວາມສົນໃຈ	-8983
-7	-8984
35	-8985
BC	-8986
ນົມ	-8987
ົດໃຈ	-8988
ແຫວງ	-8989
ໄຂມັນ	-8990
ຂັບຂີ່	-8991
ມອບໃຫ້	-8992
▁ສົມພອນ	-8993
ກະທໍາຜິດ	-8994
ຈະສືບຕໍ່	-8995
ປະສົມປະສານ	-8996
▁ໄດ້ຮັບລາງວັນ	-8997
ລຽບ	-8998
▁sm	-8999
ດົ່ງ	-9000
-2014	-9001
▁Mart	-9002
▁ສະຖາ	-9003
▁ເມີນ	-9004
asaxon	-9005
▁ແຕ່ກໍ	-9006
ນໍາດ້ວຍ	-9007
ລະດູການ	-9008
ເສລີພາບ	-9009
ແຈ້ງເຫດ	-9010
ແຕ່ລະຄົນ	-9011
▁ຍົກຍ້າຍ	-9012
ຜົນໄດ້ຮັບ	-9013
ແຂວງສາລະວັນ	-9014
▁ຫົວຫນ້າອົງການ	-9015
2016	-9016
ຍອດນ	-9017
▁ຊິດ	-9018
ember	-9019
ລະນຶກ	-9020
ສີດໍາ	-9021
ຊາວບ້ານ	-9022
▁ປະເມີນ	-9023
ການແກ້ໄຂ	-9024
ສັງຄົມນິຍົມ	-9025
ເກັບກໍາຂໍ້ມູນ	-9026
ຜ່	-9027
ມອງ	-9028
ວອນ	-9029
▁It	-9030
form	-9031
ຜູ້ໃດ	-9032
ໄຕມາດ	-9033
▁Rand	-9034
▁ຖ້ວນ	-9035
▁ແຕ່ນ	-9036
ຮັ່ງມີ	-9037
ຄາດຫວັງ	-9038
ນໍ້າມັນ	-9039
ລ້ຽງສັດ	-9040
ແນວໂນ້ມ	-9041
▁ຍົກເລີກ	-9042
▁ຫຍຸ້ງຍາກ	-9043
ຫນ່ວຍກູ້ໄພ	-9044
ພົບປະແລກປ່ຽນ	-9045
ຢ່າງເຂັ້ມງວດ	-9046
ຄໍາຮ້ອງສະຫມັກ	-9047
▁ທີ່ນະຄອນຫຼວງ	-9048
ຢ່າງມີປະສິດທິຜົນ	-9049
que	-9050
ນາວ	-9051
ກ້ວຍ	-9052
ມາລີ	-9053
ເຈ້ຍ	-9054
▁ຄາວ	-9055
ນິບາດ	-9056
ສົດໃສ	-9057
ຕາມການ	-9058
ສໍານັກ	-9059
▁ຄະແນນ	-9060
▁ມັນຈະ	-9061
ຄະນະນໍາ	-9062
ນິວເຄຼຍ	-9063
ເຕືອນໄພ	-9064
▁Sydney	-9065
ເຂົ້າຮຽນ	-9066
ໂດດເດັ່ນ	-9067
ເປັນປະຈໍາ	-9068
▁Internet	-9069
ຜູ້ບາດເຈັບ	-9070
ຜູ້ເຂົ້າຊົມ	-9071
▁ສິດທິມະນຸດ	-9072
▁ຮັກສາຄວາມປອດໄພ	-9073
na	-9074
▁46	-9075
▁ກປ	-9076
▁Moh	-9077
▁ດົມ	-9078
ມີຄລິບ	-9079
ເຂົ້ານ	-9080
▁ໃນລາວ	-9081
ກົມໃຫຍ່	-9082
▁Tattoo	-9083
ການໂຈມຕີ	-9084
▁ທັດສະນະ	-9085
▁ຮ່ວມຄິດ	-9086
▁ກ່ອນຫນ້າ	-9087
ເລືອກຕັ້ງທີ	-9088
▁ປະຕິວັດລາວ	-9089
▁ສະບັບເລກທີ	-9090
ໃນໄລຍະຜ່ານມາ	-9091
ໄຄ	-9092
▁—	-9093
cis	-9094
▁95	-9095
▁ໄຫ	-9096
▁---	-9097
▁ຖວທ	-9098
▁ໄຂ້	-9099
▁ຄຣິສ	-9100
▁ຊອບແວ	-9101
▁ໃນຮອບ	-9102
ລູກສອນໄຟ	-9103
▁ຫວັງວ່າ	-9104
▁ກໍາມະບານ	-9105
ບັນດາໂຄງການ	-9106
ຝາ	-9107
ຟາ	-9108
▁%	-9109
▁TV	-9110
▁ໂຫ	-9111
ທະລຸ	-9112
▁opp	-9113
▁ອາໄສ	-9114
ປຽບທຽບ	-9115
▁Coast	-9116
ຄວາມງາມ	-9117
▁ລາຍຮັບ	-9118
▁ຄອນຫຼວງ	-9119
▁ຫ່າງຈາກ	-9120
▁ແລະເປັນ	-9121
▁ຄວາມຫມາຍ	-9122
ສາມຫຼ່ຽມຄໍາ	-9123
▁ເພື່ອແຊກຊຶມ	-9124
ຊຸ	-9125
ຟໍ	-9126
ລຶບ	-9127
ະລີ	-9128
▁ພຍ	-9129
ເນາະ	-9130
▁450	-9131
▁Red	-9132
▁str	-9133
▁ເຫວ	-9134
ສະສົມ	-9135
ຜູ້ຍິງ	-9136
ຜູ້ຟັງ	-9137
ໃຫມ່ໃນ	-9138
▁2011.	-9139
▁Valent	-9140
ແຜນການປີ	-9141
ຂາຍສິນຄ້າ	-9142
ອົດສະຕຣາລີ	-9143
ັກທ່ອງທ່ຽວ	-9144
▁ທີ່ກໍາລັງ	-9145
ດ້ານວິຊາການ	-9146
ຖອຍ	-9147
▁8,	-9148
▁fl	-9149
ecur	-9150
ound	-9151
ກ່ອງ	-9152
ຊີທີ	-9153
າວັດ	-9154
ເມນູ	-9155
▁ຢຶດ	-9156
ມັກຈະ	-9157
ຄວາມດີ	-9158
ລໍາບາກ	-9159
ເອົາມາ	-9160
▁ປະນາມ	-9161
ໃນມື້ທີ	-9162
▁ຕົນເອງ	-9163
▁ສະຫນັບ	-9164
▁ມໍລະດົກ	-9165
ສ່ວນຫນຶ່ງ	-9166
ເຂື່ອນໄຟຟ້າ	-9167
WC	-9168
▁he	-9169
awei	-9170
ongs	-9171
ຈໍານ	-9172
ຫນານ	-9173
ເທັກ	-9174
ແກ້ງ	-9175
▁ອອງ	-9176
ອາລົມ	-9177
ໍາໃຊ້	-9178
▁Cast	-9179
ເພດຊາຍ	-9180
▁ມູນິດ	-9181
▁Server	-9182
▁ຄົນລາວ	-9183
▁ຄໍາວ່າ	-9184
ທັງພາຍໃນ	-9185
ໄລຍະເວລາ	-9186
▁ເປີດເຜີຍ	-9187
▁ໃນມື້ນີ້	-9188
ພວກເຮົາໄດ້	-9189
ສະພາບອາກາດ	-9190
▁ຖານສົມຮູ້	-9191
▁ຝຶກອົບຮົມ	-9192
ຊື	-9193
erb	-9194
ປອງ	-9195
ຮ່ວາ	-9196
ບາງສ່ວນ	-9197
ຫນ້າຂອງ	-9198
▁ຂອງຈີນ	-9199
ພຶດຕິກໍາ	-9200
ແມ່ນເປັນ	-9201
▁cookies	-9202
▁ນໍາເອົາ	-9203
▁ອາຟຣິກາ	-9204
ຸກະຈາຍສຽງ	-9205
ເຊື່ອຖືໄດ້	-9206
ຂອງພະນັກງານ	-9207
ໂດຍບໍ່ມີການ	-9208
▁ຢູ່ຮ່າໂນ້ຍ	-9209
ຄະແນນການໂຫວດ	-9210
ສ້າງຄວາມເຂັ້ມແຂງ	-9211
ka	-9212
/05	-9213
ີນີ	-9214
▁9,	-9215
▁!!!	-9216
▁kid	-9217
▁ລິນ	-9218
▁2561	-9219
ທາງທິດ	-9220
ທ່ານຈະ	-9221
ບໍານານ	-9222
ສະຫວັດ	-9223
▁ໃນງານ	-9224
ນິວເຄລຍ	-9225
▁ຍ້ອງຍໍ	-9226
▁ຜູ້ໃຊ້	-9227
▁ລັກລອບ	-9228
ເທດສະບານ	-9229
▁ການແກ້ໄຂ	-9230
▁ກົດລະບຽບ	-9231
▁ວິສະວະກໍາ	-9232
ຂອງສະພາແຫ່ງຊາດ	-9233
▁ສ໌	-9234
ຕີນາ	-9235
ເຫ້ວ	-9236
▁ຫາງ	-9237
ທີສາມ	-9238
▁ຄື້ນ	-9239
ສືບທອດ	-9240
▁ດົນຕີ	-9241
້ອນຂ້າງ	-9242
ເຈົ້າພາບ	-9243
ສື່ສັງຄົມ	-9244
່ວຍສາອາກອນ	-9245
▁ທີ່ຫ້ອງປະຊຸມ	-9246
ຮັກສາຄວາມປອດໄພ	-9247
▁ຫງວຽນທິກິມເງິນ	-9248
iy	-9249
-17	-9250
ota	-9251
ທຸດ	-9252
ພິກ	-9253
ໍາ້	-9254
ຫມໍ້	-9255
▁Vir	-9256
ບັນຊາ	-9257
ສະມັກ	-9258
▁Batt	-9259
▁York	-9260
▁kiss	-9261
▁ລືມຊື່	-9262
▁ໄວຫນຸ່ມ	-9263
ທິການບໍດີ	-9264
▁ການປະທ້ວງ	-9265
ຕ້ອນຮັບທ່ານ	-9266
▁ພ້ອມດຽວກັນ	-9267
ຢ່າງເລິກເຊິ່ງ	-9268
Al	-9269
ange	-9270
elle	-9271
▁ລວງ	-9272
▁ລານ	-9273
▁ແຝງ	-9274
ພັນສາ	-9275
ອົງຄະ	-9276
ຢ່າງໄວ	-9277
▁Bratz	-9278
ຈຸດຫມາຍ	-9279
▁ຂອງໂລກ	-9280
▁ຫງວຽນຝູ	-9281
▁ທັນສະໄຫມ	-9282
▁ຟ້ອງຮ້ອງ	-9283
ຕົວທ່ອງເວັບ	-9284
ໂຮງງານຜະລິດ	-9285
▁ກໍາມະການພັກແຂວງ	-9286
aka	-9287
ພົງ	-9288
▁HD	-9289
ouch	-9290
▁ຜົວ	-9291
▁ຮີບ	-9292
ນໍາໄປ	-9293
ຫນ່າງ	-9294
▁2006	-9295
▁Hits	-9296
▁ສະລະ	-9297
▁ເທັກ	-9298
ແນວໂຮມ	-9299
▁ມະນູນ	-9300
ຄວາມບໍ່	-9301
ນີ້ເປັນ	-9302
▁ລູກສາວ	-9303
ຄວາມພ້ອມ	-9304
▁ພີ່ນ້ອງ	-9305
▁ວັດທະນາ	-9306
ຂອງວີໂອເອ	-9307
ຄວາມສົນໃຈ	-9308
▁ເຂັ້ມແຂງ	-9309
ຄວາມຫຍຸ້ງຍາກ	-9310
▁ເປັນເຈົ້າການ	-9311
▁ແຂວງຜົ້ງສາລີ	-9312
▁ທາງອິນເຕີແນັດ	-9313
RA	-9314
ົ້	-9315
-15	-9316
ຊອງ	-9317
▁Em	-9318
ຊື່ງ	-9319
▁LAO	-9320
ກະທູ້	-9321
▁ນິ້ວ	-9322
ເຫຼົ້າ	-9323
▁ສົນໃຈ	-9324
ພ້ອມພຽງ	-9325
ເວລານີ້	-9326
▁ສະເຫມີ	-9327
ເກົ່າແກ່	-9328
▁ຕື້ໂດລາ	-9329
▁ຂ່າວເດັ່ນ	-9330
ບັນຊີລາຍຊື່	-9331
ກ່ຽວກັບວຽກງານ	-9332
ຜະລິດຕະພັນຫຼື	-9333
▁ເຊັ່ນດຽວກັນກັບ	-9334
.5	-9335
OM	-9336
▁67	-9337
otor	-9338
ພິພິ	-9339
▁ງວດ	-9340
▁ເຈນ	-9341
ຂ່າວກ	-9342
▁2015,	-9343
ຢ້ານກົວ	-9344
ທີ່ປຶກສາ	-9345
ຫນ້ານັ້ນ	-9346
▁ຕີລາຄາສູງ	-9347
ການຄ້າມະນຸດ	-9348
ໄດ້ຮັບບາດເຈັບ	-9349
ຊົນເຜົ່າຫວຽດນາມ	-9350
CP	-9351
ລອນ	-9352
ແອັດ	-9353
▁໒໐໑	-9354
ອິສຣາ	-9355
▁ພະຍາ	-9356
ທຸກທ່ານ	-9357
▁ອານາຈັກ	-9358
ບໍ່ມີຄວາມ	-9359
ໄດ້ກາຍເປັນ	-9360
ພາກຕາເວັນອອກ	-9361
ຂໍ້ມູນເພີ່ມເຕີມ	-9362
ມຸສ	-9363
ຢຸງ	-9364
ຖົ່ວ	-9365
ສັດທ	-9366
▁Cab	-9367
ລະພິດ	-9368
ຫະກໍາ	-9369
ທໍລະມານ	-9370
ມີໂອກາດ	-9371
▁Huawei	-9372
▁ແຊກແຊງ	-9373
▁ລ້ານບາດ	-9374
▁ສະພາສູງ	-9375
ຜູ້ບໍລິຫານ	-9376
ສາມາດເຮັດໄດ້	-9377
93	-9378
zy	-9379
ຕລ	-9380
int	-9381
ຫາປາ	-9382
▁Pan	-9383
ຢູໂຣບ	-9384
▁ລະບຽງ	-9385
ອາຟຣິກາ	-9386
ເພາະວ່າ	-9387
▁ໃນຊ່ວງ	-9388
▁ຄວາມຄິດ	-9389
ການປັບປຸງ	-9390
▁ເອີ້ນວ່າ	-9391
▁ໃນຈໍານວນ	-9392
ສະເຫຼີມສະຫຼອງວັນ	-9393
ັວນ	-9394
▁(3	-9395
▁Ag	-9396
▁my	-9397
ລົ້ນ	-9398
▁ທົນ	-9399
ບາດແຜ	-9400
ພະຍານ	-9401
ລົງໃນ	-9402
▁iPad	-9403
▁ຄລິກ	-9404
ations	-9405
ຜູ້ດຽວ	-9406
ຣັຖບານ	-9407
ຮັກຊາດ	-9408
ໃນພິທີ	-9409
ທ່ານເອງ	-9410
▁ມີຖຸນາ	-9411
ເທົ່າທຽມ	-9412
▁ເກັບກໍາ	-9413
▁ໂດຍຜ່ານ	-9414
ຊ່ອຍເຫຼືອ	-9415
ທ້າຍເດືອນ	-9416
ເພື່ອນບ້ານ	-9417
▁ການໂຄສະນາ	-9418
ທີ່ຈະເຮັດໃຫ້	-9419
ສ່ວນຫນຶ່ງຂອງ	-9420
ley	-9421
ປະນ	-9422
▁52	-9423
▁86	-9424
gram	-9425
ward	-9426
ບໍຣິ	-9427
ເຂດນ	-9428
▁ເພັງ	-9429
▁ຫມື່ນ	-9430
▁ອິດສະ	-9431
oftware	-9432
▁ຜູ້ຍິງ	-9433
▁ສູງສຸດ	-9434
ສະບັບນີ້	-9435
▁Hillary	-9436
▁ຄົນໃຫມ່	-9437
ກອງທັບເຮືອ	-9438
ຣີພັບບລີກັນ	-9439
ຄວາມກ້າວຫນ້າ	-9440
ທີ່ກໍານົດໄວ້	-9441
ມະຕິກອງປະຊຸມ	-9442
ຕິດຕໍ່ພວກເຮົາ	-9443
▁ຂໍ້ມູນຂ່າວສານ	-9444
▁ເຈີ່ນດ້າຍກວາງ	-9445
ife	-9446
ຂຸມ	-9447
▁ພສ	-9448
ຫນາມ	-9449
ເກີບ	-9450
▁10%	-9451
▁HGH	-9452
▁Key	-9453
▁War	-9454
ເອີລົບ	-9455
ແປພາສາ	-9456
ແຮ່ທາດ	-9457
ຄົງຄ້າງ	-9458
▁Heroes	-9459
▁virtual	-9460
ຮ່ວມມືກັບ	-9461
▁ແຫ່ງຊາດລາວ	-9462
▁ໃນການໂຈມຕີ	-9463
ເຄື່ອງຈັກຊອກຫາ	-9464
9.	-9465
-11	-9466
600	-9467
700	-9468
ຟຟລ	-9469
ມວຍ	-9470
ຮຽງ	-9471
ຶ້ງ	-9472
enna	-9473
ື່ອມ	-9474
▁Sum	-9475
▁ເມກ	-9476
ພູມໃຈ	-9477
ທີ່ພັກ	-9478
ລານັ້ນ	-9479
ສຽງໃຕ້	-9480
ດາວໂຫຼດ	-9481
▁ຢູ່ນໍາ	-9482
▁ສືບລັບ	-9483
▁ແນວທາງ	-9484
ປະເພດຂອງ	-9485
ຢູ່ນະຄອນ	-9486
ເມືອງລາວ	-9487
າຊົນນະບົດ	-9488
▁ສະຖານະການ	-9489
ບັນຊີລາຍການ	-9490
▁ວັນສ້າງຕັ້ງ	-9491
ຮຽກຮ້ອງຕ້ອງການ	-9492
▁cryptocurrency	-9493
yl	-9494
imp	-9495
str	-9496
ໄຮ້	-9497
▁Mod	-9498
▁ງອກ	-9499
▁ທັມ	-9500
▁ຣານ	-9501
ຂອງໄທ	-9502
▁ຄະຕິ	-9503
▁ແຫ້ງ	-9504
ສູ້ຮົບ	-9505
▁ສາເຫດ	-9506
▁ເຮືອງ	-9507
ກໍາຫນົດ	-9508
ະນະທ່ານ	-9509
▁ຂຶ້ນມາ	-9510
▁ທໍານຽບ	-9511
ສ້າງຂຶ້ນ	-9512
▁ຂອງພະຍາດ	-9513
ປົກຄອງແຂວງ	-9514
▁ໄປຢ້ຽມຢາມ	-9515
ປ່ຽນແປງໃຫມ່	-9516
ລົງຄະແນນສຽງ	-9517
ເປັນເຈົ້າການ	-9518
▁ຂອງຢາເສບຕິດ	-9519
/4	-9520
GB	-9521
ໂຟ	-9522
/06	-9523
ເຊິງ	-9524
▁ນົມ	-9525
▁Sant	-9526
▁ຊາຍແດນ	-9527
▁ທີ່ຍັງ	-9528
▁ທີ່ໃຊ້	-9529
▁ບາງຄົນ	-9530
▁ແຕ່ຍັງ	-9531
▁ດ້ານການ	-9532
▁ພະເຈົ້າ	-9533
ອາດຈະເປັນ	-9534
▁ສະພາການຄ້າ	-9535
/5	-9536
8,	-9537
300	-9538
ດູນ	-9539
▁47	-9540
▁Ru	-9541
▁ດິດ	-9542
່ານັບ	-9543
ນ້ໍາໃຈ	-9544
ຫ່າງຈາກ	-9545
ື່ອກ່ອນ	-9546
ເວລາດົນ	-9547
▁ຮັດກຸມ	-9548
ຢ່າງວ່ອງໄວ	-9549
ລະມັດລະວັງ	-9550
▁ທ່ານປະທານ	-9551
ການນໍາເຂົ້າ	-9552
▁ຈັດກອງປະຊຸມ	-9553
▁ເຂດສາມຫຼ່ຽມຄໍາ	-9554
ງາ	-9555
ຮ່ໍາ	-9556
▁Pol	-9557
▁ດີດ	-9558
ວຽງໄຊ	-9559
ສາຍຕາ	-9560
▁ມາສະ	-9561
▁ເຕີນ	-9562
ຸ່ນຍົນ	-9563
▁ຖາວອນ	-9564
ປັກກິ່ງ	-9565
ສະດາຈານ	-9566
▁Sponge	-9567
▁ລາວໄດ້	-9568
ຢ່າງຫນັກ	-9569
▁Fantasy	-9570
▁ປົກປ້ອງ	-9571
▁ໃຊ້ເວລາ	-9572
ສະເຫນີໂດຍ	-9573
ເງິນເດືອນ	-9574
ທີ່ສຸດໃນໂລກ	-9575
ສາທາລະນະລັດ	-9576
▁ຜະລິດມາຈາກ	-9577
▁ຂ່າວປະຈໍາວັນ	-9578
eat	-9579
eth	-9580
▁ສິວ	-9581
/2016	-9582
ກະດູກ	-9583
▁ຖ້ຽວ	-9584
attana	-9585
ຊີ້ແຈງ	-9586
ພວກນັກ	-9587
▁(2017	-9588
▁bonus	-9589
▁ມາເຣຍ	-9590
▁ຕອນນີ້	-9591
ເທົ່າກັບ	-9592
▁Pirates	-9593
▁ກົມໃຫຍ່	-9594
ກາລະໂອກາດ	-9595
ຫຼັກແຫຼ່ງ	-9596
▁ອິສຣາແອລ	-9597
ຢ່າງແທ້ຈິງ	-9598
▁ໃນອັດຕາສະເລ່ຍ	-9599
oro	-9600
ຣາຍ	-9601
ລັນ	-9602
ກິ່ນ	-9603
ເຊັຽ	-9604
ເດໂມ	-9605
▁ຂູ່	-9606
▁ຍົບ	-9607
▁ນວຍ	-9608
ເອົາກ	-9609
ໃນຮອບ	-9610
▁Port	-9611
▁Show	-9612
ພົບວ່າ	-9613
ສັນຊາດ	-9614
▁ລະບອບ	-9615
▁ສອນໄຊ	-9616
▁ອີຣານ	-9617
ທີ່ຕ້ອງ	-9618
ມະຫາກໍາ	-9619
ເທື່ອລະ	-9620
ເປີດຢູ່ໃນ	-9621
▁ໃນຄັ້ງນີ້	-9622
LE	-9623
ປອນ	-9624
ແດດ	-9625
▁Pa	-9626
▁up	-9627
orge	-9628
▁Her	-9629
▁ດ່າ	-9630
▁ບິດ	-9631
▁ໂຕະ	-9632
ເອົານ	-9633
▁Holm	-9634
▁ເຈາະ	-9635
▁ເສົ້າ	-9636
ecurity	-9637
ມີຊີວິດ	-9638
▁ລົງນາມ	-9639
ຜົນຜະລິດ	-9640
▁Francis	-9641
▁ການເຮັດ	-9642
▁ປ່ຽນແປງ	-9643
▁ພ້ອມນີ້	-9644
▁ແລະຄວາມ	-9645
▁ທີ່ມີການ	-9646
▁Valentine	-9647
ເປັນປົກກະຕິ	-9648
ທີ່ຂ້າພະເຈົ້າ	-9649
uff	-9650
ຕັກ	-9651
▁66	-9652
▁ປິ	-9653
aily	-9654
ຄະຕິ	-9655
▁194	-9656
▁are	-9657
ປີກາຍ	-9658
ອກລວງ	-9659
ການແພດ	-9660
ຍີ່ຫໍ້	-9661
▁kidork	-9662
ອາດສາມາດ	-9663
▁ສາດສະຫນາ	-9664
▁ໃນຕອນບ່າຍ	-9665
app	-9666
ຕົງ	-9667
ຶ່ນ	-9668
ເຈດ	-9669
▁ດ້	-9670
▁Bro	-9671
▁Cup	-9672
▁Sol	-9673
▁URL	-9674
iance	-9675
ການຂາຍ	-9676
ງົດງາມ	-9677
▁ທະວີບ	-9678
▁ວາງສະ	-9679
▁ຕອບກັບ	-9680
ໃຫ້ນັກຮຽນ	-9681
ຮັບຕໍາແຫນ່ງ	-9682
▁ຊາວໂຊມາເລຍ	-9683
▁ມະຫາວິທະຍາ	-9684
ການຂະຫຍາຍຕົວ	-9685
▁ປະເທດຫວຽດນາມ	-9686
ke	-9687
oi	-9688
uth	-9689
ຈູດ	-9690
ຮ່າ	-9691
elop	-9692
ຊີຣີ	-9693
ຕິກິ	-9694
ຫມຶກ	-9695
ຕິຕຽນ	-9696
ລົດເມ	-9697
ການກິນ	-9698
ລວບລວມ	-9699
ພານຸວົງ	-9700
ໂທລະຄົມ	-9701
ໄດ້ງ່າຍ	-9702
▁ຕົວແທນ	-9703
▁ອິຣ່ານ	-9704
ລ່ວງຫນ້າ	-9705
▁ປະກອບດ້ວຍ	-9706
ຊ່ວຍໃຫ້ທ່ານ	-9707
▁ຜິດກົດຫມາຍ	-9708
ລັດຖະທໍາມະນູນ	-9709
▁ພວກຂ້າພະເຈົ້າ	-9710
▁ໃຫ້ການປົກປ້ອງ	-9711
▁La	-9712
▁qu	-9713
ມໍ່ໆ	-9714
ເທີນ	-9715
ຄູອາຈານ	-9716
ຄູ່ຮ່ວມ	-9717
ທີ່ເຮົາ	-9718
▁ກອງທຶນ	-9719
ທີ່ຈະນໍາ	-9720
ລົງນາມໃນ	-9721
▁ຕິດຕັ້ງ	-9722
ທາງພາກໃຕ້	-9723
▁ຈັນທະບູລີ	-9724
▁ຕອບສະຫນອງ	-9725
▁ບົນພື້ນຖານ	-9726
▁ຄະນະຕຸລາການ	-9727
▁ແຜນຍຸດທະສາດ	-9728
▁ບັນດາສະມາຊິກ	-9729
ຖີ່	-9730
ຫາຊ	-9731
ມາຫາ	-9732
▁ດວກ	-9733
▁ຟາກ	-9734
▁Fest	-9735
▁ປອດໄພ	-9736
ຄລິກໃສ່	-9737
ຈະມີການ	-9738
ຈາກນັ້ນ	-9739
ິດຕະພາບ	-9740
▁ຂອງລັດ	-9741
▁ຢູ່ນອກ	-9742
ຈັກເທື່ອ	-9743
ບັນດາຜູ້	-9744
ຫລາຍຢ່າງ	-9745
ແຫ່ງຄວາມ	-9746
ໃນຕະຫຼາດ	-9747
▁ຈໍາເປັນ	-9748
▁ໄຕ້ຫວັນ	-9749
ຫາຍສາບສູນ	-9750
▁Phattana	-9751
▁ພ້ອມນັ້ນ	-9752
ການແລກປ່ຽນ	-9753
ເຊື່ອງຊ້ອນ	-9754
▁ວັນອັງຄານ	-9755
ດ້ານການເມືອງ	-9756
ແລະພວກເຮົາຈະ	-9757
▁ໃນໄລຍະຜ່ານມາ	-9758
ລະຫວ່າງສອງປະເທດ	-9759
▁ລາຍການກະຈາຍສຽງ	-9760
ສະຖານທີ່ທ່ອງທ່ຽວ	-9761
ທູນ	-9762
ຣາວ	-9763
ອີ່	-9764
▁AF	-9765
▁PS	-9766
ning	-9767
ດ່າງ	-9768
ຖ້ໍາ	-9769
▁ລຽນ	-9770
▁ໄຫລ	-9771
astic	-9772
ຫາສຽງ	-9773
ອຸທິດ	-9774
ເວບໄຊ	-9775
▁ຕົ໋ວ	-9776
▁ຫນໍ່	-9777
ຕົວແບບ	-9778
່ໍານັບ	-9779
▁ຄວາມໄວ	-9780
▁ສັນຍານ	-9781
▁ນໍາເຂົ້າ	-9782
ໃນກອງປະຊຸມ	-9783
▁ຂໍ້ກໍານົດ	-9784
ປ່ອງຢ້ຽມໃຫມ່	-9785
fer	-9786
ກົກ	-9787
ນິງ	-9788
ປາງ	-9789
▁AC	-9790
ໄຊຍະ	-9791
▁ທຸງ	-9792
ກຸສົນ	-9793
ເຄົ້າ	-9794
ຢຸດເຊົາ	-9795
ເປັນຈິງ	-9796
ໃນຊີວິດ	-9797
ອັນດັບທີ	-9798
ແລ້ວນັ້ນ	-9799
▁ຈັດພິທີ	-9800
▁ມູນເຊື້ອ	-9801
▁ກະຊວງການເງິນ	-9802
ທາມ	-9803
ໂກ້	-9804
ເກົາ	-9805
▁(3)	-9806
▁196	-9807
▁Mos	-9808
▁Nov	-9809
▁ທິມ	-9810
ກາແດງ	-9811
▁Plus	-9812
ຫຼາຍປີ	-9813
ຊົມຄລິບ	-9814
ຖ່າຍທອດ	-9815
ລົບລ້າງ	-9816
ແລະອື່ນໆ	-9817
ຕິດພັນກັບ	-9818
▁ເຫມາະສົມ	-9819
ແຜ່ນດິນໄຫວ	-9820
▁ທີ່ເຮັດໃຫ້	-9821
ບັນດາມາດຕະການ	-9822
ອາຊີຕາເວັນອອກ	-9823
DB	-9824
ແຖບ	-9825
▁85	-9826
▁Av	-9827
▁ດິ	-9828
▁ແສ	-9829
ທ່າອ	-9830
ບົ່ງ	-9831
▁10:	-9832
▁Lee	-9833
ບລັອກ	-9834
▁ຫົ່ມ	-9835
ລາຍວັນ	-9836
▁Sofia	-9837
ທີ່ຜ່ານ	-9838
ຮ່ໍາຮຽນ	-9839
ພວກເຮົາມີ	-9840
▁ກົດເພື່ອ	-9841
ຄຸນນະສົມບັດ	-9842
TE	-9843
400	-9844
XVN	-9845
ພັຍ	-9846
ຫມີ	-9847
ແນະ	-9848
ແລວ	-9849
▁2007	-9850
▁Arch	-9851
ກົງຈັກ	-9852
ສອງສາມ	-9853
▁Admin	-9854
▁ເຜີ້ງ	-9855
▁ໄດ້ໄຂ	-9856
▁ດຽວກັນ	-9857
ຄາດວ່າຈະ	-9858
ໄຟຟ້າລາວ	-9859
▁Bourgas	-9860
▁ຕອນເຊົ້າ	-9861
▁ບໍ່ມີແຜນ	-9862
▁ອິດສະຫຼະ	-9863
▁ເຈື່ອງຊາ	-9864
▁ສະຫງວນໄວ້	-9865
td	-9866
ove	-9867
ກຸດ	-9868
ປີ້ນ	-9869
ເຊີດ	-9870
▁ລໍ້	-9871
ສັ້ນໆ	-9872
▁ຊ້ໍາ	-9873
▁ເຍີຍ	-9874
▁ກໍາຈັດ	-9875
ປາດຖະຫນາ	-9876
ປຸກລະດົມ	-9877
ສະແດງອອກ	-9878
ເຊື້ອຊາດ	-9879
ເອົາຊະນະ	-9880
▁Wedding	-9881
▁ຄະນະນໍາ	-9882
▁ອະນຸລັກ	-9883
ກ່ອນທີ່ຈະ	-9884
▁ທີ່ບໍ່ມີ	-9885
▁ເສດຖະສາດ	-9886
▁ໄດ້ເຂົ້າ	-9887
ກາລະຕະຫຼາດ	-9888
ເບິ່ງວີດີໂອ	-9889
Ch	-9890
໊ກ	-9891
alk	-9892
aya	-9893
ຊຽນ	-9894
ຣະງ	-9895
ັອບ	-9896
▁ລູ	-9897
ited	-9898
rome	-9899
▁Der	-9900
▁Mad	-9901
▁Rom	-9902
ມາໃຫ້	-9903
ເກົ້າ	-9904
ໂຊກດີ	-9905
▁Just	-9906
▁Take	-9907
▁ລ້ວນ	-9908
ກະລຸນາ	-9909
ຮັບການ	-9910
ໂຕ້ຕອບ	-9911
າຊາຍທອງ	-9912
▁ມັສກັສ	-9913
▁ໃນແຂວງ	-9914
ຖ້າຫາກວ່າ	-9915
ນັບມື້ນັບ	-9916
ໃຫ້ແກ່ການ	-9917
▁ທີ່ປຶກສາ	-9918
▁ທີ່ຮ່ວມມື	-9919
▁ເປີດກວ້າງ	-9920
▁ເພາະສະນັ້ນ	-9921
▁ແມ່ນ້ໍາຂອງ	-9922
ທີ່ເປັນເອກະລັກ	-9923
▁ຕົ໋ວສາຍການບິນ	-9924
ໃຕ	-9925
isa	-9926
ແລກ	-9927
ible	-9928
ຫຼໍ່	-9929
▁ຖັງ	-9930
ຮິຣະງ	-9931
ເຟືອງ	-9932
ບຸນຄຸນ	-9933
▁Daily	-9934
▁ມຂຶ້ນ	-9935
▁ແປວ່າ	-9936
ຂອງປະທານ	-9937
ຂອງເຈົ້າ	-9938
▁ຄິດເປັນ	-9939
▁ຍາມໃດກໍ່	-9940
ມີຄວາມຫມາຍ	-9941
▁ຕົວຊີ້ວັດ	-9942
ຢ່າງຖືກຕ້ອງ	-9943
▁ການບໍລິຫານ	-9944
▁ປະສິດທິພາບ	-9945
▁ຈີນເວົ້າວ່າ	-9946
VC	-9947
wik	-9948
າກາ	-9949
ແຊນ	-9950
▁Im	-9951
▁Big	-9952
▁ຫ້ວຍ	-9953
ຕອບໂຕ້	-9954
ໂດຍໃຊ້	-9955
▁ກໍຍັງ	-9956
ຄັ້ງທີ່	-9957
ຈ່າຍຄ່າ	-9958
ຕ່າງຊາດ	-9959
ເຊື້ອໄຟ	-9960
▁ທີ່ນີ້	-9961
▁ພັນເອກ	-9962
ທາງລັດຖະ	-9963
ທຸດຈະລິດ	-9964
▁ຕົວເມືອງ	-9965
ປັດຕະຍະກໍາ	-9966
ເມື່ອວັນທີ່	-9967
ການເຂົ້າຮ່ວມ	-9968
▁ຈະຂະຫຍາຍຕົວ	-9969
▁ຕິດຕໍ່ທີມງານ	-9970
▁ຄວາມຮັບຜິດຊອບ	-9971
aph	-9972
ຕຣີ	-9973
ຖຸດ	-9974
ປປລ	-9975
▁(5	-9976
▁or	-9977
ຂົ່ມ	-9978
້ຍຸງ	-9979
▁Pok	-9980
-2015	-9981
ກັນໃນ	-9982
ເອກກະ	-9983
▁Inst	-9984
▁ເບ້ຍ	-9985
▁ເຜົາ	-9986
▁ໄດ້ໄປ	-9987
▁ພາກໃຕ້	-9988
ຝ່າຍຄ້ານ	-9989
ວັດຕະກໍາ	-9990
▁ໂພນເງິນ	-9991
ເຫດລະເບີດ	-9992
▁ເມືອງປາກ	-9993
ພົນລະເຮືອນ	-9994
ໃຫ້ສໍາເລັດ	-9995
ແຂວງອັດຕະປື	-9996
ການເຊື່ອມໂຍງ	-9997
▁ຄວາມສາມັກຄີ	-9998
▁ທີ່ກອງປະຊຸມ	-9999
/07	-10000
asc	-10001
ແມນ	-10002
▁ໄຄ	-10003
ages	-10004
ຟ້ອນ	-10005
ຫນໍ່	-10006
▁ແຖບ	-10007
ology	-10008
ໄປຈາກ	-10009
▁ວາລະ	-10010
▁ແຟັກ	-10011
ພຣະບາງ	-10012
▁ປະການ	-10013
▁ເຫຼີມ	-10014
ຂີດຫມາຍ	-10015
▁Christ	-10016
ທີ່ມາຈາກ	-10017
ຮັບມືກັບ	-10018
ະນະນີ້ໃນ	-10019
▁ໄດ້ສົ່ງ	-10020
ທີ່ຮ້າຍແຮງ	-10021
▁ການປົກຄອງ	-10022
ຈາກຕ່າງປະເທດ	-10023
▁ສຽງທີ່ສະແດງ	-10024
▁ຫນັງສືຮິຣະງ	-10025
▁ເມືອງວັງວຽງ	-10026
▁ກ່ຽວກັບພັນລາວ	-10027
▁ອາດຈະຫມາຍເຖິງ	-10028
ທາງດ້ານການເມືອງ	-10029
ມຕ	-10030
-03	-10031
ຈຽງ	-10032
ໂສກ	-10033
iami	-10034
ກູໂກ	-10035
ເມືອ	-10036
▁And	-10037
▁Ste	-10038
▁ອິງ	-10039
ather	-10040
ໃຫ້ດີ	-10041
▁ຊ່າງ	-10042
ກັນໄດ້	-10043
ຄາດວ່າ	-10044
ພັນຄົນ	-10045
ຶກຄື້ນ	-10046
້ວາງໃຈ	-10047
▁ປະດິດ	-10048
ພ້ອມດ້ວຍ	-10049
▁ສ່ວນຫຼາຍ	-10050
ຄວາມຄືບຫນ້າ	-10051
ຼີ	-10052
lec	-10053
ora	-10054
ໂປຼ	-10055
down	-10056
ປ່ວຍ	-10057
ື້ອມ	-10058
ເສຣີ	-10059
▁ຢືມ	-10060
arget	-10061
ຂອງພະ	-10062
ທີການ	-10063
ປະນາມ	-10064
ສາສນາ	-10065
▁Jong	-10066
▁ຫຍັດ	-10067
ກິດການ	-10068
▁ມົນຕີ	-10069
ຂົນຂວາຍ	-10070
▁ເຫັນດີ	-10071
ນັ້ນແມ່ນ	-10072
ປາກິສຖານ	-10073
▁ເອກະລາດ	-10074
▁ໃນອາທິດ	-10075
ຫນ້າທໍາອິດ	-10076
▁ການເຈລະຈາ	-10077
ແຂວງອຸດົມໄຊ	-10078
ສ້າງຕັ້ງຂຶ້ນ	-10079
ທາງດ້ານການເງິນ	-10080
ທີ່ກ່ຽວຂ້ອງກັບ	-10081
▁Kar	-10082
▁ກຊສ	-10083
▁ກີດ	-10084
ກະດານ	-10085
ຜ່າຕັດ	-10086
▁1,000	-10087
▁Miami	-10088
▁ສະອາດ	-10089
derella	-10090
ຖະຫນາວ່າ	-10091
ການຊື້ຂາຍ	-10092
▁ປະຫວັດຂອງ	-10093
▁ເຄື່ອງຈັກ	-10094
ມູນຄ່າເພີ່ມ	-10095
ຢ່າງເຕັມທີ່	-10096
ລະຫວ່າງຫວຽດນາມ	-10097
▁ຕິດຕໍ່ໂທລະໂຄ່ງ	-10098
uro	-10099
xit	-10100
ມີນ	-10101
ແຕນ	-10102
▁ໃຊ	-10103
ສັ່ນ	-10104
▁ສສຊ	-10105
ລະຊົນ	-10106
ຈໍາລາວ	-10107
ດຽວກັບ	-10108
ນາໆຊາດ	-10109
ເພດຍິງ	-10110
ຢູ່ບ່ອນ	-10111
▁ນອກນີ້	-10112
▁ສໍາຮອງ	-10113
▁ອັກສອນ	-10114
ລອດຊີວິດ	-10115
▁ເຈົ້າຈະ	-10116
▁ໃນບັນດາ	-10117
ແນະນໍາໃຫ້	-10118
ຜູ້ຊ່ຽວຊານ	-10119
▁ຈະເຮັດໃຫ້	-10120
▁ໄດ້ກາຍເປັນ	-10121
-01	-10122
ເກ່	-10123
▁CN	-10124
ແປ້ງ	-10125
ຂໍ້ຫາ	-10126
▁ແທ້ໆ	-10127
ບານໂລກ	-10128
ສັງກັດ	-10129
ຖິ່ນຖານ	-10130
▁ຍັງຄົງ	-10131
▁ປະຊາຄົມ	-10132
▁ເຮັດໃຫ້ມີ	-10133
▁Cinderella	-10134
ກອມມູນິດຫວຽດນາມ	-10135
2/	-10136
85	-10137
LC	-10138
inh	-10139
isc	-10140
ແຊບ	-10141
▁UK	-10142
▁el	-10143
▁sk	-10144
date	-10145
ນລັງ	-10146
ົສກູ	-10147
▁11.	-10148
ຕາແສງ	-10149
ໂປ່ງໃສ	-10150
▁[...]	-10151
▁ໃນລັດ	-10152
ຮັບຕ້ອນ	-10153
▁ສຸມໃສ່	-10154
/03/2018	-10155
ຜູ້ຜະລິດ	-10156
ສັນຍາວ່າ	-10157
▁ໄຊເສດຖາ	-10158
ບຸລິມະສິດ	-10159
ທັງຫມົດຂອງ	-10160
ທີ່ພວກເຂົາ	-10161
▁ເມື່ອທ່ານ	-10162
ກໍານົດໄວ້ໃນ	-10163
▁ເປັນຫົວຫນ້າ	-10164
ຢູ່ໃນການສໍາພັດ	-10165
▁ແຂວງບໍລິຄໍາໄຊ	-10166
-23	-10167
ham	-10168
ງົວ	-10169
ແຄບ	-10170
▁gr	-10171
ແທ່ງ	-10172
azine	-10173
conom	-10174
ໂຕເອງ	-10175
ຄຽງຄູ່	-10176
ໄວ້ອາໄລ	-10177
▁ບູຕີນາ	-10178
ຂັ້ນເທິງ	-10179
ຍອດນິຍົມ	-10180
ລ້ານໂດລາ	-10181
▁ລະບຸວ່າ	-10182
▁ຫລວງຫລາຍ	-10183
▁ໄດ້ໃຫ້ກຽດ	-10184
ກັບຄືນໄປບ່ອນ	-10185
▁ໄດ້ສະແດງຄວາມ	-10186
▁ໄຂງານວາງສະແດງ	-10187
ທີ່ຈະໃຫ້ພວກເຮົາ	-10188
/.	-10189
ລຽງ	-10190
ແອວ	-10191
work	-10192
ຈັ່ງ	-10193
ຊະນີ	-10194
ຖ່ານ	-10195
ເສັຍ	-10196
ແຊ້ມ	-10197
▁toy	-10198
▁ວິໄລ	-10199
ສ້າງສາ	-10200
ຫມາກໄມ້	-10201
▁ທີ່ສູນ	-10202
ຕ່ໍາກວ່າ	-10203
ບ້ານເກີດ	-10204
ປະເທດຈີນ	-10205
▁ຫມາກໄມ້	-10206
▁ກົມມະສິດ	-10207
CA	-10208
led	-10209
ner	-10210
ຫຍກ	-10211
▁2:	-10212
ອະໄພ	-10213
ເຕັກ	-10214
▁Fre	-10215
▁ນັນ	-10216
▁ຫມອນ	-10217
ລ້າສຸດ	-10218
▁ຊື່ວ່າ	-10219
ກິນອາຫານ	-10220
ທີ່ເມືອງ	-10221
▁ໄດ້ເປັນ	-10222
ີດັ່ງກ່າວ	-10223
▁ຫນ່ວຍພັກ	-10224
ຍົກໃຫ້ເຫັນ	-10225
ເຮັດວຽກຢູ່	-10226
▁ພ້ອມຂອງກາງ	-10227
On	-10228
---	-10229
ose	-10230
ລົກ	-10231
ດັ້ງ	-10232
ະນຸກ	-10233
▁ເອດ	-10234
ທະກັນ	-10235
▁ປຸ່ມ	-10236
ຈໍາແນກ	-10237
▁ຖະກິດ	-10238
▁ສະຖຽນ	-10239
ທັງຫລາຍ	-10240
ພັນລະຍາ	-10241
ພົບປະກັນ	-10242
▁ການເປັນ	-10243
▁ແຕ່ທ່ານ	-10244
ຖືກນໍາໃຊ້	-10245
ພາກສະຫນາມ	-10246
ເຂົ້າຫນົມ	-10247
ກົງກັນຂ້າມ	-10248
ຍິນດີຕ້ອນຮັບ	-10249
EL	-10250
ບຸດ	-10251
▁To	-10252
▁VS	-10253
iang	-10254
ຫວາຍ	-10255
▁ໂຄດ	-10256
ຂໍໃຫ້	-10257
ພະຈັນ	-10258
▁Quiz	-10259
ບັ້ງໄຟ	-10260
▁ປັນຍາ	-10261
▁ພົນໂທ	-10262
ຈົບຊັ້ນ	-10263
ຫນີ້ສິນ	-10264
ຫັນເປັນ	-10265
▁perfor	-10266
▁ຕົ້ນຕໍ	-10267
ຂ້ອນຂ້າງ	-10268
▁ຂອງສະພາ	-10269
▁ຄວາມຈິງ	-10270
▁ແຈ້ງວ່າ	-10271
ທະນາຍຄວາມ	-10272
ເພື່ອຊ່ວຍ	-10273
ໃນບໍລິເວນ	-10274
ຈັດກອງປະຊຸມ	-10275
ຕໍ່ກອງປະຊຸມ	-10276
▁ບໍລິການຜ່ານ	-10277
800	-10278
ຫາວ	-10279
ີ້ຍ	-10280
stem	-10281
▁Int	-10282
▁ເຄນ	-10283
▁ເທບ	-10284
▁ເຫນ	-10285
▁ແປກ	-10286
china	-10287
ອີເມລ	-10288
ກັບພວກ	-10289
ສິດສອນ	-10290
▁(2018	-10291
ຕັດຫຍິບ	-10292
ຫລ້າສຸດ	-10293
ແນວນັ້ນ	-10294
້ວານນີ້	-10295
▁Random	-10296
▁ຂອບເຂດ	-10297
▁ສົກຮຽນ	-10298
ເພື່ອການ	-10299
▁ທັງເປັນ	-10300
▁ພົນລະເມືອງ	-10301
ການພົວພັນຂອງ	-10302
ລັດວິສາຫະກິດ	-10303
ຂອງດິນຟ້າອາກາດ	-10304
ປໍ	-10305
ຄະນ	-10306
ຄັກ	-10307
ມຸມ	-10308
ໂກງ	-10309
▁12,	-10310
▁Spy	-10311
▁Tom	-10312
▁ຖຽງ	-10313
ຊີແລນ	-10314
▁Part	-10315
▁Pink	-10316
▁laos	-10317
ຕໍ່ມື້	-10318
ເຮັກຕາ	-10319
▁ຕາລາງ	-10320
ຮອງເອົາ	-10321
▁Killer	-10322
▁ຍູ້ແຮງ	-10323
▁ທໍາການ	-10324
▁ນັກເຕະ	-10325
▁ຈະສາມາດ	-10326
▁backlink	-10327
▁ຢາເສບຕິດ	-10328
▁ຫມາຍຄວາມ	-10329
▁ໃນຂົງເຂດ	-10330
ມໍລະດົກໂລກ	-10331
ກຸ່ມບໍລິສັດ	-10332
ປະຖົມພະຍາບານ	-10333
▁ທີ່ສໍານັກງານ	-10334
▁ຫນ້າທໍາອິດມ່ວນ	-10335
ທ່	-10336
Ass	-10337
ດາດ	-10338
ຜັງ	-10339
ອອສ	-10340
ໂລດ	-10341
▁MP	-10342
▁Bra	-10343
▁Toy	-10344
▁ກ່າ	-10345
▁ຄິວ	-10346
▁ຮສສ	-10347
▁ເກີ	-10348
▁ໄວໆ	-10349
rader	-10350
ສີແດງ	-10351
▁comp	-10352
▁ກູໂກ	-10353
ແລະບໍ່	-10354
▁ການກວດ	-10355
▁ເປັນກຽດ	-10356
▁ເຢຍຣະມັນ	-10357
ການຄ້າເສລີ	-10358
▁ພວກປະທ້ວງ	-10359
ເປັນເຈົ້າຂອງ	-10360
ສະຫະລັດອາເມລິກາ	-10361
ເຂົ້າຮ່ວມຂອງທ່ານ	-10362
TV	-10363
vn	-10364
▁ັ	-10365
ild	-10366
ມາຍ	-10367
ຫນູ	-10368
ແມ້	-10369
Site	-10370
ounc	-10371
ຄວາຍ	-10372
ງວຽນ	-10373
ສີດາ	-10374
▁ຈິກ	-10375
▁ທວນ	-10376
▁ເຕຣ	-10377
ຖຸດິບ	-10378
ເວລາກ	-10379
▁Bash	-10380
ailand	-10381
ຄ້າຍຄື	-10382
▁David	-10383
▁ຕໍ່ມາ	-10384
ລະປະທານ	-10385
▁Brexit	-10386
▁plugin	-10387
▁ການທີ່	-10388
▁ແຕ່ບໍ່	-10389
ຢູ່ບັນດາ	-10390
▁ໂດຍແມ່ນ	-10391
ສະເຫນີໃຫ້	-10392
ໂດຍຜ່ານການ	-10393
▁ດ້ວຍຫົວຂໍ້	-10394
▁ສີມືແຮງງານ	-10395
ຄວາມເປັນໄປໄດ້	-10396
ດໍາລົງຕໍາແຫນ່ງ	-10397
▁XII	-10398
ຮອດປີ	-10399
ທີ່ມັກ	-10400
ຊ່ວງເຮືອ	-10401
ສະຫຼົດໃຈ	-10402
ີໂທລະສັບ	-10403
ປີໃຫມ່ລາວ	-10404
ພົວພັນກັບ	-10405
▁ພິທີເປີດ	-10406
ສິ້ນສຸດລົງ	-10407
▁ການຕະຫຼາດ	-10408
ຢ່າງພ້ອມພຽງ	-10409
ວ່າການກະຊວງ	-10410
TPP	-10411
The	-10412
ris	-10413
ຂູດ	-10414
ບອນ	-10415
ເລີ	-10416
ແນມ	-10417
່ນີ່	-10418
▁12.	-10419
▁Soc	-10420
▁ສີນ	-10421
▁ຫລ້າ	-10422
▁ເບົາ	-10423
ພວກມັນ	-10424
ສະຫວາດ	-10425
▁Conqu	-10426
▁ອາຣັບ	-10427
ນໍາຫນ້າ	-10428
ຮ່ວາງຊາ	-10429
▁ເພງລາວ	-10430
▁ໃນດ້ານ	-10431
▁ທົ່ວໂລກ	-10432
▁ຫຼາຍຄົນ	-10433
▁ຂອງກະຊວງ	-10434
▁ສົມທົບກັບ	-10435
ຄາຂອງພວກເຮົາ	-10436
ປະກອບຄໍາເຫັນ	-10437
ຮີດຄອງປະເພນີ	-10438
ຄໍາຕັດສິນຂອງສານ	-10439
ype	-10440
ບົບ	-10441
▁51	-10442
ຈິ້ນ	-10443
▁Rec	-10444
ລົງໄປ	-10445
ແຄຣັດ	-10446
▁ທະບຽນ	-10447
ເຊື່ອໃຈ	-10448
▁ຫຼືບໍ່	-10449
ພັດທະນາກ	-10450
ທີ່ຈະເປັນ	-10451
▁ເປັນຄວາມ	-10452
ການຄົ້ນຄວ້າ	-10453
▁ສະພາບແວດລ້ອມ	-10454
▁ໃນລະຫວ່າງການ	-10455
AI	-10456
ຖັນ	-10457
▁pr	-10458
ກ້າມ	-10459
ຍຸຕິ	-10460
▁2-3	-10461
▁Aug	-10462
▁ພັງ	-10463
▁ອຸບ	-10464
▁ອົກ	-10465
ເຝົ້າ	-10466
໋ຈ້ອງ	-10467
▁post	-10468
▁ປາຣີ	-10469
▁ມ້າງ	-10470
▁ລະຍະ	-10471
ສອງພັກ	-10472
້ໍາມັນ	-10473
▁Watch	-10474
ຄຣິສຕຽນ	-10475
ສັບຊ້ອນ	-10476
ຫ້ອງຮຽນ	-10477
ເຈັບປວດ	-10478
▁ທີ່ດິນ	-10479
▁ຂີ້ຮ້າຍ	-10480
▁ປຸກລະດົມ	-10481
ໄດ້ກ່າວວ່າ	-10482
ອະທິການບໍດີ	-10483
ແຂວງຄໍາມ່ວນ	-10484
▁ຕື້ກວ່າກີບ	-10485
▁ຢູ່ຫວຽດນາມ	-10486
▁ຫຼັງຈາກທີ່	-10487
zo	-10488
App	-10489
Bob	-10490
rit	-10491
ຮຸກ	-10492
ໂດນ	-10493
▁Xi	-10494
ແຟັກ	-10495
▁160	-10496
▁ແອວ	-10497
ເພິ່ງ	-10498
▁Cake	-10499
▁ກີລາ	-10500
ຊາໃຫຍ່	-10501
▁ອອກມາ	-10502
tionary	-10503
ຄູ່ແຂ່ງ	-10504
ຫນ້າຮູ້	-10505
▁Rights	-10506
▁ແລະບໍ່	-10507
▁ໄດ້ມອບ	-10508
ຫລວງຫລາຍ	-10509
່ຽວກັບການ	-10510
▁ກັບບັນດາ	-10511
▁ການກະທໍາ	-10512
▁ນອກເມືອງ	-10513
ຈຸດເກີດເຫດ	-10514
ເຂດທົ່ງພຽງ	-10515
▁ແມ່ນຫນຶ່ງໃນ	-10516
▁ສິ່ງທີ່ທ້າທາຍ	-10517
▁ຮອງຫົວຫນ້າພະແນກ	-10518
ຈ໌	-10519
-07	-10520
yle	-10521
ຕີ້	-10522
vent	-10523
ຕະວາ	-10524
▁ຊາກ	-10525
▁ບໍາ	-10526
▁ຝັງ	-10527
▁ກ້ອຍ	-10528
▁ຫລຽນ	-10529
ເຈື່ອນ	-10530
ໃຫ້ຄໍາ	-10531
ໍ້າມັນ	-10532
▁Trans	-10533
▁ສະມັດ	-10534
ກຽມພ້ອມ	-10535
ພຣະຄຣິດ	-10536
ຢູ່ແລ້ວ	-10537
▁Design	-10538
▁Econom	-10539
ປີຜ່ານມາ	-10540
▁ຖະມົນຕີ	-10541
▁ທ່າມກາງ	-10542
▁ອັນເປັນ	-10543
ພຸດທະເຈົ້າ	-10544
ກໍາລັງຊອກຫາ	-10545
ສຶກສາອົບຮົມ	-10546
ແຜນຍຸດທະສາດ	-10547
▁Blockchain	-10548
ເພື່ອເປັນການ	-10549
ເອເລັກໂຕຣນິກ	-10550
ເສຍສະຫຼະຊີວິດ	-10551
▁ການຊ່ວຍເຫຼືອ	-10552
▁ຂ່າວຕ່າງປະເທດ	-10553
44	-10554
RP	-10555
ແຫ່	-10556
▁195	-10557
▁Nok	-10558
▁[16	-10559
▁ຫມູ	-10560
ville	-10561
ປັດໃຈ	-10562
ຢຸດຕິ	-10563
▁ບໍຣິ	-10564
▁ເຂັມ	-10565
▁ໄປຫາ	-10566
▁Techn	-10567
▁Whats	-10568
▁ສາມັນ	-10569
▁ອຸບັດ	-10570
/08/2018	-10571
▁ທ່ານຄວນ	-10572
▁ນໍາຫນ້າ	-10573
▁ວັນເສົາ	-10574
ມູນຄ່າລວມ	-10575
ຫຼາຍປານໃດ	-10576
ຫຼີກເວັ້ນ	-10577
▁ພາກເຫນືອ	-10578
▁ສ່ວນທ່ານ	-10579
▁ເກີດຂຶ້ນ	-10580
▁ໄດ້ຕິຕຽນ	-10581
ຂ່າວປະເສີດ	-10582
ປະເຊີນຫນ້າ	-10583
ລັດຖະບານລາວ	-10584
ຊີ້ນໍາວຽກງານ	-10585
ອີກເທື່ອຫນຶ່ງ	-10586
ືງ	-10587
ays	-10588
ico	-10589
ະນີ	-10590
ເຕຣ	-10591
ມ້າງ	-10592
ແກັສ	-10593
ໂທຫາ	-10594
▁ຂວາ	-10595
▁ຄືບ	-10596
actus	-10597
phone	-10598
ຄາທີ່	-10599
▁ອາກອນ	-10600
▁ເດີ່ນ	-10601
ວິວາຂອງ	-10602
▁ຮັບໃຊ້	-10603
ຫັດຖະກໍາ	-10604
▁ຍັງເປັນ	-10605
▁ຜູ້ຜະລິດ	-10606
▁ຜົ້ງສາລີ	-10607
ອົງຄະນະພັກ	-10608
▁ຄວາມສະຫງົບ	-10609
▁ເຮັດວຽກຢູ່	-10610
ຮັບຜິດຊອບໄດ້	-10611
▁ເວົ້າສະເພາະ	-10612
ພກ	-10613
ຣຸດ	-10614
▁OS	-10615
anda	-10616
ຈະມາ	-10617
ມົ້ງ	-10618
▁Abe	-10619
▁ແບກ	-10620
▁King	-10621
▁ກາລະ	-10622
▁ຫລີກ	-10623
▁ເກືອ	-10624
ຊໍານານ	-10625
ນັກເຕະ	-10626
▁ອີເມວ	-10627
▁ຂອງຜູ້	-10628
▁ແຕ່ມັນ	-10629
▁ໄຟໄຫມ້	-10630
▁ການສະແດງ	-10631
▁ມີຈໍານວນ	-10632
ມະນຸດສະທໍາ	-10633
ທີ່ເຂັ້ມແຂງ	-10634
▁ການຕ່າງປະເທດ	-10635
ການຮ່ວມມືລະຫວ່າງ	-10636
uel	-10637
ຣວດ	-10638
ວິວ	-10639
Tube	-10640
ໃຊ້ນ	-10641
▁Dig	-10642
▁Med	-10643
▁ແຫ່	-10644
ຍະນີ້	-10645
▁ຊ່ຽນ	-10646
▁ປານີ	-10647
ຄອບຄອງ	-10648
▁ຫະລັດ	-10649
▁ໂຮ່ຈີ	-10650
ຂໍ່ານັບ	-10651
ທີ່ເຄີຍ	-10652
ສະຫະກໍາ	-10653
ແຂວງເຊກອງ	-10654
ກຸ່ມລາຍການ	-10655
▁ຕາເວັນອອກ	-10656
▁ອິນເຕີເນັດ	-10657
ສາມາດໄດ້ຮັບການ	-10658
BA	-10659
MM	-10660
ອອ	-10661
oug	-10662
ພາວ	-10663
ລີນ	-10664
ຫົກ	-10665
▁ນ໌	-10666
ປະມວນ	-10667
ສາວົກ	-10668
ໃຫມ່ນ	-10669
▁Matt	-10670
▁ຕະປູ	-10671
▁Compl	-10672
▁Creat	-10673
▁Smart	-10674
▁ຟິລິບ	-10675
ລະບຸວ່າ	-10676
ອ້າງອີງ	-10677
▁ສູ້ຊົນ	-10678
▁ໄຊທານີ	-10679
▁ໄພພິບັດ	-10680
ການຄວບຄຸມ	-10681
▁ບັນດາຜູ້	-10682
▁ອົບພະຍົບ	-10683
ການປະຕິວັດ	-10684
ຄໍາຄິດເຫັນ	-10685
ຊາວກະສິກອນ	-10686
ບັນດາບັນຫາ	-10687
ສິດທັງຫມົດ	-10688
▁ການເຮັດວຽກ	-10689
36	-10690
MF	-10691
my	-10692
ຍ໌	-10693
/02	-10694
TML	-10695
ກິມ	-10696
ກ່ວ	-10697
ຄວາ	-10698
▁CA	-10699
▁ປໍ	-10700
ahoo	-10701
itor	-10702
ລະຍະ	-10703
ເສືອ	-10704
▁(6)	-10705
▁FBI	-10706
▁Sar	-10707
ກໍ່ມີ	-10708
▁Bank	-10709
▁ຝຸ່ນ	-10710
▁ນັກວິ	-10711
▁ບົດທີ	-10712
▁ແນວໃດ	-10713
▁Cactus	-10714
▁ຈໍາຄຸກ	-10715
▁ຫັນປ່ຽນ	-10716
▁ເປັນຄົນ	-10717
ງາມຄວາມດີ	-10718
ການບໍລິຫານ	-10719
ທັງສອງຝ່າຍ	-10720
ເບິ່ງຄືວ່າ	-10721
▁SpongeBob	-10722
▁ເຊື່ອມໂຍງ	-10723
ລາຊະອານາຈັກ	-10724
▁ເຂົ້າໃນການ	-10725
ການຊ່ວຍເຫຼືອ	-10726
▁ໂດລາສະຫະລັດ	-10727
▁ລ້ານໂດລາສະຫະລັດ	-10728
ກີ້	-10729
ປຶກ	-10730
າກໍ	-10731
ຈະໄປ	-10732
▁14.	-10733
▁50%	-10734
▁Nor	-10735
▁ຕາງ	-10736
▁ຕາດ	-10737
ຣົດໄຟ	-10738
▁Saly	-10739
▁ງກັນ	-10740
▁ປ່ອງ	-10741
▁ຫມູນ	-10742
leship	-10743
ulator	-10744
▁admin	-10745
▁ກໍາມາ	-10746
▁ຍຸດຕິ	-10747
ສິ່ງຂອງ	-10748
ສໍາເນົາ	-10749
ໄດ້ແລ້ວ	-10750
▁ຣັຖບານ	-10751
ພົບປະກັບ	-10752
▁ຫມາກຜົນ	-10753
ຂອງທ່ານໃນ	-10754
ເຊື້ອເຊີນ	-10755
▁Language	-10756
▁ພຣະເຈົ້າ	-10757
▁ຟີລິບປິນ	-10758
▁ເຊື້ອສາຍ	-10759
▁ເວທີປາໄສ	-10760
ເຝິກອົບຮົມ	-10761
▁ໃນຕອນທ້າຍ	-10762
ບໍລິຈາກເລືອດ	-10763
▁ເລຂາຄະນະພັກ	-10764
ແຂວງຫຼວງພະບາງ	-10765
ເຊິງສິດທັງຫມົດ	-10766
PG	-10767
ດໍ	-10768
ັຈ	-10769
໋າ	-10770
ຊຸກ	-10771
ດຶກ	-10772
ຕຸຍ	-10773
ແກມ	-10774
ແມງ	-10775
burg	-10776
uman	-10777
ຊໍ້າ	-10778
ເລັງ	-10779
ປະມູນ	-10780
ສະລິມ	-10781
▁Site	-10782
▁ວ່ອງ	-10783
▁ຫຼາດ	-10784
ຕໍາລົດ	-10785
ຖືຮຸ້ນ	-10786
▁McCoy	-10787
▁ຄົນໃນ	-10788
▁ຫຍຸ້ງ	-10789
▁ໄດ້ແກ່	-10790
▁YouTube	-10791
ຢ່າງລະອຽດ	-10792
ັບພະຍາກອນ	-10793
ເຫລົ່ານີ້	-10794
▁ຄາດວ່າຈະ	-10795
ຮອງຫົວຫນ້າ	-10796
▁ປີແຫ່ງວັນ	-10797
▁Battleship	-10798
▁ສະມາຊິກພັກ	-10799
▁ໃນຖານະເປັນ	-10800
▁ກອງທັບຊີເຣຍ	-10801
ສະຫງວນລິຂະສິດ	-10802
▁ຕັ້ງຢູ່ເລກທີ	-10803
ຍັກ	-10804
ໂຕຣ	-10805
▁..	-10806
▁ພັ	-10807
▁ພົ	-10808
▁ຫູ	-10809
▁ໂງ	-10810
ເອິກ	-10811
▁140	-10812
▁Ann	-10813
▁ກຸນ	-10814
▁ຜັດ	-10815
▁ເຈລະ	-10816
▁ເຊັກ	-10817
ໃຫ້ຮູ້	-10818
▁South	-10819
▁ກະທູ້	-10820
ສໍາຫລັບ	-10821
ແລະເປັນ	-10822
▁Search	-10823
▁ທ່ານມີ	-10824
▁ນູ່ນີ່	-10825
▁ລົງໂທດ	-10826
ortunity	-10827
ການລະບາດ	-10828
ພໍສົມຄວນ	-10829
ໂຄງປະກອບ	-10830
ຫ່າງໄກສອກ	-10831
ບັນດາກະຊວງ	-10832
▁ຮັບຮອງເອົາ	-10833
ຄິດປະດິດສ້າງ	-10834
ເພື່ອສຸຂະພາບ	-10835
95	-10836
An	-10837
OT	-10838
໐໐	-10839
tty	-10840
ລອກ	-10841
ອ້ງ	-10842
ific	-10843
ຖືພາ	-10844
ັທນາ	-10845
ແກ່ງ	-10846
▁ນາວ	-10847
▁ວອນ	-10848
ສີຟ້າ	-10849
▁enem	-10850
▁ຄລິບ	-10851
▁ທ້ອນ	-10852
▁ຫຍໍ້	-10853
▁ແຍ່ງ	-10854
ການອອກ	-10855
ປາບປາມ	-10856
ແລະກັນ	-10857
▁ແຕ່ໃນ	-10858
ໄດ້ເຫັນ	-10859
▁ພັນຄົນ	-10860
▁ເຟສບຸກ	-10861
▁ນ້ໍາຂອງ	-10862
▁ສະຫະຣັດ	-10863
▁ສົ່ງອອກ	-10864
ຂອງສັງຄົມ	-10865
ຕົ້ນເດືອນ	-10866
▁ແຕ່ວັນທີ	-10867
▁ໂຍທາທິການ	-10868
▁ເຊັ່ນດຽວກັນ	-10869
cl	-10870
uch	-10871
ຕົບ	-10872
ໂບດ	-10873
ໃດ້	-10874
▁Deb	-10875
▁hoo	-10876
utter	-10877
ຄູຝຶກ	-10878
້ອື່ນ	-10879
▁2025	-10880
▁ຫມຸດ	-10881
ussels	-10882
ກູ້ຊີບ	-10883
ຍູ້ແຮງ	-10884
ໃບຫນ້າ	-10885
ໃຫ້ຄົນ	-10886
▁Ruins	-10887
▁Video	-10888
▁ແຕ່ປີ	-10889
ຈາກທ່ານ	-10890
ຫນ້າວຽກ	-10891
ໄດ້ສ້າງ	-10892
▁Barber	-10893
▁ຜົນຫວຍ	-10894
▁ວິນາທີ	-10895
▁Killers	-10896
▁Creative	-10897
▁ນໍາສະເຫນີ	-10898
▁Compliance	-10899
▁ການອຸດຫນູນ	-10900
ເຊື່ອມຕໍ່ກັບ	-10901
▁ຫງວຽນຝູຈ້ອງ	-10902
ພະລັງງານໄຟຟ້າ	-10903
78	-10904
ໂຂ	-10905
ໃຍ	-10906
60,	-10907
60.	-10908
ces	-10909
ວິໄນ	-10910
ຫນຽວ	-10911
ອ່າວ	-10912
ຮົ່ມ	-10913
▁ສາກ	-10914
ປະມົງ	-10915
ວຽງຄໍາ	-10916
ເສຍດາຍ	-10917
▁golden	-10918
ລັດອິສລາມ	-10919
▁ສະຫຼະຊີບ	-10920
ຂອງທະນາຄານ	-10921
ໃນຕອນເຊົ້າ	-10922
ກຸ່ມສິ້ງຊອມ	-10923
▁ເຊື່ອຫມັ້ນ	-10924
▁ໃນທົ່ວປະເທດ	-10925
▁ກະຊວງກະສິກໍາ	-10926
ຢ່າງບໍ່ຢຸດຢັ້ງ	-10927
ສະແດງໃຫ້ເຫັນວ່າ	-10928
ປຶກສາຫາລືກ່ຽວກັບ	-10929
ຫິ	-10930
ips	-10931
ren	-10932
▁Wi	-10933
▁ev	-10934
-200	-10935
ball	-10936
iber	-10937
ຕົວະ	-10938
▁===	-10939
avera	-10940
▁Cerf	-10941
▁ເດັນ	-10942
ຢູ່ນໍາ	-10943
▁ມີຄົນ	-10944
▁ວ່າຈະ	-10945
▁ໃຈກາງ	-10946
ບໍ່ເກີນ	-10947
ບໍ່ເປັນ	-10948
ອຸປະສັກ	-10949
▁Bashar	-10950
▁Cabvey	-10951
▁ກໍາແພງ	-10952
▁ຂອງຊາວ	-10953
▁ຖ້າວ່າ	-10954
▁ສັນຊາດ	-10955
▁ແຕ່ການ	-10956
▁ໃຫ້ທ່ານ	-10957
ເລື່ອງລາວ	-10958
ໂດຍອີງໃສ່	-10959
ໂຮມຊຸມນຸມ	-10960
▁ວັນອາທິດ	-10961
ຂອງທ່ານເອງ	-10962
ຕົວທ່ານເອງ	-10963
ສີມືແຮງງານ	-10964
ຫາດັ່ງກ່າວ	-10965
ເສດຖະກິດໂລກ	-10966
▁ດໍາເນີນການ	-10967
ທີ່ເຂົ້າຮ່ວມ	-10968
▁ສາທາລະນະສຸກ	-10969
DC	-10970
ຖ່	-10971
ati	-10972
ເຫງ	-10973
▁Ne	-10974
egas	-10975
ກົວກ	-10976
▁mon	-10977
▁scr	-10978
ກໍ່ຈະ	-10979
ມັນຈະ	-10980
▁Stev	-10981
▁ອາສາ	-10982
▁ແຟ້ນ	-10983
ທໍານຽບ	-10984
ລວມຂອງ	-10985
ສອນລູກ	-10986
ຄົນໃຫມ່	-10987
ຮີບດ່ວນ	-10988
▁Pinkie	-10989
ຂອງຊີວິດ	-10990
ໄຊສົມບູນ	-10991
▁Powered	-10992
▁Calavera	-10993
▁ຈໍາຫນ່າຍ	-10994
ຂອງທ່ານນາງ	-10995
ນັກທຸລະກິດ	-10996
▁ໃບອະນຸຍາດ	-10997
▁ເຄື່ອງດື່ມ	-10998
▁ດວງປະຈໍາວັນ	-10999
ໂທລະຄົມມະນາຄົມ	-11000
▁ຈໍານວນເຊື່ອງໄວ້	-11001
ຄວບ	-11002
ປກສ	-11003
ຮົງ	-11004
ແກງ	-11005
▁ຟໍ	-11006
▁(5)	-11007
▁ດາຍ	-11008
▁ແຄນ	-11009
ມີຜົນ	-11010
▁ບ່ວງ	-11011
ສະຫມອນ	-11012
ສາວລາວ	-11013
ສູນຫາຍ	-11014
ໃນຫຼາຍ	-11015
▁Phone	-11016
ຄໍາຂວັນ	-11017
ຫມາຍເລກ	-11018
ໄດ້ເຖິງ	-11019
▁ຄຽງຄູ່	-11020
▁ວັນຈັນ	-11021
ຢ່າງໄວວາ	-11022
▁Blogger	-11023
▁bonuses	-11024
▁ນໍ້າຂອງ	-11025
▁ເມື່ອປີ	-11026
ໄຟຟ້ານ້ໍາ	-11027
▁Festival	-11028
ຜິດປົກກະຕິ	-11029
ສະເຫນີທ່ານ	-11030
▁ເກມເກມບິນ	-11031
ຜົນກະທົບຈາກ	-11032
ໃນການໃຊ້ງານ	-11033
▁Conquering	-11034
▁ມະຫາສະຫມຸດ	-11035
▁ໂຮງງານຜະລິດ	-11036
ດ້ານການໂຄສະນາ	-11037
▁ແລະຮັບຜິດຊອບໄດ້	-11038
-9	-11039
vin	-11040
ຜົລ	-11041
ມະໂ	-11042
▁ຢີ	-11043
ania	-11044
ກາຣີ	-11045
ບ່າວ	-11046
▁110	-11047
▁Acc	-11048
▁ຂາມ	-11049
▁ຂຽວ	-11050
▁ຕຣີ	-11051
▁ລ່ງ	-11052
▁ແຈງ	-11053
Assad	-11054
ລີ້ໄພ	-11055
ໍາລາວ	-11056
▁2005	-11057
▁ຊີຣີ	-11058
▁ເຊ່ນ	-11059
ບູລະນະ	-11060
ສອງຄົນ	-11061
ສາວະລີ	-11062
ຂ່ໍານັບ	-11063
ຈິ້ນຜິງ	-11064
ຊ່ວຍເຫຼ	-11065
ສູງກວ່າ	-11066
ຫລຸດລົງ	-11067
ແມ່ຂ່າຍ	-11068
ໃນປີນີ້	-11069
▁hooves	-11070
▁ກົມກອງ	-11071
/10/2018	-11072
ໄປສູ່ການ	-11073
ໍ້າປະກັນ	-11074
▁ການເຂົ້າ	-11075
▁ພຶດຕິກໍາ	-11076
▁ຖະແຫຼງການ	-11077
▁ເຮັດແນວໃດ	-11078
ເຫມາະສົມກັບ	-11079
ພາກຕາເວັນຕົກ	-11080
▁perforation	-11081
▁ແລະເຮັດໃຫ້ບາດ	-11082
ບັກ	-11083
ມຸງ	-11084
ຮອນ	-11085
ຮາວ	-11086
ພ້າວ	-11087
▁130	-11088
▁263	-11089
▁mus	-11090
▁res	-11091
▁ຫັກ	-11092
Share	-11093
ມີຜູ້	-11094
ລາວົງ	-11095
▁2001	-11096
▁2021	-11097
▁FREE	-11098
▁ມ້ວນ	-11099
ກົມກອງ	-11100
ສານພິດ	-11101
▁Derpy	-11102
▁Nokia	-11103
ຄວາມສຸກ	-11104
ດ່າງດໍາ	-11105
ສໍາຫລວດ	-11106
ໄດ້ກ່າວ	-11107
▁ຊຸມນຸມ	-11108
▁ຟື້ນຟູ	-11109
▁ວາງແຜນ	-11110
▁ເປີດໂຕ	-11111
ຕິກິລິຍາ	-11112
▁ກັບທ່ານ	-11113
▁ຕ່າງກັນ	-11114
▁ປິດສະມີ	-11115
▁ກໍາມະກອນ	-11116
ເພື່ອແນໃສ່	-11117
ໂດຍບໍ່ຕ້ອງ	-11118
▁ມອບເຄື່ອງ	-11119
▁ໄດ້ເຮັດໃຫ້	-11120
to	-11121
ົ່	-11122
ິລາ	-11123
໋າງ	-11124
▁57	-11125
▁Ul	-11126
▁ສຈ	-11127
berg	-11128
hour	-11129
ສາມີ	-11130
▁Del	-11131
▁che	-11132
▁ຍາຍ	-11133
ຈໍາປາ	-11134
ພາບຖ່າຍ	-11135
ອະທິປະໄຕ	-11136
ດໍາເນີນໄປ	-11137
▁Archives	-11138
▁ຂອງເມືອງ	-11139
ປະຕິບັດໄດ້	-11140
▁ດາວນ໌ໂຫລດ	-11141
▁ສໍາລັບຜູ້	-11142
ອັນໃຫຍ່ຫຼວງ	-11143
ໃນການຄຸ້ມຄອງ	-11144
ຫຼາຍບັນຫາສໍາຄັນ	-11145
hm	-11146
rew	-11147
໊ອບ	-11148
illa	-11149
ປ້ອນ	-11150
▁ຫົກ	-11151
ມະຫັດ	-11152
ເທືອນ	-11153
ພູມແພ້	-11154
▁ສຸວັນ	-11155
ການປ່ອຍ	-11156
ກໍ່ແມ່ນ	-11157
ຜູ້ອ່ານ	-11158
ເງິນກູ້	-11159
▁minute	-11160
▁ວານນີ້	-11161
ຂອງລະບົບ	-11162
ຫ້ອງນ້ໍາ	-11163
▁ຂອງບັນດາ	-11164
▁ໄດ້ເດີນທາງ	-11165
ດັ່ງກ່າວແມ່ນ	-11166
▁ໄດ້ປະກາດວ່າ	-11167
▁ເຂດເລືອກຕັ້ງທີ	-11168
໋ກ	-11169
ຝູງ	-11170
ອຽນ	-11171
▁ໄບ	-11172
eral	-11173
wiki	-11174
ໃກ້ໆ	-11175
້ມັນ	-11176
▁Bul	-11177
▁GMG	-11178
▁ICT	-11179
▁LED	-11180
▁Mah	-11181
ອີຣານ	-11182
ກໍາກັບ	-11183
ທໍາງານ	-11184
▁ລາວຈະ	-11185
ກົວກວາງ	-11186
ສະວະກອນ	-11187
▁ຊຸມຊົນ	-11188
▁ໃນທົ່ວ	-11189
/11/2018	-11190
ຜູ້ປະສົບ	-11191
ເຮືອນຢູ່	-11192
▁ປະທານາທິ	-11193
▁ລັດຖະທໍາ	-11194
▁ເພື່ອການ	-11195
ຄວາມສໍາຄັນ	-11196
▁ການຄວບຄຸມ	-11197
▁ທີ່ແທ້ຈິງ	-11198
ມີຄວາມສາມາດ	-11199
▁ຂອງບໍລິສັດ	-11200
▁ເຜີຍແຜ່ເມື່ອ	-11201
ຄວບຄຸມຫຸ້ນສ່ວນ	-11202
ທົ່ວໂລກກົວກວາງ	-11203
ປົນ	-11204
▁PH	-11205
▁ຂີ	-11206
trib	-11207
ຫມຸນ	-11208
ຫຼ້າ	-11209
▁Vik	-11210
▁ຫວູ	-11211
▁ຫິວ	-11212
ປະໂພກ	-11213
ສັກຂີ	-11214
ໍລະນະ	-11215
▁Live	-11216
▁ຂົ່ມ	-11217
▁ດົ່ງ	-11218
▁ເຈັດ	-11219
▁ເຫັດ	-11220
ລົດຖີບ	-11221
ສະເດັດ	-11222
ສົ່ງໄປ	-11223
▁ມີແຕ່	-11224
▁ຢຸດຕິ	-11225
ນັ້ນເອງ	-11226
ໄດ້ເປັນ	-11227
▁ນັ້ນຄື	-11228
▁ຝົນຕົກ	-11229
ຫຼາຍແຫ່ງ	-11230
ເປັນພາສາ	-11231
ຍັງບໍ່ໄດ້	-11232
ເມື່ອກ່ອນ	-11233
▁ປາກິສຖານ	-11234
ຢູ່ໃນລະດັບ	-11235
ຄຸນນະພາບສູງ	-11236
ຂອງຜະລິດຕະພັນ	-11237
ແລກປ່ຽນບົດຮຽນ	-11238
ໃຫ້ການຊ່ວຍເຫຼືອ	-11239
ງອຍ	-11240
ຊີນ	-11241
ພິວ	-11242
ແກະ	-11243
▁Ki	-11244
▁MT	-11245
aria	-11246
▁ທຽນ	-11247
▁ແກນ	-11248
▁ໃນຂ	-11249
ຢູທູບ	-11250
ໃຊ້ໃນ	-11251
▁Fire	-11252
ເປື້ອນ	-11253
ເລື້ອຍ	-11254
ມະໂຫລານ	-11255
▁10,000	-11256
▁ຕ້ອງມີ	-11257
ທຽບເທົ່າ	-11258
▁ບາງຄັ້ງ	-11259
ຂໍ້ມູນທີ່	-11260
ຈັດຂຶ້ນໃນ	-11261
▁Magazine	-11262
▁ການພົບປະ	-11263
ແມ່ຍິງສາກົນ	-11264
ແຂວງຈໍາປາສັກ	-11265
▁ຜົນການຊອກຫາ	-11266
Up	-11267
ກອ	-11268
ຍີ	-11269
ພຸ	-11270
den	-11271
ຢວນ	-11272
▁2)	-11273
ຕົວກ	-11274
ນຊິກ	-11275
ເມັກ	-11276
ໄຫວ້	-11277
▁ຈອມ	-11278
▁ຈູດ	-11279
ຕະກອນ	-11280
ໂຕກຽວ	-11281
ໃດທີ່	-11282
ບັນຫາກ	-11283
ອອກສູ່	-11284
▁(2016	-11285
ຊັ້ນສູງ	-11286
ທາງທະເລ	-11287
ທ່ຽວຊົມ	-11288
▁ຄິດອອກ	-11289
▁ຢູ່ຕາມ	-11290
▁ວັນສຸກ	-11291
▁ຂຶ້ນກັບ	-11292
▁ອະວະກາດ	-11293
ທໍາອິດຂອງ	-11294
▁ພ້ອມຄະນະ	-11295
▁ລັດຖະກອນ	-11296
ທີ່ມີຊີວິດ	-11297
ຂອງທ່ານແມ່ນ	-11298
▁opportunity	-11299
▁ກະຊວງປ້ອງກັນ	-11300
ely	-11301
ຕັງ	-11302
ທາບ	-11303
ອາງ	-11304
ຮາດ	-11305
▁ກ່	-11306
edom	-11307
ures	-11308
▁ISO	-11309
▁USA	-11310
▁Viet	-11311
▁ເຫຼີ	-11312
▁ໃຈວ່	-11313
ຮັກແພງ	-11314
▁ກ້ວາງ	-11315
ຕາມຄວາມ	-11316
ບ້ານເຮົາ	-11317
ພິດທະພັນ	-11318
ມັດສະການ	-11319
ການສື່ສານ	-11320
ຈິດສໍານຶກ	-11321
▁ທ່ານກ່າວ	-11322
▁ເມືອງທ່າ	-11323
ໃນທ້ອງຖິ່ນ	-11324
ຂ້າງລຸ່ມນີ້	-11325
ເນື້ອເຊື່ອໃຈ	-11326
XO	-11327
da	-11328
tim	-11329
ປອກ	-11330
ເລນ	-11331
ໄວຍ	-11332
ຸ່ນ	-11333
atic	-11334
ຄວັນ	-11335
ດີໃຈ	-11336
▁108	-11337
▁ຕ້າ	-11338
▁ໂປດ	-11339
ຈັນທະ	-11340
▁Gold	-11341
ພີວເຕີ	-11342
▁ຫາກໍ່	-11343
▁ສັງເກດ	-11344
▁ແມ່ແບບ	-11345
ມາຈາກການ	-11346
▁ຟັງຂ່າວ	-11347
▁ເສລີພາບ	-11348
ອົດສະຕາລີ	-11349
ເຂດຊາຍແດນ	-11350
ໄປກວ່ານັ້ນ	-11351
▁ຫລວງພະບາງ	-11352
ບົດເທດສະຫນາ	-11353
ວ່າເປັນຫຍັງ	-11354
ເທື່ອລະກ້າວ	-11355
▁ສະຫະລັດອາເມລິກາ	-11356
Com	-11357
ກາຊ	-11358
ຈາງ	-11359
ທຸມ	-11360
ໂສດ	-11361
ໄຮ່	-11362
▁62	-11363
▁Op	-11364
▁as	-11365
insk	-11366
ຕະນະ	-11367
ວກກີ	-11368
ສີລາ	-11369
▁14:	-11370
▁Ham	-11371
▁ປິກ	-11372
▁ຢັດ	-11373
ຕາໄຫຼ	-11374
ໄປຮອດ	-11375
▁Mich	-11376
▁ສິລະ	-11377
ນິວຢອກ	-11378
ຮຽນຈົບ	-11379
ັບຢັ້ງ	-11380
ແຜນງານ	-11381
▁ກະດານ	-11382
▁ໃຫມ່ໆ	-11383
ucation	-11384
ອາບນ້ໍາ	-11385
▁pretty	-11386
ກະແສໄຟຟ້າ	-11387
ຫນຸ່ມຄົນນີ້	-11388
ດັ່ງຕໍ່ໄປນີ້	-11389
ຖ້າຫາກວ່າທ່ານ	-11390
,"	-11391
47	-11392
ເຊວ	-11393
ໂພດ	-11394
ords	-11395
uyen	-11396
ຣູຊາ	-11397
ລິ້ງ	-11398
ຫ່ຽວ	-11399
ເຕົາ	-11400
ເຫັດ	-11401
▁USB	-11402
▁ກວນ	-11403
▁ພວງ	-11404
ເທີກີ	-11405
້ນັ້ນ	-11406
ໃນນັ້ນ	-11407
ຂັດຂວາງ	-11408
ສໍາຫຼັບ	-11409
ໄຕ້ຫວັນ	-11410
▁ຄຸນຄ່າ	-11411
ມົນລະພິດ	-11412
▁ນັກກິລາ	-11413
▁ແມ່ນໍ້າ	-11414
▁ລົງທະບຽນ	-11415
ເກີດຂຶ້ນໃນ	-11416
ແສງສະຫວ່າງ	-11417
▁ຜູ້ສະຫມັກ	-11418
▁ອຸປະຕິເຫດ	-11419
▁ກຸ່ມບໍລິສັດ	-11420
);	-11421
AS	-11422
yr	-11423
ika	-11424
tra	-11425
ແບງ	-11426
▁ອັ	-11427
cast	-11428
ized	-11429
ກຸ້ງ	-11430
▁15,	-11431
▁19,	-11432
▁Wid	-11433
▁ຊາງ	-11434
falls	-11435
iness	-11436
ໄປກັບ	-11437
▁Shin	-11438
▁ກ້ວຍ	-11439
ມີຫຼາຍ	-11440
▁under	-11441
▁ນໍາມາ	-11442
▁ແລະກໍ	-11443
ກໍາປັ່ນ	-11444
ຕ່າງໆໃນ	-11445
ແຂ້ວຂາວ	-11446
ຈາກປະເທດ	-11447
ປາຖະກະຖາ	-11448
▁Commons	-11449
▁ຊ່ວຍໃຫ້	-11450
▁ໃນລະດັບ	-11451
ເດໂມແຄຣັດ	-11452
ໄພຂົ່ມຂູ່	-11453
ທີ່ບໍ່ແມ່ນ	-11454
ທີ່ມີຢູ່ໃນ	-11455
ໃຊ້ບໍລິການ	-11456
▁ຈະພິຈາລະນາ	-11457
▁ໄດ້ຕ້ອນຮັບ	-11458
ທຸກສິ່ງທຸກຢ່າງ	-11459
ແຂວງສະຫວັນນະເຂດ	-11460
ຖັງ	-11461
ພູດ	-11462
ESCO	-11463
ເຣັດ	-11464
▁Not	-11465
ນ້ໍານ	-11466
ພະທາດ	-11467
ສັງຫາ	-11468
ານັ້ນ	-11469
▁Jack	-11470
ຂ້າຕາຍ	-11471
ທຽບກັບ	-11472
ລິມປິກ	-11473
ແທດຈິງ	-11474
▁Times	-11475
ໃຫຍ່ຂອງ	-11476
▁ກໍແມ່ນ	-11477
▁ຊັບສິນ	-11478
▁ວັງວຽງ	-11479
▁ແມ່ນຈະ	-11480
ບັນຫານີ້	-11481
ພົມວິຫານ	-11482
ແລະສາມາດ	-11483
▁ຈະມີການ	-11484
▁ເຂດບ້ານ	-11485
ຄັ້ງລ້າສຸດ	-11486
ມີຄວາມຮູ້ສຶກ	-11487
▁ມັດທະຍົມຕອນ	-11488
▁ຕ້ານຢາເສບຕິດ	-11489
▁Vientianehour	-11490
ສະຫະພັນກໍາມະບານ	-11491
TP	-11492
ບໍາ	-11493
ມືດ	-11494
▁98	-11495
port	-11496
▁180	-11497
▁ຄິມ	-11498
gmail	-11499
ຄັດຈາກ	-11500
▁Champ	-11501
ຄຸນະພາບ	-11502
ຊີວະພາບ	-11503
ດ້ວຍກັນ	-11504
ແຈ້ງໃຫ້	-11505
▁Summer	-11506
▁ພວກເຂົ	-11507
ສະຫມັກໃຈ	-11508
ຫຍັງຂື້ນ	-11509
▁ສ້ອມແປງ	-11510
▁ເຊີນຟັງ	-11511
▁ເຈົ້າຄອງ	-11512
ຜົນເປັນຈິງ	-11513
ອະນຸຍາດຂອງ	-11514
▁ຄ່າໃຊ້ຈ່າຍ	-11515
▁ທັງເປັນການ	-11516
ດໍາເນີນຊີວິດ	-11517
ຖອດຖອນບົດຮຽນ	-11518
ທີ່ສົມບູນແບບ	-11519
ພຸດທະສາສະຫນາ	-11520
▁ນໍາສະເຫນີໂດຍ	-11521
ເພີ່ມປະສິດທິພາບ	-11522
du	-11523
ຣກ	-11524
ada	-11525
ທ່ຽ	-11526
ອິງ	-11527
ໂຈນ	-11528
▁Ho	-11529
▁ຣູ	-11530
jack	-11531
ຊິໂກ	-11532
▁ຄູນ	-11533
▁ຫລີ	-11534
ສໍາມະ	-11535
ຫາຍໃຈ	-11536
ອິນຊີ	-11537
▁Page	-11538
▁ຫຼັບ	-11539
ipedia	-11540
ມຸສລິມ	-11541
▁ຝລັ່ງ	-11542
ຂາເຂົ້າ	-11543
ກໍ່ສາມາດ	-11544
ຫນາແຫນ້ນ	-11545
▁ລ້ວນແຕ່	-11546
▁ສໍາຫຼັບ	-11547
ບໍ່ມີຫຍັງ	-11548
▁ອັດຕາການ	-11549
ບໍ່ຖືກຕ້ອງ	-11550
▁ສຸດຍອດເລີຍ	-11551
▁ຫນ້ານີ້ຖຶກ	-11552
▁ເຄື່ອງຫມາຍ	-11553
ສໍາຄັນທີ່ສຸດ	-11554
ມີສິດເລືອກຕັ້ງ	-11555
ສໍາລັບລາຍລະອຽດ	-11556
ຊ໌	-11557
/04	-11558
ພິບ	-11559
ຫວະ	-11560
ແປດ	-11561
▁(4	-11562
▁1)	-11563
ເອັນ	-11564
▁ຫອມ	-11565
ຽນບຽນ	-11566
ແບບໃດ	-11567
▁ມານະ	-11568
ouncil	-11569
ກັກຂັງ	-11570
▁2017)	-11571
▁2020.	-11572
▁House	-11573
ຫ້ວຍຊາຍ	-11574
▁ທຽບໃສ່	-11575
▁ບໍ່ທັນ	-11576
ພ້ອມແລ້ວ	-11577
▁Software	-11578
▁ຜົມຫຼົ່ນ	-11579
ທຸກພາກສ່ວນ	-11580
ຄໍາເທດສະຫນາ	-11581
▁ປະຊາສໍາພັນ	-11582
▁ປະສິດທິຜົນ	-11583
▁ເພື່ອພັດທະນາ	-11584
ຂອງເຈົ້າຫນ້າທີ່	-11585
ກອງທັບປະຊາຊົນລາວ	-11586
ຈີ່	-11587
ລິງ	-11588
ວດນ	-11589
ໂຫດ	-11590
▁Bay	-11591
▁CPA	-11592
▁ສາງ	-11593
▁ແມງ	-11594
-2019	-11595
ລັດທິ	-11596
ວິຈານ	-11597
ໍານີ້	-11598
▁hero	-11599
▁ແທັບ	-11600
ົດຫມາຍ	-11601
ໃບສີດາ	-11602
▁Quest	-11603
▁ສະກຸນ	-11604
ຫມູນວຽນ	-11605
▁google	-11606
▁ບໍ່ຄວນ	-11607
▁ຢູ່ທາງ	-11608
▁ໃກ້ຊິດ	-11609
ອ້າຍນ້ອງ	-11610
▁ຄັ້ງທີ່	-11611
▁ລວມເຖິງ	-11612
ຕ້ອງສົງໄສ	-11613
▁ພະນະທ່ານ	-11614
▁ພົບປະກັບ	-11615
ການຕິດຕັ້ງ	-11616
ໃຫ້ພະນັກງານ	-11617
▁ຂອງຫວຽດນາມ	-11618
▁ຈຸດດ່າງດໍາ	-11619
▁ການຄົ້ນຄວ້າ	-11620
▁ຄວາມພະຍາຍາມ	-11621
▁ພະແນກໄປສະນີ	-11622
ສະຫງວນແຫ່ງຊາດ	-11623
ແກ້ໄຂຄັ້ງລ້າສຸດ	-11624
▁ແລກປ່ຽນຄໍາເຫັນ	-11625
df	-11626
ima	-11627
ຄຽດ	-11628
ແງ່	-11629
▁0.	-11630
▁We	-11631
amch	-11632
izza	-11633
▁del	-11634
▁ຊອງ	-11635
ustom	-11636
▁ເພນີ	-11637
▁ແອັດ	-11638
ພິທີໄຂ	-11639
ໄດ້ຈາກ	-11640
▁2011)	-11641
▁ຊາຊົນ	-11642
▁ປະສົງ	-11643
ຫຸ້ມຫໍ່	-11644
ຮູບຮ່າງ	-11645
່ວຽກງານ	-11646
▁ໃກ້ກັບ	-11647
ຂອງພະແນກ	-11648
ສະຕະວັດທີ	-11649
ເພີ່ມຂື້ນ	-11650
ເລຂາທິການ	-11651
▁ສອງປະເທດ	-11652
ເປັນສິນຄ້າ	-11653
ທຶນການສຶກສາ	-11654
ສົບຜົນສໍາເລັດ	-11655
▁ປ້ອງກັນປະເທດ	-11656
ທຸລະກິດຂອງທ່ານ	-11657
▁ໄດ້ຮັບແຈ້ງເຫດ	-11658
▁ຂອງພວກເຂົາເຈົ້າ	-11659
?”	-11660
-30	-11661
adi	-11662
box	-11663
ຕຽງ	-11664
▁.”	-11665
▁AM	-11666
▁Az	-11667
▁Mo	-11668
ໂຫວາ	-11669
▁10,	-11670
ສົງໃສ	-11671
▁1624	-11672
▁view	-11673
▁ລາຊະ	-11674
ປະໂຫຍກ	-11675
ໄວ້ວ່າ	-11676
ບາງຄັ້ງ	-11677
ສານເຄມີ	-11678
ອີກແລ້ວ	-11679
▁ແຜນງານ	-11680
ເຂົ້າຮອບ	-11681
ເລືອດອອກ	-11682
▁ທ່ານພົນ	-11683
▁ມາເບິ່ງ	-11684
▁ເຄັດລັບ	-11685
ທີ່ບໍ່ໄດ້	-11686
ພອນສະຫວັນ	-11687
▁Brussels	-11688
ເຄື່ອງດື່ມ	-11689
ເທັກໂນໂລຢີ	-11690
ໃບສີດາສາມາດ	-11691
▁ສິ່ງທ້າທາຍ	-11692
▁ເຮັດໃຫ້ສາວ	-11693
▁ອົງການກວດກາ	-11694
ເພື່ອຮັບປະກັນ	-11695
ເຄື່ອງຫມາຍການຄ້າ	-11696
RC	-11697
ye	-11698
ິລ	-11699
FTA	-11700
ury	-11701
ຕູດ	-11702
ines	-11703
ຖີ້ມ	-11704
ຫຍາມ	-11705
▁ຂຸມ	-11706
▁ຕຽງ	-11707
ຫໍພັກ	-11708
▁Alex	-11709
▁ຫງົບ	-11710
ຮູ້ນໍາ	-11711
▁Audio	-11712
▁Queen	-11713
▁Share	-11714
▁ມັນມີ	-11715
ປະນາວຸດ	-11716
ວິຕາມິນ	-11717
ຮອຍຫ່ຽວ	-11718
ຮ່ວມເພດ	-11719
ໄດ້ເຮັດ	-11720
▁ພາຫະນະ	-11721
▁ຫາດຊາຍ	-11722
ຄວາມຮ້ອນ	-11723
ຕອນເຊົ້າ	-11724
▁ຂອງແຂວງ	-11725
▁ຄະຕິສອນ	-11726
▁ເວົ້າລວມ	-11727
ຈໍານວນເງິນ	-11728
ປະກອບອາວຸດ	-11729
▁ສູນກາງພັກ	-11730
ພູມແພ້ຜິວຫນັງ	-11731
48	-11732
OL	-11733
໋ນ	-11734
▁ີ	-11735
ນິສ	-11736
ຢູນ	-11737
ລຸງ	-11738
▁Gl	-11739
ader	-11740
ents	-11741
ເຄືອ	-11742
▁Inc	-11743
▁ຟານ	-11744
▁ແຖມ	-11745
alian	-11746
ສຸດໃຈ	-11747
▁Bill	-11748
▁HTML	-11749
▁Java	-11750
▁ທໍລະ	-11751
ວັນບຸນ	-11752
▁ຖະຫນາ	-11753
▁ທີ່ດີ	-11754
ຂອງເດັກ	-11755
ປຸກສ້າງ	-11756
▁ຈັງຫວັດ	-11757
ທີ່ທ່ານຈະ	-11758
▁ບໍ່ມີຄາບ	-11759
ສ່ວຍສາອາກອນ	-11760
▁ຄົມມະນາຄົມ	-11761
ຫຼີ້ນການພະນັນ	-11762
▁ມາຮອດປັດຈຸບັນ	-11763
ພາກສ່ວນກ່ຽວຂ້ອງ	-11764
ຫົວຄິດປະດິດສ້າງ	-11765
6]	-11766
EM	-11767
ET	-11768
eo	-11769
ude	-11770
ສພຊ	-11771
▁bl	-11772
ield	-11773
ລ້ໍາ	-11774
ອີຢູ	-11775
ເພີນ	-11776
▁ຄຶດ	-11777
ເກ່ົາ	-11778
ເສົາວ	-11779
▁ເຮັກ	-11780
ນັບແຕ່	-11781
ປົວແປງ	-11782
ລູກສາວ	-11783
ຮວມທັງ	-11784
ຮຸກຮານ	-11785
້າວຫັນ	-11786
▁ປະມວນ	-11787
▁ສະມັກ	-11788
▁ຫົວໃຈ	-11789
▁ແລະໃນ	-11790
▁ໃບສີດ	-11791
ຈັດຕະວາ	-11792
ຕົກເປັນ	-11793
ຖືກເຊີນ	-11794
ຜ່ານແດນ	-11795
ແຖວຫນ້າ	-11796
ໃຫມ່ທີ່	-11797
▁Engine	-11798
▁ຄ້າຂາຍ	-11799
▁ທີ່ພວມ	-11800
ກວດເບິ່ງ	-11801
▁ຫມາຍເລກ	-11802
ເພີ່ມຕື່ມ	-11803
▁ການມາຂອງ	-11804
ສໍາມະນາກອນ	-11805
▁ທາງການລາວ	-11806
ອິດສະຫຼະພາບ	-11807
ໃນການພົວພັນ	-11808
▁ທະນາຄານໂລກ	-11809
▁ສູດແຂ້ວຂາວ	-11810
ໂຄສະນາອົບຮົມ	-11811
ເພື່ອໃຫ້ໄດ້ຮັບ	-11812
▁ສູດແຂ້ວຂາວພາຍໃນ	-11813
ເບດ	-11814
▁ຈູ	-11815
ເກືອ	-11816
▁955	-11817
▁IMF	-11818
▁MHz	-11819
▁ຄັກ	-11820
ສະພານ	-11821
ashing	-11822
ລົບກວນ	-11823
ແຈກຢາຍ	-11824
▁Manag	-11825
ຮ້ອງເພງ	-11826
ິດຈະກໍາ	-11827
ໄດ້ເປີດ	-11828
▁Chrome	-11829
▁Nguyen	-11830
▁ກວດພົບ	-11831
▁ການກໍ່	-11832
▁ພຽງໃສ່	-11833
▁ສົມຄວນ	-11834
ທາງປັນຍາ	-11835
ຄວາມກົດດັນ	-11836
ໄດ້ເຮັດໃຫ້	-11837
▁ນ້ໍາຕາໄຫຼ	-11838
▁ພໍ່ສອນລູກ	-11839
▁ໃບສີດາຊ່ວຍ	-11840
ເກົາຫລີເຫນືອ	-11841
▁ຄະຕິສອນໃຈໃນ	-11842
▁ກ່ອນຫນ້ານັ້ນ	-11843
▁ເກີດຫຍັງຂື້ນ	-11844
ຈັດການກັບຮອຍຫ່ຽວ	-11845
▁ລະເບີດບໍ່ທັນແຕກ	-11846
./.	-11847
ໂດກ	-11848
▁TT	-11849
▁ກມ	-11850
ງື່ມ	-11851
ສາວໆ	-11852
▁ລມຕ	-11853
paper	-11854
ລະລາຍ	-11855
▁(26)	-11856
▁....	-11857
▁Phil	-11858
▁ຕຸ້ນ	-11859
▁ແປ້ງ	-11860
ຕະເວັນ	-11861
ສຶກສາກ	-11862
▁Vegas	-11863
▁ບັນຈຸ	-11864
▁ຕໍ່ກັບ	-11865
▁ປະທ້ວງ	-11866
▁ຜູ້ຖືກ	-11867
ບໍ່ມີການ	-11868
ວັນອາທິດ	-11869
▁WebSite	-11870
tribution	-11871
ຜົນສະທ້ອນ	-11872
▁ຂອງໂຄງການ	-11873
▁ຊ່ວຍເຫລືອ	-11874
▁ເພື່ອຊ່ວຍ	-11875
▁ໄດ້ຕົກລົງ	-11876
ທາງການເມືອງ	-11877
ແຫຼ່ງຄັດຈາກ	-11878
ເສົ້າສະຫຼົດໃຈ	-11879
ມີຄວາມຫຍຸ້ງຍາກ	-11880
▁ກອງປະຊຸມສໍາມະນ	-11881
RO	-11882
ຜິ	-11883
໋ຍ	-11884
Pro	-11885
ifi	-11886
nam	-11887
ຈົມ	-11888
ຮັນ	-11889
▁59	-11890
▁ຮສ	-11891
unny	-11892
ຮ່ອມ	-11893
▁121	-11894
▁Ltd	-11895
▁ບຣູ	-11896
▁ແຄບ	-11897
Alike	-11898
ຟໍເນຍ	-11899
ຫມື່ນ	-11900
▁ຈ້ອງ	-11901
▁ຟ້ອນ	-11902
▁ເຄຼຍ	-11903
ສະຫງ່າ	-11904
▁Calif	-11905
▁ຈິດໃຈ	-11906
▁ພາສານ	-11907
ສົມເດັດ	-11908
▁ແລະຜູ້	-11909
ທີ່ປອດໄພ	-11910
ຢູ່ໃນເຂດ	-11911
ເມືອງນອນ	-11912
ໄລຍະສັ້ນ	-11913
▁website	-11914
▁ສະເຫຼີມ	-11915
ພິພິທະພັນ	-11916
ສູງສຸດຂອງ	-11917
▁ການຮັກສາ	-11918
▁ຍົກເວັ້ນ	-11919
▁ຕັດສິນໃຈ	-11920
▁ແລະອາດມີ	-11921
▁ເຂົ້າໄປໃນ	-11922
ເຮັດທຸລະກິດ	-11923
▁University	-11924
▁ທີ່ໃຊ້ເວລາ	-11925
ເຂົ້າຮ່ວມງານ	-11926
▁Attribution	-11927
▁ຫມາຍຄວາມວ່າ	-11928
ເຂົ້າສູ່ລະບົບ	-11929
ເຄື່ອງແມ່ຂ່າຍ	-11930
ບັນລຸເປົ້າຫມາຍ	-11931
ເພີ່ມເຕີມກ່ຽວກັບ	-11932
65	-11933
ຈູ	-11934
-08	-11935
abb	-11936
eph	-11937
res	-11938
ຄິວ	-11939
▁op	-11940
ktop	-11941
ster	-11942
ຂາວິ	-11943
ຊຸ່ມ	-11944
ດ່ຽງ	-11945
ພາລາ	-11946
ຫຍັນ	-11947
ະລັກ	-11948
ເສນາ	-11949
ແຫຍ່	-11950
▁14,	-11951
▁Cam	-11952
▁fab	-11953
▁ປອມ	-11954
ລະບາຍ	-11955
ເສຍໃຈ	-11956
▁ປ່ວຍ	-11957
▁ຫຼອງ	-11958
ຜົວເມຍ	-11959
ອັກເສບ	-11960
▁ນ້ອຍໆ	-11961
▁ອອກໄປ	-11962
ຊ່ອງທາງ	-11963
ຍ້ອນວ່າ	-11964
ວົງເງິນ	-11965
ຮ້ານຄ້າ	-11966
▁Office	-11967
▁Update	-11968
▁ທີ່ພວກ	-11969
▁ບ້ານນາ	-11970
▁ຫົນທາງ	-11971
elopment	-11972
ອອກແບບມາ	-11973
ໄດ້ແນວໃດ	-11974
ຜູ້ໂດຍສານ	-11975
▁Security	-11976
▁ກອມມູນິດ	-11977
ShareAlike	-11978
ປະກອບອາຊີບ	-11979
ອອກແຈ້ງການ	-11980
ແຂວງຊຽງຂວາງ	-11981
▁ເບິ່ງກວ້າງ	-11982
▁ໃນສະພາບການ	-11983
ໃນການປະຕິບັດ	-11984
ຍ້ອງຍໍຊົມເຊີຍ	-11985
ເງື່ອນໄຂອື່ນໆ	-11986
▁ຮອງເຈົ້າເມືອງ	-11987
ການເປັນປະທານຂອງ	-11988
▁ກະຊວງອຸດສາຫະກໍາ	-11989
Fi	-11990
▁1:	-11991
ຫຍັດ	-11992
▁ins	-11993
▁kal	-11994
▁ຖອຍ	-11995
▁ຫົງ	-11996
ສາຫັດ	-11997
ເປີ້ນ	-11998
ໍ່າຮຽນ	-11999
▁ລັດທິ	-12000
acebook	-12001
ອ້າງວ່າ	-12002
ໄດ້ເລີຍ	-12003
▁ຍືນຍົງ	-12004
ຕໍ່າກວ່າ	-12005
ີຍະສະຖານ	-12006
ເບົາຫວານ	-12007
▁ຂອງຄະນະ	-12008
▁ຄໍາຮ້ອງ	-12009
▁ໄດ້ເຮັດ	-12010
ຂອງຜູ້ໃຊ້	-12011
ຂໍອະນຸຍາດ	-12012
ຕົວອັກສອນ	-12013
▁Thailand	-12014
▁ການກໍານົດ	-12015
ທາງເສດຖະກິດ	-12016
ພາຍໃຕ້ສັນຍາ	-12017
▁ຄວາມສໍາຄັນ	-12018
▁ປາກົດການຫຍໍ້ທໍ້	-12019
BS	-12020
Th	-12021
go	-12022
eek	-12023
ຍຸງ	-12024
▁ຜີ	-12025
▁ສູ	-12026
▁ອກ	-12027
ness	-12028
▁Sex	-12029
▁fav	-12030
▁ມົດ	-12031
ornia	-12032
ຫາກໍ່	-12033
▁ດ້ອຍ	-12034
ກໍແມ່ນ	-12035
ສົມມຸດ	-12036
ຫາວິທີ	-12037
▁ກິໂລກ	-12038
▁ຮັບການ	-12039
▁ແລະກໍ່	-12040
ໂດຍບໍ່ມີ	-12041
ການທົດສອບ	-12042
▁ວັນພະຫັດ	-12043
ຄູ່ຮ່ວມງານ	-12044
ສີສັດຕະນາກ	-12045
ອີກນໍາດ້ວຍ	-12046
ໃຊ້ເນື້ອໃນ	-12047
▁Coinfalls	-12048
ທີ່ຈະໄດ້ຮັບ	-12049
▁ຄວາມສໍາພັນ	-12050
▁ຢັ້ງຢືນວ່າ	-12051
▁ອາດເຮັດໃຫ້	-12052
▁ແນວຄວາມຄິດ	-12053
▁ເບິ່ງເງື່ອນໄຂ	-12054
AM	-12055
For	-12056
oss	-12057
ຂອນ	-12058
ຂືນ	-12059
ທິກ	-12060
ໄຜ່	-12061
ambi	-12062
atth	-12063
ouna	-12064
ະກຽມ	-12065
ໍໄດ້	-12066
▁Dem	-12067
▁Las	-12068
▁Sep	-12069
▁ຕຸ້	-12070
▁ຕຽນ	-12071
▁ບັກ	-12072
istry	-12073
lectr	-12074
▁ມໍ່ໆ	-12075
ອີງຕາມ	-12076
ເຫັນໄກ	-12077
▁ສະບຽງ	-12078
▁ຫຼີ້ນ	-12079
ສານອາຍາ	-12080
▁August	-12081
▁ຫາກຍັງ	-12082
▁ໄດ້ນໍາ	-12083
ເຂົ້າກັນ	-12084
ເຄື່ອນໄຫ	-12085
ໃນວຽກງານ	-12086
▁Program	-12087
ທີ່ວາງໄວ້	-12088
▁ປະລິນຍາຕີ	-12089
ທີ່ເປັນໄປໄດ້	-12090
ວົງການບານເຕະ	-12091
▁ຄົ້ນຫາສໍາລັບ	-12092
ໄວ້ເນື້ອເຊື່ອໃຈ	-12093
▁ໃນການເລືອກຕັ້ງ	-12094
ທາງພາກໃຕ້ຫວຽດນາມ	-12095
ius	-12096
ຊາງ	-12097
ອີນ	-12098
າຊິ	-12099
ແບກ	-12100
ແອງ	-12101
ໂມ້	-12102
▁CE	-12103
iden	-12104
▁Roy	-12105
▁UWC	-12106
▁dec	-12107
▁gam	-12108
▁ton	-12109
▁ມວຍ	-12110
ອາຣັບ	-12111
▁ກິ່ນ	-12112
▁ສະຕິ	-12113
ກະທັ້ງ	-12114
ກັກຕົວ	-12115
ຍາດໄດ້	-12116
ຕຸຍການ	-12117
▁Linux	-12118
▁ອີເມລ	-12119
ກັນນັ້ນ	-12120
ທ່າອ່ຽງ	-12121
▁ບໍ່ຖືກ	-12122
▁ເລຶ່ອງ	-12123
ທີ່ນິຍົມ	-12124
ໃນເລື່ອງ	-12125
▁ທີ່ມີໃນ	-12126
▁ພຣະເຢຊູ	-12127
ຕໍ່ສູ້ກັບ	-12128
▁ຄໍາເວົ້າ	-12129
▁ນອກເຫນືອ	-12130
▁ບັນຫາຈານ	-12131
ຫຼວງນໍ້າທາ	-12132
ຮັບຫນ້າທີ່	-12133
▁ນັບມື້ນັບ	-12134
ສະຫຼຸບວຽກງານ	-12135
▁ຜູ້ປະກອບການ	-12136
ລະບົບປະຕິບັດການ	-12137
CL	-12138
555	-12139
als	-12140
ຈອກ	-12141
ມອນ	-12142
ເນນ	-12143
ເອນ	-12144
ings	-12145
ones	-12146
ເພີງ	-12147
▁101	-12148
▁13.	-12149
▁26,	-12150
▁sim	-12151
▁ອາບ	-12152
▁ເກນ	-12153
▁tran	-12154
▁ມາລີ	-12155
ຈົນຮອດ	-12156
ຈໍາລອງ	-12157
ມວນຊົນ	-12158
າກຫລາຍ	-12159
ເຈົ້ານ	-12160
ແນວພັນ	-12161
▁ຂອງປະ	-12162
ທີ່ຈະມີ	-12163
ທຸກຂັ້ນ	-12164
ລວງເລິກ	-12165
▁ນີສຖານ	-12166
▁ພາສາສະ	-12167
▁ໂດຍໃຊ້	-12168
ຄະນິດສາດ	-12169
ທີ່ຫມັ້ນ	-12170
ບຸກໂຈມຕີ	-12171
▁wedding	-12172
▁ຂຶ້ນຢູ່	-12173
▁ເຕືອນໄພ	-12174
ຂັບເຄື່ອນ	-12175
▁ບັນດາທ່ານ	-12176
ກໍາແພງເມືອງ	-12177
▁ເມື່ອເດືອນ	-12178
ການເຂົ້າຢ້ຽມ	-12179
ໃຫ້ນັບມື້ນັບ	-12180
▁ດາວໂຫຼດເປັນ	-12181
ັບພະຍາກອນມະນຸດ	-12182
ມູ	-12183
ibr	-12184
ນີວ	-12185
ຢອດ	-12186
▁RE	-12187
2015	-12188
aint	-12189
ream	-12190
ພາຄີ	-12191
ເຈັດ	-12192
▁Pat	-12193
ພີມມາ	-12194
ເຊປຽນ	-12195
▁User	-12196
ບໍ່ວ່າ	-12197
ອົດທົນ	-12198
ໃນລະດູ	-12199
▁2018:	-12200
▁Media	-12201
▁Micha	-12202
▁Start	-12203
▁ສະມາດ	-12204
▁ເຮົາກ	-12205
ມື້ອື່ນ	-12206
ຫນ້າຮັກ	-12207
ອາໄສຢູ່	-12208
▁ອັນນີ້	-12209
▁ແຕ່ກໍ່	-12210
▁ໂພດໂດຍ	-12211
▁ຈົນເຖິງ	-12212
ຄວາມເຊື່ອ	-12213
ເວົ້າໃຫມ່	-12214
▁ຕໍ່ບັນຫາ	-12215
▁ປາດຖະຫນາ	-12216
ຕ່າງໆເຊັ່ນ	-12217
▁ຫນັກແຫນ້ນ	-12218
▁ສະຫະພັນແມ່ຍິງ	-12219
ໄດ້ຮັບຜົນປະໂຫຍດ	-12220
hi	-12221
cel	-12222
ura	-12223
ຊ່າ	-12224
▁Bo	-12225
▁Ev	-12226
ກາສີ	-12227
ລາາດ	-12228
ລິມະ	-12229
ສາມະ	-12230
▁TOP	-12231
▁ກະດ	-12232
▁ຍັດ	-12233
▁ຕານ	-12234
irect	-12235
ຊິວິດ	-12236
ຮູບປະ	-12237
▁060,	-12238
▁860.	-12239
idsala	-12240
▁9552,	-12241
▁ບາງທີ	-12242
ສັດລ້ຽງ	-12243
▁ສັກສິດ	-12244
▁ອີຕາລີ	-12245
▁kalouna	-12246
▁ບໍ່ເຄີຍ	-12247
▁ລົດໃຫຍ່	-12248
ຂັ້ນເມືອງ	-12249
ຄ່ໍາວັນທີ	-12250
ເຈົ້າຫນ້າ	-12251
▁ອອກອາກາດ	-12252
ກໍ່ໃຫ້ເກີດ	-12253
ມາເປັນເວລາ	-12254
ສານປະຊາຊົນ	-12255
▁ລວມມູນຄ່າ	-12256
▁ໃບຢັ້ງຢືນ	-12257
ກ່ຽວກັບທະເລ	-12258
▁California	-12259
▁ອັນດັບຂ່າວ	-12260
▁ເຖິງຢ່າງໃດ	-12261
ຊຸດຝຶກອົບຮົມ	-12262
▁ຕິດຕາມກວດກາ	-12263
▁ເລື່ອງເກ່ົາ	-12264
ກໍາລັງປ້ອງກັນ	-12265
ຄົນເຂົ້າເມືອງ	-12266
▁ບັນຫາຈານແຫຍ່	-12267
ປສ	-12268
ັພ	-12269
-05	-12270
▁ເຝ	-12271
acts	-12272
ຖໍ້າ	-12273
ປຸ່ນ	-12274
ເຊັຍ	-12275
▁ຈື່	-12276
▁ແຂນ	-12277
orite	-12278
ຫມັ່ນ	-12279
▁news	-12280
▁ຄ່ອງ	-12281
▁ດ້າວ	-12282
▁ແຄ້ນ	-12283
ກໍເປັນ	-12284
ຈໍາຄຸກ	-12285
ຢູເຄຣນ	-12286
▁ຄູຝຶກ	-12287
▁ຈໍາປາ	-12288
▁ຜູ້ມີ	-12289
▁ເຢຍລະ	-12290
ປົກຫຸ້ມ	-12291
▁George	-12292
ຟີລິບປິນ	-12293
ຮັບປະທານ	-12294
▁ພົບເຫັນ	-12295
▁ຫງວຽນຟູ	-12296
▁ເດັດຂາດ	-12297
▁ເທື່ອທີ	-12298
ເຄື່ອນທີ່	-12299
▁ຕໍ່ເນື່ອງ	-12300
▁ເວລາປະມານ	-12301
ຄ້າຢາເສບຕິດ	-12302
UA	-12303
ປິ	-12304
ມຸກ	-12305
ໂຊມ	-12306
ໂອກ	-12307
▁ດຽ	-12308
iles	-12309
ມຸ້ງ	-12310
▁Ram	-12311
▁ຄີມ	-12312
▁ດັກ	-12313
▁ບຸບ	-12314
▁ລ້າ	-12315
ອີຈິບ	-12316
▁1975	-12317
▁Ange	-12318
▁ສະຕີ	-12319
▁ເສັຽ	-12320
ເຕຣເລຍ	-12321
ຢູ່ນັ້ນ	-12322
▁Studio	-12323
▁ດຶງດູດ	-12324
▁ບໍ່ວ່າ	-12325
▁ພຣະຜູ້	-12326
▁ວັນພຸດ	-12327
ຕົວເລືອກ	-12328
▁ກ່ອນທີ່	-12329
▁ພະແນກການ	-12330
ຈາກປະຊາຊົນ	-12331
▁ໃນອະນາຄົດ	-12332
ຜູ້ປະກອບການ	-12333
ເຂົ້າຮ່ວມການ	-12334
ແນວທາງນະໂຍບາຍ	-12335
▁ຢ່າງໃດກໍ່ຕາມ	-12336
ໄດ້ຢ່າງງ່າຍດາຍ	-12337
7]	-12338
br	-12339
fr	-12340
aut	-12341
ged	-12342
ugh	-12343
ຊີກ	-12344
▁SP	-12345
▁ຖີບ	-12346
▁ປວງ	-12347
ປະສິດ	-12348
ພິຍານ	-12349
ັດທາຍ	-12350
▁ໄຟລ໌	-12351
ທີ່ຄວນ	-12352
▁Crack	-12353
▁Mania	-12354
▁ໂຣຮິງ	-12355
ທາງດ່ວນ	-12356
ໄລຍະຍາວ	-12357
▁ຫນ້າຈໍ	-12358
▁ໃນຊີເຣຍ	-12359
ທີ່ສຸດຂອງ	-12360
▁ນ້ໍາຫນັກ	-12361
▁ເທດສະບານ	-12362
ບໍ່ຕ້ອງການ	-12363
▁ມີຄວາມເຫັນ	-12364
▁ເປັນຕົ້ນໄປ	-12365
ກະຊວງການເງິນ	-12366
▁ຄວາມເຂົ້າໃຈ	-12367
▁ຮີດຄອງປະເພນີ	-12368
-09	-12369
fin	-12370
ຣົມ	-12371
ືລື	-12372
ເຕິ	-12373
ແອດ	-12374
▁se	-12375
▁ງາ	-12376
http	-12377
ຈຸລະ	-12378
ະນັກ	-12379
າງານ	-12380
ໆກັນ	-12381
້ນີ້	-12382
▁Cor	-12383
▁Los	-12384
▁can	-12385
▁ແຊນ	-12386
ກ່າວກ	-12387
ຢາກຈະ	-12388
▁ພາຄີ	-12389
ຊົງຈໍາ	-12390
ດົນນານ	-12391
ທຸກພາກ	-12392
ໄປທ່ຽວ	-12393
ໍາສົ່ງ	-12394
▁1.000	-12395
usiness	-12396
ໃຫ້ແກ່ນ	-12397
▁ນາງໄດ້	-12398
ເກີນກວ່າ	-12399
▁Michael	-12400
▁ມສະຫຼອງ	-12401
▁ເກີດເຫດ	-12402
ຕິດຕໍ່ກັນ	-12403
ເວົ້າພາສາ	-12404
▁ບັນລຸໄດ້	-12405
ເສົາວານນີ້	-12406
▁2018-2019	-12407
▁ການກວດສອບ	-12408
▁ເປັນປະເທດ	-12409
▁ພາຍໃນປະເທດ	-12410
▁ທີ່ນະຄອນຫລວງ	-12411
▁ເປັນເຈົ້າພາບ	-12412
▁ຮອງປະທານປະເທດ	-12413
ພົວພັນຕ່າງປະເທດ	-12414
ua	-12415
oko	-12416
ເທນ	-12417
ໃຫຍ	-12418
▁71	-12419
▁Ro	-12420
▁it	-12421
ular	-12422
ຊະນາ	-12423
ຣາຊະ	-12424
ເຈົາ	-12425
ເອັສ	-12426
▁HIV	-12427
▁Jan	-12428
▁ຣົບ	-12429
usher	-12430
ປະພຶດ	-12431
▁2003	-12432
▁Rock	-12433
▁ເລັງ	-12434
▁ແນັດ	-12435
ກໍ່ຕາມ	-12436
ຕື້ກີບ	-12437
ປານກາງ	-12438
ຝະລັ່ງ	-12439
ຢູ່ທາງ	-12440
▁ວິຫານ	-12441
▁ເກັ່ງ	-12442
ຜ່ອນຄາຍ	-12443
ມະຫະກໍາ	-12444
ຮ້ານຂາຍ	-12445
ເງິນທຶນ	-12446
ແລ້ວວ່າ	-12447
▁ມາດຣິດ	-12448
▁ມີຫນ້າ	-12449
▁ຫມວດທີ	-12450
ທົດສະວັດ	-12451
ໃນຈໍານວນ	-12452
▁ກວມເອົາ	-12453
▁ຂຸດຄົ້ນ	-12454
ຜູ້ຊົມໃຊ້	-12455
ມີລັກສະນະ	-12456
▁ທາງອາກາດ	-12457
ຢູ່ພາກພື້ນ	-12458
ໃນການຜະລິດ	-12459
▁2015-2016	-12460
▁ຂອງຈໍານວນ	-12461
▁ຫມວດທີ່ເປັນ	-12462
ຄວາມສະເຫມີພາບ	-12463
▁ທີ່ໄດ້ຮັບການ	-12464
▁ກ່ຽວກັບວຽກງານ	-12465
73	-12466
fo	-12467
ທໍ	-12468
ອຣ	-12469
ini	-12470
ຫວງ	-12471
▁dr	-12472
▁ຟະ	-12473
▁ວຽ	-12474
ເຟີ້	-12475
▁Law	-12476
▁Pal	-12477
▁ຕູນ	-12478
ouble	-12479
ສັດຕະ	-12480
▁Will	-12481
▁ເສີດ	-12482
▁ແກຣມ	-12483
ທັນຫັນ	-12484
ຮັບເຫມ	-12485
ເສື່ອມ	-12486
▁Austr	-12487
▁ທ່ານຈ	-12488
ຄິດເປັນ	-12489
ບັນເທິງ	-12490
ປາຖະຫນາ	-12491
ການກະທໍາ	-12492
ສັນນິບາດ	-12493
ອຸນຫະພູມ	-12494
▁ດັ່ງທີ່	-12495
ນັກລົງທຶນ	-12496
ບົດບາດຂອງ	-12497
▁ບໍ່ມີການ	-12498
▁ຫມູ່ບ້ານ	-12499
ຫຼາຍເກີນໄປ	-12500
▁ຂີ້ຮ້າຍໄປ	-12501
▁ແມ່ນເພື່ອ	-12502
▁ໃນວັນອາທິດ	-12503
ໃນການເຮັດວຽກ	-12504
▁ນີ້ຈັກເທື່ອ	-12505
ເສດຖະກິດພິເສດ	-12506
▁ກະຊວງໂຍທາທິການ	-12507
ກອງບັນຊາການທະຫານ	-12508
74	-12509
ບີງ	-12510
ິ້ວ	-12511
▁CS	-12512
▁FS	-12513
▁ຝາ	-12514
Viet	-12515
akes	-12516
ຄໍ່າ	-12517
ດູດນ	-12518
ຶ່ອນ	-12519
ເສິກ	-12520
▁11,	-12521
▁Oct	-12522
▁ແງ່	-12523
ຫາວ່າ	-12524
ເດືອດ	-12525
▁Chef	-12526
▁Mess	-12527
▁Paul	-12528
▁Sale	-12529
ຊອບທໍາ	-12530
ຜູ້ຊົມ	-12531
ລູກຊາຍ	-12532
▁ປະຢັດ	-12533
ກວ່າອີກ	-12534
ຈັງຫວັດ	-12535
ພິທີມອບ	-12536
ໃນລະບົບ	-12537
▁Review	-12538
ເສີມສ້າງ	-12539
▁ຕົ້ນໄມ້	-12540
▁ວັດສະດຸ	-12541
ສ່ວນປະກອບ	-12542
ຮູ້ສຶກວ່າ	-12543
▁ຢ່າງເປັນ	-12544
▁ລັດຖະມົນ	-12545
▁ໃນວັນພຸດ	-12546
ກໍານົດເວລາ	-12547
ຫຼັງຈາກການ	-12548
▁ຜູ້ທີ່ໄດ້	-12549
ຄະນະຮັບຜິດຊອບ	-12550
ພວກເຮົາກໍາລັງ	-12551
ຂຸ	-12552
gen	-12553
ຈິຕ	-12554
ເທສ	-12555
ພະລາ	-12556
▁1-2	-12557
▁Ale	-12558
▁Cra	-12559
▁Hot	-12560
▁Som	-12561
▁WEF	-12562
▁ຜືນ	-12563
ກໍລະນ	-12564
ຕາດິນ	-12565
▁Flor	-12566
▁Glam	-12567
▁ດ້າຍ	-12568
▁ຖ້ໍາ	-12569
▁ຫຼອດ	-12570
▁ແຍ້ງ	-12571
ສົມຜົນ	-12572
▁Store	-12573
▁ໃນນາມ	-12574
Council	-12575
▁ກັງວົນ	-12576
▁ຈະສ້າງ	-12577
ຜູ້ທີ່ມີ	-12578
▁ທີ່ຫນ້າ	-12579
▁ໃນຊຸມປີ	-12580
ແມ່ນຢູ່ໃນ	-12581
▁ຫນູນຊ່ວຍ	-12582
ຂອງຮ່າງກາຍ	-12583
ຊີ້ໃຫ້ເຫັນ	-12584
ຢ່າງຈະແຈ້ງ	-12585
ຊະນີຍະສະຖານ	-12586
ເຮັດຫນ້າທີ່	-12587
▁ຖະແຫຼງຂ່າວ	-12588
▁ຜູ້ບໍລິຫານ	-12589
▁ຂ່າວບັນເທີງ	-12590
▁ຢູ່ນະຄອນຫຼວງ	-12591
▁ລັດຖະທໍາມະນູນ	-12592
ລະເບີດບໍ່ທັນແຕກ	-12593
rown	-12594
ຮົ່ວ	-12595
ເອັມ	-12596
▁Art	-12597
▁[18	-12598
▁ທອນ	-12599
ading	-12600
ຢາສູບ	-12601
ສະມຸດ	-12602
າມະຕິ	-12603
▁more	-12604
▁that	-12605
▁ສຸຂະ	-12606
ສະແຫວງ	-12607
ິຕິຕຽນ	-12608
▁2018)	-12609
▁Human	-12610
▁ສົກປີ	-12611
▁ແລະຈະ	-12612
▁ໃນພາກ	-12613
ບໍ່ຕ້ອງ	-12614
ບໍ່ເຫັນ	-12615
ຜົນຮ້າຍ	-12616
ເມື່ອປີ	-12617
ແລ້ວຫນີ	-12618
▁Shinzo	-12619
▁ຄໍາຕອບ	-12620
ຍຸດຕິທໍາ	-12621
ທົ່ວເຖິງ	-12622
ຫຼາຍຮ້ອຍ	-12623
▁ນີ້ເປັນ	-12624
▁ສົມເດັດ	-12625
ອາຫານຄ່ໍາ	-12626
▁ຕາມແຕ່ລະ	-12627
ຈັດງານລ້ຽງ	-12628
▁ການປ້ອງກັນ	-12629
ຄ້າຂາຍຢາເສບຕິດ	-12630
38	-12631
ໄຍ	-12632
ໂອ້	-12633
▁ac	-12634
ຖ້ຽວ	-12635
ວິຖີ	-12636
ໍານິ	-12637
Point	-12638
ooter	-12639
▁ດາລາ	-12640
▁ຫຼົບ	-12641
▁ອ່າວ	-12642
▁ເທົາ	-12643
ategor	-12644
ດາວທຽມ	-12645
ວັນສຸກ	-12646
ໄດ້ອອກ	-12647
▁laoph	-12648
▁ກະສັດ	-12649
▁ພິສູດ	-12650
▁ມີສິດ	-12651
ຕາຍແລ້ວ	-12652
ນັກຮ້ອງ	-12653
ສະໄຫມທີ	-12654
▁ພິຈາລະ	-12655
▁ແລະມັນ	-12656
ດັ້ງເດີມ	-12657
ເສຍອົງຄະ	-12658
▁ຖ່າຍຮູບ	-12659
ກວດສອບເຫດ	-12660
ການກວດສອບ	-12661
ຂອງກອງທັບ	-12662
ແຈ້ງເຕືອນ	-12663
ແລະເຮັດໃຫ້	-12664
ຂາຍຢາເສບຕິດ	-12665
ບັນດາອົງການ	-12666
▁ຂະຫນາດນ້ອຍ	-12667
▁ຈະໄດ້ຮັບການ	-12668
ຝ່	-12669
ppo	-12670
rov	-12671
udi	-12672
ະວະ	-12673
ເຊດ	-12674
ໂຍນ	-12675
▁74	-12676
▁77	-12677
▁88	-12678
▁Bu	-12679
ship	-12680
ຊີໂນ	-12681
ແທັບ	-12682
ໄປມາ	-12683
▁13,	-12684
▁900	-12685
▁Ant	-12686
▁ທລຍ	-12687
▁ເນີ	-12688
▁ເປັ	-12689
▁ໂຈນ	-12690
ຄ່ອຍໆ	-12691
ມາກັບ	-12692
▁ພາວະ	-12693
▁ເມົາ	-12694
▁ໂດໂນ	-12695
ເຖື່ອນ	-12696
ແຄມທາງ	-12697
ໃນເວທີ	-12698
▁ສີດໍາ	-12699
▁ເປົ່າ	-12700
▁ແຕ່ມີ	-12701
ຄວາມຜິດ	-12702
ຄົນອື່ນໆ	-12703
ທີ່ບໍ່ດີ	-12704
ເບິ່ງວ່າ	-12705
ເປັນຫ່ວງ	-12706
▁ຍຸຕິທໍາ	-12707
▁ສໍາຫຼວດ	-12708
▁ເປີດຕົວ	-12709
▁ໄຊຍະສອນ	-12710
ຖືວ່າເປັນ	-12711
ແຫ່ງຫນຶ່ງ	-12712
▁ພັກຣີພັບ	-12713
▁ໂອກາດນີ້	-12714
ການຂົນສົ່ງ	-12715
ອຸດສະຫະກໍາ	-12716
▁backlinks	-12717
▁laophatth	-12718
▁ລາຍການທີ່	-12719
▁ໂດຍທົ່ວໄປ	-12720
ຂອງພວກເຮົາກ	-12721
▁ໃນໂອກາດນີ້	-12722
ananewspaper	-12723
ເຂົ້າກັບສາກົນ	-12724
ເນື່ອງໃນໂອກາດ	-12725
▁ການເຊື່ອມຕໍ່	-12726
▁ຄາສິໂນອອນໄລນ໌	-12727
▁ເຂົ້າຮ່ວມພິທີ	-12728
▁ໃນເວລາທີ່ທ່ານ	-12729
ປະກົດການຫຍໍ້ທໍ້	-12730
ຮອງປະທານາທິບໍດີ	-12731
▁ກະຊວງຊັບພະຍາກອນ	-12732
▁ໃນຕອນເຊົ້າວັນທີ	-12733
-06	-12734
ຖິນ	-12735
ມຽນ	-12736
ລວດ	-12737
ັ້ຍ	-12738
າດີ	-12739
▁Uk	-12740
▁ar	-12741
ເສັດ	-12742
ແຍ່ງ	-12743
▁NAB	-12744
▁ຈູມ	-12745
▁ດຸນ	-12746
▁ຜູກ	-12747
▁ມອງ	-12748
ກໍຍັງ	-12749
▁Moon	-12750
▁Rich	-12751
▁serv	-12752
▁ຈ່ຽງ	-12753
▁ເນີຍ	-12754
▁ໂບລາ	-12755
ກອງພັນ	-12756
ຄອມພິວ	-12757
ນັບມື້	-12758
ໃຊ້ມັນ	-12759
▁ກົນໄກ	-12760
▁ງຂ່າວ	-12761
▁ພາສາກ	-12762
▁ຮ່ວາງ	-12763
▁ເອເຊຍ	-12764
ລວມເຖິງ	-12765
ຫລັກສູດ	-12766
▁ຖ້າບໍ່	-12767
▁ທົດລອງ	-12768
▁ຜູ້ແທນ	-12769
ສະມາດໂຟນ	-12770
ຫຼາຍຂື້ນ	-12771
▁ຈັດຂຶ້ນ	-12772
▁ພັນລະຍາ	-12773
▁ສົ່ງຜົນ	-12774
ຕະເວັນອອກ	-12775
▁ຢ່າງຫນັກ	-12776
▁ກັບອີຣ່ານ	-12777
▁ການທົດສອບ	-12778
▁ຕະຫຼອດຮອດ	-12779
▁ແຈ້ງເຕືອນ	-12780
ແບ່ງອອກເປັນ	-12781
ເນັ້ນຫນັກວ່າ	-12782
▁ເພື່ອປັບປຸງ	-12783
ທີ່ຈະໄດ້ຮັບການ	-12784
▁ແລກປ່ຽນບົດຮຽນ	-12785
ທີ່ມີປະສິດທິພາບ	-12786
ການພົວພັນລະຫວ່າງ	-12787
/6	-12788
IF	-12789
SL	-12790
VI	-12791
ຮີດ	-12792
Bank	-12793
tain	-12794
ກະບະ	-12795
ຢູ່່	-12796
ເຫວ້	-12797
▁20%	-12798
▁ເລດ	-12799
▁ໂບດ	-12800
ກະສັດ	-12801
ຕໍາລາ	-12802
ເປືອກ	-12803
▁2004	-12804
▁Tran	-12805
▁ບິ່ງ	-12806
ຂອງກົມ	-12807
ຕອບແທນ	-12808
ໍລິຫານ	-12809
ຈາລະຈອນ	-12810
ຊັ້ນນໍາ	-12811
ວິທີທີ່	-12812
ຫຼຽນຄໍາ	-12813
ໃຫມ່ນີ້	-12814
▁ການສອນ	-12815
▁ບານເຕະ	-12816
▁ລາຍຊື່	-12817
▁ເຮົາມີ	-12818
▁ແລະອີກ	-12819
ຜູ້ຫນຶ່ງ	-12820
ມັກຫຼີ້ນ	-12821
ໃນກໍລະນີ	-12822
▁Angeles	-12823
ຕະຫຼາດນັດ	-12824
▁Republic	-12825
▁favorite	-12826
▁ນາທິບໍດີ	-12827
▁ໃນວັນທີ່	-12828
▁ໄດ້ເລີ່ມ	-12829
ສໍາຄັນຫຼາຍ	-12830
ຂັ້ນພື້ນຖານ	-12831
ແຂ່ງຂັນກິລາ	-12832
ຈະເລີນເຕີບໂຕ	-12833
▁ສະມາຊິກສະພາ	-12834
ທີ່ເຕັມໄປດ້ວຍ	-12835
ຕາມລະບຽບກົດຫມາຍ	-12836
32	-12837
erm	-12838
men	-12839
unt	-12840
ຝຸກ	-12841
ພວງ	-12842
ຣີກ	-12843
ີໂຣ	-12844
▁do	-12845
▁ຄຊ	-12846
▁ຄົ	-12847
agon	-12848
ປາປາ	-12849
ຝ້າຍ	-12850
ໍາລາ	-12851
▁ນອງ	-12852
▁ພູນ	-12853
ຕົ້ນໆ	-12854
ເຜິ້ງ	-12855
▁ແກ້ງ	-12856
ຄົນຮັກ	-12857
ຊາວລາວ	-12858
ທົນທານ	-12859
ໃນຖານະ	-12860
ໄດ້ປຽບ	-12861
▁Steve	-12862
▁ການລະ	-12863
▁ພະຍານ	-12864
▁ມີແຜນ	-12865
▁ໄຊສົມ	-12866
▁ໄປສູ່	-12867
ທຸກໆຄົນ	-12868
ຜູ້ໃຫຍ່	-12869
ສັ່ງຊື້	-12870
ຫລັງຈາກ	-12871
ເມືອງໄຊ	-12872
▁UNESCO	-12873
▁ກໍເປັນ	-12874
▁ກຽມພ້ອມ	-12875
▁ພະຍາກອນ	-12876
ຕົວຊີ້ວັດ	-12877
ລົງໂຄສະນາ	-12878
▁ຄົນທີ່ມີ	-12879
ວັດທະນາທໍາ	-12880
▁ວັນນະຄະດີ	-12881
▁ໂດຍບໍ່ມີການ	-12882
ຂຸດຄົ້ນບໍ່ແຮ່	-12883
ຢູ່ແຂວງຊຽງຂວາງ	-12884
ສະຖາປັດຕະຍະກໍາ	-12885
▁ຂອງຂ້າພະເຈົ້າ	-12886
▁ເປັນຄັ້ງທໍາອິດ	-12887
Sp	-12888
-25	-12889
aba	-12890
erd	-12891
ift	-12892
ຣັງ	-12893
ສີບ	-12894
ຫມດ	-12895
ຫິວ	-12896
▁ດຸ	-12897
ured	-12898
ຊິ້ນ	-12899
▁Lad	-12900
▁WHO	-12901
▁ind	-12902
▁ເຫຍ	-12903
idata	-12904
orate	-12905
ຫາກິນ	-12906
▁pass	-12907
▁ຄໍ່າ	-12908
▁ແມັກ	-12909
ຈັບຕົວ	-12910
ຄົບຄະນະ	-12911
ຫຼົບຫນີ	-12912
ເສຍຫຼັກ	-12913
▁ຄໍາສັບ	-12914
ຄາດຕະກໍາ	-12915
ຕະຫຼອດໄປ	-12916
ບັນດານໃຈ	-12917
ຝ່າຍຕ່າງ	-12918
▁ຄວາມສຸກ	-12919
ລັກອັກສອນ	-12920
ສົມທົບກັນ	-12921
ອັດຕາສ່ວນ	-12922
▁Wikidata	-12923
▁ຫັດຖະກໍາ	-12924
▁Education	-12925
ທັງຫມົດແມ່ນ	-12926
ຫົວຫນ້າພະແນກ	-12927
▁ກົມການເມືອງ	-12928
▁ພວກເຮົາສາມາດ	-12929
ປະຊາຊົນຫວຽດນາມ	-12930
ໃນໄລຍະຈະມາເຖິງ	-12931
▁ຢູ່ທີ່ຫ້ອງປະຊຸມ	-12932
39	-12933
li	-12934
ys	-12935
ກວ	-12936
VNP	-12937
▁3:	-12938
▁Zh	-12939
▁kh	-12940
alth	-12941
ກູບາ	-12942
ຫາກໍ	-12943
ື້ອກ	-12944
▁Ali	-12945
▁Dar	-12946
ວົງສາ	-12947
ສະຫລະ	-12948
▁from	-12949
actspy	-12950
ຈອດລົດ	-12951
ນອກຈາກ	-12952
ອອກສຽງ	-12953
▁ຕໍ່ປີ	-12954
ພ້ອມທັງ	-12955
ສິ່ງນີ້	-12956
ເຊັນເຕີ	-12957
▁ຮັບຮູ້	-12958
ລະດັບໂລກ	-12959
▁ຂອງຂວັນ	-12960
ເຊື່ອມຊຶມ	-12961
ໄດ້ຮັບຮູ້	-12962
▁ສິນລະປິນ	-12963
▁ການປົກປ້ອງ	-12964
▁ເລຂາພັກແຂວງ	-12965
▁ສ້າງເງື່ອນໄຂ	-12966
ຂອງພວກເຮົາແມ່ນ	-12967
xx	-12968
ily	-12969
ຄີມ	-12970
ນອງ	-12971
ພ້າ	-12972
ຟອກ	-12973
ເມດ	-12974
▁78	-12975
▁AI	-12976
▁ວຸ	-12977
ບໄຊ້	-12978
ປະນາ	-12979
▁Ash	-12980
▁Sin	-12981
▁Tra	-12982
▁ບຣາ	-12983
▁ບ້າ	-12984
▁ຝູງ	-12985
▁ເວດ	-12986
▁ໂຈະ	-12987
▁ກຸ້ງ	-12988
▁ປາຊີ	-12989
ulture	-12990
ພູເຂົາ	-12991
ສັນຍາກ	-12992
ໂດຍລວມ	-12993
ສະເທືອນ	-12994
▁ຊື້ຂາຍ	-12995
▁ດີກວ່າ	-12996
▁ສະທ້ອນ	-12997
▁ເພາະສະ	-12998
ທີ່ເຫຼືອ	-12999
ເພື່ອຊາດ	-13000
▁Digital	-13001
ກອງກໍາລັງ	-13002
ສະຖານະພາບ	-13003
ສະຫນອງການ	-13004
▁ເອເລັກໂຕ	-13005
▁ໄດ້ພາກັນ	-13006
ຊາວຫວຽດນາມ	-13007
ັດທໍາມະຊາດ	-13008
▁ຄ່າບໍລິການ	-13009
ແຂວງບໍລິຄໍາໄຊ	-13010
▁ເພື່ອປ້ອງກັນ	-13011
69	-13012
dog	-13013
mar	-13014
pdf	-13015
▁XI	-13016
▁ທູ	-13017
ແມັກ	-13018
່ວັດ	-13019
▁Apr	-13020
▁ນຽບ	-13021
▁ບົກ	-13022
▁ໄຮ້	-13023
ປະພັນ	-13024
ສົນທິ	-13025
▁1110	-13026
ulette	-13027
ກົງກັບ	-13028
ດັດແປງ	-13029
ຕໍາຫນິ	-13030
ສຶກສານ	-13031
ໃນກຸ່ມ	-13032
▁Enter	-13033
▁pizza	-13034
▁ສະຫນາ	-13035
▁ແຄຣັດ	-13036
pasaxon	-13037
ບຸກທະລຸ	-13038
ມະຫາພາກ	-13039
▁ຂຶ້ນໄປ	-13040
▁ຄົນໄດ້	-13041
▁ແລະຖືກ	-13042
ກັບຄືນມາ	-13043
ຄົນພິການ	-13044
ເທດສະການ	-13045
▁Account	-13046
▁Italian	-13047
▁ສະຫວ່າງ	-13048
▁ຮຽບຮ້ອຍ	-13049
ຍັງສືບຕໍ່	-13050
ເດີນຂະບວນ	-13051
▁ອຸນຫະພູມ	-13052
ຈໍານວນຫລາຍ	-13053
ນັບຕັ້ງແຕ່	-13054
ລາຍການພາສາ	-13055
ໃນການປະກວດ	-13056
▁ຄ່າທໍານຽມ	-13057
▁ໃນປະຈຸບັນ	-13058
ດ້ານການເງິນ	-13059
ສະມັດຊາໃຫຍ່	-13060
▁ນາຍົກລັດຖະ	-13061
ກໍ່ສ້າງຮາກຖານ	-13062
ຊຸກຍູ້ການຮ່ວມມື	-13063
ຫົວຫນ່ວຍທຸລະກິດ	-13064
fl	-13065
-04	-13066
ບຶງ	-13067
ຣີນ	-13068
ເກຍ	-13069
▁Ak	-13070
▁CL	-13071
▁GA	-13072
▁ຟາ	-13073
ople	-13074
ບັດທ	-13075
ໄມຕີ	-13076
▁107	-13077
▁Fin	-13078
▁spy	-13079
▁ກຽວ	-13080
istan	-13081
ປະລາດ	-13082
ສະແກນ	-13083
ໂຢຕ້າ	-13084
ໃນຍຸກ	-13085
▁2560	-13086
▁Back	-13087
▁Wall	-13088
▁ຮ່ໍາ	-13089
▁ເຈ້ຍ	-13090
▁ເຫລີ	-13091
ກ້າຫານ	-13092
ຄົນງານ	-13093
ຈັດວາງ	-13094
ຕາມທິດ	-13095
ພົບກັນ	-13096
▁TTXVN	-13097
▁ຈະໃຫ້	-13098
ລູກຫຼານ	-13099
ຫຸ່ນຍົນ	-13100
ຸ່ນດ່ຽງ	-13101
ໍາມະການ	-13102
▁ຄິດວ່າ	-13103
ນາຊາຍທອງ	-13104
ພຸດທະຮູບ	-13105
▁ບ້ານໂພນ	-13106
▁ອ່ານຕໍ່	-13107
▁ເຄລຍຂອງ	-13108
ຂອງນັກຮຽນ	-13109
ຕອບຄໍາຖາມ	-13110
ອັນສໍາຄັນ	-13111
ກໍາລັງຫນູນ	-13112
ທີ່ເຮັດວຽກ	-13113
ທົ່ວປວງຊົນ	-13114
ນະມັດສະການ	-13115
ປະຊາສໍາພັນ	-13116
ຜູ້ບໍລິໂພກ	-13117
▁ໄດ້ລາຍງານ	-13118
ທີ່ເອີ້ນວ່າ	-13119
ເຮັດໃຫ້ເກີດ	-13120
▁021336111,	-13121
▁021336113,	-13122
ຂອງພົນລະເມືອງ	-13123
ພວກຂ້າພະເຈົ້າ	-13124
ໃຫ້ແກ່ປະຊາຊົນ	-13125
▁ທິດທາງແຜນການ	-13126
▁ມະຕິກອງປະຊຸມ	-13127
ແນວໂຮມປະເທດຊາດ	-13128
▁ກະຊວງວິທະຍາສາດ	-13129
▁ສໍານັກງານເລກທີ	-13130
▁ເພື່ອຕອບສະຫນອງ	-13131
DI	-13132
ຕທ	-13133
gin	-13134
ທຽວ	-13135
ີ່ຍ	-13136
▁ພວ	-13137
ສະລະ	-13138
ເປີລ	-13139
ໍາພາ	-13140
▁28,	-13141
▁360	-13142
▁70%	-13143
▁Lab	-13144
▁Sil	-13145
▁ແຍງ	-13146
ສະຕິກ	-13147
▁ຈັ່ງ	-13148
ໂຮນລັງ	-13149
▁Songs	-13150
▁ມົສກູ	-13151
▁ເກຣັກ	-13152
ຂໍຂອບໃຈ	-13153
ປ່ອຍໃຫ້	-13154
ສາຍສົ່ງ	-13155
ົບປະມານ	-13156
ແລ້ວກໍ່	-13157
▁ຜູ້ຂຽນ	-13158
▁ວັນຊາດ	-13159
▁ສັບສົນ	-13160
ດ້ານພາສາ	-13161
▁ບໍ່ຕ້ອງ	-13162
ທ້າຍອາທິດ	-13163
ຫົວເລື່ອງ	-13164
ເພື່ອເປັນ	-13165
ຂັ້ນສູນກາງ	-13166
ຄວາມເປັນມາ	-13167
ເບີສຸກເສີນ	-13168
▁ເຂົ້າໃຈກັນ	-13169
▁ໃນວັນອັງຄານ	-13170
ແຫຼ່ງທ່ອງທ່ຽວ	-13171
ໄດ້ຮັບຮອງເອົາ	-13172
ລາຍວັນປະຈໍາວັນ	-13173
▁ປະທານປະເທດຈີນ	-13174
ປະກົດຜົນເປັນຈິງ	-13175
ຫມູ່ເກາະຮ່ວາງຊາ	-13176
▁ພະແນກສຶກສາທິການ	-13177
ta	-13178
ຕ໋	-13179
ອໍ	-13180
ຈ່າ	-13181
ຍືດ	-13182
ໂປນ	-13183
▁ab	-13184
real	-13185
ປາຣີ	-13186
ເພັນ	-13187
▁UXO	-13188
▁ຕົບ	-13189
▁ຣາຍ	-13190
▁ແກະ	-13191
▁ກ່ອງ	-13192
▁ວ່າງ	-13193
ຊັກຊ້າ	-13194
ພວກເຮົ	-13195
▁smart	-13196
ຄວາມຝັນ	-13197
ຊະນາການ	-13198
ບານໃຫມ່	-13199
▁ກ່າວໃນ	-13200
▁ທົບທວນ	-13201
▁ພົບກັບ	-13202
▁ສັດປ່າ	-13203
▁ຮາກຖານ	-13204
▁ແສນຄົນ	-13205
ຢ່າງເຕັມ	-13206
▁ແມ່ນບໍ່	-13207
ຊຸກຍູ້ການ	-13208
▁exactspy	-13209
▁ຊອກຫາທາງ	-13210
▁ນິວຊີແລນ	-13211
ສໍາເລັດຮູບ	-13212
ຫຼວງນ້ໍາທາ	-13213
ເກົາຫລີໃຕ້	-13214
▁ຕາເວັນຕົກ	-13215
▁ທ່ານນາຍົກ	-13216
ຂອງສອງປະເທດ	-13217
▁ການຂົນສົ່ງ	-13218
▁ການແລກປ່ຽນ	-13219
▁ແຫຼ່ງຮູບພາບ	-13220
ຮັກສາສັນຕິພາບ	-13221
ຂອງປະທານາທິບໍດີ	-13222
ດໍາເນີນກອງປະຊຸມ	-13223
ເພື່ອການພັດທະນາ	-13224
▁ຂອງປະທານາທິບໍດີ	-13225
▁ຕາມແຕ່ລະວັນເກີດ	-13226
**	-13227
CS	-13228
Wh	-13229
ຕົ	-13230
mes	-13231
ຟາມ	-13232
▁Ts	-13233
▁ທົງ	-13234
▁ນສພ	-13235
ດີນໍາ	-13236
ລີເບຍ	-13237
▁ບໍດີ	-13238
▁ມົ້ງ	-13239
ກຸງເທບ	-13240
ວິນາທີ	-13241
ີດເພີນ	-13242
categor	-13243
ສິນລະປະ	-13244
ເອົາໄວ້	-13245
▁Castle	-13246
▁ນາຍພົນ	-13247
ປາກົດວ່າ	-13248
ຫມົດອາຍຸ	-13249
ຫຼາຍດ້ານ	-13250
ອອກອາກາດ	-13251
ອິສຣາແອລ	-13252
▁ປຸງແຕ່ງ	-13253
ເຫດສົມຜົນ	-13254
▁ແລ້ວນັ້ນ	-13255
▁ຖານຂໍ້ມູນ	-13256
ຜູ້ເຄາະຮ້າຍ	-13257
▁ອັດຕະໂນມັດ	-13258
▁ອົດສະຕຣາລີ	-13259
▁ໄດ້ກ່າວຕໍ່	-13260
ໃນການກໍ່ສ້າງ	-13261
▁ອຸດົມສົມບູນ	-13262
ໂດຍອັດຕະໂນມັດ	-13263
ງົບປະມານແຫ່ງລັດ	-13264
ສະຫະພັນແມ່ຍິງລາວ	-13265
TI	-13266
ຄອ	-13267
eta	-13268
oria	-13269
ນິ້ວ	-13270
ຫ້າງ	-13271
▁Bas	-13272
▁Dec	-13273
▁Job	-13274
ຢູ່ໃສ	-13275
▁Asia	-13276
▁this	-13277
▁ບູລີ	-13278
ທໍ່ຕູ້	-13279
ໄຂ້ຍຸງ	-13280
ໄນເຕັດ	-13281
▁2,000	-13282
▁Abdul	-13283
▁ພະນົມ	-13284
ຢ້ຽມຊົມ	-13285
ສ່ອງແສງ	-13286
ແຫລງການ	-13287
▁ວັດແທກ	-13288
▁ສະຫຼູບ	-13289
▁ສັງລວມ	-13290
ນໍ້າຫນັກ	-13291
ຮູບປະທໍາ	-13292
ຕິດຕໍ່ກັບ	-13293
ບັນດາແຂວງ	-13294
▁ທະເລແມ່ນ	-13295
▁ທາງເລືອກ	-13296
▁ມາຮູ້ຈັກ	-13297
▁ການວິເຄາະ	-13298
▁ສານສູງສຸດ	-13299
ໃນນະຄອນຫຼວງ	-13300
▁ການຕິດຕັ້ງ	-13301
▁ທີ່ພວກທ່ານ	-13302
▁ດໍາລົງຊີວິດ	-13303
▁ຂຶ້ນຕົ້ນດ້ວຽ	-13304
▁ດໍາເນີນທຸລະກິດ	-13305
ຄູ່ຮ່ວມມືຮອບດ້ານ	-13306
ຢູ່ທະເລຕາເວັນອອກ	-13307
,,	-13308
49	-13309
62	-13310
igs	-13311
ອັງ	-13312
▁Gh	-13313
ross	-13314
ປຸ້ນ	-13315
ຜ່ອງ	-13316
າມັນ	-13317
▁Tem	-13318
▁ເຂົ	-13319
ໍາລຽງ	-13320
▁Book	-13321
ຈາກຈີນ	-13322
ມັນໄດ້	-13323
ສໍາອາງ	-13324
▁Yahoo	-13325
▁©2016	-13326
ຕ່າງຫາກ	-13327
ບັນເທົາ	-13328
ມີບັນຫາ	-13329
ຫຍັງແດ່	-13330
ເກັບຄ່າ	-13331
ໃນສະໄຫມ	-13332
ກິໂລແມັດ	-13333
ພາກພູມໃຈ	-13334
ຫລາກຫລາຍ	-13335
▁ຫລັກສູດ	-13336
▁ເພື່ອຈະ	-13337
ຂຶ້ນທະບຽນ	-13338
ທີ່ຈະສ້າງ	-13339
ທີ່ແນ່ນອນ	-13340
ເປັນປະເທດ	-13341
ການຢັ້ງຢືນ	-13342
ຢ່າງໃກ້ຊິດ	-13343
ຫົວຫນ້າກົມ	-13344
▁ໃນວັນພະຫັດ	-13345
▁ໄດ້ຈັດຂຶ້ນ	-13346
ສົ່ງຜົນກະທົບ	-13347
ຕອນເຊົ້າວັນທີ	-13348
ບັນຫາດັ່ງກ່າວ	-13349
ຫ່າງໄກສອກຫຼີກ	-13350
ເຂົ້າໃນວຽກງານ	-13351
▁ພ້ອມຂອງກາງຢາບ້າ	-13352
-14	-13353
uts	-13354
yan	-13355
ຊນະ	-13356
ດັກ	-13357
ທິບ	-13358
ລາຄ	-13359
ອຶດ	-13360
ເຮີ	-13361
▁(7	-13362
▁Ap	-13363
▁Ke	-13364
▁ກ໊	-13365
▁ດ໌	-13366
ifer	-13367
ສິລະ	-13368
ໂກລີ	-13369
▁Nav	-13370
▁ລິກ	-13371
ative	-13372
▁Work	-13373
ການຂຽນ	-13374
ທີ່ນໍາ	-13375
ະສິກໍາ	-13376
ເຣື່ອງ	-13377
ໄອຊີທີ	-13378
▁Cheat	-13379
ກ່ວາອີກ	-13380
ຄວາມທຸກ	-13381
ໃນອາທິດ	-13382
▁ຈະເລີນ	-13383
▁ຊຶ່ງຈະ	-13384
ຂອງນະຄອນ	-13385
ປີກາຍນີ້	-13386
▁ຄົ້ນພົບ	-13387
▁ໄດ້ຢ່າງ	-13388
ຂອງຄອບຄົວ	-13389
ຂີປະນາວຸດ	-13390
ຄວາມໄວສູງ	-13391
ຫນ້ອຍກວ່າ	-13392
▁ຫຼາຍຂຶ້ນ	-13393
ພົ້ນອອກຈາກ	-13394
ມະຫັດສະຈັນ	-13395
ລາຄາສິນຄ້າ	-13396
ເຮັດວຽກກັບ	-13397
ໃຫ້ຖືກຕ້ອງ	-13398
▁ການຕັ້ງຄ່າ	-13399
▁ການໃຊ້ຈ່າຍ	-13400
▁ໄຂກອງປະຊຸມ	-13401
ວ່າທ່ານສາມາດ	-13402
▁ຈັດກິດຈະກໍາ	-13403
ກັບການປ່ຽນແປງ	-13404
▁ລະຫວ່າງວັນທີ	-13405
ທຸກພາກຂອງປະເທດ	-13406
ili	-13407
rol	-13408
ຜີວ	-13409
▁sw	-13410
abab	-13411
▁ກຸດ	-13412
ບັດເຄ	-13413
ວານີ້	-13414
ຫາຍໄປ	-13415
▁ASEM	-13416
▁LAOS	-13417
▁ກະສາ	-13418
▁ສ້ອມ	-13419
▁ຫຸ້ມ	-13420
ປອງດອງ	-13421
ສອງຊາດ	-13422
ໄວລຸ້ນ	-13423
ເດີມພັນ	-13424
ໃຫມ່ແລະ	-13425
▁ກ່ອນຈະ	-13426
ຈັກກະພັດ	-13427
▁tonamch	-13428
▁ສໍາເນົາ	-13429
▁ຮ່ອງຮອຍ	-13430
ashington	-13431
ພາຮອບດ້ານ	-13432
ໃຫ້ກາຍເປັນ	-13433
▁ເຈົ້າແຂວງໆ	-13434
ຄຸນງາມຄວາມດີ	-13435
▁ກອງປະຊຸມໄດ້	-13436
ສໍ້ລາດບັງຫລວງ	-13437
ຫນ້າທີ່ວຽກງານ	-13438
▁ຈໍາກັດຜູ້ດຽວ	-13439
▁ຊົ່ວໂມງວຽງຈັນ	-13440
ກະຊວງສຶກສາທິການ	-13441
ແກ້ໄຂຂໍ້ຂັດແຍ່ງ	-13442
TD	-13443
hz	-13444
ຖູ	-13445
IDS	-13446
oul	-13447
ບ່າ	-13448
ຫຼາ	-13449
ຮັງ	-13450
▁97	-13451
▁ຍໍ	-13452
quot	-13453
ເວີນ	-13454
ເອລາ	-13455
ໃດກໍ	-13456
▁buy	-13457
▁ຈອກ	-13458
raine	-13459
ພັທນາ	-13460
ຣະວົງ	-13461
ຽບຮຽງ	-13462
▁ຄວັນ	-13463
▁ສົ້ມ	-13464
▁ເຄີ້	-13465
ບົດເພງ	-13466
ວີເດັນ	-13467
ສະຖານະ	-13468
▁2012,	-13469
▁Reply	-13470
▁ຈັນຍາ	-13471
▁ສີຂຽວ	-13472
ມະຫາສານ	-13473
ອຸປະຖໍາ	-13474
▁Martin	-13475
▁ຂອງຣັດ	-13476
▁ພັນກີບ	-13477
▁ແນວຄິດ	-13478
ທີ່ປະເທດ	-13479
ຫຼາຍຝ່າຍ	-13480
ເງິນເຟີ້	-13481
▁ຍ້ອນການ	-13482
▁ນັ້ນເອງ	-13483
▁ສ້າງສັນ	-13484
ການວິເຄາະ	-13485
ຕໍາລົດຈັກ	-13486
ບັນດາທ່ານ	-13487
▁ມັນສາມາດ	-13488
ວ່າມັນເປັນ	-13489
▁Uncategor	-13490
ພຽງເລັກນ້ອຍ	-13491
ປະຕິບັດວຽກງານ	-13492
▁tonamchanews	-13493
▁ທີ່ການຕ້ອນຮັບ	-13494
ພັດທະນາປະເທດຊາດ	-13495
▁ບໍລິຫານທຸລະກິດ	-13496
ກປ	-13497
ena	-13498
ພໍ້	-13499
▁ຜິ	-13500
▁ຫິ	-13501
ters	-13502
ຈ່າງ	-13503
ແກຣນ	-13504
ແລັມ	-13505
▁Jet	-13506
▁ຄະນ	-13507
https	-13508
ylish	-13509
ລາຄາວ	-13510
▁Flex	-13511
▁Pupp	-13512
▁Yula	-13513
▁ຊິ້ນ	-13514
▁ຫັ້ນ	-13515
ທັນການ	-13516
ຮ່ວມໃຈ	-13517
ແຕ່ວັນ	-13518
▁April	-13519
▁Touch	-13520
▁ທີ່ຫໍ	-13521
ະນະນັ້ນ	-13522
▁Glamor	-13523
▁ຈົນຮອດ	-13524
▁ພວກເຮົ	-13525
▁ຢ່າງມີ	-13526
ຮອງປະທານ	-13527
ຮັດແຫນ້ນ	-13528
ເສດເຫຼືອ	-13529
▁ຄາດຄະເນ	-13530
▁ວຸ້ນວາຍ	-13531
▁ໂປຣແກຣມ	-13532
▁WhatsApp	-13533
▁ຂໍ້ມູນຈາກ	-13534
ແຂກທ່ອງທ່ຽວ	-13535
▁ພົນຈັດຕະວາ	-13536
▁ມະນຸດສະທໍາ	-13537
ຖະຫນົນຫົນທາງ	-13538
ທິດທາງແຜນການ	-13539
ຄວາມສາມາດໃນການ	-13540
ຍຸດທະສາດຮອບດ້ານ	-13541
▁ໃນໄລຍະຈະມາເຖິງ	-13542
34	-13543
aki	-13544
ນັນ	-13545
ອຶນ	-13546
ໄຫ້	-13547
osit	-13548
stan	-13549
ຍິ້ມ	-13550
ນິຕິ	-13551
▁Shi	-13552
▁Tex	-13553
▁ລຽບ	-13554
▁ວາດ	-13555
ປະສາດ	-13556
ສະຫມີ	-13557
ໂຣຮິງ	-13558
ກົນຈັກ	-13559
ຈິງຈັງ	-13560
ພິຈາລະ	-13561
ແລ້ວກໍ	-13562
▁CPTPP	-13563
▁Debby	-13564
▁Forum	-13565
▁James	-13566
▁ມາສູ່	-13567
ຄວາມລັບ	-13568
▁System	-13569
▁ຈາກລັດ	-13570
▁ຍາດໄດ້	-13571
ຫມາກພ້າວ	-13572
▁ທ່ານມາກ	-13573
▁ໄອຍະການ	-13574
ຕາມແຜນການ	-13575
ບູລິມະສິດ	-13576
ວິສະວະກໍາ	-13577
▁Ministry	-13578
▁Universe	-13579
▁ທໍາມະວົງ	-13580
▁ນາມສະກຸນ	-13581
▁ສ່ວນຮ້ອຍ	-13582
ເຫລົ່ານັ້ນ	-13583
▁ບົດບາດຂອງ	-13584
▁ໄດ້ສໍາເລັດ	-13585
ຄະນະຊາວຫນຸ່ມ	-13586
ເພີ່ມທະວີການ	-13587
ແລ້ວຫຼາຍກວ່າ	-13588
▁ການສົ່ງເສີມ	-13589
▁ຢ່າງຍິ່ງໃຫຍ່	-13590
ບ້ານເກີດເມືອງນອນ	-13591
ມະຕິກອງປະຊຸມໃຫຍ່	-13592
lov	-13593
ຂຸນ	-13594
ຜູ້	-13595
ມອດ	-13596
ເຊນ	-13597
ໂນນ	-13598
່ັງ	-13599
▁Li	-13600
ears	-13601
ຄຸ້ນ	-13602
ຊູຊຸ	-13603
ມ້ຽນ	-13604
ສີ່ງ	-13605
ຫຼືອ	-13606
ອຣຈ໌	-13607
ເລົາ	-13608
ແຄ້ນ	-13609
▁Eth	-13610
▁ຢູ່	-13611
ມີແຕ່	-13612
ຸນນານ	-13613
ໄປກົງ	-13614
▁Aung	-13615
▁ແທ່ງ	-13616
ການຍິງ	-13617
ຂົວຂ້າ	-13618
ດຽວນີ້	-13619
ລ່າສຸດ	-13620
ສປປລາວ	-13621
ຫວນຄືນ	-13622
▁ນີ້ຈະ	-13623
▁ປະດັບ	-13624
ທ່າເຮືອ	-13625
▁ການຮຽນ	-13626
▁ຕາມຄໍາ	-13627
▁ປະທານາ	-13628
▁ມາເຖິງ	-13629
▁ຢູເຄຣນ	-13630
▁ສຽງເພງ	-13631
ກ່າວເຖິງ	-13632
ບັນຫາທີ່	-13633
ຢູ່ເຮືອນ	-13634
ເກັບເງິນ	-13635
ເຄັ່ງຄັດ	-13636
▁ແຫ່ງການ	-13637
▁roulette	-13638
▁ນໍ້າຖ້ວມ	-13639
ຕື່ມອີກວ່າ	-13640
ບໍາລຸງສ້າງ	-13641
ພາກເອກະຊົນ	-13642
ສັງເກດເຫັນ	-13643
▁ທາງພາກໃຕ້	-13644
▁ໂດຍພາຍໃຕ້	-13645
▁ໂດດຂົວຂ້າ	-13646
ທາງທໍາມະຊາດ	-13647
▁ບັນດາການນໍາ	-13648
▁ຣາຊະອານາຈັກ	-13649
▁ເຂົ້າໂຮງຫມໍ	-13650
ບັນຫາຄວາມເປັນ	-13651
▁ພະລັງງານໄຟຟ້າ	-13652
▁ຮອງຫົວຫນ້າກົມ	-13653
2]	-13654
3]	-13655
59	-13656
cn	-13657
-21	-13658
aga	-13659
ahu	-13660
eum	-13661
ouk	-13662
ຊືມ	-13663
ສັມ	-13664
ຮາງ	-13665
ເທວ	-13666
Once	-13667
ຍ້ອງ	-13668
ຫມາດ	-13669
ເຕັນ	-13670
▁90%	-13671
▁LAK	-13672
▁Tay	-13673
▁loc	-13674
▁ຖົມ	-13675
▁ບຸຊ	-13676
▁ຢາດ	-13677
▁ລີກ	-13678
ester	-13679
ຄູສອນ	-13680
▁Full	-13681
▁NATO	-13682
▁ຄ້ວາ	-13683
▁ຫລານ	-13684
▁ໂປ່ງ	-13685
ການຕອບ	-13686
ບໍ່ຢາກ	-13687
ແລະໄດ້	-13688
ໃນນ້ໍາ	-13689
ໄດ້ຍາກ	-13690
▁Carol	-13691
▁ນິກກີ	-13692
▁ເວບໄຊ	-13693
ພາສາຈີນ	-13694
ວັດສະດຸ	-13695
ເປັນນັກ	-13696
ໄລຍະນີ້	-13697
▁ທ່າແຮງ	-13698
▁ແຕ່ຖ້າ	-13699
ທາງຣົດໄຟ	-13700
ໃນຄອບຄົວ	-13701
▁ສອບເສັງ	-13702
ຂອງໂຮງຮຽນ	-13703
ສັງເກດການ	-13704
ໃນສິ່ງທີ່	-13705
ໃຫ້ດີຂຶ້ນ	-13706
▁ທີ່ພາກັນ	-13707
▁ແທນທີ່ຈະ	-13708
ຈິນຕະນາການ	-13709
ສະຫນາມກິລາ	-13710
▁ແຕ່ວ່າມັນ	-13711
ທີ່ມີຄຸນຄ່າ	-13712
ພາກເຫນືອຂອງ	-13713
ສັງເກດເບິ່ງ	-13714
▁Washington	-13715
ພະຍາຍາມທີ່ຈະ	-13716
▁ບັນດາຜູ້ແທນ	-13717
ເປັນທີ່ຮູ້ຈັກ	-13718
MC	-13719
-52	-13720
ກູນ	-13721
ຈົກ	-13722
ຝືກ	-13723
ຟາກ	-13724
ມໄຟ	-13725
ຫົດ	-13726
ີໂບ	-13727
ເວຍ	-13728
ແຊມ	-13729
໋ອບ	-13730
▁am	-13731
▁ໂຟ	-13732
ດ້າວ	-13733
ບ້ວງ	-13734
ພູຜາ	-13735
ລ່ຽງ	-13736
ເຊັດ	-13737
▁dis	-13738
▁ຢວນ	-13739
ພະນົມ	-13740
▁File	-13741
▁ຂ້ອນ	-13742
▁ຄ້ໍາ	-13743
▁ຊ່ຽວ	-13744
alware	-13745
ບັນຍາຍ	-13746
ປະຫລາດ	-13747
ຜູກພັນ	-13748
ລອນດອນ	-13749
ລະເສີນ	-13750
▁5,000	-13751
▁ລົດໄຟ	-13752
▁ເອດສ໌	-13753
ຄືເກົ່າ	-13754
ທີ່ສ້າງ	-13755
ປະຕິທິນ	-13756
ຫລາຍຄົນ	-13757
ອຸປະໂພກ	-13758
▁ມັນໄດ້	-13759
▁ລໍາບາກ	-13760
▁ອິນເຕີ	-13761
▁ຮັ່ງມີ	-13762
▁ເຮົາຈະ	-13763
/01/2018	-13764
▁ການສົ່ງ	-13765
▁ກໍາປັ່ນ	-13766
▁ພັກຜ່ອນ	-13767
▁ຮ່ວມກອງ	-13768
ເພີ່ມຄວາມ	-13769
▁ຄືກັນກັບ	-13770
▁ໃນໄວໆນີ້	-13771
ສັກຂີພິຍານ	-13772
ແຂວງຫົວພັນ	-13773
▁ຈັນສະຫມອນ	-13774
▁ສະເຫຼີມໄຊ	-13775
▁ເຄື່ອງໃຊ້	-13776
ເຮັດໃຫ້ທ່ານ	-13777
▁ປະທານາທິບໍ	-13778
▁ພວກເຮົາຍັງ	-13779
▁ໃຫ້ບໍລິການ	-13780
▁ຫລັງຈາກນັ້ນ	-13781
ຂອງບັນດາປະເທດ	-13782
ທີ່ບໍ່ຖືກຕ້ອງ	-13783
ອາກາດຫນາວເຢັນ	-13784
ກ່ຽວກັບວິທີການ	-13785
ເຊັ່ນດຽວກັນກັບ	-13786
▁ທ່ານຈໍາເປັນຕ້ອງ	-13787
▁ປະຊາຊົນຫຼາຍກວ່າ	-13788
GO	-13789
vi	-13790
ຍູ	-13791
ຶ້	-13792
ຣີດ	-13793
ວຸດ	-13794
ວ່ນ	-13795
ີໂທ	-13796
▁la	-13797
▁ຕສ	-13798
ague	-13799
ຖວາຍ	-13800
ປ່ານ	-13801
ລາມະ	-13802
ສເຕີ	-13803
ເມັນ	-13804
▁16.	-13805
▁Rod	-13806
▁Sun	-13807
▁ງົວ	-13808
▁ບາບ	-13809
▁ພິກ	-13810
▁ຣັກ	-13811
▁ສອກ	-13812
▁ແນມ	-13813
dogan	-13814
ຄືການ	-13815
ບໍ່ພໍ	-13816
ພະຄຸນ	-13817
ລາວັນ	-13818
▁Camp	-13819
▁Thom	-13820
▁ລະນະ	-13821
▁1,500	-13822
▁Broad	-13823
/7/2018	-13824
ຈັດສົ່ງ	-13825
▁Aleppo	-13826
▁lovers	-13827
▁ກັບພວກ	-13828
▁ຄ້າຍຄື	-13829
▁ຈະຊ່ວຍ	-13830
▁ດຽວນີ້	-13831
▁ຖະແຫລງ	-13832
/05/2018	-13833
ຍິ່ງຂຶ້ນ	-13834
ປະກົດການ	-13835
ຫຼາຍຄັ້ງ	-13836
ະຄອນຫລວງ	-13837
▁ບໍຣິສັດ	-13838
▁ພາກວິຊາ	-13839
▁ວ່າເປັນ	-13840
▁ຫ້ອງຮຽນ	-13841
ຊະນິດໃຫມ່	-13842
▁ກ່ອນອື່ນ	-13843
▁ຄໍາຫມັ້ນ	-13844
▁ທ່ານຕ້ອງ	-13845
ຂໍ້ລິເລີ່ມ	-13846
ທີ່ທ່ານໄດ້	-13847
ບົດຄວາມນີ້	-13848
ຫນ້າເສຍດາຍ	-13849
ໃນເວັບໄຊທ໌	-13850
▁ເຊື່ອມຊຶມ	-13851
ປົກຄອງເມືອງ	-13852
▁ກົມຈັດຕັ້ງ	-13853
▁ເພື່ອແກ້ໄຂ	-13854
ແຜນທີ່ຂອງຈີນ	-13855
▁ກະຊວງແຮງງານ	-13856
ເປັນກຽດຢ່າງຍິ່ງ	-13857
ເວັບໄຊຂອງພວກເຮົາ	-13858
cm	-13859
ຄົ	-13860
ali	-13861
iff	-13862
ຄຕລ	-13863
ໄວກ	-13864
▁(8	-13865
▁Ra	-13866
▁im	-13867
▁ວງ	-13868
amin	-13869
ກອຕທ	-13870
ຮົ້ວ	-13871
▁(7)	-13872
▁Exp	-13873
▁GPS	-13874
▁ນິງ	-13875
▁ມາຍ	-13876
▁ແທກ	-13877
▁ແປດ	-13878
ຕາດອກ	-13879
ປີທີ່	-13880
ຫົງສາ	-13881
ເອື້ອ	-13882
▁Open	-13883
▁Prof	-13884
▁ອາວຸ	-13885
▁ໃນປະ	-13886
Shabab	-13887
ການາດາ	-13888
ນໍາອີກ	-13889
ສະຫລາດ	-13890
ໃນຄວາມ	-13891
ບໍ່ມີໃຜ	-13892
ຫມູນໃຊ້	-13893
▁ວິເຄາະ	-13894
▁ວຽດນາມ	-13895
ສາດສະຫນາ	-13896
ແກ່ງແຍ້ງ	-13897
▁ການຮ່ວມ	-13898
▁ຕອນບ່າຍ	-13899
▁ນັກຮ້ອງ	-13900
ຂະຫນາດກາງ	-13901
ບ້ານເຮືອນ	-13902
ອັກສອນລາວ	-13903
▁ທີ່ມາຈາກ	-13904
▁ປະກາດວ່າ	-13905
▁ປະເທດຈີນ	-13906
▁ສັນຍາລັກ	-13907
▁ເຊິ່ງກັນ	-13908
▁ເທດສະການ	-13909
ຂອງພາກພື້ນ	-13910
▁ຍ້ອນເລືອດ	-13911
▁ທ່ານຈອຣຈ໌	-13912
▁ເຂົ້າຫນົມ	-13913
▁ຂະຫນາດໃຫຍ່	-13914
▁ພັກປະຊາຊົນ	-13915
▁ແມ່ນໍ້າຂອງ	-13916
ການເຂົ້າເຖິງ	-13917
ການລະບາດພະຍາດ	-13918
ສະເພາະໃດຫນຶ່ງ	-13919
ເຄື່ອງນຸ່ງຫົ່ມ	-13920
▁ຍິ່ງໄປກວ່ານັ້ນ	-13921
63	-13922
8.	-13923
-22	-13924
lim	-13925
ຕຽມ	-13926
ປວດ	-13927
ຟ່າ	-13928
▁IN	-13929
enko	-13930
erst	-13931
ຊື້ງ	-13932
ເຄັດ	-13933
ເຊີງ	-13934
ໄຕນ໌	-13935
▁Tan	-13936
▁ຈູງ	-13937
▁ຊຶມ	-13938
▁ຕັກ	-13939
ຊີເກມ	-13940
ຜົນດີ	-13941
▁Dora	-13942
▁ຢັ່ງ	-13943
▁ຮ່ອມ	-13944
ຕະປາປາ	-13945
ປີກ່ອນ	-13946
ເປີລຢູ	-13947
▁ກັນຊາ	-13948
▁ປາກເຊ	-13949
▁ໂດຍໄວ	-13950
ືລືລົ້ນ	-13951
ເຂດບ້ານ	-13952
▁ປີໃຫມ່	-13953
▁Ukraine	-13954
▁ຂັ້ນສູງ	-13955
▁ທັງຫລາຍ	-13956
▁ຫາກທ່ານ	-13957
ຍ້າຍໄປທີ່	-13958
ທິດຊີ້ນໍາ	-13959
ສັງຫາລິມະ	-13960
ເຂົ້າເປັນ	-13961
▁ຕົວເລືອກ	-13962
ຂໍ້ແຂ່ງຂັນ	-13963
ເອື້ອຍນ້ອງ	-13964
ໄພນໍ້າຖ້ວມ	-13965
▁ດັບເປີລຢູ	-13966
▁ມີລັກສະນະ	-13967
ມະຫາກໍາກິລາ	-13968
ສໍາຄັນໃນການ	-13969
▁ທັງສອງຝ່າຍ	-13970
▁ທ່ານມາກຣົງ	-13971
ການປະຕິບັດງານ	-13972
ທີ່ມີຄວາມຫມາຍ	-13973
ເງິນທີ່ແທ້ຈິງ	-13974
▁ຮັບຮອງອາຫານຄ່ໍາ	-13975
MV	-13976
/3,	-13977
arb	-13978
ຊອນ	-13979
ຣີ່	-13980
ຫນ້	-13981
ັຫນ	-13982
ason	-13983
oung	-13984
ຖກິດ	-13985
▁(20	-13986
▁Dep	-13987
laoph	-13988
▁Amer	-13989
▁Lake	-13990
▁ຕົ້ມ	-13991
▁ມຸ້ງ	-13992
▁ເຖີງ	-13993
▁Poker	-13994
▁Texas	-13995
▁ມຕົ້ນ	-13996
ຂ່າວຈາກ	-13997
ຂ່າວວ່າ	-13998
ວັດທະນະ	-13999
ວຸ້ນວາຍ	-14000
▁Vienna	-14001
▁Viking	-14002
▁ຕໍ່ຜູ້	-14003
▁ນໍາໂດຍ	-14004
▁ບໍ່ຮູ້	-14005
▁ໃນຄັ້ງ	-14006
ບັນດາກົມ	-14007
ປະກາດໃຊ້	-14008
ລະດູຫນາວ	-14009
▁Florida	-14010
▁ນັບແຕ່ປີ	-14011
▁ພ້ອມແລ້ວ	-14012
ບົນພື້ນຖານ	-14013
ຢູ່ໃນປະເທດ	-14014
▁ພາຍໃຕ້ການ	-14015
ບໍ່ເຫມາະສົມ	-14016
ຕໍາກັບລົດຈັກ	-14017
ໂຄສະນາເຜີຍແຜ່	-14018
▁ປະກອບຄໍາເຫັນ	-14019
▁ມີຜູ້ຕິດເຊື້ອ	-14020
GP	-14021
NE	-14022
ez	-14023
ms	-14024
ze	-14025
arn	-14026
ຮິນ	-14027
ັ່ຍ	-14028
ເມື	-14029
▁96	-14030
▁PM	-14031
▁ພຶ	-14032
aida	-14033
iver	-14034
ຖີ່ນ	-14035
ປີທີ	-14036
ລື່ນ	-14037
ເຂັມ	-14038
ເນີນ	-14039
▁Cop	-14040
▁Hel	-14041
▁Jin	-14042
▁Mov	-14043
▁_--	-14044
▁ນາບ	-14045
▁ອາລ	-14046
▁ເມື	-14047
ທາງໄກ	-14048
ອັຟກາ	-14049
▁1990	-14050
ຕໍ່ຄົນ	-14051
ຢຸດຍິງ	-14052
ວັນນີ້	-14053
▁17-23	-14054
▁ສີແດງ	-14055
ຕົກຄ້າງ	-14056
ພາຍຫລັງ	-14057
ລາຄາແພງ	-14058
ແມ່ນຜູ້	-14059
ໄຂ່ຫຼັງ	-14060
▁ໃຫ້ພວກ	-14061
laophatt	-14062
▁Holland	-14063
▁Project	-14064
▁ຂັດຂວາງ	-14065
▁ມສະຫລອງ	-14066
▁ວົງດາລາ	-14067
ການຮຽນຮູ້	-14068
ມໍ່ໆມານີ້	-14069
ສະຫນອງໃຫ້	-14070
▁ປະຈໍາລາວ	-14071
▁ໃນວັນສຸກ	-14072
▁ໃຫ້ມີການ	-14073
ການສອບເສັງ	-14074
ຢ່າງຈົບງາມ	-14075
ສິດທິໃນການ	-14076
▁ສຸພານຸວົງ	-14077
▁blockchain	-14078
▁ກໍ່ສ້າງພັກ	-14079
ປະສົບກັບຄວາມ	-14080
ເນື່ອງຈາກວ່າ	-14081
▁ມີຄວາມສາມາດ	-14082
▁ເດືອນພຶດສະພາ	-14083
laophattananews	-14084
RS	-14085
fi	-14086
udd	-14087
ຂ້ຽວ	-14088
ເຣີນ	-14089
▁350	-14090
▁CIA	-14091
▁CRI	-14092
▁ນາກ	-14093
▁ມາຊ	-14094
ສູບຢາ	-14095
▁Muay	-14096
▁ທະນະ	-14097
▁ຫນົນ	-14098
ສູ້ລົບ	-14099
ສໍ້ໂກງ	-14100
▁Beach	-14101
▁Biden	-14102
▁North	-14103
▁ກໍຕາມ	-14104
▁ທັກສະ	-14105
▁ສີຂາວ	-14106
▁ເຖົ້າ	-14107
ຊຸດໃຫມ່	-14108
ອັນເປັນ	-14109
ເລີຍວ່າ	-14110
ໍາເຂົ້າ	-14111
▁Mohamm	-14112
▁ຈະເປີດ	-14113
▁ດອກໄມ້	-14114
▁ທີ່ກຸງ	-14115
▁ບໍ່ຕົກ	-14116
▁ອະທິປະ	-14117
▁ເງິນຕາ	-14118
▁ເອີລົບ	-14119
▁ແວບໄຊ້	-14120
▁ໄດ້ວາງ	-14121
ຫນ້ອຍລົງ	-14122
ຂອງຕະຫຼາດ	-14123
▁ໃນຕອນແລງ	-14124
ເວລາດົນນານ	-14125
▁ການໃຊ້ງານ	-14126
ຄວາມແຕກຕ່າງ	-14127
ຜູ້ມາຢ້ຽມຢາມ	-14128
ລາຍລັກອັກສອນ	-14129
ວັນຊາດຄົບຮອບ	-14130
ສໍາລັບທຸກຄົນ	-14131
▁ມີການເຈລະຈາ	-14132
▁ລ້ານກວ່າກີບ	-14133
ການເຄື່ອນໄຫວຂອງ	-14134
ຄວາມມານະພະຍາຍາມ	-14135
▁ເຄື່ອງນຸ່ງຫົ່ມ	-14136
ອາກອນມູນຄ່າເພີ່ມ	-14137
▁ທີ່ປະເທດຫວຽດນາມ	-14138
▁ເມືອງສີສັດຕະນາກ	-14139
▁ແວບໄຊ້ຍ້າຍໄປທີ່	-14140
CC	-14141
ເເ	-14142
aff	-14143
ລາບ	-14144
ເພຍ	-14145
ໂຂງ	-14146
book	-14147
kong	-14148
ພາມາ	-14149
ວ້ໍາ	-14150
ຼນິກ	-14151
▁(19	-14152
▁4.5	-14153
▁API	-14154
▁Vis	-14155
▁dev	-14156
▁ຖອດ	-14157
▁ບລິ	-14158
▁ໄຟລ	-14159
ສະນຸກ	-14160
ເຊີ່ງ	-14161
ໂຄສະນ	-14162
ໃນເກມ	-14163
▁ດຂອງ	-14164
▁ບຣາຊ	-14165
▁ເທວະ	-14166
ີນີເຈີ	-14167
ໃນຫມວດ	-14168
▁2017:	-14169
ຄູນສ້າງ	-14170
ໃຫ້ເອົາ	-14171
▁ຮຸນແຮງ	-14172
ມຸດສະລິມ	-14173
ຫຼິ້ນເກມ	-14174
ແຜ່ລົງມາ	-14175
▁William	-14176
▁ເນື້ອຫາ	-14177
▁ເມກາວັດ	-14178
ຢູ່ພາຍໃຕ້	-14179
ເວັບໄຊນີ້	-14180
ເຮັດໃຫ້ມີ	-14181
▁ເຊື່ອວ່າ	-14182
▁ໂດຍມີການ	-14183
▁ຕິດພັນກັບ	-14184
ຂ່າວກ່ຽວກັບ	-14185
▁ປະຕິບັດການ	-14186
▁ສີໂຄດຕະບອງ	-14187
ສົມເຫດສົມຜົນ	-14188
ເລີ່ມຕົ້ນການ	-14189
▁ທຶນການສຶກສາ	-14190
▁ມີກໍາລັງແຮງ	-14191
ຄາສິໂນອອນໄລນ໌	-14192
▁ບັນດາບໍລິສັດ	-14193
▁ລືມຊື່ຜູ້ໃຊ້	-14194
▁ທີ່ແຕກຕ່າງກັນ	-14195
ຊັບພະຍາກອນມະນຸດ	-14196
▁ປະຕິບັດຫນ້າທີ່	-14197
▁ຕິດຕໍ່ລົງໂຄສະນາ	-14198
__	-14199
IMT	-14200
ນາດ	-14201
ເຢຍ	-14202
ເອດ	-14203
▁Iv	-14204
▁ຊຸ	-14205
ຖະຫຼ	-14206
ພາກາ	-14207
ຫນາຍ	-14208
ະນຸດ	-14209
ເອີຍ	-14210
ແວ່ນ	-14211
▁ຫໍ່	-14212
▁ໂຍນ	-14213
ພັກດີ	-14214
ສະວິດ	-14215
ເຄືອບ	-14216
່າງາມ	-14217
▁Snow	-14218
▁snow	-14219
▁ພຍາງ	-14220
Script	-14221
ບົດຂຽນ	-14222
▁Bambi	-14223
▁Steel	-14224
▁ກະລຸນ	-14225
▁ຈໍາປີ	-14226
▁ລະນຶກ	-14227
▁ໂດຍຈະ	-14228
ທ່ອງທ່ຽ	-14229
ຢັບຢັ້ງ	-14230
ວິລະຊົນ	-14231
▁Robert	-14232
▁ບູລະນະ	-14233
▁ລອນດອນ	-14234
ຈາກບັນດາ	-14235
ທາງທະຫານ	-14236
▁100.000	-14237
▁ທີ່ເຮັດ	-14238
ຄອມພີວເຕີ	-14239
ສະເພາະກິດ	-14240
ເຄື່ອງໃຊ້	-14241
▁ອິດທິພົນ	-14242
ຄອມພິວເຕີ້	-14243
ຕໍ່ສຸຂະພາບ	-14244
▁ແອັບເປີ້ນ	-14245
▁ໂດຍຮູບແບບ	-14246
ປົກກະຕິແລ້ວ	-14247
▁ຕ້ອງການຂາຍ	-14248
▁ສຶກສາທິການ	-14249
▁ແກ້ໄຂບັນຫາ	-14250
▁ຜູ້ບັນຊາການ	-14251
ມີຄວາມຈໍາເປັນ	-14252
ໃນເວລາທີ່ທ່ານ	-14253
ດີເດັ່ນປະຈໍາປີ	-14254
ວັນແມ່ຍິງສາກົນ	-14255
ແຜ່ລົງມາປົກຄຸມ	-14256
▁ວິດີໂອສົນທະນາ	-14257
37	-14258
CH	-14259
MGI	-14260
ugg	-14261
ຈີງ	-14262
ສີມ	-14263
▁ບຣ	-14264
▁ຮື	-14265
OSAI	-14266
ough	-14267
ຮົ່ງ	-14268
ເລັບ	-14269
ໃສ່ນ	-14270
▁15.	-14271
▁Bur	-14272
▁MGI	-14273
▁ສິມ	-14274
▁ຫວໍ	-14275
ຍະລາດ	-14276
ມາສູ່	-14277
▁Shar	-14278
▁ຖ້ວຍ	-14279
▁ຮົ່ວ	-14280
▁ໂຫຼດ	-14281
ການປູກ	-14282
ຢາກໄດ້	-14283
ຢ່າງດີ	-14284
ໄດ້ລົງ	-14285
່າວວ່າ	-14286
▁Assad	-14287
▁ຈັບມື	-14288
▁ມຕື່ມ	-14289
▁ລະຄອນ	-14290
▁ຮວ່າງ	-14291
▁ເຄົ້າ	-14292
ຄິດເຖິງ	-14293
ອານາຄົດ	-14294
ໂປຼແກຼມ	-14295
ໃຊ້ເປັນ	-14296
▁ການໂຈມ	-14297
▁ຂຶ້ນໃນ	-14298
▁ພາຍນອກ	-14299
▁ວັນພັກ	-14300
ວັດຖຸດິບ	-14301
ຂໍ້ສັງເກດ	-14302
▁ຈະໄດ້ຮັບ	-14303
▁ຍັງແກ້ໄຂ	-14304
▁ບໍ່ວ່າຈະ	-14305
ຢ່າງຮຸນແຮງ	-14306
▁ກອງກໍາລັງ	-14307
▁ລາຍງານຈາກ	-14308
▁ສະຫຼູບຜົນ	-14309
ດ້ອຍພັດທະນາ	-14310
ສະພາປະຊາຊົນ	-14311
ແມ່ນຫນຶ່ງໃນ	-14312
▁ການປິ່ນປົວ	-14313
▁ນະວັດຕະກໍາ	-14314
ຄວາມເຄັ່ງຕຶງ	-14315
▁ຄຸນນະສົມບັດ	-14316
ໄດ້ຮັບອະນຸຍາດ	-14317
▁ກໍາມະການສູນກາງ	-14318
64	-14319
PC	-14320
TF	-14321
ks	-14322
ASE	-14323
axi	-14324
ຕາງ	-14325
ຫວາ	-14326
ອຸບ	-14327
ເພນ	-14328
▁92	-14329
icol	-14330
ຣດິດ	-14331
ເຜັດ	-14332
▁1.5	-14333
▁170	-14334
▁30%	-14335
▁Ads	-14336
▁rep	-14337
▁ຄອຍ	-14338
▁ທິບ	-14339
▁ລອບ	-14340
▁ຮວາ	-14341
igsaw	-14342
riend	-14343
ປະໄວ້	-14344
ມິນຽມ	-14345
ມຸນຕີ	-14346
ອັດສະ	-14347
ອາພອນ	-14348
ເຊໂດນ	-14349
ເຟັ້ນ	-14350
ໂຕລິກ	-14351
ໃບໄມ້	-14352
▁FIMT	-14353
▁ເຕົາ	-14354
ການລົງ	-14355
ຄົບຊຸດ	-14356
ດັດແກ້	-14357
ທີ່ມັນ	-14358
ນໍ້າໃຈ	-14359
ລົດຍົນ	-14360
ໄດ້ກັບ	-14361
ໄດ້ຕາມ	-14362
ໄດ້ໃຫ້	-14363
▁ປະພຶດ	-14364
ຄຶກຄື້ນ	-14365
ຕາຫນ່າງ	-14366
ຕ່າງກັນ	-14367
ຫມາກນາວ	-14368
ຫລັກການ	-14369
ຫ້າວຫັນ	-14370
▁ຂໍເຊີນ	-14371
▁ຢາກໃຫ້	-14372
ຂອງເພິ່ນ	-14373
ສຽງເຫນືອ	-14374
ເກັບກ່ຽວ	-14375
ໃນໂຄງການ	-14376
▁ຂຶ້ນສູ່	-14377
▁ດ່າຫນັງ	-14378
▁ຫຼຽນຄໍາ	-14379
▁ແລ້ວນີ້	-14380
ເຄື່ອງຂອງ	-14381
ໂດຍທົ່ວໄປ	-14382
▁ຫໍສະຫມຸດ	-14383
ມິດຕະພາບລາວ	-14384
ສໍາເລັດແລ້ວ	-14385
ເຂົ້າໃຊ້ງານ	-14386
ໂຮງຮຽນປະຖົມ	-14387
ໄຂ້ເລືອດອອກ	-14388
▁ລວມທັງຫມົດ	-14389
ເຊັນບົດບັນທຶກ	-14390
ເຊື່ອຫມັ້ນວ່າ	-14391
ທາງດ້ານກົດຫມາຍ	-14392
ອາກາດຫນາວເຢັນຈາກ	-14393
wa	-14394
ars	-14395
ຕຸກ	-14396
ປຽກ	-14397
ຢຽດ	-14398
▁Hi	-14399
▁Hy	-14400
▁Sl	-14401
▁TH	-14402
▁າຍ	-14403
apan	-14404
back	-14405
ຫງອກ	-14406
ອຟແວ	-14407
▁Wal	-14408
▁pol	-14409
▁ງຽບ	-14410
/2014	-14411
ຣີເມຍ	-14412
ເຫວີຍ	-14413
▁ITIL	-14414
▁over	-14415
▁ກການ	-14416
▁ຖ່ານ	-14417
▁ບົ່ມ	-14418
▁ມາລາ	-14419
▁ຫມໍ້	-14420
▁ໂຄ່ນ	-14421
ຖັນແຖວ	-14422
ົ້ານົມ	-14423
ເຫຼັ້ມ	-14424
ໃນທຸກໆ	-14425
ໄວ້ໄດ້	-14426
▁1202/	-14427
▁Distr	-14428
ຊັບຊ້ອນ	-14429
ເດືອນປີ	-14430
▁ມີຫລາຍ	-14431
▁ວັນເດີ	-14432
▁ໃນສະພາ	-14433
ຢ່າງນ້ອຍ	-14434
▁Erdogan	-14435
▁ຢູ່ເທິງ	-14436
ກັບການນໍາ	-14437
▁vovworld	-14438
▁ຢາທໍ່ຕູ້	-14439
▁ຢູ່ໃນເຂດ	-14440
▁ແຕ່ລະຄົນ	-14441
ຈໍານວນນຶ່ງ	-14442
ທີ່ຢູ່ອາໄສ	-14443
ມີຄວາມສ່ຽງ	-14444
ມູນມໍລະດົກ	-14445
ແມ່ນການນັບ	-14446
▁ການລົງໂທດ	-14447
▁ການວາງແຜນ	-14448
ກ່ຽວຂ້ອງກັບ	-14449
ສິ່ງຈໍາເປັນ	-14450
▁Technology	-14451
▁ຂອງການໂຫວດ	-14452
▁ຄວາມຜິດພາດ	-14453
ຕິດພັນກັບການ	-14454
ຫຼີກເວັ້ນການ	-14455
▁ຮ່າງກົດຫມາຍ	-14456
▁ໃນການແຂ່ງຂັນ	-14457
▁ຮອງເລຂາພັກແຂວງ	-14458
▁ເບິ່ງເພີ່ມເຕີມ	-14459
ເຕືອນໄພອາກາດຫນາວ	-14460
▁ຜົນຄະແນນການໂຫວດ	-14461
ki	-14462
ນຸ	-14463
fox	-14464
ປິ່ນ	-14465
ສຸດໆ	-14466
ຫຼອມ	-14467
ຸນໄພ	-14468
ູດານ	-14469
▁Hat	-14470
▁man	-14471
▁ພັບ	-14472
▁ວຽນ	-14473
ource	-14474
ຈີເຣຍ	-14475
ອັກຄີ	-14476
ເພິ່ມ	-14477
▁cons	-14478
▁ນ່ານ	-14479
ນີ້ວ່າ	-14480
ພາກຮຽນ	-14481
ຢູ່ລອດ	-14482
ແອັບເປ	-14483
▁ຈັກກະ	-14484
▁ຕິຕຽນ	-14485
▁ຮັບມື	-14486
▁ເກົ້າ	-14487
▁ເວືອງ	-14488
ຕ່ໍາສຸດ	-14489
ໂຄງຮ່າງ	-14490
ໂອນເງິນ	-14491
▁design	-14492
▁ບໍານານ	-14493
▁ມອບໃຫ້	-14494
ສະເຫມີໄປ	-14495
ອອກມາຈາກ	-14496
ອື່ນໆອີກ	-14497
▁ຕາມທ່ານ	-14498
▁ວັດທະນະ	-14499
▁ຮ້າຍແຮງ	-14500
ຄໍ້າປະກັນ	-14501
▁ຊຶ່ງທ່ານ	-14502
▁ນ້ໍາຖ້ວມ	-14503
▁ຢູໄນເຕັດ	-14504
ອຸປະກອນການ	-14505
▁ກົງກັນຂ້າມ	-14506
▁ມັນເປັນການ	-14507
▁ມີຄວາມຫມາຍ	-14508
▁ວິທະຍາໄລຄູ	-14509
ເພື່ອນຮ່ວມງານ	-14510
ສົນທະນາກ່ຽວກັບ	-14511
ຂະບວນການແຂ່ງຂັນ	-14512
▁ຄະນະກໍາມາທິການ	-14513
▁ພັດທະນາຊົນນະບົດ	-14514
▁ພັດທະນາເສດຖະກິດ	-14515
ca	-14516
ga	-14517
“.	-14518
Mhz	-14519
uge	-14520
ຈາຣ	-14521
▁te	-14522
▁ຖິ	-14523
iten	-14524
ooth	-14525
vest	-14526
▁Nik	-14527
▁Per	-14528
▁ent	-14529
▁jet	-14530
▁lin	-14531
/2015	-14532
Qaida	-14533
ອຸບັດ	-14534
ໄປທາງ	-14535
▁Jenn	-14536
▁Pepp	-14537
▁have	-14538
▁play	-14539
▁ມປິກ	-14540
icious	-14541
ສະຫນັບ	-14542
ສັນຖານ	-14543
າຊີວິດ	-14544
▁ລະບາດ	-14545
ກສາຫາລື	-14546
ທ່າມກາງ	-14547
ຜູ້ນຶ່ງ	-14548
ພັກເຊົາ	-14549
ຮໍ່າຮຽນ	-14550
ໃບຕາດິນ	-14551
ໄປກົງມາ	-14552
▁ທົ່ວໄປ	-14553
▁ອອງຊານ	-14554
▁ອອນລາຍ	-14555
ການປະຊຸມ	-14556
ຄືກັນກັບ	-14557
ລະດົມທຶນ	-14558
ຫມາກກ້ຽງ	-14559
ເພື່ອນໍາ	-14560
▁ສຸວັນນະ	-14561
▁ຫລົບຫນີ	-14562
ທີ່ບໍ່ຄວນ	-14563
ປະລິນຍາໂທ	-14564
ປະເຊີນກັບ	-14565
ວຽກງານການ	-14566
ແມ່ຍິງລາວ	-14567
▁District	-14568
▁ກິໂລກຣາມ	-14569
▁ຈຶ່ງເປັນ	-14570
ຂອງສະມາຊິກ	-14571
ເຝົ້າລະວັງ	-14572
▁ຂໍ້ສະເຫນີ	-14573
▁ສະກຸນເງິນ	-14574
▁ເພື່ອຄວາມ	-14575
ສະແດງສິລະປະ	-14576
ສາມາດນໍາໃຊ້	-14577
▁ຄວາມຮູ້ສຶກ	-14578
▁ເດືອນກັນຍາ	-14579
ດັ່ງກ່າວນັ້ນ	-14580
ປູຊະນີຍະສະຖານ	-14581
▁ທະເລຫມູ່ເກາະ	-14582
DR	-14583
TS	-14584
-24	-14585
ຍັນ	-14586
ດິບ	-14587
ີດີ	-14588
ໂພງ	-14589
▁Py	-14590
▁ຮ່	-14591
ices	-14592
ຄ່າຍ	-14593
ະກໍາ	-14594
ເນຊູ	-14595
ແກ່ມ	-14596
▁6,5	-14597
▁VIP	-14598
▁ຄາຍ	-14599
▁ຍັກ	-14600
▁ເຈດ	-14601
ພິບານ	-14602
ອຸທອນ	-14603
ແປກໃຈ	-14604
▁Bing	-14605
▁ຊ່ານ	-14606
▁ສາທາ	-14607
▁ຫ້າງ	-14608
ບໍາບັດ	-14609
ຫຼືການ	-14610
ໃນລາຄາ	-14611
ໄວຍະວະ	-14612
ໍານ້ໍາ	-14613
▁ທິພົນ	-14614
▁ພົນຕີ	-14615
▁ມີນັກ	-14616
▁ເຫນັງ	-14617
▁ໃນທາງ	-14618
ກວ່າຄົນ	-14619
ວະສຶກສາ	-14620
ສໍາເຣັດ	-14621
ເຂົ້ານາ	-14622
▁museum	-14623
▁ກາງຂອງ	-14624
▁ຈຶ່ງຂໍ	-14625
▁ປີແລ້ວ	-14626
▁ແລ້ວກໍ	-14627
/02/2018	-14628
ໃນໄວໆນີ້	-14629
▁ຕໍ່ທ່ານ	-14630
▁ມອບເງິນ	-14631
▁ວາງສະແດງ	-14632
ຊົນລະປະທານ	-14633
ເຊື້ອໄວຣັສ	-14634
▁ການຂະຫຍາຍ	-14635
▁ຕາມລໍາດັບ	-14636
▁ມີປະລິມານ	-14637
▁ວັນເດີແລນ	-14638
▁ໄດ້ມີພິທີ	-14639
▁ສີສັດຕະນາກ	-14640
ທີ່ມີລັກສະນະ	-14641
ນ້ໍາຖ້ວມແລ້ວ	-14642
ແຂວງໄຊຍະບູລີ	-14643
▁ການທຸດຈະລິດ	-14644
ໃນບັນດາຂົງເຂດ	-14645
▁ຕໍ່ສື່ມວນຊົນ	-14646
31	-14647
ny	-14648
ກມ	-14649
aur	-14650
cri	-14651
jan	-14652
ກາບ	-14653
ທຍຸ	-14654
ທິງ	-14655
ທ່ີ	-14656
ແກວ	-14657
ໂສ້	-14658
abil	-14659
emon	-14660
ixel	-14661
mers	-14662
ຄວ້ນ	-14663
ີບົດ	-14664
▁Rub	-14665
▁Scr	-14666
▁Sen	-14667
▁sub	-14668
▁ຝ່າ	-14669
antic	-14670
merce	-14671
ປັນຫາ	-14672
▁Feat	-14673
▁ຊໍ້າ	-14674
anyahu	-14675
ຂາວິຊາ	-14676
ຕໍາກັນ	-14677
ທີ່ສາມ	-14678
ປາກແບງ	-14679
ສິ່ງໃດ	-14680
ຫລືບໍ່	-14681
ເຫຼົ່າ	-14682
ໄປຮ່ວມ	-14683
▁Peter	-14684
ການສົ່ງ	-14685
ຝຶກຊ້ອມ	-14686
ອ້ອມຮອບ	-14687
ຮູບຖ່າຍ	-14688
ຮ່ອງຮອຍ	-14689
▁86,000	-14690
▁ການຂຽນ	-14691
▁ພວກທີ່	-14692
▁ຮອງຮັບ	-14693
▁ໃນຄວາມ	-14694
▁ຊັ້ນສູງ	-14695
▁ໄດ້ເອົາ	-14696
ຂອງບຸກຄົນ	-14697
ຄູແຫ່ງຊາດ	-14698
ພ້ອມທີ່ຈະ	-14699
ລາຍງານຂອງ	-14700
▁ການສັກຢາ	-14701
▁ຂຶ້ນຢ່າງ	-14702
▁ຜູ້ປົກຄອງ	-14703
▁ລະຫັດຜ່ານ	-14704
▁ໂດຍໃຫ້ກຽດ	-14705
ຮ່ວມເດີນທາງ	-14706
ໄດ້ຮັບລາງວັນ	-14707
▁ທີ່ບໍ່ມີຈິງ	-14708
▁ປີທີ່ຜ່ານມາ	-14709
▁ເດືອນມິຖຸນາ	-14710
ເຫຼົ່ານີ້ແມ່ນ	-14711
▁ກະຊວງຍຸຕິທໍາ	-14712
ວິທະຍຸກະຈາຍສຽງ	-14713
)-	-14714
ກຊ	-14715
fly	-14716
pot	-14717
uin	-14718
uit	-14719
ບູລ	-14720
ຜານ	-14721
ໂຍດ	-14722
Book	-14723
iety	-14724
ງງານ	-14725
ພູມີ	-14726
ຫລົງ	-14727
▁not	-14728
▁off	-14729
▁ຈາງ	-14730
▁ມຸມ	-14731
▁ວັກ	-14732
▁ແຊ່	-14733
▁ໂຫວ	-14734
agram	-14735
ສິບປີ	-14736
ສຸສານ	-14737
ີໂບລາ	-14738
ືອບັນ	-14739
ເບື່ອ	-14740
▁Chat	-14741
▁View	-14742
▁ຫຼານ	-14743
▁ເຄົາ	-14744
ກົງສຸນ	-14745
ຂອງເຂດ	-14746
ຊັກຖາມ	-14747
ຖືເອົາ	-14748
ທີ່ພວມ	-14749
ອ່ອນແອ	-14750
ຮູບການ	-14751
ໃຫ້ພວກ	-14752
▁3,000	-14753
▁Minsk	-14754
▁ການມີ	-14755
▁ຕິບັດ	-14756
▁ເຫລັກ	-14757
atrader	-14758
ຄວາມຈໍາ	-14759
ອິດສະຣາ	-14760
ໃນທັນທີ	-14761
▁ASOSAI	-14762
▁ຕົວເລກ	-14763
▁ວ່ອງໄວ	-14764
ກາແດງລາວ	-14765
ໂອລິມປິກ	-14766
ຄົນທຸກຍາກ	-14767
ບົດສະຫຼຸບ	-14768
ມີຄວາມຄິດ	-14769
▁ຜ່ານນັ້ນ	-14770
ທາງໂທລະສັບ	-14771
ເບື້ອງຊ້າຍ	-14772
ເພື່ອຊອກຫາ	-14773
ແຜນນະໂຍບາຍ	-14774
▁Blackjack	-14775
▁ຄັ້ງວັນທີ	-14776
ຄວາມຖືກຕ້ອງ	-14777
ທີ່ມີປະໂຫຍດ	-14778
▁JavaScript	-14779
▁ເມືອງໄກສອນ	-14780
ບັນດາສະມາຊິກ	-14781
ຜູ້ອອກແຮງງານ	-14782
▁ກ່າວຄໍາປາໄສ	-14783
▁ປາດຖະຫນາວ່າ	-14784
ຫນັງສືຜ່ານແດນ	-14785
▁ສະມາຊິກສະພາສູງ	-14786
ັຊ	-14787
och	-14788
war	-14789
ໂຄຣ	-14790
ໆໄປ	-14791
icks	-14792
ສົ້ນ	-14793
ຫວິດ	-14794
▁CAP	-14795
▁RPG	-14796
▁Tel	-14797
▁[17	-14798
▁ເວບ	-14799
ຂອງດຣ	-14800
ປອດໃສ	-14801
ມື້ລະ	-14802
ໂດຍມີ	-14803
▁Golf	-14804
▁Like	-14805
▁Nang	-14806
ກົງສູນ	-14807
ກ່າວມາ	-14808
ລາສສິກ	-14809
ແບບແຜນ	-14810
▁Award	-14811
▁Inter	-14812
▁ມາຍັງ	-14813
▁ມາບິນ	-14814
ຂ້າມຊາດ	-14815
ເຮັດການ	-14816
▁ທີມຊາດ	-14817
ຂອງອາຊຽນ	-14818
▁ແຫຼງການ	-14819
▁ໃຫ້ເຫັນ	-14820
ອະນາໄມໂລກ	-14821
ໃຫ້ລູກຄ້າ	-14822
▁decorate	-14823
▁ຮັກສາການ	-14824
▁ປະເມີນຜົນ	-14825
▁ເຂົ້າຢ້ຽມ	-14826
ຂອງເດັກນ້ອຍ	-14827
▁ມາບິນເຫນືອ	-14828
▁ຫຼັງຈາກການ	-14829
ໃນເບື້ອງຕົ້ນ	-14830
▁ຈຶ່ງເຮັດໃຫ້	-14831
▁ໄດ້ສົມທົບກັບ	-14832
▁ຄໍາຮ້ອງສະຫມັກ	-14833
ທະເລຈີນຕະເວັນອອກ	-14834
▁ມີຄວາມຮັບຜິດຊອບ	-14835
ຄຶດ	-14836
ົ໋ງ	-14837
ໂກນ	-14838
▁Fr	-14839
▁IX	-14840
orts	-14841
ຕ່ອງ	-14842
ສຸຂະ	-14843
ເລາະ	-14844
ແຫຼວ	-14845
▁Box	-14846
▁Kie	-14847
▁Mor	-14848
▁log	-14849
▁ຕັບ	-14850
▁ບອບ	-14851
▁ພັທ	-14852
▁ລຶກ	-14853
▁ລຸດ	-14854
▁ຫົນ	-14855
▁ໂທຣ	-14856
ຍັງຈະ	-14857
ມະຍົດ	-14858
ລະຍຸດ	-14859
ເຟືອຍ	-14860
ເມັ້ນ	-14861
▁Cons	-14862
▁here	-14863
ຄົນດຽວ	-14864
ລວມສູນ	-14865
ວັນພັກ	-14866
▁ກາຕູນ	-14867
▁ນໍາໄປ	-14868
▁ຮອດປີ	-14869
▁ນັບທັງ	-14870
ບາງປະເທດ	-14871
ປະມວນຜົນ	-14872
▁ທີ່ເກີດ	-14873
▁ໄດ້ເກີດ	-14874
ກ້ວາງຂວາງ	-14875
ຫາດຊາຍຟອງ	-14876
▁ການພະນັນ	-14877
▁ບ່ອນນັ່ງ	-14878
ຂອງທຸລະກິດ	-14879
▁ນັກລົງທຶນ	-14880
▁ຈາກທັງຫມົດ	-14881
ກ້າວເຂົ້າສູ່	-14882
ອ້ອມຂ້າງແຂວງ	-14883
ເປີດກອງປະຊຸມ	-14884
▁ຕາລາງລາຍການ	-14885
▁ເມື່ອທຽບໃສ່	-14886
ມັດທະຍົມສຶກສາ	-14887
▁ນັກວິທະຍາສາດ	-14888
ຊັບສິນທາງປັນຍາ	-14889
▁ທະເລຕາເວັນອອກ	-14890
▁ພວກເຮົາກໍາລັງ	-14891
▁ຖະຫນົນລ້ານຊ້າງ	-14892
▁ຖ້າທ່ານຕ້ອງການ	-14893
▁ກອງປະຊຸມຄັ້ງນີ້	-14894
RM	-14895
Vi	-14896
ty	-14897
osm	-14898
ຶອງ	-14899
ໂລຍ	-14900
▁ຄສ	-14901
▁າມ	-14902
iana	-14903
ຄ້ອງ	-14904
ງ່ອນ	-14905
ທິ້ງ	-14906
ຫລ້າ	-14907
ຶ່ນໆ	-14908
▁Out	-14909
▁Rol	-14910
▁Ter	-14911
▁ກັງ	-14912
-2010	-14913
iving	-14914
ocket	-14915
ທ່າທີ	-14916
ພາໃຫ້	-14917
ວິຈິດ	-14918
ວິຕົກ	-14919
ສະປາຍ	-14920
ອັນໃດ	-14921
▁free	-14922
▁ວິຖີ	-14923
▁ເຕີ້	-14924
ຂະຫນານ	-14925
ຍົກອອກ	-14926
ພຽງຢາງ	-14927
າວະກາດ	-14928
ໄດ້ແກ່	-14929
ໄວຂຶ້ນ	-14930
▁2010.	-14931
▁ກໍ່ຈະ	-14932
ຜ່ານຜ່າ	-14933
ອີກຫຼາຍ	-14934
ເບີກບານ	-14935
▁ຂອງວັນ	-14936
▁ຈັດງານ	-14937
▁ນັ້ນກໍ	-14938
▁ເມື່ອຍ	-14939
ພຣະໂລຫິດ	-14940
ຣີເມຍລີກ	-14941
ວິກິດການ	-14942
ອາຫານທີ່	-14943
▁ຖືກສົ່ງ	-14944
▁ມີໂອກາດ	-14945
▁ມົງໂກລີ	-14946
▁ໃນປີນີ້	-14947
ຕາດອກເບ້ຍ	-14948
ຜູ້ຈັດການ	-14949
▁Hollande	-14950
▁ຄັດເລືອກ	-14951
▁ອີກຕໍ່ໄປ	-14952
▁ເພື່ອຮັບ	-14953
▁ການທົດລອງ	-14954
▁ຄົນຂັບລົດ	-14955
▁ທີ່ໄດ້ຖືກ	-14956
▁ອໍານວຍການ	-14957
ກອມມູນິດຈີນ	-14958
ຂອງທ້ອງຖິ່ນ	-14959
ເສັ້ນຊາຍແດນ	-14960
▁ບັນນາທິການ	-14961
ຄວາມປອດໄພຂອງ	-14962
ມາສະເຫນີທ່ານ	-14963
▁ສະພາປະຊາຊົນ	-14964
▁ພໍ່ແມ່ປະຊາຊົນ	-14965
ກອງປະຊຸມຂັ້ນສູງ	-14966
▁ທີ່ແຂວງຊຽງຂວາງ	-14967
7/	-14968
BM	-14969
ml	-14970
ຕມ	-14971
ONG	-14972
່ເພ	-14973
໋ອດ	-14974
▁າດ	-14975
apes	-14976
etta	-14977
isco	-14978
ites	-14979
ming	-14980
ping	-14981
ຊີວາ	-14982
ລ້ວນ	-14983
າຊາວ	-14984
▁17,	-14985
▁Ahm	-14986
▁Bat	-14987
▁Hun	-14988
▁ຄຸດ	-14989
▁ອາກ	-14990
ereum	-14991
ມີຄ່າ	-14992
ເຕົ່າ	-14993
ໃນນີ້	-14994
▁ທຄຕລ	-14995
▁ບົ່ງ	-14996
▁ອ່າງ	-14997
▁ເອັມ	-14998
ກອງພົນ	-14999
ຕ້ອງຫາ	-15000
ທີ່ລາວ	-15001
ທີ່ສອງ	-15002
ຫາເງິນ	-15003
ຸປະກອນ	-15004
▁2014,	-15005
▁ກັບປະ	-15006
▁ຫນື່ງ	-15007
▁ອອນໄລ	-15008
▁ໂຊກດີ	-15009
ກໍ່ເປັນ	-15010
ຂອງສະພາ	-15011
ຂາຍຍ່ອຍ	-15012
ຕ້ານທານ	-15013
ປັບແຕ່ງ	-15014
ວ່າຈະມີ	-15015
ສັ່ງໃຫ້	-15016
້ໍາລ້ານ	-15017
▁Direct	-15018
▁ຂອງນາໆ	-15019
▁ຕິດກັບ	-15020
▁ປາບປາມ	-15021
▁ຮ້ອງຂໍ	-15022
ການຊອກຫາ	-15023
ຂອງທະຫານ	-15024
ປະຈໍາຕົວ	-15025
ເສດຖະສາດ	-15026
ໄວ້ວາງໃຈ	-15027
▁ທ່ານບໍ່	-15028
ຂອງຂະແຫນງ	-15029
ງ່າຍທີ່ຈະ	-15030
ຕໍ່ແມ່ຍິງ	-15031
ມາເຖິງນີ້	-15032
ມີຄວາມຮູ້	-15033
▁Jennifer	-15034
▁ມີມູນຄ່າ	-15035
▁ແມ່ນແລ້ວ	-15036
ມະຫາສະຫມຸດ	-15037
▁ສະເຫນີໃຫ້	-15038
ເປັນເອກະລັກ	-15039
▁Metatrader	-15040
▁ຈໍານວນຫຼາຍ	-15041
ສືບສວນສອບສວນ	-15042
ເຊື່ອມໂຍງກັບ	-15043
ໂຄງການລົງທຶນ	-15044
ໃນການແຂ່ງຂັນ	-15045
▁ການຕັດສິນໃຈ	-15046
▁ນັກຄົ້ນຄວ້າ	-15047
ໂອ້ລົມສົນທະນາ	-15048
▁ອັບເດດຫຼ້າສຸດ	-15049
ky	-15050
ຮວ	-15051
GDP	-15052
enh	-15053
off	-15054
ກິຈ	-15055
ບີບ	-15056
ອາຟ	-15057
...)	-15058
ບັນຫ	-15059
ບິດາ	-15060
ຮັ່ງ	-15061
▁11:	-15062
▁80%	-15063
▁Ber	-15064
▁Gar	-15065
▁Jim	-15066
▁Kyi	-15067
▁PVC	-15068
▁Sok	-15069
▁Squ	-15070
▁ຮີດ	-15071
▁ໂສກ	-15072
ຕິຊົມ	-15073
ບົວລະ	-15074
ສະຈາກ	-15075
ເຊໂປນ	-15076
▁Cent	-15077
▁ຫຼາກ	-15078
ອີຕາລີ	-15079
ເຊີແລນ	-15080
▁Luang	-15081
▁Santa	-15082
▁ຂ່າວກ	-15083
▁ມາໄດ້	-15084
▁ສາບານ	-15085
ທີ່ໃຫຍ່	-15086
ນານາຊາດ	-15087
▁ທາງພາກ	-15088
▁ຝະລັ່ງ	-15089
▁ເຊຍວ່າ	-15090
ກະທັນຫັນ	-15091
ເຊື້ອສາຍ	-15092
ເປີດປະຕູ	-15093
ເອົາເງິນ	-15094
▁Charter	-15095
▁ຄົນນຶ່ງ	-15096
▁ໂຄງສ້າງ	-15097
ບັງຄັບໃຫ້	-15098
ລະດັບຄວາມ	-15099
ແມ້ກະທັ້ງ	-15100
▁Economic	-15101
▁ຂາສັນຈອນ	-15102
ກັນລະຫວ່າງ	-15103
ເວລາດຽວກັນ	-15104
▁ພິພິດທະພັນ	-15105
▁ເທດສະຫະລັດ	-15106
▁ໂດຍການເປັນ	-15107
▁ໃຫ້ປະຊາຊົນ	-15108
▁ການຂະຫຍາຍຕົວ	-15109
ຈະບໍ່ໄດ້ຮັບການ	-15110
▁ຢູ່ທີ່ສະໂມສອນ	-15111
ສະຫນັບສະຫນູນຈາກ	-15112
▁ວິທະຍຸກະຈາຍສຽງ	-15113
▁ຊຸກຍູ້ການຮ່ວມມື	-15114
QL	-15115
nd	-15116
ຮີ	-15117
໋ວ	-15118
-13	-15119
aks	-15120
ega	-15121
ogr	-15122
ຈີກ	-15123
ຊິບ	-15124
▁::	-15125
▁MC	-15126
▁ຕ່	-15127
ould	-15128
ບູຣີ	-15129
ພໍດີ	-15130
ຟ້າວ	-15131
ມ້ວນ	-15132
ແບັດ	-15133
ໂຫມດ	-15134
▁25%	-15135
▁Val	-15136
▁tag	-15137
▁ແຫວ	-15138
ຊາຕານ	-15139
ຕະເວນ	-15140
ພາສິດ	-15141
ຫາທາງ	-15142
ເຮື້ອ	-15143
▁1623	-15144
▁===>	-15145
▁Bern	-15146
▁Mors	-15147
▁ກາຊາ	-15148
▁ລື່ນ	-15149
▁ສາວໆ	-15150
▁ອາຍາ	-15151
▁ເເຕ່	-15152
ຂອງສອງ	-15153
ຊື່ດັງ	-15154
ແມ່ນຈະ	-15155
້ໍາຕານ	-15156
▁ຄຊປປລ	-15157
▁ຄ່ອຍໆ	-15158
▁ມີຜົນ	-15159
ແບ່ງແຍກ	-15160
▁Editor	-15161
▁ລາຍໄດ້	-15162
ຍາກທີ່ຈະ	-15163
ອອກພັນສາ	-15164
▁ກັນນັ້ນ	-15165
▁ປັກກິ່ງ	-15166
▁ພາຍໃນປີ	-15167
▁ສ່ວນຕົວ	-15168
ຄົບວົງຈອນ	-15169
ດ່ານສາກົນ	-15170
ຮຸ່ງເຮືອງ	-15171
ເບິ່ງເຫັນ	-15172
▁ພະຈິກນີ້	-15173
ລົງແຂ່ງຂັນ	-15174
ຫລາຍທີ່ສຸດ	-15175
[...]
