<unk>	0
<s>	0
</s>	0
ng	-0
▁t	-1
▁c	-2
▁đ	-3
nh	-4
▁v	-5
▁th	-6
▁h	-7
▁l	-8
▁ch	-9
▁tr	-10
▁k	-11
▁b	-12
▁s	-13
▁m	-14
▁nh	-15
▁n	-16
▁T	-17
▁kh	-18
▁g	-19
▁d	-20
▁ng	-21
iệ	-22
ph	-23
▁ph	-24
ông	-25
ên	-26
ác	-27
▁gi	-28
▁và	-29
▁N	-30
uy	-31
▁q	-32
▁x	-33
iế	-34
ườ	-35
▁C	-36
ới	-37
▁củ	-38
▁của	-39
▁là	-40
ượ	-41
▁r	-42
ại	-43
▁qu	-44
▁H	-45
ất	-46
ong	-47
▁các	-48
▁có	-49
n▁đ	-50
ân	-51
iề	-52
▁V	-53
an	-54
ình	-55
▁B	-56
▁Th	-57
▁Đ	-58
ược	-59
iên	-60
ày	-61
ng▁đ	-62
▁cho	-63
iện	-64
ch	-65
▁M	-66
inh	-67
▁trong	-68
ướ	-69
ột	-70
▁với	-71
iều	-72
iể	-73
ành	-74
▁Tr	-75
▁2	-76
▁1	-77
▁ngh	-78
ng▁t	-79
ười	-80
ải	-81
anh	-82
ường	-83
▁không	-84
ươ	-85
ay	-86
▁L	-87
▁được	-88
▁S	-89
am	-90
▁người	-91
▁một	-92
ao	-93
ai	-94
ầu	-95
ực	-96
ước	-97
▁P	-98
ức	-99
ần	-100
oà	-101
ội	-102
▁đã	-103
▁Ng	-104
▁nă	-105
ây	-106
ản	-107
ương	-108
ang	-109
▁công	-110
▁như	-111
ững	-112
ến	-113
ết	-114
▁(	-115
iệt	-116
ối	-117
▁K	-118
ồng	-119
▁Ch	-120
ận	-121
▁họ	-122
ốc	-123
▁này	-124
ính	-125
on	-126
át	-127
iến	-128
án	-129
áo	-130
▁độ	-131
▁những	-132
ung	-133
ời	-134
ơn	-135
ôi	-136
iết	-137
eo	-138
▁số	-139
▁ra	-140
▁thu	-141
▁về	-142
▁Q	-143
▁ở	-144
▁khi	-145
▁G	-146
ật	-147
▁năm	-148
▁A	-149
ăn	-150
▁từ	-151
▁Ph	-152
▁D	-153
00	-154
▁đó	-155
▁tại	-156
au	-157
ục	-158
▁trên	-159
▁thể	-160
in	-161
▁cũ	-162
▁Nh	-163
iệc	-164
ùng	-165
▁để	-166
▁vào	-167
▁xe	-168
ập	-169
▁nhiều	-170
▁bị	-171
▁Qu	-172
àng	-173
oàn	-174
iệu	-175
01	-176
▁đị	-177
▁sẽ	-178
ái	-179
▁việc	-180
▁quy	-181
▁nhà	-182
▁học	-183
ài	-184
▁ho	-185
▁cả	-186
ống	-187
▁Nam	-188
ộc	-189
▁hiện	-190
ạt	-191
▁làm	-192
êu	-193
ạn	-194
iểm	-195
▁sự	-196
ổi	-197
▁dự	-198
▁chỉ	-199
ách	-200
▁Việt	-201
▁thành	-202
ạo	-203
▁-	-204
áng	-205
ưa	-206
▁nước	-207
▁do	-208
ấp	-209
ễn	-210
ảo	-211
▁ông	-212
▁lại	-213
▁cũng	-214
▁đến	-215
▁3	-216
▁gia	-217
uyên	-218
▁phải	-219
er	-220
ăng	-221
▁ngày	-222
▁đồng	-223
ảng	-224
▁động	-225
▁giá	-226
ấy	-227
âm	-228
iển	-229
▁xu	-230
▁U	-231
ích	-232
▁cơ	-233
ượng	-234
ịch	-235
ào	-236
ằng	-237
▁mà	-238
òn	-239
▁trường	-240
▁chính	-241
ưở	-242
uyệ	-243
ền	-244
ánh	-245
òng	-246
▁thông	-247
▁Việt▁Nam	-248
ắc	-249
▁qua	-250
▁hơn	-251
▁nhân	-252
▁kho	-253
▁sinh	-254
âu	-255
áp	-256
▁quan	-257
▁nhất	-258
▁đầu	-259
▁mới	-260
▁tiế	-261
ợp	-262
úc	-263
▁thời	-264
ặt	-265
▁Kh	-266
▁nghiệ	-267
▁dân	-268
▁201	-269
▁thực	-270
▁dụ	-271
▁định	-272
ia	-273
▁biết	-274
▁phát	-275
▁hợp	-276
▁cu	-277
▁hành	-278
ặc	-279
▁hàng	-280
àn	-281
ôn	-282
▁viên	-283
ưởng	-284
▁lý	-285
ắt	-286
ẫn	-287
▁nó	-288
en	-289
ar	-290
ấn	-291
▁theo	-292
▁sau	-293
▁vụ	-294
▁còn	-295
ạnh	-296
▁cao	-297
▁sản	-298
uyện	-299
▁trình	-300
▁thì	-301
▁thế	-302
▁hình	-303
▁y	-304
ấu	-305
êm	-306
ạm	-307
▁bộ	-308
ứng	-309
▁con	-310
▁xuất	-311
▁chức	-312
iền	-313
oại	-314
▁lớ	-315
▁có▁thể	-316
▁rất	-317
▁4	-318
▁tổ	-319
▁"	-320
▁nhưng	-321
▁lu	-322
▁hội	-323
..	-324
ơi	-325
iêu	-326
▁trước	-327
ỉnh	-328
▁dụng	-329
▁điều	-330
▁cấp	-331
▁5	-332
▁Gi	-333
▁Quốc	-334
ạng	-335
▁nghiệp	-336
ữa	-337
▁kết	-338
ồi	-339
▁tế	-340
▁sử	-341
▁tư	-342
al	-343
áy	-344
▁cùng	-345
▁lên	-346
▁nên	-347
ảnh	-348
iểu	-349
▁giải	-350
oài	-351
▁di	-352
▁Hà	-353
▁X	-354
▁cầu	-355
ảm	-356
▁chú	-357
óa	-358
▁án	-359
▁mu	-360
em	-361
▁nay	-362
▁triển	-363
▁Công	-364
▁R	-365
▁thủ	-366
▁tác	-367
▁khu	-368
▁chiế	-369
ốn	-370
▁báo	-371
im	-372
▁chủ	-373
▁Nguy	-374
ếu	-375
▁điểm	-376
▁tiếp	-377
▁đi	-378
▁lượng	-379
uyể	-380
▁Nguyễn	-381
▁thị	-382
▁lực	-383
▁xã	-384
▁mình	-385
▁Mỹ	-386
ốt	-387
uổi	-388
▁đề	-389
▁nhận	-390
ọng	-391
▁cách	-392
ạch	-393
▁Theo	-394
ẩm	-395
▁khác	-396
▁tin	-397
▁cứ	-398
▁vì	-399
ồn	-400
▁năng	-401
▁nhiên	-402
▁bảo	-403
▁cuộc	-404
▁tỉnh	-405
ệnh	-406
▁thống	-407
▁toàn	-408
or	-409
▁đối	-410
ừa	-411
▁nói	-412
▁bản	-413
▁giới	-414
▁thi	-415
▁tới	-416
▁TP	-417
uyển	-418
ộng	-419
▁cho▁biết	-420
▁lớn	-421
▁kinh	-422
▁doanh	-423
▁vẫn	-424
▁hệ	-425
▁vị	-426
▁anh	-427
es	-428
▁ảnh	-429
▁Bộ	-430
▁đây	-431
iệm	-432
▁phí	-433
▁máy	-434
▁quốc	-435
▁tình	-436
▁hai	-437
▁mặt	-438
▁chưa	-439
▁6	-440
▁giao	-441
▁I	-442
óng	-443
▁tạo	-444
▁triệu	-445
▁đang	-446
▁Trong	-447
▁quả	-448
ắng	-449
▁phần	-450
▁an	-451
▁rằng	-452
▁Trung	-453
▁tăng	-454
ăm	-455
▁quyết	-456
▁tự	-457
▁Nội	-458
ướng	-459
▁thấy	-460
ỗi	-461
▁ý	-462
▁gian	-463
ửa	-464
▁tra	-465
▁tháng	-466
ạc	-467
ầm	-468
201	-469
n▁được	-470
ọc	-471
ắn	-472
ây▁dự	-473
▁khách	-474
uyền	-475
▁thức	-476
▁Văn	-477
▁ty	-478
▁hiệu	-479
▁hoạt	-480
▁F	-481
út	-482
ịnh	-483
ổng	-484
▁vực	-485
▁chất	-486
▁pháp	-487
▁vi	-488
el	-489
▁khai	-490
▁liên	-491
000	-492
▁hay	-493
▁tôi	-494
▁hóa	-495
▁bằng	-496
▁cần	-497
ậy	-498
ND	-499
▁tài	-500
ọi	-501
òa	-502
ởi	-503
▁nào	-504
▁địa	-505
ám	-506
ưu	-507
▁tập	-508
ợi	-509
▁tiêu	-510
▁7	-511
▁diễn	-512
▁em	-513
▁đường	-514
▁sở	-515
▁Anh	-516
▁thiết	-517
ừng	-518
▁tham	-519
ẩn	-520
ủ▁t	-521
ậu	-522
▁đất	-523
).	-524
▁sĩ	-525
▁bán	-526
ỏi	-527
▁tục	-528
▁phòng	-529
▁đạo	-530
et	-531
▁so	-532
▁chiếc	-533
▁trở	-534
▁nghệ	-535
▁khó	-536
▁phẩm	-537
ây▁dựng	-538
▁bạn	-539
▁Hà▁Nội	-540
▁chu	-541
▁biệt	-542
▁trị	-543
▁tích	-544
▁thực▁hiện	-545
.000	-546
▁thường	-547
▁cứu	-548
▁yêu	-549
▁tiền	-550
▁quá	-551
▁chiến	-552
▁Tuy	-553
▁10	-554
▁tỷ	-555
▁bệnh	-556
▁phố	-557
▁tính	-558
▁8	-559
▁mạnh	-560
ét	-561
úp	-562
ằm	-563
▁là▁một	-564
ép	-565
▁trưởng	-566
▁giáo	-567
▁khoảng	-568
▁tổ▁chức	-569
),	-570
▁chế	-571
▁văn	-572
▁vừa	-573
▁thương	-574
▁loại	-575
▁phát▁triển	-576
▁kiến	-577
▁huyện	-578
▁lần	-579
▁,	-580
▁Y	-581
▁hoàn	-582
▁phương	-583
▁dư	-584
▁sống	-585
▁đưa	-586
▁bà	-587
▁E	-588
▁Thanh	-589
▁lã	-590
▁sử▁dụng	-591
▁chị	-592
▁tuổi	-593
▁cô	-594
▁bất	-595
▁trẻ	-596
▁nhiệm	-597
▁khiến	-598
/1	-599
▁xây▁dựng	-600
▁diện	-601
▁đình	-602
▁sách	-603
ưng	-604
ìm	-605
▁bố	-606
▁hộ	-607
at	-608
uồn	-609
iếu	-610
▁2017	-611
▁trọng	-612
▁cáo	-613
àu	-614
▁điện	-615
▁giúp	-616
Ảnh	-617
hi	-618
▁giảm	-619
▁trang	-620
▁gây	-621
▁bắt	-622
▁kế	-623
ẫu	-624
▁chí	-625
▁cảm	-626
▁đại	-627
▁Ô	-628
▁đơn	-629
▁9	-630
▁đầu▁tư	-631
▁Bình	-632
▁sát	-633
ầy	-634
▁thứ	-635
ng▁được	-636
▁19	-637
ng▁đã	-638
ọn	-639
▁ngoài	-640
...	-641
▁phạm	-642
▁quyền	-643
▁hoạt▁động	-644
BND	-645
▁kiểm	-646
▁vậy	-647
n▁đề	-648
▁lập	-649
ĩnh	-650
▁Các	-651
▁mức	-652
it	-653
▁đổi	-654
▁giờ	-655
▁kỳ	-656
▁xử	-657
▁thời▁gian	-658
▁đội	-659
▁thêm	-660
is	-661
▁Tuy▁nhiên	-662
▁ăn	-663
▁cảnh	-664
úng	-665
▁nghị	-666
ảy	-667
▁Tổng	-668
▁chúng▁t	-669
/201	-670
▁vật	-671
▁lo	-672
▁gần	-673
▁tiên	-674
▁cá	-675
▁UBND	-676
▁tâm	-677
▁chuyển	-678
▁dịch	-679
▁bàn	-680
▁lịch	-681
▁vệ	-682
▁khu▁vực	-683
▁thuộc	-684
▁ứng	-685
▁dự▁án	-686
ạy	-687
▁chuyên	-688
ận▁đ	-689
as	-690
▁đo	-691
▁Ông	-692
▁tốt	-693
▁phục	-694
▁quản	-695
ặng	-696
ặp	-697
▁giữa	-698
▁J	-699
ần▁đ	-700
▁đánh	-701
▁liệu	-702
▁trợ	-703
▁nguyên	-704
ắp	-705
▁bên	-706
▁su	-707
▁Sau	-708
▁gia▁đình	-709
ặc▁biệt	-710
▁một▁số	-711
ấm	-712
▁sản▁xuất	-713
▁cổ	-714
▁sức	-715
ic	-716
▁truyền	-717
▁mua	-718
ro	-719
▁An	-720
▁người▁dân	-721
▁Đại	-722
▁phụ	-723
▁thay	-724
▁nghĩ	-725
▁gì	-726
▁trí	-727
▁nhau	-728
▁W	-729
▁hoặc	-730
▁gó	-731
▁ngành	-732
▁khí	-733
▁du	-734
ẹp	-735
▁Minh	-736
▁20	-737
▁'	-738
▁lợi	-739
uyến	-740
▁ô	-741
▁chi	-742
▁bình	-743
▁Ảnh	-744
▁quân	-745
▁tìm	-746
▁tượng	-747
▁bao	-748
▁đều	-749
▁đoàn	-750
▁dùng	-751
▁nơi	-752
▁thuật	-753
▁thông▁tin	-754
CM	-755
ân▁đ	-756
le	-757
▁hoạch	-758
▁bay	-759
ot	-760
▁Hải	-761
▁đa	-762
▁dài	-763
▁dù	-764
▁lời	-765
▁tay	-766
us	-767
▁của▁các	-768
▁phủ	-769
▁luật	-770
▁tranh	-771
om	-772
ít	-773
▁doanh▁nghiệp	-774
▁phân	-775
▁Chính	-776
▁xác	-777
▁Ngh	-778
oàng	-779
ượt	-780
▁quy▁định	-781
▁nhập	-782
ủy	-783
▁hết	-784
▁giữ	-785
▁minh	-786
▁Nhà	-787
▁thế▁giới	-788
ấn▁đề	-789
óm	-790
▁chia	-791
▁tên	-792
▁nữ	-793
ủ▁tịch	-794
▁nhữ	-795
▁trung	-796
▁Thị	-797
▁nội	-798
▁chung	-799
ol	-800
▁Đức	-801
▁Chủ▁tịch	-802
▁khoa	-803
▁bỏ	-804
▁mẫu	-805
ữu	-806
▁không▁có	-807
ac	-808
▁thân	-809
▁nếu	-810
23	-811
▁to	-812
▁biểu	-813
▁mạng	-814
ắm	-815
▁Một	-816
iện▁đ	-817
▁sáng	-818
▁kiện	-819
▁tiếng	-820
▁đạt	-821
▁tiến	-822
▁12	-823
iên▁cứu	-824
ũng	-825
▁biển	-826
▁công▁tác	-827
▁sao	-828
▁huy	-829
▁Trung▁Quốc	-830
▁vấn▁đề	-831
▁quản▁lý	-832
▁muốn	-833
▁từng	-834
n▁đến	-835
▁Thành	-836
▁Sơn	-837
ung▁t	-838
▁nhỏ	-839
ùa	-840
ìn	-841
il	-842
▁thanh	-843
oa	-844
▁thành▁phố	-845
▁Phó	-846
iêm	-847
uân	-848
▁nguồn	-849
▁mẹ	-850
ương▁t	-851
ương▁trình	-852
▁thị▁trường	-853
▁Nga	-854
▁tham▁gia	-855
▁danh	-856
▁chuẩn	-857
▁giả	-858
ãi	-859
▁rõ	-860
▁tiếp▁tục	-861
▁tiết	-862
▁mục	-863
▁tử	-864
▁của▁mình	-865
▁mắt	-866
▁ký	-867
▁O	-868
▁tổng	-869
▁cơ▁quan	-870
▁dục	-871
▁mỗi	-872
ra	-873
▁xem	-874
▁cây	-875
▁khả	-876
▁với▁các	-877
▁chứng	-878
ậm	-879
▁sân	-880
▁ban	-881
▁US	-882
áu	-883
▁công▁ty	-884
▁nghiệm	-885
▁phía	-886
▁biến	-887
▁cạnh	-888
▁ca	-889
ng▁để	-890
▁gặp	-891
▁sau▁khi	-892
▁Công▁ty	-893
▁chọn	-894
▁mất	-895
▁nghiên▁cứu	-896
▁lãnh	-897
▁hệ▁thống	-898
▁rồi	-899
▁Lê	-900
ồm	-901
▁lúc	-902
▁học▁sinh	-903
▁xã▁hội	-904
ôm	-905
▁cho▁rằng	-906
▁đẹp	-907
▁xử▁lý	-908
ẳng	-909
iê	-910
▁công▁nghệ	-911
▁mở	-912
▁bởi	-913
▁vô	-914
▁cư	-915
HCM	-916
▁tàu	-917
óc	-918
▁hỗ	-919
▁viện	-920
un	-921
▁phép	-922
▁15	-923
▁đồ	-924
▁sẻ	-925
▁trực	-926
▁trả	-927
▁Hoàng	-928
▁mọi	-929
-1	-930
▁Hội	-931
▁mang	-932
▁Trần	-933
▁Bắc	-934
▁cố	-935
▁vùng	-936
▁hướng	-937
▁dẫn	-938
▁nổi	-939
▁đảm	-940
▁ba	-941
▁kinh▁tế	-942
▁sản▁phẩm	-943
▁mô	-944
▁hạn	-945
▁cái	-946
▁ngay	-947
▁gồm	-948
▁cuối	-949
n▁đã	-950
▁hồ	-951
▁triệu▁đồng	-952
▁hã	-953
iệp	-954
ad	-955
▁thư	-956
▁hậu	-957
▁Đông	-958
▁Sở	-959
▁đặt	-960
▁USD	-961
ung▁tâm	-962
▁cơ▁sở	-963
ảy▁ra	-964
▁bu	-965
▁bài	-966
▁đốc	-967
▁Những	-968
ẩu	-969
▁chuyện	-970
âng	-971
ứa	-972
▁quốc▁gia	-973
▁kể	-974
▁11	-975
▁hỗ▁trợ	-976
▁ké	-977
▁kỹ	-978
▁Á	-979
▁so▁với	-980
▁xảy▁ra	-981
▁chương▁trình	-982
".	-983
▁xét	-984
▁đời	-985
ter	-986
▁Trường	-987
▁đặc▁biệt	-988
ur	-989
▁áp	-990
▁yêu▁cầu	-991
▁tuyển	-992
▁hồi	-993
▁cực	-994
um	-995
▁quyết▁định	-996
id	-997
▁ít	-998
▁luận	-999
▁Thái	-1000
▁thích	-1001
▁nhằm	-1002
▁sắc	-1003
▁đủ	-1004
▁trạng	-1005
▁lưu	-1006
ng▁đến	-1007
ôi▁trường	-1008
▁khá	-1009
▁yếu	-1010
▁cho▁các	-1011
▁đơn▁vị	-1012
▁dưới	-1013
▁ta	-1014
▁Đây	-1015
▁câu	-1016
▁tinh	-1017
▁Tiên	-1018
▁Xuân	-1019
▁nữa	-1020
▁Ban	-1021
▁2018	-1022
▁chia▁sẻ	-1023
▁vận	-1024
▁phiên	-1025
▁200	-1026
▁cụ	-1027
▁ma	-1028
▁tỷ▁đồng	-1029
▁tu	-1030
▁góp	-1031
ịp	-1032
▁co	-1033
▁cửa	-1034
▁những▁người	-1035
▁nhanh	-1036
▁Trước	-1037
▁hữu	-1038
▁chúng▁tôi	-1039
▁hỏi	-1040
▁nhóm	-1041
▁chơi	-1042
iêng	-1043
▁nạn	-1044
▁trận	-1045
oo	-1046
▁màu	-1047
▁và▁các	-1048
▁vu	-1049
▁đấu	-1050
n▁đầu	-1051
iếm	-1052
▁không▁thể	-1053
▁sang	-1054
▁Khi	-1055
▁gọi	-1056
▁30	-1057
▁khăn	-1058
▁lãnh▁đạo	-1059
▁rộng	-1060
▁Đồng	-1061
▁cung	-1062
ủng	-1063
▁phim	-1064
▁Quảng	-1065
▁lộ	-1066
▁tấn	-1067
▁kiểm▁tra	-1068
ỡng	-1069
▁Nhật	-1070
▁Không	-1071
▁trò	-1072
▁luôn	-1073
▁lớp	-1074
▁triển▁khai	-1075
ing	-1076
▁Long	-1077
▁Ngày	-1078
▁trách	-1079
os	-1080
▁Ngọc	-1081
▁đối▁với	-1082
▁bó	-1083
uyết	-1084
▁Ngoài	-1085
▁nông	-1086
▁tố	-1087
▁khẩu	-1088
▁vốn	-1089
ed	-1090
▁Với	-1091
▁hoa	-1092
▁phát▁hiện	-1093
▁Người	-1094
▁trái	-1095
▁xuống	-1096
▁đoạn	-1097
▁ghi	-1098
▁đã▁có	-1099
▁cán	-1100
n▁để	-1101
▁lấy	-1102
▁chạy	-1103
▁Tu	-1104
▁làm▁việc	-1105
▁Tại	-1106
▁ai	-1107
▁lao	-1108
▁hà	-1109
th	-1110
▁quận	-1111
▁môn	-1112
ng▁đầu	-1113
▁Triều	-1114
▁đô	-1115
▁khó▁khăn	-1116
▁bé	-1117
▁kỷ	-1118
▁lệ	-1119
▁phối	-1120
▁nâng	-1121
uyệt	-1122
▁Hồ	-1123
▁chiều	-1124
▁thắng	-1125
▁Thu	-1126
▁đã▁được	-1127
one	-1128
▁khoa▁học	-1129
▁nằm	-1130
7,	-1131
▁vợ	-1132
▁kinh▁doanh	-1133
▁Dương	-1134
▁trở▁thành	-1135
▁tải	-1136
ựa	-1137
▁chống	-1138
▁sơ	-1139
úi	-1140
▁vòng	-1141
▁tất	-1142
▁an▁toàn	-1143
▁nghĩa	-1144
▁khả▁năng	-1145
▁Liên	-1146
▁Nếu	-1147
ỏa	-1148
▁vũ	-1149
▁giám	-1150
uôi	-1151
▁Tây	-1152
▁Tôi	-1153
ng▁định	-1154
▁suất	-1155
▁Chính▁phủ	-1156
▁thiết▁kế	-1157
▁bảo▁vệ	-1158
▁cũng▁như	-1159
▁bóng	-1160
▁cán▁bộ	-1161
0,	-1162
▁chân	-1163
▁lửa	-1164
▁phá	-1165
▁ngân	-1166
▁châu	-1167
ến▁đ	-1168
▁Hòa	-1169
▁không▁phải	-1170
▁phong	-1171
▁giao▁thông	-1172
ẩy	-1173
▁gái	-1174
▁ảnh▁h	-1175
▁hiện▁đ	-1176
▁trong▁đó	-1177
▁To	-1178
TT	-1179
▁môi▁trường	-1180
ag	-1181
▁tối	-1182
▁diễn▁ra	-1183
▁hiểu	-1184
ng▁từ	-1185
▁dung	-1186
ửi	-1187
▁nhu	-1188
▁nhạc	-1189
▁nguy	-1190
▁Đà	-1191
▁quốc▁tế	-1192
▁hiệu▁quả	-1193
▁Triều▁Tiên	-1194
▁dễ	-1195
▁hại	-1196
▁ngoại	-1197
▁In	-1198
▁căn	-1199
▁Từ	-1200
▁thoại	-1201
▁thần	-1202
▁Hiện	-1203
▁Do	-1204
▁rất▁nhiều	-1205
▁thiếu	-1206
▁đúng	-1207
▁Quang	-1208
▁xế	-1209
tr	-1210
▁kết▁quả	-1211
6,	-1212
ẳng▁định	-1213
▁phản	-1214
ạp	-1215
▁trong▁những	-1216
▁khẳng▁định	-1217
ùi	-1218
▁buổi	-1219
▁ấy	-1220
▁Giám	-1221
▁Điều	-1222
▁Hàn	-1223
▁sư	-1224
▁mùa	-1225
▁tho	-1226
▁nhìn	-1227
▁chồng	-1228
▁Có	-1229
▁lễ	-1230
▁Cu	-1231
▁tô	-1232
▁Thủ▁t	-1233
▁vọng	-1234
▁thay▁đổi	-1235
▁Hu	-1236
▁dành	-1237
▁độc	-1238
▁những▁đ	-1239
ín	-1240
▁cải	-1241
▁du▁lịch	-1242
▁lĩnh	-1243
iềm	-1244
▁Như	-1245
▁bước	-1246
▁xúc	-1247
▁trườ	-1248
ão	-1249
▁1.	-1250
▁đánh▁giá	-1251
▁gửi	-1252
▁chất▁lượng	-1253
▁vượt	-1254
▁hạ	-1255
▁khởi	-1256
▁Tổng▁thống	-1257
▁dịch▁vụ	-1258
▁quan▁trọng	-1259
▁Lu	-1260
▁dòng	-1261
▁thuốc	-1262
▁TH	-1263
▁hôm	-1264
▁thật	-1265
▁thuận	-1266
ận▁được	-1267
▁vi▁phạm	-1268
LV	-1269
▁xuất▁hiện	-1270
▁thuế	-1271
▁xa	-1272
▁càng	-1273
▁trao	-1274
▁lực▁lượng	-1275
▁toán	-1276
▁Thủ▁tướng	-1277
▁thành▁công	-1278
▁đóng	-1279
▁chịu	-1280
▁18	-1281
▁ủy	-1282
▁riêng	-1283
▁hòa	-1284
▁Lan	-1285
▁cử	-1286
iễ	-1287
▁chấp	-1288
▁khỏi	-1289
▁đảm▁bảo	-1290
▁Vi	-1291
▁Hoa	-1292
úng▁t	-1293
▁thời▁điểm	-1294
▁hiện▁nay	-1295
áng▁t	-1296
▁giống	-1297
▁Phạm	-1298
èo	-1299
▁thiện	-1300
▁cầu▁thủ	-1301
▁nuôi	-1302
▁vai	-1303
▁Giám▁đốc	-1304
▁chết	-1305
▁Vũ	-1306
2,	-1307
▁đầu▁tiên	-1308
▁sông	-1309
▁lòng	-1310
▁Phú	-1311
▁quá▁trình	-1312
▁thí	-1313
▁hiểm	-1314
▁nghề	-1315
▁Năm	-1316
▁Bản	-1317
▁công▁trình	-1318
▁cung▁cấp	-1319
▁tầ	-1320
▁bổ	-1321
20	-1322
▁13	-1323
ịa	-1324
▁giải▁quyết	-1325
▁Công▁an	-1326
▁giáo▁dục	-1327
▁nghiêm	-1328
▁i	-1329
▁HLV	-1330
▁sai	-1331
▁của▁người	-1332
▁thấp	-1333
▁chúng▁ta	-1334
PT	-1335
▁nặng	-1336
▁tốc	-1337
▁ngờ	-1338
▁địa▁bàn	-1339
▁kế▁hoạch	-1340
▁mã	-1341
▁100	-1342
▁sâu	-1343
pp	-1344
▁biên	-1345
▁Nguyên	-1346
▁tuyên	-1347
▁soát	-1348
▁phạt	-1349
ut	-1350
ng▁tại	-1351
▁địa▁phương	-1352
▁Nhưng	-1353
▁Châu	-1354
▁đầy	-1355
ng▁đồng	-1356
▁gh	-1357
▁trường▁hợp	-1358
da	-1359
▁thất	-1360
▁âm	-1361
▁kéo	-1362
▁tai	-1363
▁14	-1364
▁sẽ▁được	-1365
▁phù	-1366
▁sau▁đó	-1367
▁phóng	-1368
▁chỉnh	-1369
▁vui	-1370
▁1,	-1371
▁trai	-1372
▁hợp▁với	-1373
▁nhận▁được	-1374
▁hút	-1375
▁bắt▁đầu	-1376
▁bức	-1377
▁hãng	-1378
ớm	-1379
iếp	-1380
▁thiết▁bị	-1381
▁nền	-1382
5,	-1383
▁ngôi	-1384
▁tuyến	-1385
▁khoản	-1386
▁tình▁trạng	-1387
▁hình▁ảnh	-1388
▁lâu	-1389
▁vài	-1390
▁Kim	-1391
▁các▁nhà	-1392
▁Nẵ	-1393
▁tất▁cả	-1394
▁giá▁trị	-1395
▁Vì	-1396
▁vị▁trí	-1397
▁Hàn▁Quốc	-1398
▁Ninh	-1399
li	-1400
▁năm▁nay	-1401
▁16	-1402
▁viết	-1403
▁trọ	-1404
▁Nhiều	-1405
▁Tân	-1406
▁tuy	-1407
▁nhất▁là	-1408
▁u	-1409
",	-1410
▁vàng	-1411
▁cho▁thấy	-1412
ối▁với	-1413
▁trách▁nhiệm	-1414
▁đáng	-1415
▁đông	-1416
▁phút	-1417
▁thử	-1418
▁chính▁thức	-1419
▁Giang	-1420
▁lái	-1421
▁thủy	-1422
▁ô▁tô	-1423
▁Ngoài▁ra	-1424
▁Hồng	-1425
▁chiếc▁xe	-1426
▁cá▁nhân	-1427
eb	-1428
▁tầng	-1429
ỏe	-1430
▁chúng	-1431
▁điều▁kiện	-1432
▁báo▁cáo	-1433
▁sớm	-1434
▁Đảng	-1435
▁25	-1436
▁của▁ông	-1437
▁khỏe	-1438
▁mại	-1439
ua	-1440
▁công▁bố	-1441
▁có▁nhiều	-1442
▁Để	-1443
ào▁tạo	-1444
▁đẩy	-1445
▁niên	-1446
▁khắc	-1447
▁trời	-1448
▁hoàn▁toàn	-1449
▁Tiến	-1450
▁thầy	-1451
▁đưa▁ra	-1452
ow	-1453
▁chính▁sách	-1454
▁duy	-1455
▁tuần	-1456
▁thúc	-1457
▁màn	-1458
▁phường	-1459
▁dẫ	-1460
▁chỉ▁đạo	-1461
▁Kỳ	-1462
▁cam	-1463
TV	-1464
▁thảo	-1465
▁Thế	-1466
▁Việc	-1467
▁chuyên▁gia	-1468
▁mong	-1469
▁tưởng	-1470
▁văn▁hóa	-1471
▁hạt	-1472
▁bác	-1473
▁thác	-1474
▁nhiệm▁vụ	-1475
ir	-1476
▁sở▁hữu	-1477
▁tội	-1478
▁Đà▁Nẵ	-1479
▁Phương	-1480
▁ổ	-1481
▁thôn	-1482
▁lĩnh▁vực	-1483
ap	-1484
▁xanh	-1485
▁hát	-1486
ậm▁chí	-1487
▁Đây▁là	-1488
▁giấy	-1489
▁Mai	-1490
▁kê	-1491
▁siêu	-1492
▁xuyên	-1493
▁những▁t	-1494
▁Phòng	-1495
▁chứ	-1496
ĐT	-1497
▁khách▁hàng	-1498
▁chức▁năng	-1499
▁phục▁vụ	-1500
and	-1501
ng▁đá	-1502
▁Bên	-1503
▁vấn	-1504
▁xin	-1505
ng▁đất	-1506
ew	-1507
▁áo	-1508
▁nhiệt	-1509
▁trồng	-1510
▁họp	-1511
▁Yên	-1512
▁mưa	-1513
▁Dự	-1514
▁hạng	-1515
▁Tuấn	-1516
▁chỗ	-1517
▁kỹ▁thuật	-1518
▁quan▁tâm	-1519
▁thực▁tế	-1520
.1	-1521
▁đồng▁thời	-1522
Ph	-1523
▁lao▁động	-1524
▁đôi	-1525
▁pháp▁luật	-1526
▁nội▁dung	-1527
▁tiến▁hành	-1528
▁đăng	-1529
▁nam	-1530
▁đá	-1531
▁nghỉ	-1532
▁nghe	-1533
▁0	-1534
▁thao	-1535
▁chiếm	-1536
▁50	-1537
▁có▁một	-1538
▁dạy	-1539
▁giai	-1540
▁thưởng	-1541
▁thải	-1542
▁Tài	-1543
▁trang▁bị	-1544
▁kích	-1545
▁Bà	-1546
▁Chí	-1547
▁thăm	-1548
▁Trong▁khi	-1549
ak	-1550
▁mộ	-1551
▁loạt	-1552
▁chữa	-1553
ump	-1554
▁nhân▁dân	-1555
:▁"	-1556
▁17	-1557
▁buộc	-1558
iễm	-1559
▁Pháp	-1560
ương▁đ	-1561
▁đàn	-1562
▁ánh	-1563
▁quan▁đến	-1564
iễn	-1565
▁xác▁định	-1566
▁là▁người	-1567
▁quý	-1568
▁phiên▁bản	-1569
▁sử▁dụ	-1570
▁p	-1571
▁dấu	-1572
▁thẩm	-1573
▁lựa	-1574
▁trực▁tiếp	-1575
▁nhiều▁người	-1576
èn	-1577
▁về▁việc	-1578
▁phương▁t	-1579
▁tránh	-1580
▁trung▁tâm	-1581
▁Bảo	-1582
▁cường	-1583
▁giáo▁viên	-1584
▁Gia	-1585
▁Linh	-1586
▁Sau▁khi	-1587
àm	-1588
▁trận▁đ	-1589
▁Nhà▁nước	-1590
ỏng	-1591
ứt	-1592
▁miền	-1593
ov	-1594
▁ninh	-1595
▁ưu	-1596
▁không▁được	-1597
▁tấn▁công	-1598
▁kiếm	-1599
▁chắc	-1600
▁máy▁bay	-1601
▁Tết	-1602
▁cơ▁hội	-1603
▁giành	-1604
▁khai▁thác	-1605
▁Luật	-1606
▁đó▁là	-1607
▁nhớ	-1608
8,	-1609
▁trì	-1610
▁quanh	-1611
▁Trump	-1612
▁nối	-1613
▁rừng	-1614
ặn	-1615
▁đối▁tượng	-1616
▁tỉ	-1617
▁quan▁hệ	-1618
te	-1619
▁trên▁địa▁bàn	-1620
▁Thông	-1621
▁đêm	-1622
▁đảo	-1623
▁chuẩn▁bị	-1624
▁thái	-1625
▁trong▁việc	-1626
▁Trung▁tâm	-1627
▁Phát	-1628
▁ý▁kiến	-1629
▁mục▁tiêu	-1630
▁Ba	-1631
▁diện▁tích	-1632
▁cập	-1633
▁cũng▁đã	-1634
▁tương	-1635
▁mẫu▁xe	-1636
▁thiên	-1637
▁phụ▁nữ	-1638
1,	-1639
▁hu	-1640
▁dầu	-1641
▁bày	-1642
▁Báo	-1643
ón	-1644
▁nhu▁cầu	-1645
▁Hóa	-1646
▁Đà▁Nẵng	-1647
▁24	-1648
▁Bên▁cạnh	-1649
▁hợp▁tác	-1650
▁sửa	-1651
▁điều▁tra	-1652
50	-1653
▁thành▁viên	-1654
▁cháu	-1655
▁khủng	-1656
▁Chi	-1657
▁tòa	-1658
▁trú	-1659
▁Cục	-1660
▁da	-1661
▁tài▁sản	-1662
▁nhờ	-1663
▁họa	-1664
▁thông▁qua	-1665
▁trụ	-1666
ưới	-1667
ản▁đ	-1668
▁trước▁khi	-1669
▁mối	-1670
▁chăm	-1671
/2017	-1672
art	-1673
ri	-1674
▁trong▁khi	-1675
▁tập▁trung	-1676
▁nhiễm	-1677
▁cộ	-1678
▁tù	-1679
▁khối	-1680
▁cho▁người	-1681
▁đáp	-1682
▁nghi	-1683
▁Tổ	-1684
▁chính▁là	-1685
▁Về	-1686
▁nâng▁cao	-1687
▁nước▁ngoài	-1688
VN	-1689
▁Nhật▁Bản	-1690
▁cuộc▁sống	-1691
▁lịch▁sử	-1692
▁thí▁sinh	-1693
ụp	-1694
ob	-1695
▁thiệt	-1696
▁thông▁báo	-1697
9,	-1698
▁phê	-1699
▁làng	-1700
▁xếp	-1701
▁Z	-1702
▁loài	-1703
▁mắc	-1704
▁núi	-1705
Th	-1706
▁Le	-1707
▁Chỉ	-1708
▁Đình	-1709
▁trải	-1710
òi	-1711
▁giải▁pháp	-1712
▁Đến	-1713
ần▁đầu	-1714
▁bất▁ngờ	-1715
ói	-1716
n▁đường	-1717
▁thuê	-1718
ọt	-1719
▁binh	-1720
▁khảo	-1721
▁tộc	-1722
▁đây▁là	-1723
▁đỏ	-1724
▁niệm	-1725
▁hoàn▁thành	-1726
▁Khánh	-1727
▁dưỡng	-1728
▁gắn	-1729
▁đại▁diện	-1730
▁cánh	-1731
▁GD	-1732
▁TN	-1733
▁giai▁đoạn	-1734
▁lỗi	-1735
▁nợ	-1736
▁Và	-1737
-201	-1738
án▁giả	-1739
▁hành▁vi	-1740
▁2016	-1741
▁tức	-1742
▁như▁vậy	-1743
▁Đại▁học	-1744
▁thể▁hiện	-1745
ark	-1746
▁khúc	-1747
úy	-1748
▁nhấn	-1749
4,	-1750
▁ảnh▁hưởng	-1751
▁Dũng	-1752
▁bầu	-1753
▁quay	-1754
ist	-1755
▁ứng▁dụng	-1756
▁sinh▁viên	-1757
ẵn	-1758
▁2.	-1759
▁Khu	-1760
▁ĐH	-1761
▁cũng▁là	-1762
▁lai	-1763
▁in	-1764
▁lựa▁chọn	-1765
ặc▁dù	-1766
n▁định	-1767
▁bão	-1768
▁con▁người	-1769
▁Trước▁đó	-1770
▁ích	-1771
▁công▁nghiệp	-1772
▁bao▁gồm	-1773
▁động▁cơ	-1774
▁công▁việc	-1775
▁Chúng▁t	-1776
▁thương▁mại	-1777
▁chờ	-1778
▁ngồi	-1779
▁thầu	-1780
▁luyện	-1781
ỳnh	-1782
ent	-1783
ăng▁t	-1784
▁mật	-1785
▁sức▁khỏe	-1786
▁ương	-1787
▁không▁chỉ	-1788
▁dạng	-1789
iv	-1790
▁lượ	-1791
▁đề▁nghị	-1792
▁bóng▁đá	-1793
▁phổ	-1794
▁Quốc▁hội	-1795
▁tặng	-1796
▁liệt	-1797
▁Nguyễn▁Văn	-1798
▁gần▁đ	-1799
ha	-1800
▁liên▁quan	-1801
▁nhận▁đ	-1802
▁liên▁quan▁đến	-1803
▁trong▁các	-1804
▁VN	-1805
▁đặc	-1806
▁khán▁giả	-1807
▁km	-1808
▁tồn	-1809
▁nhân▁viên	-1810
▁cục	-1811
▁tái	-1812
▁ấn	-1813
▁có▁những	-1814
▁sẵn	-1815
▁UBND▁tỉnh	-1816
▁phương▁tiện	-1817
▁21	-1818
ue	-1819
▁Đoàn	-1820
▁an▁ninh	-1821
▁vẻ	-1822
▁Nguyễn▁Thị	-1823
▁kiểm▁soát	-1824
▁2,	-1825
▁á	-1826
▁khám	-1827
▁cũng▁đ	-1828
▁DN	-1829
▁trạm	-1830
▁thường▁xuyên	-1831
▁kịp	-1832
▁vào▁năm	-1833
▁Sy	-1834
▁như▁thế	-1835
▁Lâm	-1836
▁biện	-1837
▁với▁những	-1838
n▁đấu	-1839
▁hợp▁đồng	-1840
▁thậm▁chí	-1841
re	-1842
▁Bí	-1843
▁trở▁lại	-1844
▁đến▁nay	-1845
▁máu	-1846
▁sáng▁t	-1847
▁nóng	-1848
▁đổ	-1849
▁Nghệ	-1850
▁phiếu	-1851
▁23	-1852
▁Hưng	-1853
▁tại▁các	-1854
▁Du	-1855
▁Re	-1856
▁chi▁phí	-1857
▁hồ▁sơ	-1858
▁nổi▁tiếng	-1859
▁quê	-1860
ân▁đội	-1861
▁bánh	-1862
▁Hiệp	-1863
Phone	-1864
▁quy▁hoạch	-1865
▁thú	-1866
▁lượt	-1867
▁Bộ▁trưởng	-1868
▁nhà▁nước	-1869
▁tạo▁ra	-1870
▁điện▁thoại	-1871
▁tín	-1872
av	-1873
ựu	-1874
▁cò	-1875
ọa	-1876
▁suốt	-1877
ne	-1878
▁Đó	-1879
▁ra▁mắt	-1880
co	-1881
▁khác▁nhau	-1882
ig	-1883
▁phó	-1884
▁quan▁đ	-1885
▁Giáo	-1886
ion	-1887
▁cụ▁thể	-1888
▁coi	-1889
▁Su	-1890
▁quán	-1891
▁tạm	-1892
-2	-1893
▁vẫ	-1894
▁ngân▁hàng	-1895
▁lược	-1896
▁tầm	-1897
▁cha	-1898
▁Cụ	-1899
▁gốc	-1900
▁Còn	-1901
▁nghèo	-1902
iếc	-1903
▁trận▁đấu	-1904
ton	-1905
▁lạc	-1906
▁Phan	-1907
▁trong▁năm	-1908
▁hạn▁chế	-1909
▁Hai	-1910
▁sắp	-1911
▁Lý	-1912
▁sẽ▁có	-1913
▁nêu	-1914
▁thụ	-1915
▁hiện▁đại	-1916
▁đào▁tạo	-1917
▁iPhone	-1918
▁một▁cách	-1919
▁lũ	-1920
▁40	-1921
▁uống	-1922
▁Theo▁đó	-1923
▁bảng	-1924
▁chụp	-1925
▁tắc	-1926
▁thi▁đấu	-1927
ota	-1928
ỗ▁lực	-1929
▁tại▁Việt▁Nam	-1930
ly	-1931
▁thiệu	-1932
▁địch	-1933
▁Tập	-1934
▁Hương	-1935
ook	-1936
▁nguy▁cơ	-1937
▁phối▁hợp	-1938
▁Cũng	-1939
▁này▁đã	-1940
▁cắt	-1941
▁cho▁phép	-1942
▁22	-1943
▁Nhân	-1944
▁hơi	-1945
▁bác▁sĩ	-1946
▁bá	-1947
úa	-1948
ria	-1949
▁f	-1950
▁trăm	-1951
▁Hon	-1952
▁song	-1953
▁ước	-1954
▁dịp	-1955
▁Trong▁khi▁đó	-1956
▁(1	-1957
▁thu▁hút	-1958
▁Viện	-1959
▁ổn▁định	-1960
▁bãi	-1961
▁toàn▁bộ	-1962
▁Cơ	-1963
▁thơ	-1964
▁giới▁thiệu	-1965
▁Phúc	-1966
kh	-1967
▁dữ	-1968
▁vẫn▁chưa	-1969
ab	-1970
▁cấu	-1971
▁2017,	-1972
▁rút	-1973
▁Phong	-1974
▁PV	-1975
▁truy	-1976
▁Al	-1977
ard	-1978
▁của▁một	-1979
▁nỗ▁lực	-1980
▁đích	-1981
▁New	-1982
▁cận	-1983
▁thừa	-1984
ống▁đ	-1985
õi	-1986
▁Nghị	-1987
▁Kinh	-1988
▁Viet	-1989
▁chắn	-1990
ĩa	-1991
▁đón	-1992
▁lương	-1993
▁kính	-1994
▁tốc▁độ	-1995
▁may	-1996
▁THPT	-1997
▁chính▁quyền	-1998
▁nhất▁của	-1999
▁vai▁trò	-2000
▁Toy	-2001
▁trong▁một	-2002
▁mọi▁người	-2003
▁nhẹ	-2004
▁cù	-2005
▁sạch	-2006
▁cà	-2007
tô	-2008
▁hy	-2009
▁bật	-2010
▁tên▁lửa	-2011
▁vay	-2012
▁cháy	-2013
iến▁đ	-2014
▁sung	-2015
TC	-2016
▁thẳng	-2017
▁liên▁tục	-2018
▁quen	-2019
▁nguyên▁nhân	-2020
▁áp▁dụng	-2021
▁Syria	-2022
▁dừng	-2023
▁đứng	-2024
ạn▁đ	-2025
▁vừa▁qua	-2026
▁Honda	-2027
▁Chí▁Minh	-2028
▁tỏ	-2029
▁vụ▁việc	-2030
▁thể▁thao	-2031
▁châu▁Á	-2032
▁nổ	-2033
▁Dù	-2034
ax	-2035
▁lẽ	-2036
▁cho▁hay	-2037
▁HĐ	-2038
ườn	-2039
▁suy	-2040
▁xe▁máy	-2041
▁lạ	-2042
▁Vĩnh	-2043
▁đô▁thị	-2044
▁Toyota	-2045
▁trong▁thời▁gian	-2046
▁Cô	-2047
▁dành▁cho	-2048
▁chứa	-2049
30	-2050
▁giác	-2051
▁thỏa	-2052
▁niềm	-2053
▁199	-2054
▁cộng▁đồng	-2055
▁biện▁pháp	-2056
▁tăng▁cường	-2057
▁Bí▁thư	-2058
▁gần▁đây	-2059
▁tình▁hình	-2060
▁kém	-2061
▁tận	-2062
ord	-2063
▁thành▁lập	-2064
▁La	-2065
▁Được	-2066
▁chục	-2067
▁chợ	-2068
▁Con	-2069
▁Vinh	-2070
▁ngại	-2071
▁29	-2072
▁còn▁lại	-2073
net	-2074
ou	-2075
▁vững	-2076
▁chú▁ý	-2077
▁rơi	-2078
▁Hữu	-2079
▁chữ	-2080
▁truyền▁thống	-2081
▁Thủy	-2082
▁Hùng	-2083
▁Trung▁ương	-2084
▁trả▁lời	-2085
▁Bệnh	-2086
▁cộng	-2087
▁Hồ▁Chí▁Minh	-2088
▁ngo	-2089
▁Huy	-2090
▁ngư	-2091
▁lắp	-2092
▁chặt	-2093
ce	-2094
▁hướ	-2095
▁đâu	-2096
ald	-2097
▁ủng	-2098
ẹn	-2099
▁là▁những	-2100
▁tài▁chính	-2101
▁xăng	-2102
▁Ngân	-2103
▁trắng	-2104
▁mô▁hình	-2105
▁chính▁trị	-2106
▁Bùi	-2107
▁cầm	-2108
▁tờ	-2109
▁gió	-2110
▁có▁sự	-2111
ine	-2112
▁đau	-2113
▁thực▁sự	-2114
ãn	-2115
▁lá	-2116
▁ủng▁hộ	-2117
▁tuyệt	-2118
▁văn▁bản	-2119
▁bí	-2120
▁lần▁đầu	-2121
ót	-2122
▁chở	-2123
ik	-2124
▁Sự	-2125
▁Trưởng	-2126
ng▁đi	-2127
▁dân▁tộc	-2128
▁chỉ▁có	-2129
▁Bên▁cạnh▁đó	-2130
▁cân	-2131
▁thế▁hệ	-2132
▁bằ	-2133
ber	-2134
▁Đặc▁biệt	-2135
▁khóa	-2136
▁các▁loại	-2137
3,	-2138
▁trẻ▁em	-2139
▁dây	-2140
▁chẳng	-2141
▁chuyến	-2142
▁ngăn	-2143
▁trong▁đó▁có	-2144
▁màn▁hình	-2145
▁xem▁xét	-2146
▁vận▁đ	-2147
▁bờ	-2148
▁Độ	-2149
▁nhanh▁ch	-2150
▁Thời	-2151
▁thoát	-2152
▁Cần	-2153
▁lệnh	-2154
▁Thứ	-2155
▁hạt▁nhân	-2156
▁tai▁nạn	-2157
▁hài	-2158
▁mang▁t	-2159
▁phận	-2160
▁27	-2161
gi	-2162
▁vong	-2163
▁hình▁thức	-2164
▁cũng▁không	-2165
2.	-2166
y▁ban	-2167
▁và▁có	-2168
▁Tĩnh	-2169
▁2017.	-2170
ềm	-2171
▁cấm	-2172
▁phúc	-2173
▁kéo▁dài	-2174
▁lục	-2175
▁lưới	-2176
▁góp▁phần	-2177
▁chiến▁thắng	-2178
▁mừng	-2179
▁Biên	-2180
▁bại	-2181
▁trong▁nước	-2182
▁số▁tiền	-2183
▁UBND▁TP	-2184
az	-2185
▁bị▁cáo	-2186
▁sóc	-2187
EA	-2188
od	-2189
▁vào▁ngày	-2190
▁này▁được	-2191
▁quân▁sự	-2192
▁này▁là	-2193
ul	-2194
▁Khoa	-2195
▁tiểu	-2196
▁ảnh▁hưở	-2197
ort	-2198
▁từ▁năm	-2199
▁tương▁lai	-2200
▁sóng	-2201
▁tuyên▁bố	-2202
▁giám▁sát	-2203
ank	-2204
▁kiểu	-2205
▁nhấn▁mạnh	-2206
▁nhắc	-2207
▁số▁lượng	-2208
▁Ngay	-2209
▁xứ	-2210
▁kinh▁nghiệm	-2211
▁nguyện	-2212
▁khiển	-2213
▁bổ▁sung	-2214
▁diễn▁viên	-2215
▁lý▁do	-2216
▁hải	-2217
▁o	-2218
▁phi	-2219
▁App	-2220
▁nắm	-2221
▁nhập▁khẩu	-2222
▁thực▁phẩm	-2223
▁chủ▁yếu	-2224
▁duyệt	-2225
▁dự▁kiến	-2226
Ng	-2227
▁Thương	-2228
▁vũ▁khí	-2229
▁sự▁kiện	-2230
▁không▁còn	-2231
▁ở▁các	-2232
ộp	-2233
▁giản	-2234
▁Sài	-2235
▁28	-2236
▁đặc▁biệt▁là	-2237
▁cần▁phải	-2238
▁hưởng	-2239
▁thông▁minh	-2240
▁trên▁thế▁giới	-2241
▁lạnh	-2242
▁Sp	-2243
▁Thường	-2244
▁mẽ	-2245
▁hè	-2246
▁26	-2247
▁Cụ▁thể	-2248
▁hành▁chính	-2249
▁sợ	-2250
▁Hy	-2251
ộn	-2252
▁Chúng▁tôi	-2253
▁đăng▁ký	-2254
▁dân▁đ	-2255
▁Duy	-2256
▁Thiên	-2257
▁hiện▁tại	-2258
▁ngủ	-2259
▁thương▁hiệu	-2260
▁Cam	-2261
▁thủ▁tục	-2262
▁hấp	-2263
▁mở▁rộng	-2264
▁nhật	-2265
▁bệnh▁nhân	-2266
èm	-2267
▁bệnh▁viện	-2268
▁chiến▁lược	-2269
▁năm▁qua	-2270
▁đua	-2271
/2	-2272
ess	-2273
▁bào	-2274
▁cổ▁phần	-2275
▁hôn	-2276
▁tim	-2277
▁dẫn▁đến	-2278
▁Hàng	-2279
▁báo▁chí	-2280
▁thu▁hồi	-2281
▁cuối▁cùng	-2282
iếng	-2283
▁thi▁công	-2284
▁mạnh▁mẽ	-2285
era	-2286
▁Cảnh	-2287
▁giám▁đốc	-2288
▁theo▁quy▁định	-2289
▁một▁người	-2290
▁Kết	-2291
▁nhà▁đầu▁tư	-2292
'.	-2293
▁Trên	-2294
▁đề▁xuất	-2295
est	-2296
▁pha	-2297
▁ngắn	-2298
▁vố	-2299
▁Vân	-2300
▁thịt	-2301
▁của▁họ	-2302
▁vận▁động	-2303
▁mời	-2304
▁chăm▁sóc	-2305
▁tích▁cực	-2306
▁nông▁nghiệp	-2307
▁Đầu	-2308
▁Trang	-2309
▁bao▁giờ	-2310
▁sân▁bay	-2311
▁chung▁kết	-2312
▁huynh	-2313
▁băng	-2314
ty	-2315
ev	-2316
▁công▁suất	-2317
ương▁tự	-2318
▁dần	-2319
▁đàn▁ông	-2320
▁xấu	-2321
▁ru	-2322
▁tinh▁thần	-2323
▁rác	-2324
▁Sài▁G	-2325
▁vé	-2326
▁chủ▁đầu▁tư	-2327
%.	-2328
TVT	-2329
▁mê	-2330
▁tạp	-2331
▁Thắng	-2332
▁cũng▁được	-2333
▁món	-2334
▁Apple	-2335
▁Trong▁đó	-2336
▁hành▁động	-2337
▁kim	-2338
▁Ar	-2339
▁du▁khách	-2340
▁mái	-2341
onald	-2342
▁cuộc▁thi	-2343
▁bản▁thân	-2344
ợt	-2345
▁giao▁dịch	-2346
n▁đầu▁tư	-2347
▁điều▁chỉnh	-2348
▁Ngoại	-2349
▁Lộc	-2350
ers	-2351
▁lớn▁nhất	-2352
▁Qua	-2353
▁tỷ▁lệ	-2354
▁hướng▁dẫn	-2355
▁vẫn▁còn	-2356
▁trương	-2357
▁cạnh▁tranh	-2358
GT	-2359
▁Thủ	-2360
▁hầu	-2361
▁gây▁ra	-2362
▁quà	-2363
▁khắc▁phục	-2364
▁ngữ	-2365
▁TPHCM	-2366
▁nghìn	-2367
ụng	-2368
▁phương▁án	-2369
▁trấn	-2370
▁ngày▁càng	-2371
5.	-2372
▁ti	-2373
▁chuyể	-2374
▁tham▁dự	-2375
▁Định	-2376
▁nghệ▁sĩ	-2377
▁xuất▁sắc	-2378
▁Thanh▁Hóa	-2379
ck	-2380
▁năng▁lực	-2381
▁thiệt▁hại	-2382
▁của▁Bộ	-2383
km	-2384
▁sỹ	-2385
n▁đang	-2386
▁ca▁sĩ	-2387
▁dõi	-2388
▁khuyến	-2389
▁Ho	-2390
▁phù▁hợp	-2391
▁60	-2392
▁chậm	-2393
▁mấy	-2394
▁3,	-2395
▁sắt	-2396
▁điều▁trị	-2397
▁lò	-2398
▁bồi	-2399
▁nhà▁máy	-2400
▁xo	-2401
▁nghệ▁thuật	-2402
8.	-2403
▁cũng▁có	-2404
▁cơ▁thể	-2405
▁nguy▁hiểm	-2406
▁Quyết	-2407
▁trở▁nên	-2408
▁miễn	-2409
▁chiếu	-2410
▁cuốn	-2411
▁sáng▁tạo	-2412
ãy	-2413
▁quảng	-2414
▁Điện	-2415
▁linh	-2416
▁St	-2417
▁của▁Mỹ	-2418
▁chi▁tiết	-2419
▁CL	-2420
▁mềm	-2421
▁Giải	-2422
▁tịch	-2423
▁của▁M	-2424
▁ghế	-2425
ebook	-2426
▁tiề	-2427
▁đã▁bị	-2428
▁Phó▁Chủ▁tịch	-2429
▁Vụ	-2430
▁Sài▁Gòn	-2431
▁sẵn▁s	-2432
▁này▁có	-2433
/2017,	-2434
ến▁đường	-2435
▁dựa	-2436
▁khắp	-2437
▁này▁sẽ	-2438
XH	-2439
▁TS	-2440
▁từ▁ngày	-2441
▁phụ▁huynh	-2442
▁Thơ	-2443
▁ngập	-2444
▁thuyết	-2445
▁vô▁địch	-2446
▁Thực	-2447
▁đối▁thủ	-2448
▁sứ	-2449
▁hâm	-2450
▁cựu	-2451
▁ngân▁sách	-2452
ng▁tới	-2453
▁lãm	-2454
▁GTVT	-2455
▁Sh	-2456
▁bảo▁đảm	-2457
▁mặc	-2458
▁Mặc▁dù	-2459
▁nhanh▁chóng	-2460
▁y▁tế	-2461
▁cao▁hơn	-2462
▁ông▁Nguyễn	-2463
▁quân▁đội	-2464
ng▁đường	-2465
▁Họ	-2466
▁đen	-2467
▁Hà▁Tĩnh	-2468
di	-2469
▁Cao	-2470
▁ràng	-2471
ack	-2472
acebook	-2473
ex	-2474
▁Park	-2475
▁thua	-2476
▁thôi	-2477
ran	-2478
▁ấn▁tượng	-2479
▁trước▁đó	-2480
▁cả▁nước	-2481
ng▁tiền	-2482
▁cần▁thiết	-2483
▁của▁người▁dân	-2484
▁đội▁tuyển	-2485
▁học▁tập	-2486
▁Dân	-2487
▁phân▁tích	-2488
▁không▁gian	-2489
▁ôtô	-2490
CN	-2491
▁tiêu▁chuẩn	-2492
HH	-2493
n▁Độ	-2494
▁hào	-2495
▁Dự▁án	-2496
▁kêu	-2497
▁ban▁hành	-2498
▁trưng	-2499
ớt	-2500
▁bắn	-2501
▁can	-2502
▁câu▁chuyện	-2503
ey	-2504
▁nghiêm▁trọng	-2505
▁phản▁ánh	-2506
▁Võ	-2507
▁đạt▁được	-2508
▁câu▁hỏi	-2509
▁thu▁nhập	-2510
▁hâm▁mộ	-2511
ụt	-2512
▁triệu▁USD	-2513
▁chạm	-2514
▁dễ▁d	-2515
▁giảng	-2516
▁cố▁g	-2517
SN	-2518
▁mục▁đích	-2519
▁xung	-2520
ry	-2521
▁kết▁nối	-2522
▁đất▁nước	-2523
▁Tập▁đoàn	-2524
▁ung	-2525
▁cùng▁với	-2526
▁danh▁sách	-2527
▁kịch	-2528
▁làm▁rõ	-2529
▁Đội	-2530
▁hạnh	-2531
▁gấp	-2532
▁Thái▁Lan	-2533
▁nộp	-2534
▁mà▁còn	-2535
▁lắng	-2536
▁thanh▁niên	-2537
ina	-2538
▁Sau▁đó	-2539
▁31	-2540
▁hương	-2541
▁cảnh▁báo	-2542
▁với▁giá	-2543
ụy	-2544
▁tử▁vong	-2545
qu	-2546
▁kẻ	-2547
▁huấn	-2548
ền▁đ	-2549
▁trên▁đường	-2550
▁huyết	-2551
ague	-2552
▁trong▁quá▁trình	-2553
▁theo▁dõi	-2554
▁Inter	-2555
▁dọa	-2556
▁xây	-2557
▁bền	-2558
oi	-2559
▁Quân	-2560
▁dữ▁liệu	-2561
▁Cùng	-2562
▁đèn	-2563
▁bạc	-2564
▁phù▁hợp▁với	-2565
ươi	-2566
▁cát	-2567
ng▁tài	-2568
▁trường▁đ	-2569
▁Sam	-2570
▁500	-2571
▁nạn▁nhân	-2572
▁điện▁tử	-2573
▁lan	-2574
▁lần▁thứ	-2575
▁Đó▁là	-2576
▁yếu▁tố	-2577
▁phán	-2578
▁cặp	-2579
▁nhận▁định	-2580
▁CLB	-2581
ệt	-2582
▁trúc	-2583
ore	-2584
▁chế▁độ	-2585
▁Em	-2586
▁xong	-2587
LĐ	-2588
▁chính▁phủ	-2589
▁Tư	-2590
▁Xe	-2591
▁ga	-2592
▁tri	-2593
▁hạ▁tầng	-2594
▁kiến▁nghị	-2595
▁ngược	-2596
▁và▁được	-2597
▁Trương	-2598
▁Kho	-2599
▁hôm▁nay	-2600
▁hàng▁đầu	-2601
▁dứt	-2602
▁vô▁cùng	-2603
▁ngôn	-2604
▁Huế	-2605
▁ung▁thư	-2606
▁hay▁không	-2607
▁hủy	-2608
▁súng	-2609
ill	-2610
▁ẩn	-2611
.5	-2612
▁ngũ	-2613
▁CN	-2614
▁mơ	-2615
▁liền	-2616
▁thai	-2617
be	-2618
▁kèm	-2619
Tr	-2620
und	-2621
OT	-2622
▁Thuận	-2623
▁người▁dùng	-2624
▁lẫn	-2625
▁TNHH	-2626
▁tấm	-2627
▁rời	-2628
▁bình▁thường	-2629
▁Nghĩa	-2630
▁Hội▁đồng	-2631
▁TT	-2632
▁Lương	-2633
▁300	-2634
▁Sáng	-2635
▁(2	-2636
▁tối▁đa	-2637
▁70	-2638
▁Giáo▁dục	-2639
▁non	-2640
▁đem	-2641
▁điều▁hành	-2642
▁chắc▁chắn	-2643
ng▁điều	-2644
▁hề	-2645
▁mong▁muốn	-2646
lo	-2647
ũi	-2648
▁quần	-2649
▁thử▁nghiệm	-2650
▁trao▁đổi	-2651
▁quy▁mô	-2652
▁quỹ	-2653
▁sa	-2654
▁cảm▁thấy	-2655
▁Nha	-2656
▁chưa▁có	-2657
▁hộp	-2658
TS	-2659
▁vườn	-2660
▁vào▁tháng	-2661
▁nửa	-2662
CS	-2663
▁The	-2664
▁cao▁cấp	-2665
ậc	-2666
ez	-2667
▁cao▁nhất	-2668
▁chiến▁đấu	-2669
▁Đồng▁thời	-2670
▁các▁em	-2671
▁kịp▁thời	-2672
▁trào	-2673
▁cũng▁t	-2674
▁Bệnh▁viện	-2675
▁đảng	-2676
▁Mặt	-2677
nam	-2678
▁Lo	-2679
ng▁đội	-2680
▁tăng▁trưởng	-2681
▁công▁an	-2682
▁Quản	-2683
▁vận▁tải	-2684
▁thanh▁tra	-2685
▁đội▁bóng	-2686
▁vận▁hành	-2687
▁của▁B	-2688
▁rau	-2689
▁đai	-2690
▁ghi▁nhận	-2691
▁duy▁trì	-2692
▁như▁một	-2693
▁Mi	-2694
▁hàng▁loạt	-2695
/.	-2696
▁thách	-2697
▁từ▁các	-2698
▁Phước	-2699
▁tác▁phẩm	-2700
▁lối	-2701
▁Phi	-2702
▁bậc	-2703
▁yên	-2704
▁kết▁thúc	-2705
▁Quốc▁gia	-2706
▁Học	-2707
kg	-2708
▁giàu	-2709
▁kiệm	-2710
▁Tâm	-2711
▁Lào	-2712
▁Giao	-2713
▁198	-2714
▁bối	-2715
▁truyền▁hình	-2716
ng▁đề	-2717
if	-2718
▁lợi▁ích	-2719
▁tìm▁kiếm	-2720
▁ấm	-2721
▁HCM	-2722
▁nét	-2723
▁hãy	-2724
▁tôn	-2725
▁thập	-2726
ames	-2727
st	-2728
ity	-2729
▁tiêu▁dùng	-2730
▁góc	-2731
▁với▁sự	-2732
▁kết▁hợp	-2733
▁Sa	-2734
▁truyền▁thông	-2735
sia	-2736
▁đỡ	-2737
▁w	-2738
▁thỏa▁thuận	-2739
▁chào	-2740
▁chặn	-2741
▁Một▁số	-2742
▁Cầu	-2743
ng▁động	-2744
▁Cuộc	-2745
▁thành▁tích	-2746
▁khích	-2747
▁của▁Việt▁Nam	-2748
▁khổ	-2749
▁ngang	-2750
▁bù	-2751
▁nâng▁cấp	-2752
▁ha	-2753
▁Chiến	-2754
▁Theo▁ông	-2755
▁nước▁này	-2756
▁thay▁thế	-2757
▁tự▁nhiên	-2758
-3	-2759
▁bom	-2760
▁các▁cơ▁quan	-2761
▁việc▁làm	-2762
Ch	-2763
▁sự▁việc	-2764
▁hoạt▁độ	-2765
▁gọi▁là	-2766
▁của▁anh	-2767
▁tương▁đ	-2768
▁gỡ	-2769
▁nhà▁trường	-2770
▁không▁phải▁là	-2771
deo	-2772
▁di▁chuyển	-2773
▁dự▁á	-2774
▁bè	-2775
▁nhân▁đ	-2776
▁Xây▁dựng	-2777
don	-2778
▁hiệp	-2779
▁phóng▁viên	-2780
▁2018.	-2781
▁khung	-2782
▁vào▁các	-2783
▁cười	-2784
▁mạng▁xã▁hội	-2785
▁gương	-2786
▁Cường	-2787
▁không▁khí	-2788
▁hạnh▁phúc	-2789
▁Quy	-2790
▁vượt▁qua	-2791
▁biên▁giới	-2792
▁nằm▁trong	-2793
▁CS	-2794
▁trông	-2795
▁hiếm	-2796
▁xây▁dự	-2797
▁hàng▁trăm	-2798
▁cô▁gái	-2799
▁tỷ▁USD	-2800
▁Nghệ▁An	-2801
▁chính▁xác	-2802
▁Bởi	-2803
▁BOT	-2804
▁Mal	-2805
▁bộ▁phim	-2806
▁xuất▁khẩu	-2807
▁BH	-2808
▁Mar	-2809
▁video	-2810
▁trên▁các	-2811
▁gói	-2812
▁tất▁cả▁các	-2813
▁người▁ta	-2814
▁mang▁lại	-2815
▁túy	-2816
▁ban▁đầu	-2817
▁thu▁phí	-2818
▁thúc▁đẩy	-2819
▁Ngô	-2820
▁trước▁đây	-2821
);	-2822
▁mà▁không	-2823
▁Đỗ	-2824
▁cậu	-2825
▁kênh	-2826
▁dáng	-2827
ủi	-2828
ng▁điện	-2829
op	-2830
▁biến▁đ	-2831
▁Mỗi	-2832
▁điều▁khiển	-2833
▁lần▁đầu▁tiên	-2834
▁sàn	-2835
▁gỗ	-2836
▁Gal	-2837
ịa▁phương	-2838
▁cho▁là	-2839
▁đám	-2840
▁căn▁cứ	-2841
▁năng▁lượng	-2842
▁vụ▁án	-2843
▁ứ	-2844
▁tiện	-2845
0.	-2846
▁quan▁điểm	-2847
▁lúa	-2848
▁khẩn	-2849
▁đến▁đ	-2850
▁dễ▁dàng	-2851
▁rằ	-2852
▁cam▁kết	-2853
▁tuyến▁đường	-2854
▁toàn▁cầu	-2855
▁hùng	-2856
▁vỡ	-2857
▁thị▁trấn	-2858
▁ý▁nghĩa	-2859
▁cuối▁năm	-2860
▁hoàng	-2861
▁Chiếc	-2862
▁dấu▁hiệu	-2863
▁Nông	-2864
▁sẵn▁sàng	-2865
▁tướng	-2866
mart	-2867
▁khấu	-2868
▁nhiên▁liệu	-2869
▁đưa▁vào	-2870
▁sẽ▁không	-2871
▁Man	-2872
▁tài▁xế	-2873
▁dị	-2874
▁có▁được	-2875
▁Tất	-2876
▁Đường	-2877
▁đột	-2878
▁khen	-2879
▁sự▁cố	-2880
▁phê▁duyệt	-2881
▁đang▁t	-2882
9.	-2883
▁hàng▁hóa	-2884
▁cảnh▁sát	-2885
▁hoàn▁thiện	-2886
com	-2887
▁chuyển▁đ	-2888
▁ngầm	-2889
▁đọc	-2890
▁có▁mặt	-2891
CC	-2892
▁Được▁biết	-2893
▁Cách	-2894
▁ở▁mức	-2895
▁Vì▁vậy	-2896
▁lắm	-2897
▁chấm	-2898
▁Đặng	-2899
▁vợ▁chồng	-2900
▁cú	-2901
▁Giá	-2902
▁bang	-2903
▁trật	-2904
▁thuyền	-2905
▁trừ	-2906
▁ống	-2907
▁ô▁nhiễm	-2908
▁Chị	-2909
▁khuôn	-2910
lip	-2911
ượu	-2912
▁giỏi	-2913
▁trong▁cuộc	-2914
▁mạch	-2915
▁dư▁luận	-2916
ok	-2917
▁kiến▁thức	-2918
ếp	-2919
▁Tỉnh	-2920
▁Trọng	-2921
▁Facebook	-2922
▁kỷ▁niệm	-2923
1.	-2924
ie	-2925
▁con▁gái	-2926
▁lãi	-2927
▁đợt	-2928
▁thiểu	-2929
▁Đinh	-2930
e▁dọa	-2931
▁bất▁cứ	-2932
▁Tài▁chính	-2933
▁Y▁tế	-2934
▁rẻ	-2935
TP	-2936
ướp	-2937
▁4.	-2938
▁Công▁ty▁C	-2939
▁thống▁nhất	-2940
rid	-2941
▁chủ▁động	-2942
7.	-2943
▁đườ	-2944
▁tự▁động	-2945
▁sẽ▁là	-2946
se	-2947
▁hộ▁dân	-2948
▁3.	-2949
▁tùy	-2950
▁chàng	-2951
▁Đối▁với	-2952
/12	-2953
▁ảnh▁hưởng▁đến	-2954
▁Hậu	-2955
▁cảng	-2956
ây▁giờ	-2957
▁nhuận	-2958
▁đầy▁đủ	-2959
▁xung▁quanh	-2960
▁chỉ▁là	-2961
▁Mới	-2962
▁cơn	-2963
▁đại▁biểu	-2964
▁tuy▁nhiên	-2965
▁phổ▁biến	-2966
▁phương▁pháp	-2967
la	-2968
▁ngàn	-2969
▁Mạnh	-2970
▁bản▁đ	-2971
▁chút	-2972
▁80	-2973
▁sữa	-2974
)▁-	-2975
▁cờ	-2976
▁nhà▁ở	-2977
▁Quảng▁Ninh	-2978
▁Chủ	-2979
▁đợi	-2980
▁tồn▁tại	-2981
ama	-2982
▁căng	-2983
▁dương	-2984
▁mỹ	-2985
▁cố▁gắng	-2986
▁UBND▁huyện	-2987
▁lẻ	-2988
▁trung▁bình	-2989
▁xác▁nhận	-2990
rab	-2991
▁nỗi	-2992
▁Huỳnh	-2993
▁trật▁tự	-2994
▁ở▁đây	-2995
▁Sams	-2996
▁có▁giá	-2997
▁tiết▁kiệm	-2998
▁Hội▁nghị	-2999
▁Quyết▁định	-3000
ống▁t	-3001
éo	-3002
▁phối▁hợp▁với	-3003
▁đơn▁giản	-3004
▁Toàn	-3005
▁hoang	-3006
▁Tàu	-3007
ain	-3008
./.	-3009
▁túi	-3010
▁camera	-3011
▁Thọ	-3012
phone	-3013
▁4,	-3014
▁còn▁có	-3015
▁khủng▁bố	-3016
▁Hạ	-3017
▁rượu	-3018
▁cơ▁chế	-3019
▁lái▁xe	-3020
▁chuyên▁môn	-3021
istan	-3022
▁Cơ▁quan	-3023
▁vận▁chuyển	-3024
▁mạc	-3025
▁năng▁t	-3026
▁máy▁tính	-3027
▁bày▁tỏ	-3028
▁chưa▁được	-3029
▁thù	-3030
▁năm▁trước	-3031
n▁đi	-3032
▁nhiều▁lần	-3033
▁phức	-3034
▁cả▁hai	-3035
▁đòi	-3036
▁đàm	-3037
▁Vào	-3038
▁mưu	-3039
▁phong▁cách	-3040
▁con▁trai	-3041
▁buồn	-3042
▁197	-3043
▁rõ▁ràng	-3044
▁đáp▁ứng	-3045
99	-3046
▁rà	-3047
▁sạn	-3048
▁sinh▁hoạt	-3049
▁ma▁túy	-3050
▁Trà	-3051
4.	-3052
▁con▁số	-3053
▁không▁biết	-3054
NG	-3055
▁Tiền	-3056
▁lên▁tới	-3057
▁vết	-3058
n▁đảo	-3059
▁Bình▁Dương	-3060
/1,	-3061
ộm	-3062
▁kết▁luận	-3063
▁thuận▁lợi	-3064
▁nông▁thôn	-3065
▁công▁nhân	-3066
▁cưới	-3067
▁Goo	-3068
▁trong▁số	-3069
▁cơ▁bản	-3070
▁Quản▁lý	-3071
ng▁điểm	-3072
▁đến▁từ	-3073
▁đồng▁chí	-3074
ec	-3075
▁pháo	-3076
▁nổi▁bật	-3077
▁Chiều	-3078
▁Ngân▁hàng	-3079
▁hệ▁th	-3080
▁phát▁biểu	-3081
gh	-3082
▁chấn	-3083
%,	-3084
▁công▁khai	-3085
▁mã▁lực	-3086
▁Hoa▁hậu	-3087
▁cải▁thiện	-3088
▁của▁U	-3089
ênh	-3090
▁vệ▁sinh	-3091
▁trải▁nghiệm	-3092
▁hàng▁không	-3093
▁tiềm	-3094
▁tìm▁hiểu	-3095
▁ảo	-3096
▁âm▁nhạc	-3097
▁phát▁huy	-3098
▁Donald	-3099
▁phải▁có	-3100
▁hàng▁chục	-3101
▁và▁M	-3102
▁ca▁khúc	-3103
man	-3104
▁của▁những	-3105
ãng	-3106
▁dày	-3107
▁sự▁nghiệp	-3108
▁tượ	-3109
ian	-3110
▁trên▁sân	-3111
▁là▁do	-3112
▁hẹn	-3113
ass	-3114
▁ly	-3115
▁từ▁khi	-3116
▁nhưng▁không	-3117
6.	-3118
▁bảo▁hiểm	-3119
▁mức▁giá	-3120
▁nhà▁khoa▁học	-3121
▁đẳng	-3122
▁hợp▁lý	-3123
▁bức▁xúc	-3124
▁về▁các	-3125
▁ngoái	-3126
▁Công▁ty▁TNHH	-3127
▁đáo	-3128
▁Hoàn	-3129
alia	-3130
▁ngã	-3131
▁Quỳnh	-3132
▁5,	-3133
▁Can	-3134
▁Cả	-3135
▁hấp▁dẫn	-3136
▁Chu	-3137
▁đầu▁năm	-3138
▁Hải▁Phòng	-3139
ld	-3140
▁tỏa	-3141
▁kháng	-3142
▁đứ	-3143
▁So	-3144
▁Đa	-3145
▁hỏng	-3146
▁tung	-3147
▁CĐ	-3148
▁Hợp	-3149
up	-3150
▁tác▁giả	-3151
▁chủ▁tịch	-3152
gle	-3153
60	-3154
▁Vương	-3155
▁như▁thế▁nào	-3156
▁nhân▁vật	-3157
▁Pl	-3158
▁Donald▁Trump	-3159
▁&	-3160
▁Cup	-3161
aysia	-3162
▁cho▁đến	-3163
▁một▁lần	-3164
▁trong▁lĩnh▁vực	-3165
▁trích	-3166
▁Hơn	-3167
▁Cần▁Thơ	-3168
ff	-3169
▁xâm	-3170
ùm	-3171
▁mai	-3172
▁nhiều▁hơn	-3173
▁trị▁giá	-3174
▁trường▁t	-3175
▁2016,	-3176
▁ngừng	-3177
▁Cảnh▁sát	-3178
▁xả	-3179
▁chảy	-3180
▁gia▁tăng	-3181
▁vỏ	-3182
▁hành▁khách	-3183
▁ép	-3184
▁Thành▁phố	-3185
▁Đài	-3186
▁lâm	-3187
▁sốt	-3188
▁ở▁Việt▁Nam	-3189
▁bò	-3190
▁hết▁sức	-3191
▁Trái	-3192
▁Nhất	-3193
▁sử▁dụng▁đất	-3194
▁Đề	-3195
▁cản	-3196
▁trở▁về	-3197
▁thứ▁hai	-3198
▁Hiện▁nay	-3199
▁với▁nhiều	-3200
▁cỡ	-3201
▁đứa	-3202
▁trại	-3203
▁trục	-3204
▁Công▁nghệ	-3205
/5	-3206
▁mối▁quan▁hệ	-3207
▁hội▁nghị	-3208
▁Hệ	-3209
▁Điều▁này	-3210
▁bằng▁cách	-3211
▁lỗ	-3212
▁lợi▁nhuận	-3213
▁có▁khả▁năng	-3214
▁bạo	-3215
▁hẳ	-3216
▁Đầu▁tư	-3217
▁Tình	-3218
▁Hình	-3219
▁gà	-3220
iss	-3221
▁Bar	-3222
▁và▁không	-3223
▁lồ	-3224
▁Hồi	-3225
▁Google	-3226
▁San	-3227
▁Do▁đó	-3228
oh	-3229
▁hầm	-3230
▁Đào	-3231
ém	-3232
▁Thảo	-3233
▁thước	-3234
▁đang▁được	-3235
▁quên	-3236
▁Lúc	-3237
▁thị▁xã	-3238
▁Tùng	-3239
ắk	-3240
▁giây	-3241
▁cách▁mạng	-3242
▁hư	-3243
▁cứng	-3244
▁tương▁tự	-3245
▁thế▁nào	-3246
▁tiêu▁thụ	-3247
▁doanh▁thu	-3248
▁bị▁thương	-3249
▁trong▁vòng	-3250
▁buôn	-3251
▁bất▁kỳ	-3252
▁xưa	-3253
▁duy▁nhất	-3254
▁đóng▁góp	-3255
▁90	-3256
▁mãi	-3257
our	-3258
▁đuổi	-3259
▁Internet	-3260
/10	-3261
ng▁tốt	-3262
▁đào	-3263
io	-3264
Hà	-3265
▁cửa▁hàng	-3266
▁chương	-3267
ýt	-3268
▁tươi	-3269
ng▁tình	-3270
▁đe▁dọa	-3271
▁Trịnh	-3272
▁Chương▁trình	-3273
▁mầm	-3274
ines	-3275
▁động▁sản	-3276
▁My	-3277
▁não	-3278
▁sổ	-3279
▁Lai	-3280
▁tập▁thể	-3281
▁hầu▁hết	-3282
▁diệt	-3283
▁trữ	-3284
▁hứng	-3285
ợn	-3286
▁bạn▁bè	-3287
▁thanh▁toán	-3288
▁thẻ	-3289
▁thận	-3290
▁mới▁được	-3291
▁Thông▁tin	-3292
▁Khoa▁học	-3293
▁sửa▁chữa	-3294
▁Số	-3295
▁Is	-3296
axy	-3297
▁bên▁cạnh	-3298
▁dậy	-3299
▁bạn▁đ	-3300
▁Quảng▁Nam	-3301
▁trái▁phép	-3302
▁tụ	-3303
▁xóm	-3304
▁vinh	-3305
▁hành▁trình	-3306
▁chiến▁tranh	-3307
/11	-3308
22	-3309
▁đã▁làm	-3310
▁tháo	-3311
▁Thứ▁trưởng	-3312
▁Lễ	-3313
▁Như▁vậy	-3314
▁trùng	-3315
▁Ford	-3316
▁cổ▁phiếu	-3317
▁And	-3318
▁già	-3319
▁Hang	-3320
▁Bác	-3321
▁phức▁tạp	-3322
▁PG	-3323
▁áp▁lực	-3324
▁hậu▁quả	-3325
ashi	-3326
▁tiếp▁cận	-3327
▁Galaxy	-3328
▁Thổ	-3329
▁thổ	-3330
▁Sinh	-3331
▁tỉ▁đồng	-3332
▁hẳn	-3333
▁hiến	-3334
▁dân▁cư	-3335
▁các▁đơn▁vị	-3336
▁khảo▁sát	-3337
▁bố▁trí	-3338
▁sai▁phạm	-3339
▁lành	-3340
▁hy▁vọng	-3341
▁đại▁học	-3342
▁dòng▁xe	-3343
▁động▁viên	-3344
▁Lao	-3345
▁con▁đường	-3346
▁đổi▁mới	-3347
▁chúc	-3348
▁thừa▁nhận	-3349
▁Car	-3350
▁phanh	-3351
▁kinh▁phí	-3352
▁hiện▁tượng	-3353
▁chặt▁ch	-3354
▁kiên	-3355
▁thép	-3356
▁tốt▁nhất	-3357
▁đồng▁ý	-3358
MT	-3359
▁phẫu	-3360
▁bối▁cảnh	-3361
▁Thanh▁tra	-3362
▁bạch	-3363
▁lít	-3364
▁35	-3365
▁quảng▁cáo	-3366
▁tiết▁lộ	-3367
▁khách▁sạn	-3368
▁triển▁lãm	-3369
ại▁học	-3370
▁pin	-3371
▁kêu▁gọi	-3372
▁cảm▁giác	-3373
▁va	-3374
▁ngôi▁nhà	-3375
-5	-3376
▁Malaysia	-3377
▁tác▁động	-3378
aw	-3379
▁đoạt	-3380
▁Kết▁quả	-3381
▁chấp▁nhận	-3382
▁Lưu	-3383
ổng▁lồ	-3384
▁lo▁lắng	-3385
▁rối	-3386
▁Nguồn	-3387
son	-3388
-4	-3389
▁tràn	-3390
▁Đất	-3391
▁bộ▁phận	-3392
▁bà▁con	-3393
▁Bl	-3394
▁Tháng	-3395
năm	-3396
▁thá	-3397
▁II	-3398
▁hứa	-3399
▁tán	-3400
í▁dụ	-3401
▁khô	-3402
▁giết	-3403
▁tiền▁đ	-3404
▁mát	-3405
▁TA	-3406
▁kia	-3407
▁bền▁vững	-3408
▁ro	-3409
▁vù	-3410
▁Tổng▁cục	-3411
▁nói▁rằng	-3412
▁quy▁trình	-3413
▁lở	-3414
▁Bạn	-3415
▁khổng▁lồ	-3416
▁bên▁trong	-3417
▁hoàn▁cảnh	-3418
▁mắn	-3419
▁chiến▁dịch	-3420
3.	-3421
▁vua	-3422
▁môi	-3423
▁Cty	-3424
▁tình▁yêu	-3425
▁tình▁cảm	-3426
▁quan▁sát	-3427
▁thời▁tiết	-3428
▁Bằng	-3429
how	-3430
▁ơn	-3431
▁không▁hề	-3432
▁tính▁năng	-3433
uch	-3434
▁bến	-3435
▁2018,	-3436
▁tệ	-3437
ki	-3438
▁6,	-3439
▁Tiểu	-3440
▁Samsung	-3441
▁và▁phát▁triển	-3442
▁vật▁liệu	-3443
▁cuộc▁họp	-3444
▁giống▁như	-3445
og	-3446
▁nông▁dân	-3447
▁với▁tổng	-3448
▁hình▁thành	-3449
▁tư▁vấn	-3450
▁giúp▁đỡ	-3451
▁TP▁HCM	-3452
▁với▁nhau	-3453
▁mệnh	-3454
▁mới▁đây	-3455
▁nền▁kinh▁tế	-3456
CP	-3457
▁ngọt	-3458
▁của▁N	-3459
▁tâm▁lý	-3460
▁lập▁tức	-3461
uro	-3462
▁ngôi▁sao	-3463
▁thảm	-3464
▁minh▁họa	-3465
▁bên▁ngoài	-3466
▁45	-3467
▁nắng	-3468
KS	-3469
▁Thượng	-3470
/4	-3471
▁nhiêu	-3472
▁tuyên▁truyền	-3473
▁tông	-3474
▁Quý	-3475
▁chặt▁chẽ	-3476
▁Am	-3477
▁chó	-3478
ỉa	-3479
▁không▁ít	-3480
ah	-3481
▁Hoài	-3482
▁giọng	-3483
▁smart	-3484
▁dao	-3485
▁Nghi	-3486
▁người▁hâm▁mộ	-3487
▁AP	-3488
▁điều▁này	-3489
▁bả	-3490
▁Tổ▁chức	-3491
▁thườ	-3492
xi	-3493
▁vò	-3494
▁Kiểm	-3495
▁Tiếp	-3496
▁sức▁mạnh	-3497
▁về▁những	-3498
▁As	-3499
▁gần▁như	-3500
▁tìm▁thấy	-3501
▁lên▁đến	-3502
▁đoán	-3503
▁phần▁mềm	-3504
▁Tú	-3505
▁bây▁giờ	-3506
ụi	-3507
▁huấn▁luyện	-3508
▁Chánh	-3509
▁Bài	-3510
ng▁đang	-3511
▁và▁những	-3512
▁phú	-3513
▁trong▁khu▁vực	-3514
▁Park▁Hang	-3515
▁sẽ▁tiếp▁tục	-3516
▁uy	-3517
▁để▁làm	-3518
▁tả	-3519
▁Cho	-3520
▁tin▁đ	-3521
▁Phượng	-3522
▁giải▁thích	-3523
▁thờ	-3524
▁mang▁đến	-3525
▁tài▁liệu	-3526
▁UBND▁xã	-3527
▁đạn	-3528
▁khóc	-3529
▁rất▁lớn	-3530
▁các▁hoạt▁động	-3531
▁chăn	-3532
▁cho▁việc	-3533
vn	-3534
▁treo	-3535
▁Chung	-3536
▁tốt▁hơn	-3537
▁ưu▁tiên	-3538
ớp	-3539
▁IS	-3540
▁cha▁mẹ	-3541
▁đối▁tác	-3542
▁chính▁quy	-3543
▁Kế	-3544
▁giáp	-3545
▁rà▁soát	-3546
▁tạo▁nên	-3547
▁thủ▁đô	-3548
▁chứng▁kiến	-3549
EC	-3550
▁Là	-3551
ng▁tôi	-3552
▁Pr	-3553
▁tại▁Hà▁Nội	-3554
▁lô	-3555
▁trộm	-3556
▁khoán	-3557
ùy	-3558
▁Nai	-3559
▁cột	-3560
n▁độ	-3561
▁của▁nhà	-3562
▁Việt▁Nam▁đã	-3563
▁giải▁trí	-3564
▁thất▁bại	-3565
ng▁độ	-3566
▁Nghị▁định	-3567
▁vũ▁trụ	-3568
▁với▁một	-3569
MW	-3570
▁Di	-3571
▁căn▁hộ	-3572
▁ít▁nhất	-3573
▁trên▁thị▁trường	-3574
/9	-3575
▁bê	-3576
n▁đều	-3577
▁phản▁đ	-3578
▁Quốc▁phòng	-3579
iện▁được	-3580
▁Nhĩ	-3581
▁Hiện▁tại	-3582
▁Giám▁đốc▁Sở	-3583
▁Thế▁nhưng	-3584
▁1.000	-3585
ấc	-3586
▁điển	-3587
▁được▁trang▁bị	-3588
orld	-3589
▁Vậy	-3590
ng▁tích	-3591
▁phẫu▁thuật	-3592
▁Mer	-3593
▁AS	-3594
▁Song	-3595
▁hiện▁trường	-3596
▁vì▁vậy	-3597
▁chỉ▁tiêu	-3598
ini	-3599
▁PGS	-3600
/7	-3601
▁tập▁đoàn	-3602
▁Đông▁Nam	-3603
ng▁đó	-3604
▁0,	-3605
▁Co	-3606
▁bữa	-3607
▁Hiệp▁hội	-3608
▁trong▁ngày	-3609
▁Air	-3610
▁mới▁của	-3611
▁cập▁nhật	-3612
▁khác▁biệt	-3613
ili	-3614
▁196	-3615
▁Hiệu	-3616
▁bắt▁giữ	-3617
▁cấp▁cứu	-3618
/8	-3619
▁thống▁kê	-3620
▁sự▁phát▁triển	-3621
▁Sing	-3622
▁Thời▁gian	-3623
▁cho▁những	-3624
▁quan▁chức	-3625
ustr	-3626
▁City	-3627
▁tại▁khu▁vực	-3628
-0	-3629
▁thẩm▁quyền	-3630
▁vấn▁đề▁này	-3631
▁xi	-3632
▁với▁việc	-3633
▁Không▁chỉ	-3634
▁kỷ▁luật	-3635
▁của▁tôi	-3636
▁diễ	-3637
ail	-3638
▁dò	-3639
▁kín	-3640
▁huống	-3641
▁một▁phần	-3642
▁cướp	-3643
▁khí▁hậu	-3644
▁hai▁bên	-3645
ta	-3646
▁thở	-3647
▁đời▁sống	-3648
▁cảm▁xúc	-3649
▁Giao▁thông	-3650
▁smartphone	-3651
▁cho▁người▁dân	-3652
▁dựa▁trên	-3653
▁đứng▁đầu	-3654
NH	-3655
▁phản▁ứng	-3656
▁phổ▁thông	-3657
▁và▁người	-3658
▁trường▁học	-3659
ía	-3660
▁hồng	-3661
ùn	-3662
▁xử▁phạt	-3663
▁mũi	-3664
▁HĐND	-3665
▁canh	-3666
▁loạn	-3667
▁trầm	-3668
▁Mới▁đây	-3669
ãnh	-3670
ánh▁giá	-3671
▁tàng	-3672
▁tiếp▁theo	-3673
▁Games	-3674
▁KH	-3675
▁đỗ	-3676
▁Ai	-3677
▁quang	-3678
▁xóa	-3679
ep	-3680
ường▁như	-3681
ky	-3682
▁GS	-3683
▁dàn	-3684
▁nhìn▁thấy	-3685
▁thách▁thức	-3686
▁của▁H	-3687
▁trú▁tại	-3688
▁còn▁được	-3689
▁nhiệt▁độ	-3690
▁túc	-3691
ED	-3692
▁chế▁tạo	-3693
▁vời	-3694
▁tự▁do	-3695
▁rủi	-3696
/6	-3697
▁chủ▁đề	-3698
NT	-3699
▁7,	-3700
▁Nữ	-3701
▁Điểm	-3702
▁tật	-3703
▁trụ▁sở	-3704
▁mực	-3705
▁Động	-3706
▁chủ▁trương	-3707
▁trong▁tháng	-3708
▁150	-3709
▁là▁các	-3710
▁bất▁động▁sản	-3711
ge	-3712
▁dám	-3713
▁Đăng	-3714
▁cơm	-3715
▁Cộng	-3716
▁Danh	-3717
▁giảm▁giá	-3718
▁phản▁đối	-3719
▁vật▁chất	-3720
▁:	-3721
▁tá	-3722
▁học▁trò	-3723
AT	-3724
▁tóc	-3725
▁phong▁trào	-3726
ốp	-3727
▁đãi	-3728
▁kỹ▁năng	-3729
▁cũng▁phải	-3730
▁mức▁độ	-3731
ăng▁tải	-3732
▁may▁mắn	-3733
▁tiếp▁nhận	-3734
5%	-3735
ada	-3736
▁Lợi	-3737
▁thay▁vì	-3738
▁Nó	-3739
ters	-3740
apore	-3741
▁Thạch	-3742
▁Văn▁hóa	-3743
▁một▁chiếc	-3744
ẹt	-3745
▁la	-3746
▁Nhĩ▁Kỳ	-3747
mp	-3748
▁Thụy	-3749
ng▁tay	-3750
▁với▁người	-3751
AS	-3752
▁Trị	-3753
▁bố▁mẹ	-3754
▁tương▁đương	-3755
▁giữa▁các	-3756
▁gạo	-3757
▁Tiến▁Dũng	-3758
▁ĐT	-3759
ell	-3760
bank	-3761
▁lọc	-3762
▁đỉnh	-3763
▁những▁điều	-3764
▁Thành▁ủy	-3765
▁cũng▁có▁thể	-3766
▁chung▁cư	-3767
▁dọc	-3768
▁mét	-3769
▁Việt▁Nam▁và	-3770
ros	-3771
▁Có▁thể	-3772
▁Lam	-3773
▁chiến▁sĩ	-3774
▁bổ▁nhiệm	-3775
▁tốn	-3776
▁Trao	-3777
▁dự▁báo	-3778
eg	-3779
▁LĐ	-3780
▁từ▁đó	-3781
▁của▁V	-3782
▁bồi▁thường	-3783
10	-3784
/200	-3785
▁Hành	-3786
▁Đại▁sứ	-3787
▁thực▁hiện▁các	-3788
▁trải▁qua	-3789
▁che	-3790
▁của▁cô	-3791
▁chứng▁minh	-3792
▁e	-3793
▁sinh▁học	-3794
▁giải▁phóng	-3795
iz	-3796
▁sạt	-3797
▁dựng	-3798
ẫy	-3799
ico	-3800
ick	-3801
▁kích▁thước	-3802
▁bốn	-3803
▁World	-3804
ng▁đối▁với	-3805
▁lợn	-3806
▁2015	-3807
ng▁tên	-3808
▁bức▁ảnh	-3809
▁hành▁tinh	-3810
▁nhượng	-3811
▁di▁động	-3812
▁Tổng▁thống▁Mỹ	-3813
▁công▁dân	-3814
▁ở▁khu▁vực	-3815
▁Thổ▁Nhĩ▁Kỳ	-3816
▁địa▁điểm	-3817
▁bề	-3818
▁gọn	-3819
▁web	-3820
▁nguồn▁gốc	-3821
▁đến▁năm	-3822
▁Phát▁triển	-3823
▁rộ	-3824
▁tổn	-3825
▁mảnh	-3826
▁động▁vật	-3827
▁quyết▁tâm	-3828
▁hoảng	-3829
▁ngăn▁chặn	-3830
▁căng▁thẳng	-3831
▁Nguyễn▁Xuân	-3832
▁Tam	-3833
ich	-3834
▁hơn▁nữa	-3835
▁hò	-3836
▁TAND	-3837
▁thú▁vị	-3838
esia	-3839
▁mang▁tính	-3840
▁SEA	-3841
ver	-3842
atar	-3843
▁muố	-3844
▁tảng	-3845
▁chối	-3846
▁than	-3847
all	-3848
▁cãi	-3849
▁ven	-3850
▁inch	-3851
▁Đối	-3852
AG	-3853
▁mặc▁dù	-3854
▁liên▁tiếp	-3855
▁Nghị▁quyết	-3856
XVN	-3857
▁mỏ	-3858
ork	-3859
25	-3860
ba	-3861
▁Hiếu	-3862
▁tích▁hợp	-3863
▁Kiên	-3864
▁mới▁nhất	-3865
▁tham▁nh	-3866
▁công▁nhận	-3867
▁phò	-3868
ind	-3869
▁trôi	-3870
▁chỉ▁cần	-3871
▁Cát	-3872
▁đền	-3873
▁kỷ▁lục	-3874
▁dinh	-3875
▁giải▁thưởng	-3876
▁sút	-3877
▁rủi▁ro	-3878
▁Camp	-3879
sen	-3880
▁kg	-3881
▁cùng▁các	-3882
▁cụm	-3883
▁rào	-3884
▁vỉa	-3885
▁đậu	-3886
▁pháp▁lý	-3887
▁Cẩm	-3888
▁bao▁nhiêu	-3889
▁biến▁đổi	-3890
▁miệ	-3891
▁của▁bà	-3892
▁ôm	-3893
▁400	-3894
▁nhi	-3895
▁THCS	-3896
▁tường	-3897
▁Cái	-3898
▁Singapore	-3899
▁Hiền	-3900
▁xinh	-3901
▁sẽ▁phải	-3902
--	-3903
▁Thể	-3904
▁Austr	-3905
▁Cũng▁theo	-3906
NN	-3907
▁Gu	-3908
▁nhắn	-3909
▁ra▁khỏi	-3910
▁Đồng▁Nai	-3911
to	-3912
ashing	-3913
donesia	-3914
▁Lực	-3915
▁sơn	-3916
▁Mẫu	-3917
▁Nói	-3918
▁Văn▁phòng	-3919
▁rắn	-3920
▁cái▁tên	-3921
▁cho▁con	-3922
oàn▁đ	-3923
▁bảo▁tồn	-3924
▁viêm	-3925
▁Thủ▁đô	-3926
▁tiêu▁chí	-3927
▁giam	-3928
40	-3929
▁các▁chuyên▁gia	-3930
▁xét▁xử	-3931
▁SEA▁Games	-3932
▁cốt	-3933
▁Tính	-3934
per	-3935
▁thời▁gia	-3936
n▁đo	-3937
▁cương	-3938
▁xương	-3939
▁Washing	-3940
▁tài▁khoản	-3941
▁clip	-3942
▁của▁bạn	-3943
▁Tỉnh▁ủy	-3944
▁nút	-3945
▁buýt	-3946
ương▁đã	-3947
▁kỳ▁thi	-3948
▁chế▁biến	-3949
▁Tuyên	-3950
▁chuyên▁nghiệp	-3951
▁vẽ	-3952
▁Mot	-3953
▁HC	-3954
▁bàn▁thắng	-3955
▁đức	-3956
▁của▁nó	-3957
▁diễn▁biến	-3958
▁của▁hãng	-3959
▁trà	-3960
▁ngưỡng	-3961
▁đi▁vào	-3962
▁thế▁kỷ	-3963
▁nhận▁thức	-3964
▁chuyển▁đổi	-3965
▁Iran	-3966
▁giật	-3967
▁danh▁hiệu	-3968
▁dược	-3969
▁của▁S	-3970
▁còn▁đ	-3971
rai	-3972
ng▁tăng	-3973
▁tăng▁t	-3974
▁Tòa	-3975
▁Du▁lịch	-3976
▁Tim	-3977
▁Hòa▁Bình	-3978
,▁2	-3979
ft	-3980
▁phía▁sau	-3981
▁Dung	-3982
/3	-3983
ors	-3984
▁vỉa▁hè	-3985
80	-3986
▁trứng	-3987
▁Truyền	-3988
▁CSGT	-3989
▁phần▁đ	-3990
▁dạ	-3991
Le	-3992
ier	-3993
▁Thậm▁chí	-3994
▁đưa▁tin	-3995
▁của▁pháp▁luật	-3996
▁hoạt▁động▁của	-3997
▁a	-3998
▁Doanh	-3999
▁cổng	-4000
▁những▁ngày	-4001
▁nhảy	-4002
▁anh▁em	-4003
▁Tin	-4004
▁ra▁đời	-4005
▁cách▁đây	-4006
▁nhánh	-4007
▁trình▁độ	-4008
▁đội▁ngũ	-4009
▁Phó▁Thủ▁tướng	-4010
▁trong▁tương▁lai	-4011
▁và▁một	-4012
▁mặt▁bằng	-4013
uters	-4014
▁Indonesia	-4015
▁sắm	-4016
▁bàn▁giao	-4017
▁thả	-4018
▁năm▁ngoái	-4019
▁phát▁hành	-4020
▁Cai	-4021
▁những▁năm	-4022
▁AF	-4023
▁Kiều	-4024
▁các▁cấp	-4025
▁mỗi▁ngày	-4026
▁nhất▁thế▁giới	-4027
▁sẽ▁bị	-4028
▁di▁tích	-4029
▁hô	-4030
▁Seo	-4031
▁Bình▁Như	-4032
▁(3	-4033
▁Quan	-4034
▁cỏ	-4035
▁bám	-4036
▁lo▁ngại	-4037
▁nói▁trên	-4038
▁xu▁hướng	-4039
▁sót	-4040
▁khiếu	-4041
▁khi▁có	-4042
▁về▁nhà	-4043
▁đế	-4044
▁kiện▁đ	-4045
▁sạt▁lở	-4046
oy	-4047
orn	-4048
ced	-4049
▁Mad	-4050
▁Loan	-4051
▁chốt	-4052
▁xe▁tải	-4053
▁Phát▁biểu	-4054
▁lần▁này	-4055
▁mùi	-4056
ation	-4057
▁vẫn▁đ	-4058
▁miễn▁phí	-4059
ame	-4060
▁Câu	-4061
▁tham▁quan	-4062
am▁mê	-4063
▁Au	-4064
▁Har	-4065
▁cấp▁phép	-4066
▁trang▁phục	-4067
▁dời	-4068
▁lấn	-4069
▁ghép	-4070
▁Qatar	-4071
▁chim	-4072
ần▁được	-4073
▁luật▁sư	-4074
▁quá▁nhiều	-4075
▁võ	-4076
▁miệng	-4077
▁trừng	-4078
▁mầm▁non	-4079
▁tròn	-4080
▁Bến	-4081
AM	-4082
▁BĐ	-4083
▁những▁gì	-4084
▁Australia	-4085
▁biểu▁diễn	-4086
ace	-4087
▁mm	-4088
▁dường▁như	-4089
▁nhiều▁năm	-4090
▁yêu▁thích	-4091
▁8,	-4092
▁chỉ▁còn	-4093
▁BV	-4094
▁hỏa	-4095
▁Phili	-4096
▁Thịnh	-4097
▁cao▁tốc	-4098
▁trong▁suốt	-4099
mar	-4100
ng▁đáng	-4101
▁tiến▁độ	-4102
▁không▁nên	-4103
▁tham▁nhũng	-4104
▁giá▁bán	-4105
▁Vietnam	-4106
▁nhưng▁vẫn	-4107
▁Kinh▁tế	-4108
▁lính	-4109
▁vào▁cuộc	-4110
▁đốt	-4111
▁trốn	-4112
▁cà▁phê	-4113
▁đắt	-4114
▁League	-4115
▁Công▁an▁tỉnh	-4116
▁các▁nước	-4117
▁ngoại▁giao	-4118
ero	-4119
▁viễn	-4120
▁có▁lẽ	-4121
▁vì▁thế	-4122
▁đối▁với▁các	-4123
Nguồn	-4124
▁ngon	-4125
▁thiên▁nhiên	-4126
ara	-4127
▁Phần	-4128
y▁viên	-4129
ng▁đều	-4130
▁hàng▁t	-4131
▁tốt▁nghiệp	-4132
▁khuyến▁khích	-4133
▁cần▁đ	-4134
▁căn▁nhà	-4135
▁cho▁một	-4136
▁tội▁phạm	-4137
▁trực▁tuyến	-4138
70	-4139
▁mặt▁trời	-4140
▁nàng	-4141
ươn	-4142
▁chìm	-4143
▁chuỗi	-4144
▁của▁Nga	-4145
▁màu▁sắc	-4146
▁liên▁kết	-4147
▁tự▁tin	-4148
▁trình▁diễn	-4149
▁voi	-4150
▁luô	-4151
▁BHXH	-4152
▁vướng	-4153
▁Reuters	-4154
▁hồn	-4155
▁Hệ▁thống	-4156
▁tuyển▁sinh	-4157
▁mạ	-4158
▁Nhi	-4159
▁ngụ	-4160
▁Lê▁Văn	-4161
▁huy▁động	-4162
▁trận▁chung▁kết	-4163
Hà▁Nội	-4164
▁của▁nhiều	-4165
▁của▁tỉnh	-4166
▁phân▁phối	-4167
Nh	-4168
▁Thăng	-4169
▁suy▁nghĩ	-4170
▁Cuối	-4171
▁Trao▁đổi	-4172
BS	-4173
▁Nhữ	-4174
▁ẩm	-4175
▁Giấy	-4176
▁phân▁khúc	-4177
▁nhà▁sản▁xuất	-4178
▁giấu	-4179
▁cống	-4180
▁Tất▁cả	-4181
▁Thiết	-4182
▁Lãnh	-4183
▁có▁tên	-4184
▁trở▁thành▁một	-4185
▁Vid	-4186
▁lãng	-4187
▁VI	-4188
▁32	-4189
▁Bu	-4190
▁coi▁là	-4191
▁của▁Chính▁phủ	-4192
▁bơi	-4193
▁tân	-4194
▁sôi	-4195
▁các▁cầu▁thủ	-4196
▁lên▁tiếng	-4197
ơm	-4198
OS	-4199
▁Huyền	-4200
▁lễ▁hội	-4201
▁va▁chạm	-4202
▁chụp▁ảnh	-4203
▁làm▁được	-4204
▁chủ▁nhà	-4205
▁nhưng▁lại	-4206
▁CA	-4207
cedes	-4208
▁xạ	-4209
▁đâm	-4210
▁đạp	-4211
▁cũng▁sẽ	-4212
▁bình▁luận	-4213
▁Uber	-4214
▁xe▁ô▁tô	-4215
▁BMW	-4216
ơn▁đ	-4217
ng▁tâm	-4218
▁nền▁tảng	-4219
▁36	-4220
▁giấy▁phép	-4221
▁Đông▁Nam▁Á	-4222
▁làn	-4223
▁show	-4224
▁bụi	-4225
ley	-4226
▁HLV▁Park▁Hang	-4227
▁Un	-4228
▁ý▁tưởng	-4229
▁của▁gia▁đình	-4230
▁nhãn	-4231
n▁động	-4232
▁cất	-4233
▁nề	-4234
▁đẩy▁mạnh	-4235
▁trừng▁phạt	-4236
▁Br	-4237
▁News	-4238
▁thức▁ăn	-4239
▁lưu▁thông	-4240
Qu	-4241
▁Ira	-4242
▁nhựa	-4243
▁Hoa▁Kỳ	-4244
ng▁đối	-4245
▁Par	-4246
▁phỏng	-4247
▁ruột	-4248
▁taxi	-4249
▁bán▁ra	-4250
▁thảo▁luận	-4251
▁Ngoại▁giao	-4252
▁mạo	-4253
n▁điều	-4254
▁Xã	-4255
▁2020	-4256
▁lượng▁t	-4257
▁lưu▁ý	-4258
▁Washington	-4259
▁khuyết	-4260
▁được▁cho▁là	-4261
▁kỳ▁vọng	-4262
▁đăng▁tải	-4263
▁này▁có▁thể	-4264
tel	-4265
▁NS	-4266
▁mổ	-4267
▁đập	-4268
▁gương▁mặt	-4269
lymp	-4270
▁gợi	-4271
▁lừa	-4272
▁tiếp▁xúc	-4273
/19	-4274
undai	-4275
EAN	-4276
League	-4277
▁Tấn	-4278
▁Real	-4279
"▁-	-4280
▁toàn▁diện	-4281
▁Ca	-4282
ổ▁chức	-4283
▁Bạch	-4284
▁lưng	-4285
▁Hyundai	-4286
▁lầm	-4287
uchia	-4288
▁Thúy	-4289
▁tòa▁nhà	-4290
▁Thư	-4291
▁chứng▁nhận	-4292
▁cô▁giáo	-4293
▁làm▁cho	-4294
):	-4295
▁Mậu	-4296
▁Hằng	-4297
▁sánh	-4298
▁khởi▁tố	-4299
▁Trần▁Văn	-4300
▁Nghiên▁cứu	-4301
QĐ	-4302
▁Hôm	-4303
▁là▁điều	-4304
▁khi▁được	-4305
▁Mu	-4306
/2017.	-4307
▁Philipp	-4308
▁các▁sản▁phẩm	-4309
ốm	-4310
▁trúng	-4311
▁và▁sự	-4312
▁mỗi▁năm	-4313
▁mệt	-4314
▁của▁xe	-4315
▁về▁phía	-4316
▁nói▁chung	-4317
▁thực▁hiện▁đ	-4318
▁hưu	-4319
▁thoải	-4320
▁vụ▁tai▁nạn	-4321
▁lắp▁đặt	-4322
▁đã▁phải	-4323
▁bán▁hàng	-4324
ô▁thị	-4325
▁kiến▁trúc	-4326
▁doanh▁số	-4327
▁Gr	-4328
▁cơ▁cấu	-4329
▁tạo▁điều▁kiện	-4330
▁lư	-4331
▁thăng	-4332
▁triệt	-4333
ng▁tin	-4334
▁người▁khác	-4335
▁người▁đàn▁ông	-4336
ib	-4337
▁trưở	-4338
▁Olymp	-4339
▁Ông▁Nguyễn	-4340
▁cùng▁kỳ	-4341
90	-4342
▁tuyệt▁vời	-4343
▁trần	-4344
▁trở▁lên	-4345
▁khởi▁nghiệp	-4346
▁đạo▁diễn	-4347
▁QL	-4348
▁thang	-4349
▁EU	-4350
▁Xu	-4351
huyện	-4352
▁của▁Đảng	-4353
▁sinh▁thái	-4354
▁Công▁ty▁CP	-4355
▁tình▁huống	-4356
▁bốc	-4357
▁2016.	-4358
▁vào▁khoảng	-4359
▁lợi▁thế	-4360
TM	-4361
én	-4362
▁đặt▁ra	-4363
▁mỏi	-4364
▁động▁t	-4365
▁tại▁TP	-4366
▁vốn▁đầu▁tư	-4367
amp	-4368
▁Pro	-4369
▁Biển	-4370
▁tác▁dụng	-4371
▁giữa▁hai	-4372
▁nấu	-4373
▁mua▁bán	-4374
▁biết▁đến	-4375
▁các▁tỉnh	-4376
▁thoải▁mái	-4377
▁không▁đúng	-4378
▁các▁bạn	-4379
▁các▁cuộc	-4380
▁cấp▁cao	-4381
▁rãi	-4382
▁bầu▁cử	-4383
▁tổng▁hợp	-4384
▁các▁dự▁án	-4385
▁văn▁phòng	-4386
▁Bộ▁GTVT	-4387
▁Campuchia	-4388
▁săn	-4389
▁sẽ▁giúp	-4390
▁Bra	-4391
▁tưở	-4392
▁Kế▁hoạch	-4393
▁Phụ	-4394
▁bụng	-4395
▁tự▁hào	-4396
lin	-4397
▁tính▁toán	-4398
▁chính▁quyền▁đ	-4399
▁dẫn▁đầu	-4400
▁dâu	-4401
▁năm▁học	-4402
▁sinh▁ra	-4403
▁tí	-4404
▁lọt	-4405
▁mang▁tên	-4406
▁từ▁tháng	-4407
▁Tự	-4408
▁không▁bị	-4409
200	-4410
▁phun	-4411
▁nhất▁trong	-4412
▁cử▁tri	-4413
▁giao▁lưu	-4414
▁bọc	-4415
▁nhạc▁sĩ	-4416
▁De	-4417
▁tắt	-4418
▁Ngãi	-4419
▁hảo	-4420
▁ASEAN	-4421
▁làm▁việc▁với	-4422
ăn▁đ	-4423
ng▁đột	-4424
▁hổ	-4425
▁Grab	-4426
▁trên▁toàn	-4427
▁ùn	-4428
▁là▁sự	-4429
▁các▁trường	-4430
▁Hiệu▁trưởng	-4431
▁phiên▁tòa	-4432
45	-4433
ca	-4434
▁Video	-4435
▁lấp	-4436
▁hình▁sự	-4437
▁đa▁dạng	-4438
▁của▁Trung▁Quốc	-4439
ub	-4440
▁sửa▁đổi	-4441
▁trường▁đại▁học	-4442
ash	-4443
▁đối▁mặt	-4444
▁người▁tiêu▁dùng	-4445
▁5.	-4446
▁tôm	-4447
▁xoắn	-4448
▁chăn▁nuôi	-4449
▁lớn▁hơn	-4450
▁phát▁ngôn	-4451
▁cư▁dân	-4452
▁9,	-4453
▁hợp▁pháp	-4454
▁sân▁khấu	-4455
▁thấp▁hơn	-4456
▁công▁chức	-4457
▁siêu▁xe	-4458
▁Bị	-4459
▁Nhờ	-4460
▁cải▁cách	-4461
▁100%	-4462
▁chị▁em	-4463
▁uy▁tín	-4464
▁rùa	-4465
▁duyên	-4466
▁thiệp	-4467
BC	-4468
▁tại▁đây	-4469
ng▁đầu▁tư	-4470
▁hạng▁mục	-4471
▁Chính▁trị	-4472
▁tan	-4473
▁của▁T	-4474
▁và▁làm	-4475
raine	-4476
▁Chưa	-4477
▁Người▁dân	-4478
▁mốc	-4479
▁theo▁hướng	-4480
▁Vin	-4481
▁độc▁đáo	-4482
▁thương▁t	-4483
▁đồng▁hồ	-4484
▁bước▁vào	-4485
▁xét▁tuyển	-4486
ite	-4487
▁Đào▁tạo	-4488
▁xem▁là	-4489
▁Khánh▁Hòa	-4490
▁Đại▁hội	-4491
▁ra▁ngoài	-4492
▁al	-4493
ơn▁vị	-4494
n▁đồng	-4495
▁Quốc▁tế	-4496
▁thời▁kỳ	-4497
▁là▁một▁trong	-4498
▁điệp	-4499
▁chủ▁trì	-4500
▁tháng▁t	-4501
▁buộc▁phải	-4502
▁hàm	-4503
▁tại▁một	-4504
EO	-4505
ant	-4506
rael	-4507
▁Riêng	-4508
▁vẫn▁là	-4509
ix	-4510
▁Thi	-4511
▁đều▁có	-4512
kraine	-4513
▁đam▁mê	-4514
▁để▁lại	-4515
▁mùa▁giải	-4516
▁cổ▁vũ	-4517
▁khoáng	-4518
▁dã	-4519
▁tách	-4520
▁đi▁bộ	-4521
▁rất▁khó	-4522
▁Bái	-4523
▁Vì▁thế	-4524
▁NH	-4525
▁xuân	-4526
▁đáp▁ứ	-4527
▁liên▁lạc	-4528
▁Bất	-4529
iếp▁tục	-4530
▁quốc▁phòng	-4531
▁Làm	-4532
▁nằm▁ở	-4533
pe	-4534
iet	-4535
▁hòa▁bình	-4536
▁chọ	-4537
▁thuẫn	-4538
▁chiều▁dài	-4539
QT	-4540
AGL	-4541
▁cải▁tạo	-4542
▁số▁liệu	-4543
▁cho▁mình	-4544
▁sinh▁năm	-4545
▁chuyển▁nhượng	-4546
▁York	-4547
▁khâu	-4548
▁Đại▁diện	-4549
▁Put	-4550
▁Thống	-4551
Tôi	-4552
▁mây	-4553
▁này▁cũng	-4554
▁đài	-4555
▁sinh▁sống	-4556
▁thời▁trang	-4557
▁Quỹ	-4558
▁Thực▁tế	-4559
▁Bình▁Nhưỡng	-4560
▁khuẩn	-4561
▁kì	-4562
▁sắp▁tới	-4563
▁có▁thêm	-4564
▁Quân▁đội	-4565
▁xác▁minh	-4566
▁ngư▁dân	-4567
go	-4568
▁di▁dời	-4569
Theo	-4570
▁nhiệm▁kỳ	-4571
▁trong▁nhà	-4572
▁thự	-4573
▁Trạm	-4574
▁từ▁chối	-4575
▁bí▁mật	-4576
▁nơi▁đây	-4577
▁Hình▁ảnh	-4578
▁ánh▁sáng	-4579
▁chấp▁hành	-4580
-20	-4581
▁Bộ▁GD	-4582
ân▁được	-4583
▁Israel	-4584
▁lần▁lượt	-4585
▁phần▁lớn	-4586
▁rộng▁rãi	-4587
▁sự▁quan▁tâm	-4588
▁khả▁năng▁t	-4589
▁cải▁tiến	-4590
▁xe▁hơi	-4591
▁ưu▁đãi	-4592
▁Quang▁Hải	-4593
▁lâu▁dài	-4594
▁Thiện	-4595
▁Hãy	-4596
▁Trí	-4597
▁nguồn▁tin	-4598
▁tháng▁đầu	-4599
▁của▁công▁ty	-4600
▁tă	-4601
▁Mỹ▁và	-4602
▁đại▁lý	-4603
▁xếp▁hạng	-4604
▁các▁biện▁pháp	-4605
▁Địa	-4606
▁hệ▁thống▁đ	-4607
▁Nhiều▁người	-4608
▁cáo▁buộc	-4609
▁rửa	-4610
▁công▁cộng	-4611
▁móc	-4612
▁bắc	-4613
▁của▁hai	-4614
▁dinh▁dưỡng	-4615
▁Bá	-4616
.500	-4617
itco	-4618
▁Sao	-4619
▁Nước	-4620
▁Thay	-4621
▁chủng	-4622
▁Tổ▁quốc	-4623
▁đàm▁phán	-4624
▁Tài▁nguyên	-4625
▁nở	-4626
▁202	-4627
n▁đàn	-4628
▁ý▁thức	-4629
▁thông▁tin▁về	-4630
CB	-4631
▁bạ	-4632
inho	-4633
▁cuộc▁đời	-4634
▁thông▁thường	-4635
ox	-4636
▁phạm▁vi	-4637
▁giải▁đấu	-4638
▁ở▁nhà	-4639
▁HS	-4640
▁bớt	-4641
▁nào▁đó	-4642
▁về▁mặt	-4643
▁đang▁đ	-4644
▁hiện▁đang	-4645
▁nghiêm▁túc	-4646
ngày	-4647
▁nội▁thất	-4648
ler	-4649
▁chùa	-4650
▁chỉ▁huy	-4651
▁rơi▁vào	-4652
▁tài▁năng	-4653
ani	-4654
let	-4655
▁xin▁lỗi	-4656
▁chữa▁bệnh	-4657
▁trọng▁tài	-4658
▁cắp	-4659
▁đất▁đai	-4660
▁Joh	-4661
▁lặng	-4662
▁tài▁trợ	-4663
▁Trường▁ĐH	-4664
▁hàng▁ngày	-4665
▁quyết▁liệt	-4666
▁nhân▁lực	-4667
▁cho▁học▁sinh	-4668
che	-4669
▁tang	-4670
▁hư▁hỏng	-4671
▁đồng▁đội	-4672
do	-4673
▁Trao▁đổi▁với	-4674
▁It	-4675
▁trưa	-4676
ưởi	-4677
quận	-4678
mm	-4679
ari	-4680
▁Đã	-4681
▁dắt	-4682
▁fan	-4683
▁chấn▁thương	-4684
▁san	-4685
▁tố▁cáo	-4686
▁điều▁đó	-4687
▁trong▁công▁tác	-4688
▁là▁nơi	-4689
▁đều▁được	-4690
bek	-4691
sea	-4692
▁10,	-4693
▁tiêm	-4694
▁khoảng▁cách	-4695
▁chức▁nă	-4696
▁Quảng▁Trị	-4697
▁Nhìn	-4698
▁Chúng▁ta	-4699
▁và▁nhiều	-4700
▁Hạnh	-4701
FF	-4702
▁Iraq	-4703
▁đang▁có	-4704
▁quản▁trị	-4705
▁hẹp	-4706
▁nhất▁định	-4707
▁đã▁khiến	-4708
▁Ex	-4709
ất▁v	-4710
▁thi▁hành	-4711
▁Khoảng	-4712
▁chừng	-4713
▁nếu▁không	-4714
▁lãnh▁thổ	-4715
▁Thừa	-4716
▁ký▁kết	-4717
▁Bắc▁Kinh	-4718
▁giấy▁tờ	-4719
▁33	-4720
▁Olympic	-4721
▁dâm	-4722
▁rét	-4723
▁chấm▁dứt	-4724
▁phòng▁ng	-4725
azda	-4726
ỗng	-4727
▁phái	-4728
▁phụ▁trách	-4729
UV	-4730
▁trưng▁bày	-4731
▁vắng	-4732
▁tuệ	-4733
▁ngạc	-4734
▁Ban▁Nha	-4735
ast	-4736
▁Trinh	-4737
na	-4738
▁chồ	-4739
▁vươn	-4740
▁6.	-4741
▁âm▁thanh	-4742
▁Quảng▁Bình	-4743
▁người▁dân▁đ	-4744
▁bếp	-4745
▁khám▁phá	-4746
▁quét	-4747
po	-4748
▁tranh▁chấp	-4749
ron	-4750
▁giấc	-4751
,▁1	-4752
▁hiện▁được	-4753
▁hồi▁tháng	-4754
▁tiếng▁Anh	-4755
▁Philippines	-4756
roid	-4757
▁Đắk	-4758
▁lệch	-4759
▁chỉ▁trích	-4760
▁tiềm▁năng	-4761
▁Ánh	-4762
▁Canada	-4763
▁thời▁gian▁qua	-4764
▁mù	-4765
ang▁t	-4766
▁nhà▁thầu	-4767
▁cùng▁ngày	-4768
n▁đồ	-4769
▁Đáng	-4770
▁Mẹ	-4771
▁Xô	-4772
▁dừng▁lại	-4773
▁Nhóm	-4774
ood	-4775
▁tìm▁ra	-4776
▁tình▁dục	-4777
▁nguyên▁liệu	-4778
oạn	-4779
▁nhận▁thấy	-4780
▁NN	-4781
▁của▁C	-4782
▁hộp▁số	-4783
▁quy▁định▁về	-4784
▁công▁cụ	-4785
▁thủy▁sản	-4786
▁gan	-4787
en▁xoắn	-4788
iều▁tra	-4789
▁có▁người	-4790
▁xuất▁phát	-4791
ng▁đoàn	-4792
▁định▁cư	-4793
▁chứng▁khoán	-4794
▁Ser	-4795
▁Sport	-4796
15	-4797
▁heo	-4798
▁tổng▁số	-4799
▁quyền▁lợi	-4800
▁game	-4801
▁mua▁sắm	-4802
▁đến▁ngày	-4803
▁ngộ	-4804
▁Liêm	-4805
▁nguồn▁lực	-4806
▁chuyển▁sang	-4807
ate	-4808
▁New▁York	-4809
land	-4810
▁chỉ▁số	-4811
ường▁t	-4812
▁niềm▁tin	-4813
-7	-4814
▁người▁có	-4815
▁cùng▁nhau	-4816
▁dự▁thảo	-4817
▁Cùng▁với	-4818
▁Sóc	-4819
▁Học▁viện	-4820
▁Lệ	-4821
▁VĐ	-4822
▁phát▁sinh	-4823
▁Thường▁trực	-4824
▁Triển	-4825
▁trống	-4826
▁nhận▁xét	-4827
▁thì▁phải	-4828
▁chứ▁không▁phải	-4829
CO	-4830
▁Thiếu	-4831
▁tôi▁đã	-4832
▁Lực▁lượng	-4833
▁trong▁bối▁cảnh	-4834
▁không▁đủ	-4835
▁bột	-4836
zil	-4837
▁Tăng	-4838
▁liên▁hệ	-4839
▁Mercedes	-4840
▁Hãng	-4841
▁triể	-4842
ổ▁phần	-4843
▁của▁ngành	-4844
etro	-4845
▁tuyết	-4846
▁chỉ▁ra	-4847
▁tăng▁lên	-4848
▁ném	-4849
▁độc▁lập	-4850
▁minh▁bạch	-4851
▁nguyên▁tắc	-4852
▁gánh	-4853
uel	-4854
▁Tham	-4855
▁Cà	-4856
▁TP▁Hà▁Nội	-4857
500	-4858
▁GT	-4859
▁tuân	-4860
▁sắp▁xếp	-4861
▁bài▁viết	-4862
ìa	-4863
▁Lịch	-4864
▁tỏ▁ra	-4865
▁2010	-4866
▁vương	-4867
▁thành▁phần	-4868
▁phương▁thức	-4869
▁Mac	-4870
▁bón	-4871
▁khoe	-4872
▁thói	-4873
▁vẹn	-4874
▁Ukraine	-4875
▁nói▁với	-4876
▁can▁thiệp	-4877
▁Quảng▁Ngãi	-4878
zbek	-4879
▁bia	-4880
▁cho▁rằ	-4881
▁một▁cuộc	-4882
▁Toán	-4883
▁chống▁lại	-4884
▁Máy	-4885
▁Audi	-4886
▁Android	-4887
▁vừa▁được	-4888
▁May	-4889
▁lang	-4890
▁vẫn▁đang	-4891
age	-4892
▁Rất	-4893
▁Chia	-4894
▁Sc	-4895
▁động▁lực	-4896
▁phòng▁chống	-4897
▁Ma	-4898
Bank	-4899
▁hội▁thảo	-4900
▁một▁ngày	-4901
▁thời▁hạn	-4902
▁Tây▁Ban▁Nha	-4903
con	-4904
▁ở▁vùng	-4905
▁bán▁kết	-4906
▁ghi▁lại	-4907
▁đáng▁kể	-4908
▁cho▁biết▁thêm	-4909
▁dứt▁điểm	-4910
ớn	-4911
▁công▁chúng	-4912
',	-4913
ona	-4914
▁Tử	-4915
▁khẩn▁cấp	-4916
ằn	-4917
▁thợ	-4918
▁chỉ▁được	-4919
/2018	-4920
ất▁vả	-4921
▁Phạm▁Văn	-4922
ek	-4923
▁Mc	-4924
▁Nhà▁máy	-4925
▁đồng▁bào	-4926
▁đối▁thoại	-4927
▁lạm	-4928
▁nặng▁nề	-4929
11	-4930
▁Phải	-4931
▁Gia▁đình	-4932
ti	-4933
/12,	-4934
▁Mau	-4935
▁nhì	-4936
▁ráp	-4937
▁Kiến	-4938
▁bùng	-4939
▁El	-4940
▁hối	-4941
▁John	-4942
▁khuyên	-4943
▁nhận▁ra	-4944
▁để▁đảm▁bảo	-4945
▁Tối	-4946
▁thật▁sự	-4947
elsea	-4948
▁Ed	-4949
/10,	-4950
/11,	-4951
▁World▁Cup	-4952
▁Arsen	-4953
▁rất▁cao	-4954
▁đến▁với	-4955
▁Công▁ty▁cổ▁phần	-4956
enz	-4957
▁Thạnh	-4958
▁Bộ▁Công	-4959
▁tư▁nhân	-4960
▁iPhone▁X	-4961
▁2015,	-4962
▁Vũng	-4963
▁dâng	-4964
▁tế▁bào	-4965
▁đã▁không	-4966
▁được▁các	-4967
▁táo	-4968
▁năng▁suất	-4969
▁trưởng▁thành	-4970
▁nại	-4971
▁chàng▁trai	-4972
▁nhịp	-4973
ike	-4974
▁đi▁lại	-4975
▁được▁thiết▁kế	-4976
▁APEC	-4977
▁thuộc▁về	-4978
▁cũng▁là▁một	-4979
end	-4980
▁chuyền	-4981
▁thủ▁môn	-4982
▁Đây▁là▁một	-4983
lor	-4984
▁2011	-4985
75	-4986
▁tết	-4987
▁Lãnh▁đạo	-4988
▁Thái▁Bình	-4989
▁khá▁nhiều	-4990
▁tây	-4991
▁xe▁buýt	-4992
▁cũng▁đang	-4993
▁phụ▁thuộc	-4994
pt	-4995
ảm▁bảo	-4996
▁đường▁bộ	-4997
▁béo	-4998
▁Xuyên	-4999
▁tổng▁thống	-5000
▁lúc▁nào	-5001
▁nội▁địa	-5002
▁trí▁tuệ	-5003
xã	-5004
người	-5005
▁vất▁vả	-5006
▁đòi▁hỏi	-5007
▁biểu▁hiện	-5008
▁Vị	-5009
▁đậm	-5010
▁Fer	-5011
▁Thùy	-5012
▁khơi	-5013
▁cực▁kỳ	-5014
▁bạn▁có▁thể	-5015
rus	-5016
▁Sản	-5017
▁khát	-5018
▁Thế▁giới	-5019
▁ngắm	-5020
▁tiễn	-5021
▁sinh▁vật	-5022
▁phấn	-5023
ấn▁đấu	-5024
▁Trăng	-5025
▁đề▁thi	-5026
▁Yên▁Bái	-5027
▁thuyết▁phục	-5028
▁tại▁thị▁trường	-5029
▁1,5	-5030
▁hiệu▁lực	-5031
CT	-5032
▁phu	-5033
▁Yến	-5034
▁Đạt	-5035
ang▁được	-5036
▁và▁cả	-5037
▁giảng▁dạy	-5038
▁định▁hướng	-5039
▁tàn	-5040
▁so▁với▁cùng▁kỳ	-5041
▁tĩnh	-5042
▁và▁một▁số	-5043
▁hoàn▁tất	-5044
▁ngõ	-5045
ng▁tự	-5046
▁Chelsea	-5047
ote	-5048
▁ấp	-5049
/2016	-5050
▁Diễn	-5051
▁Uzbek	-5052
▁thời▁điểm▁này	-5053
itcoin	-5054
▁chờ▁đợi	-5055
▁xinh▁đẹp	-5056
▁38	-5057
▁600	-5058
▁Sông	-5059
iện▁tử	-5060
▁Tổng▁công▁ty	-5061
▁VH	-5062
▁SUV	-5063
▁để▁có	-5064
SD	-5065
ans	-5066
▁MV	-5067
▁một▁năm	-5068
ath	-5069
▁leo	-5070
▁chuyến▁bay	-5071
▁vĩ	-5072
obot	-5073
▁kí	-5074
▁thuần	-5075
▁rất▁tốt	-5076
▁ác	-5077
▁mãn	-5078
▁đấy	-5079
▁nhân▁tạo	-5080
▁tha	-5081
ướt	-5082
▁Plus	-5083
▁niêm	-5084
▁ở▁xã	-5085
▁Bộ▁Tài▁chính	-5086
19	-5087
ya	-5088
▁Huệ	-5089
▁sợi	-5090
▁thiên▁tai	-5091
TX	-5092
tháng	-5093
▁phát▁triể	-5094
▁Jong	-5095
▁được▁nhiều	-5096
▁một▁thời▁gian	-5097
▁vang	-5098
▁thí▁điểm	-5099
▁Những▁người	-5100
▁thiệt▁mạng	-5101
▁Chuyên	-5102
▁tổng▁thể	-5103
▁sạc	-5104
▁họ▁đã	-5105
▁tín▁dụng	-5106
uối	-5107
▁Ju	-5108
▁xoay	-5109
▁đội▁tuyển▁U	-5110
▁ở▁những	-5111
▁cuốn▁sách	-5112
▁nghĩa▁là	-5113
▁và▁đang	-5114
▁mặt▁hàng	-5115
▁Điện▁Biên	-5116
▁HĐQT	-5117
▁vẫn▁được	-5118
▁theo▁đúng	-5119
amin	-5120
▁Mos	-5121
▁tiền▁vệ	-5122
▁tiền▁đạo	-5123
▁điệu	-5124
▁Phiên	-5125
▁Dưới	-5126
▁LĐLĐ	-5127
▁Thầy	-5128
▁mới▁có	-5129
▁biệt▁thự	-5130
ve	-5131
▁nguồn▁vốn	-5132
▁sập	-5133
▁đi▁qua	-5134
▁Công▁an▁huyện	-5135
▁trong▁giai▁đoạn	-5136
▁dự▁đoán	-5137
▁giới▁hạn	-5138
▁bị▁ảnh▁hưởng	-5139
uyến▁đ	-5140
▁Putin	-5141
▁truyện	-5142
▁cuối▁tháng	-5143
▁nguyện▁vọng	-5144
▁Giờ	-5145
▁thạch	-5146
▁vệ▁tinh	-5147
▁Af	-5148
▁chuột	-5149
▁VĐV	-5150
▁2014	-5151
▁trượt	-5152
▁khai▁mạc	-5153
▁120	-5154
▁hàng▁năm	-5155
lex	-5156
ester	-5157
▁tại▁sao	-5158
▁một▁trong▁những	-5159
▁sốc	-5160
▁thô	-5161
cel	-5162
ies	-5163
▁kép	-5164
n▁đoán	-5165
▁sẽ▁làm	-5166
▁tin▁tưởng	-5167
▁Cr	-5168
▁thoái	-5169
▁trăng	-5170
▁tham▁mưu	-5171
▁dung▁tích	-5172
▁này▁không	-5173
▁tại▁buổi	-5174
▁Ste	-5175
▁Gia▁Lai	-5176
▁hiện▁có	-5177
▁đồng▁nghiệp	-5178
ram	-5179
▁quần▁áo	-5180
▁Lao▁động	-5181
enn	-5182
▁Sư	-5183
▁ái	-5184
▁lãi▁suất	-5185
▁HAGL	-5186
▁Thương▁mại	-5187
/9,	-5188
▁khu▁dân▁cư	-5189
ke	-5190
▁hằng	-5191
▁phía▁trước	-5192
,▁3	-5193
▁dỡ	-5194
▁Triệu	-5195
▁thượng	-5196
▁của▁trường	-5197
▁say	-5198
▁Arsenal	-5199
Mỹ	-5200
▁nêu▁trên	-5201
▁Chi▁cục	-5202
▁kể▁cả	-5203
▁lứa	-5204
▁cần▁được	-5205
▁các▁vấn▁đề	-5206
▁quen▁thuộc	-5207
ip	-5208
TTXVN	-5209
▁2.000	-5210
▁01	-5211
▁khác▁như	-5212
▁và▁có▁thể	-5213
▁long	-5214
▁triều	-5215
▁về▁sự	-5216
▁bão▁số	-5217
âu▁thuẫn	-5218
▁giáo▁sư	-5219
▁lắp▁ráp	-5220
▁Yo	-5221
▁cùng▁đ	-5222
▁Chia▁sẻ	-5223
▁ngược▁lại	-5224
▁sang▁trọng	-5225
de	-5226
▁cần▁có	-5227
▁Thể▁thao	-5228
▁triệu▁đồ	-5229
▁UBND▁quận	-5230
▁so▁với▁các	-5231
▁Ly	-5232
▁khôi	-5233
▁quốc▁lộ	-5234
Kh	-5235
▁7.	-5236
▁ở▁Hà▁Nội	-5237
▁những▁chiếc	-5238
▁đánh▁giá▁cao	-5239
/5,	-5240
uần	-5241
▁Đạo	-5242
▁hoan	-5243
▁ùn▁tắc	-5244
ID	-5245
▁Mọi	-5246
▁nêu▁rõ	-5247
▁chức▁vụ	-5248
▁dùng▁để	-5249
▁ngay▁cả	-5250
line	-5251
▁gắn▁bó	-5252
▁là▁không	-5253
iền▁đ	-5254
▁Trắng	-5255
▁Hải▁quân	-5256
▁phỏng▁vấn	-5257
▁Vận	-5258
▁thùng	-5259
▁bị▁bắt	-5260
▁khiếu▁nại	-5261
▁của▁chúng▁tôi	-5262
zu	-5263
▁of	-5264
▁Mazda	-5265
▁Báo▁cáo	-5266
▁để▁có▁thể	-5267
▁Se	-5268
▁cho▁vay	-5269
▁phát▁hiện▁ra	-5270
bo	-5271
ane	-5272
▁Ra	-5273
▁cực▁đại	-5274
▁mất▁tích	-5275
▁ước▁tính	-5276
▁khiến▁cho	-5277
▁Paris	-5278
▁phấn▁đấu	-5279
tor	-5280
▁Lạc	-5281
▁niềm▁vui	-5282
▁kết▁hợp▁với	-5283
▁Thái▁Bình▁Dương	-5284
▁ưa	-5285
▁hộ▁gia▁đình	-5286
▁của▁Thủ▁tướng	-5287
▁hiển	-5288
óng▁góp	-5289
▁đấu▁giá	-5290
▁TP▁Hồ▁Chí▁Minh	-5291
▁tiếc	-5292
▁so▁sánh	-5293
▁Trước▁khi	-5294
▁hàng▁nghìn	-5295
▁trọn	-5296
ưa▁ra	-5297
▁dân▁số	-5298
▁tại▁Mỹ	-5299
▁đã▁từng	-5300
▁ngôn▁ngữ	-5301
gon	-5302
igh	-5303
▁Bình▁Định	-5304
▁lùi	-5305
▁muối	-5306
ens	-5307
▁Ang	-5308
▁lậu	-5309
▁dính	-5310
▁hài▁lòng	-5311
▁đã▁tổ▁chức	-5312
▁Thái▁Nguyên	-5313
-6	-5314
▁8.	-5315
▁đự	-5316
▁Giới	-5317
▁tìm▁cách	-5318
▁đấu▁tranh	-5319
▁lông	-5320
▁ngọn	-5321
▁tài▁nguyên	-5322
▁của▁Triều▁Tiên	-5323
▁kẹt	-5324
▁thẩm▁định	-5325
▁tranh▁cãi	-5326
▁trọng▁lượng	-5327
▁Lê▁Thị	-5328
▁sáng▁nay	-5329
▁cơ▁quan▁đ	-5330
▁quê▁hương	-5331
▁bơm	-5332
▁tung▁ra	-5333
▁Cal	-5334
▁nước▁thải	-5335
▁cảm▁ơn	-5336
▁làm▁sao	-5337
▁Giáo▁dục▁và	-5338
▁ổn	-5339
▁Dai	-5340
▁răng	-5341
▁tạp▁chí	-5342
▁Ảnh▁minh▁họa	-5343
▁Col	-5344
▁Bích	-5345
▁vui▁vẻ	-5346
▁ông▁Trump	-5347
▁trội	-5348
▁nước▁mắt	-5349
▁CH	-5350
PTNT	-5351
▁bằng▁t	-5352
▁Đô	-5353
▁10.	-5354
ng▁đây	-5355
▁vẻ▁đẹp	-5356
▁rỡ	-5357
▁vở	-5358
▁khói	-5359
▁Liv	-5360
▁đương	-5361
▁Thông▁tư	-5362
▁tin▁rằng	-5363
▁hướng▁tới	-5364
▁ám	-5365
▁lần▁đ	-5366
▁gặp▁gỡ	-5367
▁bán▁đảo	-5368
ăng▁ký	-5369
▁doanh▁nhân	-5370
CK	-5371
ươm	-5372
▁Sỹ	-5373
▁12,	-5374
▁biên▁bản	-5375
▁có▁nguy▁cơ	-5376
▁lí	-5377
▁tắm	-5378
▁bí▁ẩn	-5379
▁trang▁trí	-5380
▁Te	-5381
▁trâu	-5382
▁độ▁C	-5383
▁về▁một	-5384
▁cặp▁đôi	-5385
▁thiết▁lập	-5386
IA	-5387
▁ai▁cũng	-5388
▁Mo	-5389
▁Liên▁quan▁đến	-5390
▁BS	-5391
▁Tô	-5392
▁cẩn	-5393
▁trạ	-5394
▁dự▁thi	-5395
▁soạn	-5396
▁đà	-5397
▁Các▁nhà	-5398
▁món▁ăn	-5399
▁tuân▁thủ	-5400
▁kiêm	-5401
▁lại▁được	-5402
▁Thường▁vụ	-5403
▁Uzbekistan	-5404
.23	-5405
▁đẻ	-5406
▁và▁là	-5407
▁bất▁cập	-5408
▁đầu▁tháng	-5409
,▁4	-5410
▁Điển	-5411
uyến▁đi	-5412
▁ngực	-5413
▁tại▁nhà	-5414
▁tru	-5415
▁Kia	-5416
▁địa▁chỉ	-5417
▁cây▁xanh	-5418
over	-5419
▁Mon	-5420
▁cho▁thuê	-5421
▁lộ▁trình	-5422
▁Thừa▁Thiên	-5423
▁vùng▁biển	-5424
21	-5425
-10	-5426
▁He	-5427
▁top	-5428
▁để▁tránh	-5429
▁ăn▁uống	-5430
▁từ▁trước	-5431
▁ốc	-5432
▁thơm	-5433
cc	-5434
▁Nm	-5435
▁tứ	-5436
▁xỉ	-5437
▁Phùng	-5438
▁của▁P	-5439
NĐ	-5440
▁Kỹ	-5441
▁dốc	-5442
▁chia▁tay	-5443
▁công▁nghệ▁cao	-5444
▁AT	-5445
▁rực	-5446
▁viện▁đ	-5447
▁trả▁lại	-5448
amaha	-5449
▁trắc	-5450
▁cùng▁t	-5451
▁không▁ai	-5452
▁mang▁theo	-5453
▁khủng▁hoảng	-5454
▁chuẩn▁bị▁cho	-5455
▁Tổng▁giám▁đốc	-5456
▁tháng▁đầu▁năm	-5457
▁biể	-5458
▁cưỡng	-5459
▁sâu▁sắc	-5460
▁Hồi▁giáo	-5461
▁tìm▁được	-5462
ost	-5463
▁37	-5464
▁khối▁lượng	-5465
▁chuyên▁ngành	-5466
▁LED	-5467
▁Tháp	-5468
▁về▁tội	-5469
▁đi▁học	-5470
▁đến▁các	-5471
▁quyền▁lực	-5472
▁Yamaha	-5473
▁biên▁chế	-5474
seo	-5475
▁Đồn	-5476
▁Thân	-5477
▁Cộng▁hòa	-5478
Viet	-5479
▁Madrid	-5480
▁liệt▁sĩ	-5481
▁mâu▁thuẫn	-5482
ma	-5483
▁Ab	-5484
▁Huyện	-5485
▁Hạ▁Long	-5486
▁có▁giá▁trị	-5487
▁Phó▁chủ▁tịch	-5488
....	-5489
▁250	-5490
▁huyền	-5491
▁Trưởng▁phòng	-5492
▁Bước	-5493
▁riê	-5494
▁vành	-5495
ảnh▁khắc	-5496
ata	-5497
▁nhạy	-5498
▁cũng▁bị	-5499
▁đối▁tượ	-5500
▁bất▁thường	-5501
▁thân▁thiện	-5502
▁ông▁đã	-5503
▁loại▁bỏ	-5504
▁ngay▁từ	-5505
▁Phật	-5506
▁lăng	-5507
▁sau▁này	-5508
▁ngày▁nay	-5509
▁những▁lời	-5510
▁Uy	-5511
▁ý▁định	-5512
▁ruộng	-5513
▁văn▁học	-5514
kho	-5515
▁thứ▁ba	-5516
▁nói▁riêng	-5517
▁người▁phụ▁nữ	-5518
▁HCV	-5519
▁đồng▁bộ	-5520
▁nghiệp▁vụ	-5521
UBND	-5522
▁bán▁lẻ	-5523
▁giá▁rẻ	-5524
▁cảm▁biến	-5525
▁xưởng	-5526
▁với▁mức	-5527
▁đạo▁đức	-5528
▁Từ▁đó	-5529
▁10.000	-5530
▁ngày▁cà	-5531
▁Nhân▁dân	-5532
/7,	-5533
▁Đồ	-5534
issan	-5535
▁chín	-5536
▁chất▁lượ	-5537
▁giao▁cho	-5538
▁Nguyễn▁Đức	-5539
▁miền▁Nam	-5540
▁bài▁hát	-5541
▁không▁muốn	-5542
II	-5543
▁CP	-5544
▁có▁khoảng	-5545
-9	-5546
tre	-5547
▁trong▁và	-5548
ert	-5549
▁Sở▁GD	-5550
-1,	-5551
▁Giáo▁sư	-5552
▁hãng▁xe	-5553
▁cáp	-5554
▁Brazil	-5555
▁được▁tổ▁chức	-5556
bon	-5557
▁thói▁quen	-5558
▁của▁chúng▁ta	-5559
-8	-5560
eth	-5561
▁Viên	-5562
▁thực▁vật	-5563
▁tuyệt▁đối	-5564
▁Mục	-5565
▁của▁những▁người	-5566
35	-5567
h▁ngày	-5568
▁đã▁đến	-5569
▁nói▁chuyện	-5570
▁Công▁Phượng	-5571
NA	-5572
▁lỏng	-5573
▁thu▁hoạch	-5574
▁Nông▁nghiệp	-5575
ern	-5576
▁Be	-5577
▁lồng	-5578
▁mắc▁bệnh	-5579
▁giảng▁viên	-5580
▁tiên▁tiến	-5581
▁điều▁kiện▁đ	-5582
▁trình▁bày	-5583
▁đây▁là▁một	-5584
uyện▁đ	-5585
▁là▁có	-5586
▁cân▁nhắc	-5587
▁mạng▁lưới	-5588
▁thiết▁thực	-5589
▁Châu▁Á	-5590
▁làm▁gì	-5591
▁xây▁dựng▁và	-5592
▁ngợi	-5593
▁đi▁làm	-5594
▁đoàn▁kết	-5595
▁Cl	-5596
▁We	-5597
▁váy	-5598
▁khách▁du▁lịch	-5599
▁34	-5600
▁Mức	-5601
/0	-5602
ửu	-5603
▁ức	-5604
▁ví▁dụ	-5605
▁Ronald	-5606
▁di▁sản	-5607
▁trên▁xe	-5608
▁Kim▁Jong	-5609
▁trái▁tim	-5610
▁điện▁ảnh	-5611
▁cứu▁hộ	-5612
▁hoàn▁hảo	-5613
▁tín▁hiệu	-5614
▁Đây▁cũng▁là	-5615
▁hung	-5616
▁cũng▁cho▁biết	-5617
▁(4	-5618
▁Lạt	-5619
▁bảo▁mật	-5620
▁Đến▁nay	-5621
▁bổng	-5622
▁tỷ▁số	-5623
▁lề	-5624
▁ngu	-5625
▁Liên▁Xô	-5626
▁thi▁thể	-5627
▁cho▁ông	-5628
▁mọi▁thứ	-5629
LC	-5630
YT	-5631
▁Vol	-5632
▁tại▁chỗ	-5633
GB	-5634
▁nhầm	-5635
▁Do▁vậy	-5636
▁tâm▁sự	-5637
▁Dự▁kiến	-5638
▁nghề▁nghiệp	-5639
oc	-5640
▁Mã	-5641
brid	-5642
▁vào▁một	-5643
▁đem▁lại	-5644
▁gìn	-5645
▁ở▁một	-5646
▁Trong▁số	-5647
ust	-5648
▁hứa▁hẹn	-5649
▁mệt▁mỏi	-5650
▁theo▁đuổi	-5651
▁ngay▁lập▁tức	-5652
▁Cửa	-5653
▁nói▁về	-5654
▁Đảng▁ủy	-5655
▁thu▁thập	-5656
ượn	-5657
▁Top	-5658
▁nghĩa▁vụ	-5659
▁chưa▁từng	-5660
▁Nguyên▁nhân	-5661
▁hố	-5662
DL	-5663
▁Pal	-5664
▁bút	-5665
▁củng	-5666
▁buôn▁bán	-5667
▁Chẳng	-5668
▁còn▁nhiều	-5669
ony	-5670
▁đĩa	-5671
▁tháp	-5672
▁nghi▁ngờ	-5673
▁thi▁đua	-5674
Bộ	-5675
▁sưu	-5676
▁vội	-5677
▁Dịch	-5678
▁Vũng▁Tàu	-5679
iễu	-5680
phút	-5681
▁con▁đ	-5682
▁Trường▁THPT	-5683
olf	-5684
▁muộn	-5685
▁văn▁minh	-5686
▁công▁viên	-5687
▁Tôn	-5688
▁Anh▁Tuấn	-5689
▁có▁dấu▁hiệu	-5690
▁cắm	-5691
▁xung▁đột	-5692
/8,	-5693
▁Đi	-5694
roup	-5695
▁VFF	-5696
▁ở▁nhiều	-5697
▁50%	-5698
▁Trả	-5699
▁mảng	-5700
▁củng▁cố	-5701
▁Kể	-5702
▁hy▁sinh	-5703
▁tiêu▁biểu	-5704
▁các▁công▁trình	-5705
▁trong▁gia▁đình	-5706
▁mới▁là	-5707
▁chất▁thải	-5708
▁thông▁điệp	-5709
TN	-5710
ins	-5711
▁For	-5712
▁gen	-5713
▁luồng	-5714
▁Quyết▁định▁số	-5715
êng	-5716
▁khả▁nă	-5717
▁hôm▁qua	-5718
ỡi	-5719
▁Note	-5720
▁Siêu	-5721
▁chưa▁bao▁giờ	-5722
▁nát	-5723
▁đừng	-5724
▁MC	-5725
▁hôi	-5726
▁cổ▁đông	-5727
▁tham▁khảo	-5728
▁mọc	-5729
▁vẫn▁không	-5730
▁chặ	-5731
▁bài▁thi	-5732
▁nước▁Mỹ	-5733
▁cũng▁rất	-5734
▁thực▁tiễn	-5735
12	-5736
▁Vừa	-5737
▁quảng▁bá	-5738
▁tái▁định▁cư	-5739
/6,	-5740
▁Cổ	-5741
▁nước▁ta	-5742
▁chuyến▁đi	-5743
▁Nhơn	-5744
▁vùng▁đất	-5745
▁ông▁Trần	-5746
▁bờ▁biển	-5747
600	-5748
▁rèn	-5749
▁xuất▁bản	-5750
▁nhận▁được▁sự	-5751
ube	-5752
▁dọn	-5753
▁sáng▁tác	-5754
▁trên▁trang	-5755
ows	-5756
edan	-5757
▁dội	-5758
▁gãy	-5759
▁vây	-5760
▁Xã▁hội	-5761
▁khu▁đất	-5762
▁phục▁hồi	-5763
ng▁động▁cơ	-5764
▁của▁thành▁phố	-5765
▁48	-5766
/2016,	-5767
▁chiêu	-5768
▁bê▁tông	-5769
▁liên▁quan▁tới	-5770
aul	-5771
oft	-5772
▁yết	-5773
▁Bộ▁Quốc▁phòng	-5774
▁loa	-5775
▁tại▁xã	-5776
▁trên▁mặt	-5777
▁phải▁được	-5778
▁có▁rất▁nhiều	-5779
▁và▁đã	-5780
▁vào▁đó	-5781
▁Trần▁Thị	-5782
▁xứng▁đáng	-5783
▁của▁cơ▁quan	-5784
▁của▁Tổng▁thống	-5785
300	-5786
ana	-5787
▁gom	-5788
▁đảng▁viên	-5789
▁có▁thể▁được	-5790
▁tập▁trung▁vào	-5791
-12	-5792
▁Ad	-5793
odel	-5794
▁đề▁án	-5795
▁Triển▁lãm	-5796
▁đường▁sắt	-5797
men▁xoắn	-5798
▁góp▁mặt	-5799
▁nhàng	-5800
▁Phú▁Yên	-5801
▁có▁tính	-5802
▁Công▁ty▁Cổ▁phần	-5803
▁cấu▁trúc	-5804
▁hóa▁chất	-5805
▁được▁một	-5806
▁Tuổi	-5807
▁Vàng	-5808
▁ân	-5809
▁cài	-5810
▁Cảng	-5811
▁thầy▁cô	-5812
IC	-5813
theo	-5814
▁dẫn▁tới	-5815
▁các▁quy▁định	-5816
▁55	-5817
▁Tiểu▁học	-5818
▁sản▁lượng	-5819
▁triệu▁người	-5820
▁Cây	-5821
▁Dav	-5822
▁nội▁bộ	-5823
▁2.0	-5824
▁Dầu	-5825
▁trao▁đổi▁với	-5826
ẫm	-5827
▁Quá	-5828
▁có▁vẻ	-5829
▁Tiến▁sĩ	-5830
▁rạng	-5831
▁Lào▁Cai	-5832
▁để▁thực▁hiện	-5833
▁chinh	-5834
▁và▁sẽ	-5835
▁sư▁phạm	-5836
▁công▁lập	-5837
▁cho▁gia▁đình	-5838
▁nứt	-5839
exico	-5840
▁bông	-5841
▁mỏng	-5842
▁qua▁đó	-5843
▁được▁những	-5844
▁hơ	-5845
▁vướng▁mắc	-5846
▁Nguyễn▁Hữu	-5847
▁năm▁tù	-5848
7%	-5849
▁LH	-5850
▁lúc▁đó	-5851
▁nhân▁sự	-5852
▁Mich	-5853
▁vì▁sao	-5854
lad	-5855
▁Khai	-5856
▁giận	-5857
▁yêu▁thương	-5858
▁gầm	-5859
▁công▁bằng	-5860
icros	-5861
▁trộn	-5862
▁năm▁sau	-5863
▁được▁sự	-5864
▁không▁quá	-5865
▁tọa	-5866
▁tỷ▁đồ	-5867
▁đề▁ra	-5868
XX	-5869
▁BKS	-5870
▁Lon	-5871
▁Hơn▁nữa	-5872
▁của▁chị	-5873
▁bận	-5874
▁thắ	-5875
▁Ví▁dụ	-5876
▁của▁con	-5877
▁đặc▁trưng	-5878
giờ	-5879
▁700	-5880
▁vợt	-5881
▁Quốc▁lộ	-5882
▁đánh▁bại	-5883
▁trên▁biển	-5884
▁được▁giao	-5885
▁biểu▁tượng	-5886
▁Tiếng	-5887
▁đề▁cập	-5888
▁Sở▁GTVT	-5889
IS	-5890
▁bản▁đồ	-5891
▁ngạc▁nhiên	-5892
OV	-5893
▁195	-5894
▁Bạc	-5895
▁khoác	-5896
ại▁diện	-5897
▁Tuyết	-5898
▁nhà▁báo	-5899
▁tàu▁ngầm	-5900
▁người▁đẹp	-5901
QG	-5902
ice	-5903
ile	-5904
▁tiệc	-5905
▁ở▁Mỹ	-5906
▁Khách	-5907
▁giường	-5908
▁này▁để	-5909
▁ông▁Lê	-5910
▁thái▁độ	-5911
▁Hải▁Dương	-5912
▁đán	-5913
▁công▁văn	-5914
▁của▁việc	-5915
▁sáng▁lập	-5916
▁chúc▁mừng	-5917
▁Ả	-5918
ASA	-5919
att	-5920
icrosoft	-5921
▁trong▁ngành	-5922
KT	-5923
▁bạo▁lực	-5924
▁đã▁tiến▁hành	-5925
▁bài▁học	-5926
▁một▁vài	-5927
▁chứ▁không	-5928
▁hỗn	-5929
▁một▁lần▁nữa	-5930
▁Thăng▁Long	-5931
không	-5932
▁sẽ▁diễn▁ra	-5933
▁800	-5934
▁suối	-5935
▁qua▁các	-5936
▁đóng▁cửa	-5937
▁SH	-5938
▁Căn	-5939
▁niêm▁yết	-5940
▁xúc▁động	-5941
▁Nhà▁Trắng	-5942
▁ví	-5943
▁Aut	-5944
▁Chợ	-5945
▁An▁ninh	-5946
▁Long▁An	-5947
▁khuôn▁khổ	-5948
▁robot	-5949
▁địa▁ph	-5950
▁Tru	-5951
▁chênh	-5952
ae	-5953
are	-5954
▁Cà▁Mau	-5955
▁khí▁thải	-5956
ano	-5957
▁Rob	-5958
▁khứ	-5959
▁có▁các	-5960
▁tổ▁hợp	-5961
▁tăng▁thêm	-5962
ova	-5963
▁GP	-5964
▁Chương	-5965
ho	-5966
lu	-5967
▁5.000	-5968
▁quan▁trọ	-5969
▁thông▁tin▁đ	-5970
▁mặn	-5971
▁bình▁quân	-5972
▁khuôn▁mặt	-5973
▁tiến▁sĩ	-5974
▁tiểu▁học	-5975
IV	-5976
pr	-5977
▁ồn	-5978
▁Đà▁Lạt	-5979
▁qua▁đời	-5980
ary	-5981
▁Kr	-5982
▁chip	-5983
▁không▁để	-5984
▁Việt▁Nam▁tại	-5985
▁Bách	-5986
▁Phía	-5987
▁do▁đó	-5988
▁Trả▁lời	-5989
▁phải▁chịu	-5990
▁Công▁an▁TP	-5991
cm	-5992
▁Prem	-5993
▁giày	-5994
▁đuôi	-5995
▁Tư▁pháp	-5996
▁khuyến▁cáo	-5997
▁trọng▁điểm	-5998
▁của▁Nhà▁nước	-5999
old	-6000
▁Tuất	-6001
▁chua	-6002
▁tập▁luyện	-6003
▁gạch	-6004
▁dịp▁Tết	-6005
▁tốt▁đẹp	-6006
▁chiều▁cao	-6007
▁Chinh	-6008
▁người▁đã	-6009
95	-6010
▁mờ	-6011
▁Cập	-6012
▁Hầu	-6013
▁Lập	-6014
▁bỏng	-6015
▁Mường	-6016
▁đề▁tài	-6017
▁lúc▁này	-6018
▁nhà▁hàng	-6019
▁chú▁trọng	-6020
tain	-6021
▁Ven	-6022
▁sai▁lầm	-6023
▁người▁chết	-6024
▁Angel	-6025
▁lớp▁học	-6026
▁Bắc▁Ninh	-6027
▁miền▁Bắc	-6028
▁Cứ	-6029
▁tình▁nguyện	-6030
.".	-6031
▁2013	-6032
▁ngựa	-6033
▁Tòa▁án	-6034
▁Vận▁tải	-6035
▁Trái▁đất	-6036
▁Tuấn▁Anh	-6037
▁ra▁quyết▁định	-6038
▁cơ▁sở▁vật▁chất	-6039
▁phải▁là	-6040
▁những▁điểm	-6041
▁của▁Công▁ty	-6042
ino	-6043
▁mở▁cửa	-6044
▁hàng▁ngàn	-6045
▁Bộ▁trưởng▁Bộ	-6046
TB	-6047
va	-6048
▁thửa	-6049
ternet	-6050
▁khống	-6051
▁chuyển▁giao	-6052
▁quan▁tâm▁đến	-6053
▁Arab	-6054
▁Luật▁sư	-6055
9%	-6056
ẹo	-6057
its	-6058
uộc	-6059
▁dải	-6060
▁dập	-6061
▁Đài▁Loan	-6062
▁từng▁được	-6063
▁sáu	-6064
▁quá▁tải	-6065
▁trên▁đất	-6066
▁có▁thẩm▁quyền	-6067
▁Khê	-6068
▁Tuần	-6069
▁thu▁được	-6070
▁của▁dự▁án	-6071
▁kể▁từ▁khi	-6072
▁đã▁trở▁thành	-6073
▁Ag	-6074
▁một▁chút	-6075
▁tập▁huấn	-6076
3%	-6077
rari	-6078
▁mến	-6079
▁Trường▁Đại▁học	-6080
n▁đã▁được	-6081
▁Sơ	-6082
▁Tường	-6083
▁nội▁du	-6084
▁mùa▁đông	-6085
▁tổn▁thương	-6086
400	-6087
▁Na	-6088
▁khớp	-6089
▁gắn▁với	-6090
▁sự▁thật	-6091
aly	-6092
▁Môn	-6093
khoảng	-6094
▁UBND▁phường	-6095
▁Tài▁nguyên▁và▁M	-6096
ES	-6097
▁Cor	-6098
▁nhở	-6099
▁Thêm	-6100
▁kỹ▁sư	-6101
▁Xuân▁Trường	-6102
▁dồn	-6103
▁nấm	-6104
▁đạn▁đ	-6105
▁từ▁phía	-6106
▁trọng▁tâm	-6107
▁các▁địa▁phương	-6108
▁Ro	-6109
▁nhé	-6110
▁Wind	-6111
▁nghiện	-6112
ks	-6113
▁AFP	-6114
▁vải	-6115
▁Alex	-6116
▁phổi	-6117
▁rác▁thải	-6118
▁đầu▁tiên▁của	-6119
▁Tổng▁Giám▁đốc	-6120
▁9.	-6121
▁đa▁số	-6122
▁để▁phục▁vụ	-6123
ún	-6124
▁hoại	-6125
▁3.000	-6126
▁anh▁hùng	-6127
▁mỗi▁người	-6128
▁nguồn▁nước	-6129
▁được▁thực▁hiện	-6130
▁lão	-6131
▁hầu▁như	-6132
▁Ngoại▁trưởng	-6133
▁đoạ	-6134
▁bạn▁đọc	-6135
▁Trái▁Đất	-6136
▁họp▁báo	-6137
▁người▁thân	-6138
▁bể	-6139
▁chai	-6140
▁Grand	-6141
▁dẫn▁dắt	-6142
▁các▁công▁ty	-6143
:▁'	-6144
zuki	-6145
▁trên▁cơ▁sở	-6146
ng▁tàu	-6147
▁độc▁giả	-6148
▁chiến▁binh	-6149
TTQ	-6150
ose	-6151
▁mẻ	-6152
n▁đối▁với	-6153
▁thủy▁điện	-6154
▁viên▁chức	-6155
▁cậy	-6156
ạc▁sĩ	-6157
▁đột▁phá	-6158
▁thần▁kinh	-6159
▁Trưởng▁ban	-6160
▁khu▁đô▁thị	-6161
▁nhiều▁nhất	-6162
▁lật	-6163
▁Galaxy▁S	-6164
▁bất▁chấp	-6165
▁cân▁bằng	-6166
▁bằng▁chứng	-6167
▁Theo▁thông▁tin	-6168
▁SL	-6169
▁quái	-6170
▁so▁với▁năm	-6171
▁cho▁khách▁hàng	-6172
▁Mart	-6173
▁đựng	-6174
▁điều▁gì	-6175
▁kim▁loại	-6176
▁Trước▁đây	-6177
▁linh▁hoạt	-6178
▁mới▁có▁thể	-6179
ics	-6180
▁dạy▁học	-6181
▁thầy▁trò	-6182
▁thí▁nghiệm	-6183
▁hiệu▁trưởng	-6184
BP	-6185
▁sụt	-6186
▁Cương	-6187
▁tỉ▁lệ	-6188
▁đang▁bị	-6189
▁trao▁giải	-6190
▁các▁tổ▁chức	-6191
▁Cựu	-6192
▁Hay	-6193
▁Vật	-6194
▁vụ▁tấn▁công	-6195
▁Tại▁đây	-6196
▁một▁con	-6197
▁chủ▁nhân	-6198
▁khách▁quan	-6199
▁HĐXX	-6200
▁ra▁sao	-6201
▁tương▁đối	-6202
▁Nguyễn▁Ngọc	-6203
▁(5	-6204
▁Tw	-6205
▁xách	-6206
▁Xuất	-6207
▁đáng▁t	-6208
▁hội▁nhập	-6209
▁kèm▁theo	-6210
▁đông▁đảo	-6211
▁trường▁THPT	-6212
▁bề▁mặt	-6213
▁Năm▁nay	-6214
▁từ▁những	-6215
▁khe	-6216
▁lụt	-6217
▁thọ	-6218
▁Motor	-6219
▁lạc▁bộ	-6220
▁xe▁đạp	-6221
▁Cục▁trưởng	-6222
ott	-6223
▁Cá	-6224
▁múa	-6225
▁ước▁mơ	-6226
▁đội▁hình	-6227
ner	-6228
▁car	-6229
▁có▁cơ▁hội	-6230
▁chiếm▁đoạt	-6231
▁trực▁thuộc	-6232
▁miếng	-6233
▁các▁ngành	-6234
▁51	-6235
▁2012	-6236
▁Kiếm	-6237
▁thâm	-6238
▁vui▁chơi	-6239
▁hướng▁đến	-6240
▁rỉ	-6241
atch	-6242
▁Liêu	-6243
▁Điền	-6244
▁tư▁duy	-6245
▁trạm▁thu▁phí	-6246
ct	-6247
▁sá	-6248
▁Per	-6249
▁Đàm	-6250
▁Giáng	-6251
▁Suzuki	-6252
▁UBND▁thành▁phố	-6253
▁ĐB	-6254
▁huyệ	-6255
▁mượn	-6256
ường▁đ	-6257
ượng▁t	-6258
▁của▁F	-6259
▁thưởng▁thức	-6260
▁Ngay▁sau▁khi	-6261
3/	-6262
▁dở	-6263
▁Mùa	-6264
▁bát	-6265
▁trường▁đã	-6266
▁sử▁dụng▁các	-6267
▁64	-6268
▁của▁cả	-6269
▁và▁ông	-6270
▁kịch▁bản	-6271
▁giữ▁nguyên	-6272
▁nhà▁lãnh▁đạo	-6273
ka	-6274
▁Nhiệt	-6275
▁như▁sau	-6276
▁tư▁tưởng	-6277
▁khởi▁động	-6278
▁có▁thể▁làm	-6279
▁giành▁được	-6280
▁Mỹ▁đã	-6281
▁phía▁Bắc	-6282
▁trò▁chơi	-6283
▁người▁lái	-6284
▁;	-6285
ồn▁đ	-6286
▁Tác	-6287
▁Khu▁vực	-6288
▁của▁Ban	-6289
▁danh▁mục	-6290
▁trò▁chuyện	-6291
ited	-6292
▁mở▁ra	-6293
ng▁tiêu	-6294
▁xăng▁dầu	-6295
▁trong▁nhiều	-6296
cow	-6297
▁Cận	-6298
▁bắt▁buộc	-6299
▁ao	-6300
▁chuyến▁thăm	-6301
▁khẩn▁trương	-6302
,▁"	-6303
▁HD	-6304
iến▁hành	-6305
▁ứng▁phó	-6306
▁11,	-6307
▁xuống▁cấp	-6308
▁Bộ▁Ngoại▁giao	-6309
▁chất▁lượng▁cao	-6310
ug	-6311
▁vạn	-6312
▁hội▁đồng	-6313
▁thì▁không	-6314
▁GM	-6315
▁Sun	-6316
▁phân▁biệt	-6317
▁khoảnh▁khắc	-6318
2%	-6319
▁mồ	-6320
▁rũ	-6321
▁chép	-6322
▁lại▁có	-6323
▁từng▁đ	-6324
▁nhẹ▁nhàng	-6325
▁đường▁dây	-6326
▁nhan	-6327
▁cho▁cả	-6328
▁đạn▁đạo	-6329
▁hai▁nước	-6330
▁ven▁biển	-6331
▁trong▁lúc	-6332
▁Gen	-6333
▁lây	-6334
▁thực▁thi	-6335
▁đáp▁ứng▁được	-6336
▁máy▁móc	-6337
▁Tại▁buổi	-6338
▁hai▁người	-6339
▁trang▁trại	-6340
▁ký▁hợp▁đồng	-6341
PC	-6342
▁tráng	-6343
▁bức▁tranh	-6344
iểu▁học	-6345
▁cũng▁chỉ	-6346
▁những▁con	-6347
ure	-6348
▁nâ	-6349
▁lốp	-6350
▁cậu▁bé	-6351
▁kết▁hôn	-6352
▁trên▁mạng	-6353
/4,	-6354
▁ong	-6355
▁thấp▁nhất	-6356
▁chi▁trả	-6357
▁chủ▁yếu▁là	-6358
▁trong▁khoảng	-6359
▁đắp	-6360
-2017	-6361
▁của▁đất▁nước	-6362
▁MU	-6363
▁Vấn▁đề	-6364
▁đã▁chính▁thức	-6365
▁sedan	-6366
▁Ferrari	-6367
▁Nha▁Trang	-6368
▁trang▁thiết▁bị	-6369
▁trong▁và▁ngoài	-6370
ặm	-6371
▁Nissan	-6372
▁Sơn▁La	-6373
▁học▁phí	-6374
▁Truyền▁thông	-6375
▁diện▁tích▁đất	-6376
▁Nhu	-6377
▁anh▁ta	-6378
▁thuốc▁lá	-6379
-2017,	-6380
▁yên▁tâm	-6381
▁internet	-6382
▁gặp▁nhiều	-6383
▁các▁giải▁pháp	-6384
▁và▁Phát▁triển	-6385
anmar	-6386
▁CNTT	-6387
▁khả▁thi	-6388
▁tính▁đến	-6389
▁dự▁án▁đầu▁tư	-6390
▁những▁vấn▁đề	-6391
IM	-6392
▁TV	-6393
▁Trẻ	-6394
▁quy▁chế	-6395
▁vi▁khuẩn	-6396
▁thử▁thách	-6397
▁cơ▁sở▁hạ▁tầng	-6398
800	-6399
▁bỗng	-6400
▁này▁còn	-6401
▁độ▁tuổi	-6402
▁phải▁làm	-6403
▁mang▁thai	-6404
▁tăng▁tốc	-6405
▁cuối▁tuần	-6406
,...	-6407
▁chống▁t	-6408
▁học▁viên	-6409
▁hot	-6410
▁Đàn	-6411
▁ở▁lại	-6412
▁Hải▁quan	-6413
▁phía▁Nam	-6414
▁dĩ	-6415
▁CĐV	-6416
▁trùm	-6417
▁cho▁trẻ	-6418
▁cống▁hiến	-6419
▁trong▁cuộc▁sống	-6420
ale	-6421
▁rừ	-6422
Quảng	-6423
▁Doanh▁nghiệp	-6424
▁mũ	-6425
▁lội	-6426
ng▁đồ	-6427
▁Mess	-6428
ng▁đấu	-6429
▁Chuyện	-6430
▁Nguyên▁đán	-6431
▁trạng▁thái	-6432
▁nảy	-6433
▁thổi	-6434
▁Ai▁Cập	-6435
▁bộ▁máy	-6436
▁tư▁cách	-6437
pool	-6438
▁Mexico	-6439
▁vừa▁có	-6440
▁Sơn▁Trà	-6441
▁cùng▁một	-6442
▁Trong▁quá▁trình	-6443
▁110	-6444
▁ngô	-6445
▁Viết	-6446
▁nhắm	-6447
▁quá▁khứ	-6448
▁Kỹ▁thuật	-6449
▁tôn▁trọng	-6450
từ	-6451
▁ôn	-6452
ions	-6453
▁Lắk	-6454
▁Daily	-6455
▁Liên▁đoàn	-6456
▁về▁hành▁vi	-6457
▁đảm▁bảo▁an▁toàn	-6458
4%	-6459
98	-6460
▁bế	-6461
▁xao	-6462
▁đeo	-6463
▁chúa	-6464
▁cho▁tới	-6465
▁giãn	-6466
▁toàn▁quốc	-6467
65	-6468
ỷ▁lệ	-6469
▁Niên	-6470
▁của▁D	-6471
▁TM	-6472
▁tủ	-6473
▁vọ	-6474
lanh	-6475
▁của▁nhóm	-6476
▁truy▁cập	-6477
▁các▁khoản	-6478
▁miền▁Trung	-6479
▁bà▁Nguyễn▁Thị	-6480
▁Đan	-6481
▁Euro	-6482
▁hơn▁là	-6483
▁đình▁chỉ	-6484
▁được▁đánh▁giá	-6485
▁BHYT	-6486
▁thì▁sẽ	-6487
▁hiển▁thị	-6488
▁khách▁hà	-6489
:▁-	-6490
▁tựu	-6491
▁bán▁được	-6492
▁gia▁nhập	-6493
▁giám▁khảo	-6494
▁HTX	-6495
▁lân	-6496
▁vân	-6497
▁tạm▁thời	-6498
▁lộn	-6499
▁London	-6500
▁khi▁đó	-6501
▁lãng▁phí	-6502
▁và▁xử▁lý	-6503
▁CEO	-6504
▁Pan	-6505
▁Saudi	-6506
ẩn▁đoán	-6507
▁các▁cơ▁sở	-6508
▁lôi	-6509
▁ông▁T	-6510
▁Đề▁án	-6511
▁Ronaldo	-6512
▁Kiểm▁tra	-6513
▁tận▁dụng	-6514
▁ở▁vị▁trí	-6515
▁và▁bị	-6516
▁Tây▁Nguyên	-6517
▁mạn	-6518
▁mập	-6519
/2018.	-6520
▁Windows	-6521
▁siêu▁thị	-6522
▁At	-6523
▁Pu	-6524
▁125	-6525
▁cạn	-6526
▁Thật	-6527
▁CB	-6528
▁Lee	-6529
▁Nội▁vụ	-6530
▁đối▁đầu	-6531
▁vượt▁trội	-6532
6%	-6533
▁mà▁các	-6534
▁Bo	-6535
▁Ob	-6536
▁mò	-6537
▁2014,	-6538
▁vị▁thế	-6539
Chúng▁t	-6540
▁Đại▁tá	-6541
▁hóa▁học	-6542
▁trong▁đêm	-6543
▁xét▁nghiệm	-6544
▁bạn▁trẻ	-6545
▁màu▁xanh	-6546
▁2009	-6547
▁hiếu	-6548
▁dựa▁vào	-6549
ân▁đã	-6550
▁Quyền	-6551
▁Super	-6552
▁đỗ▁xe	-6553
▁tập▁trận	-6554
▁vươn▁lên	-6555
▁mì	-6556
ourinho	-6557
▁Trong▁một	-6558
▁loại▁hình	-6559
▁của▁con▁người	-6560
-11	-6561
▁Sĩ	-6562
----	-6563
▁đi▁kèm	-6564
▁với▁tốc▁độ	-6565
▁vẫn▁tiếp▁tục	-6566
ăn▁kho	-6567
▁vũ▁trang	-6568
▁Chủ▁nhiệm	-6569
▁trung▁học	-6570
▁Công▁nghiệp	-6571
▁xuất▁phát▁từ	-6572
▁ông▁Nguyễn▁Văn	-6573
ển	-6574
▁43	-6575
▁Phủ	-6576
▁đầm	-6577
▁mỗi▁khi	-6578
▁đã▁giúp	-6579
▁người▁lao▁động	-6580
▁Kon	-6581
▁dán	-6582
▁cũng▁đề	-6583
▁Quy▁hoạch	-6584
▁đáp▁ứng▁nhu▁cầu	-6585
CL	-6586
▁đê	-6587
▁12.	-6588
▁và▁S	-6589
erpool	-6590
▁Group	-6591
▁này▁và	-6592
▁đại▁gia	-6593
▁căn▁bệnh	-6594
ide	-6595
▁dãy	-6596
▁kể▁từ	-6597
▁huy▁chương	-6598
▁im	-6599
▁một▁mình	-6600
▁hơn▁so▁với	-6601
▁lên▁kế▁hoạch	-6602
UY	-6603
▁Tín	-6604
▁trung▁t	-6605
▁lợi▁dụng	-6606
▁chiến▁trường	-6607
▁giữ▁được	-6608
▁miền▁núi	-6609
iforn	-6610
▁Duyên	-6611
▁trong▁buổi	-6612
▁nhưng▁t	-6613
▁Hưng▁Yên	-6614
▁những▁tác	-6615
cept	-6616
▁Com	-6617
▁Quả	-6618
▁đói	-6619
▁xuống▁đ	-6620
▁cuộc▁chiến	-6621
▁mức▁đầu▁tư	-6622
▁Chev	-6623
ifornia	-6624
▁vật▁thể	-6625
▁Sóc▁Trăng	-6626
▁phong▁phú	-6627
▁cho▁các▁em	-6628
▁virus	-6629
▁toàn▁đ	-6630
▁Tây▁Bắc	-6631
▁thành▁một	-6632
▁các▁bác▁sĩ	-6633
▁75	-6634
▁mỡ	-6635
▁lặn	-6636
▁ra▁đi	-6637
▁của▁nhân▁dân	-6638
8%	-6639
▁Ngôi	-6640
▁Nhung	-6641
▁65	-6642
▁Pa	-6643
▁Bàn	-6644
▁kỳ▁họp	-6645
▁để▁được	-6646
▁trong▁lịch▁sử	-6647
▁2000	-6648
▁Quận	-6649
orsche	-6650
▁của▁năm	-6651
▁sơ▁thẩm	-6652
▁ngào	-6653
▁thắt	-6654
ăn▁khoăn	-6655
▁ghi▁bàn	-6656
▁nhưng▁đ	-6657
n▁đề▁nghị	-6658
▁được▁xem▁là	-6659
▁có▁hoàn▁cảnh	-6660
▁theo▁hình▁thức	-6661
ica	-6662
▁10%	-6663
▁Li	-6664
▁ngột	-6665
▁quay▁lại	-6666
ng▁tên▁lửa	-6667
▁động▁thái	-6668
▁vẫn▁chưa▁được	-6669
▁42	-6670
▁thẳ	-6671
▁Chúng	-6672
▁đồng▁minh	-6673
▁trung▁ương	-6674
▁tuyển▁dụng	-6675
▁Champ	-6676
▁trúng▁t	-6677
n▁đầu▁tiên	-6678
▁vận▁động▁viên	-6679
port	-6680
▁núi▁lửa	-6681
▁Đa▁khoa	-6682
▁tuần▁tra	-6683
▁chấp▁thuận	-6684
▁huyền▁thoại	-6685
▁Chính▁vì▁vậy	-6686
▁chôn	-6687
▁ở▁đâu	-6688
▁nhắc▁nhở	-6689
▁nào▁cũng	-6690
▁phải▁trả	-6691
▁hiện▁hành	-6692
▁nạp	-6693
▁dân▁sự	-6694
▁học▁hỏi	-6695
▁phế	-6696
▁Công▁tác	-6697
▁Liverpool	-6698
▁thích▁hợp	-6699
▁đã▁quyết▁định	-6700
▁Mô	-6701
▁the	-6702
▁không▁cần	-6703
pa	-6704
▁PC	-6705
▁ngạch	-6706
▁cái▁chết	-6707
▁học▁bổng	-6708
▁việc▁này	-6709
▁điểm▁thi	-6710
▁CR	-6711
▁Đảo	-6712
▁và▁chỉ	-6713
ng▁đầu▁tiên	-6714
▁hi	-6715
tein	-6716
▁trăn	-6717
▁nói▁thêm	-6718
▁về▁vấn▁đề	-6719
▁các▁đối▁tượng	-6720
▁TR	-6721
gent	-6722
▁Vườn	-6723
▁khép	-6724
▁màu▁đen	-6725
▁mới▁cho	-6726
▁cây▁trồng	-6727
▁thất▁vọng	-6728
▁Bùi▁Tiến▁Dũng	-6729
▁những▁hình▁ảnh	-6730
DA	-6731
▁Kiệt	-6732
▁thấu	-6733
▁quyến	-6734
▁Nam▁Định	-6735
▁của▁một▁số	-6736
97	-6737
HS	-6738
▁Ky	-6739
▁ơi	-6740
▁làm▁ăn	-6741
▁lưu▁trữ	-6742
▁tên▁tuổi	-6743
ương▁đương	-6744
▁viễn▁thông	-6745
▁người▁đứng▁đầu	-6746
▁người▁bị	-6747
▁chinh▁phục	-6748
▁các▁thiết▁bị	-6749
ive	-6750
▁Dũ	-6751
▁đới	-6752
▁bỏ▁qua	-6753
▁nghị▁quyết	-6754
▁thoát▁nước	-6755
n▁đất	-6756
▁lọt▁vào	-6757
▁lỡ	-6758
▁mó	-6759
▁Giáp	-6760
▁rất▁ít	-6761
▁động▁từ	-6762
▁Môi▁trường	-6763
▁hoang▁dã	-6764
▁Thuế	-6765
▁hoài	-6766
▁và▁mô	-6767
▁lăn	-6768
▁thập▁kỷ	-6769
▁vào▁lúc	-6770
▁Bắc▁Giang	-6771
me	-6772
ome	-6773
▁vit	-6774
▁James	-6775
▁tới▁đây	-6776
▁trong▁lòng	-6777
▁phụ▁thuộc▁vào	-6778
▁bấm	-6779
▁ở▁TP	-6780
▁100.000	-6781
▁Real▁Madrid	-6782
▁Land	-6783
▁gặp▁phải	-6784
▁khắp▁nơi	-6785
▁Biên▁phòng	-6786
▁môn▁học	-6787
▁cắt▁giảm	-6788
▁California	-6789
▁về▁Việt▁Nam	-6790
96	-6791
▁)	-6792
▁nụ	-6793
▁Gre	-6794
▁hơn▁và	-6795
▁kể▁lại	-6796
▁chứng▁t	-6797
▁nhắc▁đến	-6798
▁Đáng▁chú▁ý	-6799
▁như▁hiện▁nay	-6800
▁bi	-6801
▁mùa▁hè	-6802
▁từ▁lâu	-6803
▁phủ▁nhận	-6804
▁kích▁thích	-6805
▁Mil	-6806
▁thầm	-6807
▁Bitcoin	-6808
▁kết▁cấu	-6809
Nam	-6810
▁gấp▁đôi	-6811
▁Mậu▁Tuất	-6812
▁của▁chúng	-6813
▁chính▁mình	-6814
18	-6815
▁Xem	-6816
tainer	-6817
▁Moscow	-6818
▁được▁làm	-6819
▁không▁có▁gì	-6820
1%	-6821
QH	-6822
▁11.	-6823
ầy▁đủ	-6824
▁ngơi	-6825
▁Cuối▁cùng	-6826
▁bồi▁dưỡng	-6827
▁giảm▁thiểu	-6828
▁NG	-6829
▁vitamin	-6830
▁Tương▁tự	-6831
▁tuyển▁thủ	-6832
▁FC	-6833
▁Nên	-6834
▁bàn▁tay	-6835
▁cách▁làm	-6836
▁của▁Apple	-6837
▁hầu▁hết▁các	-6838
ish	-6839
▁khỏe▁mạnh	-6840
▁có▁liên▁quan	-6841
we	-6842
oll	-6843
▁gũi	-6844
▁Khắc	-6845
ắc▁mắc	-6846
▁Trưng	-6847
▁bị▁can	-6848
▁bạn▁gái	-6849
▁khảo▁cổ	-6850
▁mối▁đe▁dọa	-6851
▁Je	-6852
uela	-6853
▁bảo▁quản	-6854
▁tiêu▁diệt	-6855
CH	-6856
bor	-6857
▁nếp	-6858
iếp▁ảnh	-6859
▁Liên▁minh	-6860
▁thích▁thú	-6861
vo	-6862
ati	-6863
▁st	-6864
▁thoáng	-6865
▁lừa▁đảo	-6866
▁nghi▁phạm	-6867
▁BĐBP	-6868
▁trinh	-6869
▁chưa▁thể	-6870
▁băn▁khoăn	-6871
▁Việt▁Nam▁sẽ	-6872
▁Sử	-6873
▁hụt	-6874
▁có▁hơn	-6875
▁thì▁bị	-6876
▁người▁mẫu	-6877
▁nghỉ▁dưỡng	-6878
▁Theo▁báo▁cáo	-6879
▁Tên	-6880
▁hạm	-6881
▁iOS	-6882
▁năm▁mới	-6883
▁ở▁nước▁ngoài	-6884
tỉnh	-6885
▁đắc	-6886
/2015	-6887
▁khéo	-6888
▁và▁B	-6889
▁biển▁số	-6890
▁dự▁định	-6891
▁quyến▁rũ	-6892
▁có▁thể▁là	-6893
▁tổng▁cộng	-6894
▁được▁coi▁là	-6895
▁không▁bao▁giờ	-6896
,▁5	-6897
▁En	-6898
▁VCK	-6899
▁đồi	-6900
▁Trời	-6901
▁Bác▁sĩ	-6902
▁gần▁gũi	-6903
▁chi▁nhánh	-6904
▁chủ▁quyền	-6905
▁ngoại▁hình	-6906
▁THPT▁quốc▁gia	-6907
▁tím	-6908
ng▁tư	-6909
▁bạn▁sẽ	-6910
▁Thấy	-6911
▁Xanh	-6912
▁lưỡng	-6913
▁lý▁giải	-6914
▁tặng▁quà	-6915
▁nông▁thôn▁mới	-6916
▁côn	-6917
Trung	-6918
▁nên▁đã	-6919
▁trái▁đất	-6920
▁Trường▁hợp	-6921
▁này▁đã▁được	-6922
▁Chủ▁tịch▁nước	-6923
▁Một▁trong▁những	-6924
▁nghì	-6925
ezuela	-6926
▁Tân▁Sơn	-6927
▁Chiếc▁xe	-6928
▁nhưng▁đến	-6929
▁nhập▁viện	-6930
▁xuống▁còn	-6931
ael	-6932
▁phe	-6933
▁Hoàn▁Kiếm	-6934
▁(201	-6935
▁dấu▁ấn	-6936
▁Đắk▁Lắk	-6937
▁đoàn▁viên	-6938
▁câu▁trả▁lời	-6939
ẻo	-6940
ach	-6941
▁chẩn▁đoán	-6942
▁úy	-6943
▁nói▁là	-6944
▁thắc▁mắc	-6945
/01	-6946
berg	-6947
ishi	-6948
▁món▁quà	-6949
▁hở	-6950
▁Đêm	-6951
▁Myanmar	-6952
▁đến▁khi	-6953
▁Mourinho	-6954
▁hộ▁nghèo	-6955
▁vào▁những	-6956
▁phương▁Tây	-6957
▁trong▁phim	-6958
▁tản	-6959
▁MTTQ	-6960
▁kiệt	-6961
▁sưu▁tập	-6962
▁về▁công▁tác	-6963
▁thời▁gian▁để	-6964
▁Tờ	-6965
▁Trì	-6966
▁bị▁mất	-6967
▁tháo▁gỡ	-6968
▁bỏ▁phiếu	-6969
▁sự▁thay▁đổi	-6970
▁làm▁việc▁tại	-6971
▁Bí▁thư▁Thành▁ủy	-6972
CCC	-6973
▁lõi	-6974
rolet	-6975
▁Lúc▁này	-6976
▁Man▁City	-6977
▁hiện▁thực	-6978
▁Thứ▁trưởng▁Bộ	-6979
▁giấy▁chứng▁nhận	-6980
▁đầu▁tư▁xây▁dựng	-6981
▁có▁độ	-6982
▁màu▁đỏ	-6983
▁lớn▁của	-6984
▁hôn▁nhân	-6985
▁Microsoft	-6986
▁cách▁thức	-6987
▁cổ▁phần▁hóa	-6988
700	-6989
edia	-6990
ence	-6991
▁Amaz	-6992
celona	-6993
▁năm▁tới	-6994
▁phong▁độ	-6995
▁đám▁cưới	-6996
▁lành▁mạnh	-6997
DI	-6998
▁Sen	-6999
▁nhí	-7000
▁thẩm▁mỹ	-7001
▁đang▁là	-7002
▁thẳng▁th	-7003
▁tối▁thiểu	-7004
▁You	-7005
▁nắm▁giữ	-7006
▁tiết▁mục	-7007
▁Trung▁ương▁Đảng	-7008
▁luân	-7009
▁ranh	-7010
▁chăm▁lo	-7011
▁có▁ý▁nghĩa	-7012
ng▁toàn	-7013
▁nữ▁sinh	-7014
▁VKS	-7015
n▁đêm	-7016
▁Tuy▁vậy	-7017
▁Phiên▁bản	-7018
▁có▁hiệu▁quả	-7019
▁bảy	-7020
▁Tuyến	-7021
▁mà▁chỉ	-7022
▁đến▁hết	-7023
▁tiêu▁cực	-7024
▁Chevrolet	-7025
▁xuất▁huyết	-7026
▁Bố	-7027
▁của▁L	-7028
▁Viettel	-7029
▁tình▁trạ	-7030
▁tăng▁giá	-7031
▁vai▁diễn	-7032
▁khuyết▁tật	-7033
▁War	-7034
▁Đúng	-7035
▁Mẫu▁xe	-7036
▁chủ▁nghĩa	-7037
▁không▁ngừng	-7038
site	-7039
▁30%	-7040
▁của▁K	-7041
▁khoang	-7042
▁mua▁lại	-7043
▁đến▁tháng	-7044
▁sương	-7045
▁rèn▁luyện	-7046
▁cho▁đến▁khi	-7047
ei	-7048
▁Geo	-7049
▁Nhận	-7050
▁euro	-7051
▁cá▁tính	-7052
▁lấn▁chiếm	-7053
▁diễn▁ra▁tại	-7054
▁chúng▁tôi▁đã	-7055
▁của▁học▁sinh	-7056
▁các▁bộ	-7057
▁cố▁tình	-7058
▁trước▁và	-7059
▁hoãn	-7060
▁trân	-7061
▁đặc▁thù	-7062
▁Mặt▁khác	-7063
▁Đồng▁Tháp	-7064
▁Những▁ngày	-7065
▁2,5	-7066
▁Vạn	-7067
▁hoà	-7068
▁mới▁chỉ	-7069
▁ứng▁viên	-7070
iel	-7071
▁Sai	-7072
▁rực▁rỡ	-7073
▁không▁làm	-7074
▁các▁thành▁viên	-7075
▁trong▁danh▁sách	-7076
▁toá	-7077
gentina	-7078
▁Từ▁Liêm	-7079
aco	-7080
▁Er	-7081
▁Cấp	-7082
▁Wil	-7083
▁cua	-7084
▁ở▁đó	-7085
▁nếu▁có	-7086
▁sức▁ép	-7087
▁Hội▁thảo	-7088
▁Thời▁điểm	-7089
▁chính▁của	-7090
▁có▁thể▁bị	-7091
▁khôi▁phục	-7092
▁vết▁thương	-7093
▁đáy	-7094
itter	-7095
▁anh▁đã	-7096
▁hậu▁vệ	-7097
▁khác▁là	-7098
ng▁đã▁được	-7099
▁hiểu▁biết	-7100
▁phòng▁thủ	-7101
▁sáng▁kiến	-7102
▁trường▁ĐH	-7103
▁lớn▁nhất▁của	-7104
có	-7105
ali	-7106
▁đệ	-7107
▁cô▁ấy	-7108
▁ở▁vòng	-7109
▁giao▁tiếp	-7110
ade	-7111
▁cườ	-7112
▁dịu	-7113
úng▁đ	-7114
ng▁tác	-7115
▁bắt▁tay	-7116
▁vẫn▁phải	-7117
AN	-7118
▁SV	-7119
▁liều	-7120
▁Cả▁hai	-7121
▁hợp▁tác▁với	-7122
▁khu▁công▁nghiệp	-7123
▁Tư▁lệnh	-7124
▁tiến▁bộ	-7125
▁nhìn▁nhận	-7126
▁trước▁ngày	-7127
▁ảnh▁hưởng▁tới	-7128
▁khoả	-7129
▁nhẫn	-7130
▁của▁đội	-7131
▁tên▁gọi	-7132
▁Bảo▁tàng	-7133
▁Bang	-7134
▁Chứng	-7135
▁họ▁sẽ	-7136
▁giờ▁đây	-7137
▁đối▁phó	-7138
▁nhan▁sắc	-7139
▁đánh▁dấu	-7140
▁Lex	-7141
▁Quế	-7142
▁Zing	-7143
▁Barca	-7144
▁Có▁lẽ	-7145
▁hoành	-7146
n▁điều▁lệ	-7147
▁Tri	-7148
▁rời▁khỏi	-7149
▁chữa▁cháy	-7150
▁chiến▁thuật	-7151
bin	-7152
▁BTC	-7153
▁Gần	-7154
▁cúng	-7155
▁phát▁động	-7156
▁bùn	-7157
▁Times	-7158
▁Nhà▁hát	-7159
▁trên▁một	-7160
▁hệ▁thống▁t	-7161
▁kề	-7162
▁Ali	-7163
▁Ber	-7164
▁Loại	-7165
▁Trạch	-7166
ational	-7167
ìm▁kiếm	-7168
▁và▁phải	-7169
▁còn▁là	-7170
▁mỗi▁lần	-7171
▁nhạy▁cảm	-7172
▁khoáng▁sản	-7173
▁thế▁hệ▁mới	-7174
▁là▁rất	-7175
▁chất▁liệu	-7176
ATO	-7177
▁Kur	-7178
▁chán	-7179
▁hiếp	-7180
▁màng	-7181
ộng▁đất	-7182
▁muốn▁đ	-7183
▁gói▁thầu	-7184
▁trên▁khắp	-7185
xy	-7186
▁nhôm	-7187
▁anh▁ấy	-7188
▁hơn▁cả	-7189
▁phân▁công	-7190
▁thực▁hành	-7191
▁AM	-7192
▁chuộng	-7193
▁cho▁tôi	-7194
▁Argentina	-7195
▁người▁Việt	-7196
▁có▁trách▁nhiệm	-7197
ink	-7198
ghan	-7199
▁Hoà	-7200
▁2015.	-7201
▁không▁nhỏ	-7202
▁Trung▁Đông	-7203
▁người▁bệnh	-7204
dar	-7205
trong	-7206
▁Chân	-7207
ổng▁hợp	-7208
▁lại▁là	-7209
▁áo▁dài	-7210
▁với▁hơn	-7211
▁khởi▁điểm	-7212
▁chủ▁sở▁hữu	-7213
▁Sch	-7214
▁trồ	-7215
▁đùa	-7216
▁Bị▁cáo	-7217
▁thì▁có	-7218
▁mảnh▁đất	-7219
▁container	-7220
▁bao▁gồm▁cả	-7221
▁đối▁phương	-7222
▁thường▁được	-7223
ng▁điện▁thoại	-7224
▁tham▁gia▁vào	-7225
▁Đơn	-7226
press	-7227
▁20.000	-7228
▁Hầu▁hết	-7229
▁chỉ▁định	-7230
▁hải▁quân	-7231
eal	-7232
▁Bồ	-7233
▁gắt	-7234
▁gây▁thiệt▁hại	-7235
▁46	-7236
▁rẽ	-7237
▁Sal	-7238
▁quyển	-7239
▁phạm▁tội	-7240
▁Biển▁Đông	-7241
▁Công▁đoàn	-7242
▁nhân▁được	-7243
▁Bình▁Thuận	-7244
▁chênh▁lệch	-7245
▁NV	-7246
▁Mas	-7247
▁đúc	-7248
▁Toky	-7249
▁kỳ▁lạ	-7250
▁Vĩnh▁Phúc	-7251
▁chung▁của	-7252
▁Đại▁sứ▁quán	-7253
Bình	-7254
▁20%	-7255
▁Núi	-7256
▁khái	-7257
▁họa▁sĩ	-7258
▁điều▁hòa	-7259
▁thành▁tựu	-7260
▁No	-7261
▁THA	-7262
▁dưỡ	-7263
▁Lạng	-7264
▁bỏ▁ra	-7265
▁phá▁hủy	-7266
▁huyết▁áp	-7267
▁hành▁lang	-7268
▁điển▁hình	-7269
▁nguồn▁nhân▁lực	-7270
GP	-7271
der	-7272
▁hé	-7273
▁Bức	-7274
▁Rồi	-7275
▁mày	-7276
▁Bảo▁vệ	-7277
▁thu▁giữ	-7278
▁phần▁nào	-7279
▁năng▁động	-7280
▁trên▁sông	-7281
/1.	-7282
▁194	-7283
ượng▁đ	-7284
▁bữa▁ăn	-7285
▁sống▁tại	-7286
▁người▁bị▁thương	-7287
▁nu	-7288
▁cao▁su	-7289
▁tối▁ưu	-7290
▁là▁việc	-7291
▁tin▁nhắn	-7292
▁Chuyên▁gia	-7293
▁khiến▁nhiều	-7294
TA	-7295
▁Cha	-7296
▁MTV	-7297
▁Tokyo	-7298
▁áp▁dụ	-7299
▁trợ▁lý	-7300
▁ăn▁mừng	-7301
▁hiệu▁suất	-7302
▁từng▁bước	-7303
Benz	-7304
▁nắp	-7305
▁Mark	-7306
▁thắng▁lợi	-7307
▁đã▁xảy▁ra	-7308
outh	-7309
▁GDP	-7310
▁hái	-7311
▁hãi	-7312
▁con▁cá	-7313
▁Sư▁phạm	-7314
▁này▁thì	-7315
▁Phạm▁Thị	-7316
▁khi▁đang	-7317
▁thị▁phần	-7318
▁nhanh▁chó	-7319
▁có▁mặt▁tại	-7320
▁sống▁trong	-7321
▁Os	-7322
▁Vịnh	-7323
▁Porsche	-7324
▁gửi▁lời	-7325
▁và▁sử▁dụng	-7326
▁bẩn	-7327
▁lường	-7328
▁khi▁bị	-7329
▁diễn▁đàn	-7330
▁xử▁lý▁nghiêm	-7331
▁Cảm	-7332
▁Fran	-7333
▁tùng	-7334
▁rất▁dễ	-7335
▁triệt▁để	-7336
▁diễn▁xuất	-7337
▁hiện▁diện	-7338
▁Phó▁Giám▁đốc	-7339
▁phải▁đối▁mặt	-7340
▁tê	-7341
▁thám	-7342
-200	-7343
n▁đó	-7344
▁Rịa	-7345
▁Lexus	-7346
ương▁để	-7347
▁của▁TP	-7348
▁phân▁bón	-7349
▁Đại▁biểu	-7350
▁năm▁gần▁đây	-7351
▁Cục▁trưởng▁Cục	-7352
▁rộn	-7353
▁tự▁chủ	-7354
▁ứng▁xử	-7355
▁một▁loạt	-7356
▁Champions	-7357
ếch	-7358
▁On	-7359
▁kè	-7360
▁gác	-7361
▁Chất	-7362
▁ngừa	-7363
▁buông	-7364
▁Nếu▁như	-7365
▁sân▁chơi	-7366
▁trao▁tặng	-7367
▁được▁xây▁dựng	-7368
ett	-7369
▁Gl	-7370
▁đứt	-7371
▁Bảng	-7372
▁giữ▁xe	-7373
▁bắt▁được	-7374
▁phản▁hồi	-7375
▁tổng▁kết	-7376
▁hơn▁khi	-7377
▁đứa▁trẻ	-7378
▁nam▁giới	-7379
▁nghỉ▁hưu	-7380
▁một▁trong	-7381
▁39	-7382
▁pro	-7383
▁Sang	-7384
▁phòng▁ngự	-7385
▁Thanh▁Niên	-7386
▁ở▁thành▁phố	-7387
▁đã▁phát▁hiện	-7388
▁các▁nhà▁đầu▁tư	-7389
▁Bay	-7390
▁trù	-7391
▁PCCC	-7392
▁Sanch	-7393
▁chăng	-7394
▁chống▁đ	-7395
▁giải▁tỏa	-7396
▁vài▁ngày	-7397
▁đấu▁thầu	-7398
▁trực▁thăng	-7399
▁gặp▁khó▁khăn	-7400
▁đã▁thực▁hiện	-7401
▁tên▁lửa▁đạn▁đạo	-7402
▁VNPT	-7403
ôn▁xao	-7404
▁thể▁lực	-7405
▁vào▁nhà	-7406
▁trái▁cây	-7407
▁nghỉ▁ngơi	-7408
▁đã▁có▁những	-7409
▁Lộ	-7410
▁VP	-7411
▁Hiển	-7412
▁nhưng▁khi	-7413
▁không▁quân	-7414
▁Các▁chuyên▁gia	-7415
vent	-7416
▁và▁nhân▁dân	-7417
▁tham▁gia▁của	-7418
▁Khởi	-7419
▁Quán	-7420
▁từ▁một	-7421
▁cảm▁hứng	-7422
▁Phát▁hiện	-7423
▁Công▁trình	-7424
▁thu▁hồi▁đất	-7425
▁nữ▁diễn▁viên	-7426
▁trên▁sân▁khấu	-7427
FA	-7428
▁Phụ▁nữ	-7429
▁cao▁và	-7430
24	-7431
tt	-7432
ial	-7433
▁bộc	-7434
▁Miss	-7435
▁thực▁chất	-7436
▁vốn▁điều▁lệ	-7437
ủa	-7438
▁rò	-7439
esel	-7440
▁Sân	-7441
▁gấu	-7442
ng▁tử	-7443
▁manh	-7444
▁giải▁U	-7445
▁Twitter	-7446
▁lời▁khai	-7447
agen	-7448
sinh	-7449
▁cong	-7450
▁quật	-7451
▁phiến	-7452
▁thánh	-7453
▁nâng▁t	-7454
▁xâm▁hại	-7455
▁Điều▁đó	-7456
▁Phú▁Quốc	-7457
▁ảnh▁hưởng▁của	-7458
by	-7459
▁Bé	-7460
▁ào	-7461
▁Hỏa	-7462
▁cai	-7463
▁bưởi	-7464
/2018,	-7465
▁Chỉ▁đạo	-7466
▁Premier	-7467
▁về▁nước	-7468
▁Ninh▁Bình	-7469
▁khởi▁công	-7470
▁kiên▁quyết	-7471
ko	-7472
▁mồi	-7473
▁Oanh	-7474
▁chật	-7475
ng▁tối	-7476
▁khánh	-7477
▁lớn▁và	-7478
▁các▁con	-7479
▁khi▁nào	-7480
▁liên▁minh	-7481
▁Giáng▁sinh	-7482
▁xuất▁sắc▁nhất	-7483
ull	-7484
▁Jack	-7485
▁Lịch▁sử	-7486
▁gắn▁liền	-7487
▁thêm▁một	-7488
▁đồng▁tiền	-7489
TCP	-7490
▁Obama	-7491
▁sẵn▁sà	-7492
▁Trung▁t	-7493
▁chưa▁đủ	-7494
▁đồng▁hành	-7495
GD	-7496
biz	-7497
ola	-7498
▁One	-7499
▁bán▁tải	-7500
▁cứu▁nạn	-7501
▁quý▁hiếm	-7502
▁theo▁ông	-7503
▁Venezuela	-7504
▁trên▁cả▁nước	-7505
ịn	-7506
▁nợ▁xấu	-7507
▁dân▁chủ	-7508
▁phi▁công	-7509
▁Bộ▁Chính▁trị	-7510
16	-7511
▁Lại	-7512
▁bọn	-7513
▁mâm	-7514
▁Viễn	-7515
ng▁đưa	-7516
▁tòa▁án	-7517
▁Phú▁Thọ	-7518
▁mặt▁đất	-7519
▁tìm▁đến	-7520
▁thảm▁họa	-7521
▁Ty	-7522
▁mộng	-7523
ấn▁công	-7524
▁điện▁đ	-7525
▁website	-7526
▁châu▁Phi	-7527
▁sôi▁động	-7528
▁thập▁niên	-7529
▁dưa	-7530
▁Khang	-7531
▁mà▁ông	-7532
▁nghiệt	-7533
▁vui▁mừng	-7534
▁tính▁mạng	-7535
▁sử▁dụng▁để	-7536
▁để▁giải▁quyết	-7537
▁để▁phát▁triển	-7538
▁nạ	-7539
▁dẹp	-7540
▁Tiêu	-7541
▁ở▁huyện	-7542
▁cung▁ứng	-7543
▁biến▁động	-7544
▁Chú	-7545
▁ngà	-7546
▁cân▁đ	-7547
▁cố▁gắ	-7548
▁của▁em	-7549
▁quân▁đ	-7550
▁đèn▁pha	-7551
▁này▁đang	-7552
▁trước▁mắt	-7553
▁Tân▁Sơn▁Nhất	-7554
▁của▁khách▁hàng	-7555
▁Vợ	-7556
▁lũy	-7557
▁David	-7558
▁phiền	-7559
▁là▁phải	-7560
▁kiểu▁dáng	-7561
▁luôn▁được	-7562
▁Ban▁tổ▁chức	-7563
▁quy▁định▁tại	-7564
▁Hàm	-7565
▁Lần	-7566
▁Tra	-7567
▁chê	-7568
erson	-7569
▁dũng	-7570
▁măng	-7571
▁như▁các	-7572
▁thăm▁dò	-7573
Chúng▁tôi	-7574
▁chào▁đón	-7575
▁của▁chiếc	-7576
▁Ri	-7577
▁Mor	-7578
▁Hà▁Lan	-7579
▁dài▁hạn	-7580
▁Phan▁Văn	-7581
▁trúng▁tuyển	-7582
▁vào▁thời▁điểm	-7583
▁44	-7584
▁Pe	-7585
▁kĩ	-7586
▁Bắt	-7587
▁trắ	-7588
▁châm	-7589
▁Afghan	-7590
▁quần▁đ	-7591
▁sự▁chú▁ý	-7592
▁bình▁chọn	-7593
▁với▁mức▁giá	-7594
▁Theo▁thống▁kê	-7595
▁xô	-7596
▁mới▁và	-7597
▁thẳng▁thắn	-7598
▁Thí	-7599
▁luận▁đ	-7600
▁nên▁việc	-7601
▁của▁huyện	-7602
axi	-7603
▁gay	-7604
▁Gần▁đ	-7605
▁mà▁họ	-7606
▁rối▁loạn	-7607
▁từ▁thiện	-7608
▁có▁thể▁gây	-7609
▁trong▁trận	-7610
▁trường▁Đại▁học	-7611
▁tới▁nay	-7612
▁oan	-7613
▁dân▁gian	-7614
▁trong▁năm▁nay	-7615
▁Năng	-7616
▁đến▁mức	-7617
26	-7618
▁Ngữ	-7619
▁dữ▁dội	-7620
▁bầu▁trời	-7621
▁của▁từng	-7622
▁người▁xem	-7623
▁(6	-7624
▁đè	-7625
▁Chr	-7626
▁Bộ▁Y▁tế	-7627
▁xe▁khách	-7628
▁ở▁một▁số	-7629
▁Barcelona	-7630
▁của▁Quốc▁hội	-7631
▁về▁vấn▁đề▁này	-7632
▁Sw	-7633
▁nhà▁cửa	-7634
▁xôn▁xao	-7635
▁Động▁cơ	-7636
▁nhanh▁hơn	-7637
▁Thanh▁niên	-7638
▁Chủ▁tịch▁HĐQT	-7639
▁an▁ninh▁trật▁tự	-7640
▁Kỷ	-7641
▁Nhã	-7642
▁Hà▁Đông	-7643
▁cố▁định	-7644
▁tưởng▁t	-7645
▁bãi▁biển	-7646
▁người▁và	-7647
▁tùy▁chọn	-7648
▁biểu▁tình	-7649
▁lắng▁nghe	-7650
▁thực▁trạng	-7651
▁trong▁điều▁kiện	-7652
▁dừa	-7653
▁ngón	-7654
ng▁đạt	-7655
▁Guard	-7656
▁Khanh	-7657
▁đáng▁chú▁ý	-7658
ower	-7659
▁có▁tới	-7660
88	-7661
▁IP	-7662
ixel	-7663
0.000	-7664
▁United	-7665
▁bộ▁đội	-7666
▁cao▁điểm	-7667
▁kiểm▁điểm	-7668
▁cổ▁động▁viên	-7669
▁thực▁hiện▁dự▁án	-7670
apt	-7671
▁Mông	-7672
▁golf	-7673
ương▁tác	-7674
tương▁đương	-7675
▁là▁những▁người	-7676
▁CO	-7677
▁FB	-7678
▁trễ	-7679
▁mở▁rộ	-7680
▁về▁quê	-7681
▁từ▁việc	-7682
▁chứng▁tỏ	-7683
▁theo▁học	-7684
▁thiểu▁số	-7685
▁thông▁ti	-7686
▁nước▁sạch	-7687
▁mới▁nhất▁của	-7688
▁ở▁Trung▁Quốc	-7689
▁Km	-7690
okia	-7691
▁biến▁mất	-7692
▁sẽ▁khiến	-7693
▁Với▁những	-7694
▁Tay	-7695
▁các▁bệnh	-7696
▁tranh▁cử	-7697
▁triệu▁chứng	-7698
▁điều▁kiện▁để	-7699
▁KCN	-7700
▁bắp	-7701
▁cóc	-7702
▁xuố	-7703
ất▁cả	-7704
▁Nga▁và	-7705
▁biết▁được	-7706
▁trường▁để	-7707
▁để▁bảo▁vệ	-7708
▁Nguyễn▁Minh	-7709
lay	-7710
▁Cat	-7711
▁mòn	-7712
▁đành	-7713
ng▁đánh	-7714
▁cho▁sự	-7715
▁ẩm▁thực	-7716
▁các▁điểm	-7717
▁thông▁số	-7718
▁thời▁đại	-7719
▁dự▁kiến▁sẽ	-7720
▁Sở▁Xây▁dựng	-7721
37	-7722
ight	-7723
▁Hol	-7724
▁Sáu	-7725
ung▁l	-7726
▁tuyến▁đ	-7727
▁lại▁không	-7728
▁thoát▁khỏi	-7729
ps	-7730
▁15,	-7731
ời▁sống	-7732
▁hàng▁xóm	-7733
▁giám▁định	-7734
▁phân▁giải	-7735
▁sáng▁ngày	-7736
▁tranh▁thủ	-7737
▁hệ▁điều▁hành	-7738
▁bấy	-7739
ubishi	-7740
▁vụ▁nổ	-7741
▁dưới▁sự	-7742
▁thì▁việc	-7743
▁bảng▁xếp▁hạng	-7744
▁nhà▁nghiên▁cứu	-7745
ush	-7746
▁4.0	-7747
▁khiếp	-7748
▁mua▁xe	-7749
▁Dân▁chủ	-7750
▁cản▁trở	-7751
▁bé▁gái	-7752
▁Sanchez	-7753
▁nghĩ▁rằng	-7754
▁UBND▁TP▁Hà▁Nội	-7755
▁chè	-7756
▁hải▁sản	-7757
▁Không▁có	-7758
▁Đồng▁chí	-7759
▁Hoàng▁Văn	-7760
▁Nơi	-7761
▁Tre	-7762
▁nạo	-7763
Vietnam	-7764
▁tỉ▁USD	-7765
▁Nhà▁báo	-7766
▁ra▁đường	-7767
AP	-7768
sh	-7769
▁on	-7770
▁Mộc	-7771
▁2013,	-7772
▁cho▁xe	-7773
▁có▁mưa	-7774
▁giữ▁gìn	-7775
▁này▁đều	-7776
▁lý▁tưởng	-7777
▁thể▁hiện▁sự	-7778
SG	-7779
▁Tur	-7780
▁cấy	-7781
▁rao	-7782
▁Messi	-7783
▁nhân▁đã	-7784
▁Thiết▁kế	-7785
▁người▁yêu	-7786
▁vững▁chắc	-7787
▁Premier▁League	-7788
DC	-7789
uz	-7790
ắn▁đ	-7791
▁Sức	-7792
▁mèo	-7793
▁Bà▁Rịa	-7794
▁có▁hai	-7795
▁dạ▁dày	-7796
▁là▁ông	-7797
▁An▁Giang	-7798
▁đến▁trường	-7799
▁cơ▁quan▁quản▁lý	-7800
▁Hong	-7801
▁chuối	-7802
▁giá▁cả	-7803
▁nhất▁trí	-7804
▁được▁sử▁dụng	-7805
▁Nghe	-7806
▁Gần▁đây	-7807
▁này▁chỉ	-7808
▁chi▁tiêu	-7809
▁Thực▁hiện	-7810
▁có▁nhu▁cầu	-7811
▁Giải▁thưởng	-7812
▁cay	-7813
▁mưa▁lũ	-7814
▁vào▁lớp	-7815
▁dịch▁bệnh	-7816
▁trồng▁cây	-7817
▁làm▁nhiệm▁vụ	-7818
▁Trong▁thời▁gian	-7819
▁các▁phương▁tiện	-7820
▁vũ▁khí▁hạt▁nhân	-7821
KH	-7822
ye	-7823
otte	-7824
▁đớn	-7825
▁Kong	-7826
▁Amazon	-7827
▁khoản▁tiền	-7828
▁trong▁phòng	-7829
▁Lò	-7830
▁vuông	-7831
itsubishi	-7832
▁facebook	-7833
▁nông▁sản	-7834
▁Quá▁trình	-7835
▁Không▁quân	-7836
.1,	-7837
▁giế	-7838
▁ngọc	-7839
▁mô▁tả	-7840
▁cái▁gì	-7841
▁giấc▁mơ	-7842
▁với▁ông	-7843
▁tự▁nguyện	-7844
▁thực▁hiện▁tốt	-7845
BA	-7846
▁EVN	-7847
▁hợp▁đồ	-7848
▁Sản▁phẩm	-7849
-23	-7850
▁phơi	-7851
▁Liên▁Hợp	-7852
▁đặc▁điểm	-7853
▁tiếng▁Việt	-7854
▁tàu▁sân▁bay	-7855
▁cũng▁cho▁rằng	-7856
▁Bộ▁Công▁Thương	-7857
▁cự	-7858
▁Rang	-7859
▁Italy	-7860
▁TTXVN	-7861
▁So▁với	-7862
▁mất▁đi	-7863
▁danh▁là	-7864
▁nối▁với	-7865
▁tuyến▁phố	-7866
▁thường▁trực	-7867
▁1,2	-7868
▁Dược	-7869
▁muỗi	-7870
▁vịnh	-7871
ống▁Đa	-7872
▁của▁PV	-7873
▁hữu▁cơ	-7874
▁lao▁độ	-7875
▁nhận▁diện	-7876
▁phòng▁ngừa	-7877
▁47	-7878
▁63	-7879
▁CT	-7880
ghini	-7881
▁Á▁hậu	-7882
▁tôi▁không	-7883
men▁xoắn▁cực▁đại	-7884
▁huấn▁luyện▁viên	-7885
bia	-7886
▁cúp	-7887
▁Lý▁do	-7888
▁mã▁độc	-7889
▁có▁thể▁sẽ	-7890
▁hàng▁triệu	-7891
▁gây▁ô▁nhiễm	-7892
▁ngay▁sau▁khi	-7893
▁tại▁thành▁phố	-7894
▁bì	-7895
ng▁tiếp	-7896
▁ra▁sân	-7897
▁Dịch▁vụ	-7898
▁truy▁tố	-7899
▁thế▁mạnh	-7900
▁bình▁đẳng	-7901
▁có▁một▁số	-7902
▁kiểm▁định	-7903
▁thân▁thiết	-7904
▁đầu▁tư▁vào	-7905
▁Cố	-7906
▁Cách▁đây	-7907
▁bằng▁một	-7908
▁khó▁chịu	-7909
▁cưỡng▁chế	-7910
▁thậm▁chí▁còn	-7911
ala	-7912
▁41	-7913
▁Mus	-7914
▁hao	-7915
▁của▁HLV	-7916
▁hết▁mình	-7917
Trung▁Quốc	-7918
Anh	-7919
▁Ben	-7920
▁Sil	-7921
TC▁News	-7922
▁Võ▁Văn	-7923
▁bùng▁nổ	-7924
▁nghị▁sĩ	-7925
▁cơ▁hội▁để	-7926
▁xác▁định▁được	-7927
Đà	-7928
▁Cửu	-7929
▁FLC	-7930
▁lát	-7931
▁vét	-7932
▁từ▁chức	-7933
▁khống▁chế	-7934
▁quan▁trọng▁của	-7935
▁tin▁đồn	-7936
▁Cầu▁Giấy	-7937
▁Việt▁Nam▁là	-7938
▁cũng▁như▁các	-7939
Gi	-7940
▁BT	-7941
▁FPT	-7942
▁III	-7943
/2014	-7944
▁nhạt	-7945
▁do▁các	-7946
▁đứa▁con	-7947
▁kể▁từ▁ngày	-7948
▁hoàn▁toàn▁mới	-7949
ny	-7950
▁súc	-7951
▁2008	-7952
▁cấp▁ủy	-7953
▁dự▁phòng	-7954
▁chỉ▁đạo▁của	-7955
▁với▁số▁tiền	-7956
In	-7957
▁cắn	-7958
▁môtô	-7959
▁Quyên	-7960
borghini	-7961
▁bước▁đầu	-7962
47	-7963
bum	-7964
ng▁đa	-7965
▁binh▁sĩ	-7966
▁dẫn▁lời	-7967
▁giờ▁ngày	-7968
▁trang▁web	-7969
▁Si	-7970
▁de	-7971
▁Diệu	-7972
▁nước▁và	-7973
▁Liên▁hợp	-7974
▁phát▁sóng	-7975
▁đồng▁tình	-7976
▁trở▁lại▁đây	-7977
▁350	-7978
▁Lục	-7979
▁Hoạt	-7980
▁có▁đủ	-7981
▁cá▁thể	-7982
▁nhưng▁đã	-7983
▁tạo▁ra▁một	-7984
▁lặp	-7985
▁Gươm	-7986
▁chỗ▁ngồi	-7987
▁thuận▁tiện	-7988
▁Lamborghini	-7989
▁cho▁những▁người	-7990
car	-7991
ford	-7992
▁CNN	-7993
▁bội	-7994
lines	-7995
▁SLNA	-7996
ng▁đặt	-7997
▁chân▁đ	-7998
▁nếu▁như	-7999
▁làm▁giảm	-8000
▁hơn▁nhiều	-8001
▁Afghanistan	-8002
les	-8003
▁Ir	-8004
▁Xin	-8005
▁nho	-8006
▁rạp	-8007
▁sáp	-8008
▁phòng▁không	-8009
▁Ge	-8010
▁PH	-8011
▁1.5	-8012
▁khi▁đi	-8013
▁tàu▁cá	-8014
▁có▁phần	-8015
▁thu▁gom	-8016
▁tinh▁tế	-8017
▁cuộc▁gặp	-8018
▁theo▁các	-8019
▁tương▁ứng	-8020
▁giọt	-8021
▁thấm	-8022
▁Khi▁đó	-8023
▁bản▁lĩnh	-8024
▁tầm▁nhìn	-8025
ng▁tích▁cực	-8026
▁sản▁xuất▁và	-8027
▁cm	-8028
▁khuất	-8029
▁Lễ▁hội	-8030
▁Chỉ▁huy	-8031
▁tin▁báo	-8032
▁Người▁ta	-8033
▁đẳng▁cấp	-8034
▁biết▁rằng	-8035
▁và▁gia▁đình	-8036
▁xây▁dựng▁một	-8037
46	-8038
uts	-8039
▁cước	-8040
▁4.000	-8041
▁nghiêng	-8042
▁chức▁danh	-8043
▁cảnh▁quan	-8044
▁phân▁loại	-8045
▁tại▁Trung▁tâm	-8046
fe	-8047
▁Clip	-8048
▁độ▁cao	-8049
▁Bạc▁Liêu	-8050
▁khu▁vực▁này	-8051
▁được▁đưa▁ra	-8052
VOV	-8053
▁Pak	-8054
▁phím	-8055
▁Hướng	-8056
▁Toàn▁bộ	-8057
▁sai▁sót	-8058
▁cảm▁nhận	-8059
▁của▁Luật	-8060
▁NTM	-8061
▁Vic	-8062
▁cọc	-8063
▁2010,	-8064
▁Seoul	-8065
▁con▁tàu	-8066
▁dụng▁cụ	-8067
▁Galaxy▁Note	-8068
▁Tum	-8069
▁nâu	-8070
ng▁tính	-8071
▁Khương	-8072
▁bác▁sỹ	-8073
▁luôn▁đ	-8074
▁Ngay▁cả	-8075
▁con▁cái	-8076
▁lan▁tỏa	-8077
▁người▁mua	-8078
▁chỉ▁là▁một	-8079
▁và▁tổ▁chức	-8080
▁những▁chiếc▁xe	-8081
ER	-8082
▁ốm	-8083
▁Pet	-8084
▁Dòng	-8085
▁người▁Mỹ	-8086
▁thăm▁hỏi	-8087
▁chuyển▁đến	-8088
bur	-8089
▁Jer	-8090
▁sét	-8091
▁Đôi	-8092
ng▁tiến	-8093
▁giải▁cứu	-8094
▁khác▁của	-8095
ng▁điện▁tử	-8096
▁thêm▁nhiều	-8097
▁những▁sản▁phẩm	-8098
uk	-8099
▁Mob	-8100
▁Lăng	-8101
▁của▁mỗi	-8102
▁hơn▁một	-8103
▁xã▁hội▁hóa	-8104
ổn	-8105
▁Val	-8106
▁Nhật▁B	-8107
▁mới▁này	-8108
▁thương▁vụ	-8109
▁Bí▁thư▁Tỉnh▁ủy	-8110
▁02	-8111
▁67	-8112
▁Đảng▁bộ	-8113
▁công▁đoàn	-8114
17	-8115
ime	-8116
▁Khải	-8117
▁Phân	-8118
▁nướng	-8119
▁lớn▁lên	-8120
▁mang▁về	-8121
▁trộm▁cắp	-8122
ng▁tổ▁chức	-8123
▁nên▁không	-8124
▁trinh▁sát	-8125
▁làm▁thủ▁tục	-8126
▁Hiến	-8127
▁ứng▁cử	-8128
▁Hà▁Giang	-8129
▁tôn▁vinh	-8130
▁tăng▁cao	-8131
▁bản▁quyền	-8132
▁ngành▁nghề	-8133
▁chức▁năng▁t	-8134
▁thực▁hiện▁được	-8135
▁49	-8136
▁Xi	-8137
▁sả	-8138
▁Mình	-8139
▁chóng	-8140
▁khóa▁X	-8141
▁kể▁đến	-8142
▁để▁giúp	-8143
▁cẩn▁thận	-8144
▁truyền▁đ	-8145
▁kháng▁chiến	-8146
▁trên▁thực▁tế	-8147
▁xây▁dựng▁các	-8148
VT	-8149
ena	-8150
Thanh	-8151
▁bách	-8152
▁cơn▁bão	-8153
▁ngộ▁độc	-8154
▁Công▁viên	-8155
▁theo▁kiểu	-8156
▁Cùng▁với▁đó	-8157
HC	-8158
abe	-8159
nik	-8160
ates	-8161
wood	-8162
▁70%	-8163
▁Phù	-8164
▁USS	-8165
▁soi	-8166
▁hơn▁đ	-8167
▁Hà▁Nam	-8168
▁hẹn▁hò	-8169
▁một▁nhóm	-8170
▁Nguồn▁ảnh	-8171
DN	-8172
ney	-8173
▁Cán	-8174
▁Mỹ▁Đình	-8175
▁có▁tổng	-8176
▁nhiệt▁tình	-8177
▁xám	-8178
▁Trúc	-8179
▁sợ▁hãi	-8180
▁của▁dân▁tộc	-8181
▁hệ▁sinh▁thái	-8182
36	-8183
Cl	-8184
▁Dis	-8185
▁ngâm	-8186
▁từ▁đầu	-8187
▁bệnh▁tật	-8188
▁trên▁đườ	-8189
▁không▁chịu	-8190
▁của▁thị▁trường	-8191
mer	-8192
▁men	-8193
▁Char	-8194
▁bến▁xe	-8195
▁Thí▁sinh	-8196
▁chất▁độc	-8197
▁màu▁trắng	-8198
▁mạnh▁nhất	-8199
▁đã▁đưa▁ra	-8200
▁thương▁tích	-8201
▁rất▁khó▁khăn	-8202
▁Or	-8203
▁LHQ	-8204
▁còi	-8205
▁ghé	-8206
ng▁tập	-8207
▁Ngành	-8208
▁tháo▁dỡ	-8209
▁chất▁vấn	-8210
▁của▁Toyota	-8211
ith	-8212
▁nặ	-8213
▁Rom	-8214
▁rò▁rỉ	-8215
▁học▁và	-8216
▁lớn▁như	-8217
▁ngân▁hà	-8218
▁Lâm▁Đồng	-8219
▁Điện▁lực	-8220
▁giáo▁khoa	-8221
▁khách▁mời	-8222
▁ngoại▁ngữ	-8223
ura	-8224
▁Bó	-8225
▁hước	-8226
▁carbon	-8227
▁luôn▁là	-8228
▁chuyện▁đ	-8229
▁chứng▁cứ	-8230
▁của▁nước	-8231
▁hiệu▁ứng	-8232
▁nữ▁ca▁sĩ	-8233
▁vá	-8234
ster	-8235
▁13,	-8236
▁để▁tạo	-8237
▁cửa▁khẩu	-8238
so	-8239
ụa	-8240
▁tần	-8241
▁nồng	-8242
ng▁độc	-8243
▁Phóng	-8244
▁cửa▁sổ	-8245
▁ở▁phía	-8246
▁vô▁tình	-8247
▁Mục▁tiêu	-8248
▁giới▁trẻ	-8249
▁không▁khỏi	-8250
▁Phó▁Giám▁đốc▁Sở	-8251
▁những▁thông▁tin	-8252
85	-8253
ụn	-8254
▁Cung	-8255
▁từ▁bỏ	-8256
▁thủ▁công	-8257
▁tại▁huyện	-8258
▁và▁Đầu▁tư	-8259
▁Bro	-8260
▁chém	-8261
▁Black	-8262
▁Nguyệt	-8263
▁gửi▁đến	-8264
▁lục▁địa	-8265
▁Thượng▁t	-8266
▁đột▁ngột	-8267
▁vóc	-8268
▁Star	-8269
▁viền	-8270
ổi▁mới	-8271
▁30.000	-8272
▁Hợp▁tác	-8273
▁trả▁tiền	-8274
▁trẻ▁trung	-8275
▁đóng▁vai▁trò	-8276
ng▁đặc	-8277
▁khu▁phố	-8278
▁kê▁khai	-8279
▁thứ▁nhất	-8280
▁vào▁việc	-8281
▁đã▁công▁bố	-8282
▁đã▁hoàn▁thành	-8283
▁tỉnh▁Quảng▁Ninh	-8284
/100	-8285
▁Phố	-8286
▁phá▁vỡ	-8287
▁phải▁đi	-8288
▁thậm▁chí▁là	-8289
▁Min	-8290
olero	-8291
▁móng	-8292
▁hỗn▁hợp	-8293
▁Airlines	-8294
▁bằng▁những	-8295
▁Nguyễn▁Thanh	-8296
▁của▁địa▁phương	-8297
▁Gò	-8298
▁Tứ	-8299
▁Bảy	-8300
▁rải	-8301
▁sàng	-8302
▁khoan	-8303
▁bán▁chạy	-8304
▁Tất▁nhiên	-8305
▁Liên▁Hợp▁Quốc	-8306
ksw	-8307
▁tiệm	-8308
▁hơn▁để	-8309
▁hoa▁hậu	-8310
▁loại▁xe	-8311
▁làm▁nên	-8312
▁địa▁hình	-8313
▁Chẳng▁hạn	-8314
▁nhiếp▁ảnh	-8315
▁đồng▁thuận	-8316
▁cuộc▁tấn▁công	-8317
ịt	-8318
bab	-8319
van	-8320
▁HIV	-8321
▁dệt	-8322
▁mô▁tô	-8323
▁công▁a	-8324
▁Bùi▁Văn	-8325
▁lựa▁chọ	-8326
▁vinh▁dự	-8327
▁lý▁thuyết	-8328
▁các▁thủ▁tục	-8329
▁tại▁Trung▁Quốc	-8330
▁AN	-8331
▁Màn	-8332
▁Yêu	-8333
▁xích	-8334
▁hòn▁đảo	-8335
▁lực▁lượ	-8336
▁cho▁dự▁án	-8337
QL	-8338
▁gối	-8339
▁tác▁độ	-8340
▁đền▁bù	-8341
▁gọi▁điện	-8342
▁đã▁đạt▁được	-8343
mi	-8344
▁Mười	-8345
▁VHTT	-8346
▁khôn	-8347
▁1.500	-8348
▁chanh	-8349
iễn▁đàn	-8350
▁50.000	-8351
▁kiến▁đ	-8352
▁tiềm▁ẩn	-8353
▁mong▁đợi	-8354
▁ngày▁một	-8355
MC	-8356
▁56	-8357
▁Geor	-8358
▁Làng	-8359
▁giàu▁có	-8360
▁gợi▁cảm	-8361
▁kế▁toán	-8362
▁nhà▁văn	-8363
▁tạm▁giam	-8364
▁Cách▁mạng	-8365
▁vào▁chiều	-8366
▁Ban▁Quản▁lý	-8367
TH	-8368
enc	-8369
▁Phim	-8370
ealand	-8371
▁thần▁đ	-8372
▁Hôm▁nay	-8373
▁hữu▁nghị	-8374
▁tình▁báo	-8375
▁hoàn▁chỉnh	-8376
▁điểm▁chuẩn	-8377
▁có▁thể▁thấy	-8378
ạp▁chí	-8379
▁cuồng	-8380
▁mẹ▁con	-8381
▁ứng▁dụ	-8382
▁nhớ▁lại	-8383
▁phụ▁kiện	-8384
▁Bộ▁Công▁an	-8385
▁của▁cán▁bộ	-8386
▁Ban▁quản▁lý	-8387
▁Ham	-8388
▁tựa	-8389
▁đạc	-8390
▁Cuba	-8391
▁Phụng	-8392
▁hơn▁về	-8393
▁ở▁phút	-8394
▁cài▁đặt	-8395
▁Kết▁thúc	-8396
▁thủy▁lợi	-8397
▁Hoàng▁Mai	-8398
▁đạt▁chuẩn	-8399
▁Hàng▁không	-8400
▁dung▁lượng	-8401
▁tại▁trường	-8402
▁phát▁triển▁đ	-8403
▁hành▁vi▁vi▁phạm	-8404
▁Sn	-8405
▁Tạ	-8406
▁cởi	-8407
▁xôi	-8408
▁Huân	-8409
ẩy▁mạnh	-8410
▁Thứ▁hai	-8411
▁bạn▁trai	-8412
▁có▁quyền	-8413
▁có▁hiệu▁lực	-8414
▁gia▁đình▁ông	-8415
▁gã	-8416
▁rể	-8417
▁xơ	-8418
▁Show	-8419
▁Vlad	-8420
▁Bản▁thân	-8421
▁canh▁tác	-8422
▁trên▁tàu	-8423
▁Hoa▁hậu▁Hoàn	-8424
▁cho▁sức▁khỏe	-8425
▁có▁diện▁tích	-8426
▁Liên▁hợp▁quốc	-8427
27	-8428
oto	-8429
▁Sẽ	-8430
Công	-8431
▁tre	-8432
▁Buổi	-8433
▁Martin	-8434
▁diesel	-8435
▁to▁lớn	-8436
▁công▁sức	-8437
▁tham▁vọng	-8438
▁Dư	-8439
▁xà	-8440
▁Tới	-8441
▁VTV	-8442
▁sụp	-8443
▁Auto	-8444
▁Sách	-8445
▁Từ▁năm	-8446
▁để▁lấy	-8447
▁làm▁chủ	-8448
▁bài▁toán	-8449
▁quần▁đảo	-8450
▁Trong▁năm	-8451
▁sử▁dụng▁động▁cơ	-8452
▁Gh	-8453
thuộc	-8454
▁ATGT	-8455
▁bản▁án	-8456
▁lưu▁giữ	-8457
▁nạo▁vét	-8458
▁tin▁tức	-8459
▁kích▁hoạt	-8460
▁luật▁pháp	-8461
▁nhưng▁tôi	-8462
▁nghìn▁đồng	-8463
một	-8464
ại▁biểu	-8465
▁cố▁vấn	-8466
▁thiêng	-8467
▁tuyển▁U	-8468
▁không▁rõ	-8469
▁thu▁tiền	-8470
▁nghĩa▁trang	-8471
▁Trường▁Giang	-8472
▁trong▁nước▁và	-8473
ings	-8474
▁Tông	-8475
▁tụng	-8476
▁cho▁họ	-8477
▁Zealand	-8478
▁chỉ▁sau	-8479
▁phê▁bình	-8480
▁Trường▁Sa	-8481
▁khắc▁nghiệt	-8482
▁Id	-8483
▁Jo	-8484
▁Mở	-8485
▁RAM	-8486
▁xót	-8487
▁tưới	-8488
▁cô▁nàng	-8489
▁lâu▁nay	-8490
▁tản▁nhiệt	-8491
▁đã▁có▁nhiều	-8492
.,	-8493
▁iP	-8494
nger	-8495
▁Del	-8496
▁khốc	-8497
▁mới▁mẻ	-8498
▁tên▁là	-8499
▁vân▁tay	-8500
▁Đống▁Đa	-8501
ng▁điều▁tra	-8502
▁Phát▁biểu▁tại	-8503
▁Han	-8504
▁Kurd	-8505
▁tự▁ý	-8506
▁hơn▁với	-8507
▁khi▁các	-8508
▁ở▁trong	-8509
▁muốn▁được	-8510
▁Trịnh▁Xuân	-8511
▁trong▁khi▁đó	-8512
▁lân▁cận	-8513
▁sát▁hại	-8514
▁nước▁biển	-8515
▁triệu▁tấn	-8516
▁Khoa▁học▁và	-8517
▁/	-8518
▁no	-8519
▁ngừ	-8520
phường	-8521
▁bị▁ngập	-8522
▁nụ▁cười	-8523
▁đồng▁nghĩa	-8524
▁lập▁biên▁bản	-8525
▁được▁sản▁xuất	-8526
ẻm	-8527
▁Thất	-8528
▁Nokia	-8529
▁để▁các	-8530
▁cao▁đẳng	-8531
▁hài▁hước	-8532
▁một▁loại	-8533
▁triệu▁tập	-8534
▁trên▁không	-8535
▁phục▁vụ▁cho	-8536
▁Phó▁giám▁đốc	-8537
NV	-8538
,▁6	-8539
▁trả▁nợ	-8540
▁làm▁tốt	-8541
▁lối▁chơi	-8542
▁về▁quản▁lý	-8543
▁xí	-8544
▁80%	-8545
▁cồn	-8546
ragon	-8547
▁bạn▁nên	-8548
▁tiền▁ảo	-8549
▁Học▁sinh	-8550
▁hào▁hứng	-8551
▁Hiệp▁định	-8552
▁nhiệt▁đới	-8553
▁cùng▁nhiều	-8554
▁chuyển▁biến	-8555
▁vẫn▁chưa▁có	-8556
▁quay▁trở▁lại	-8557
▁hứ	-8558
▁Tạo	-8559
▁hiền	-8560
▁bài▁báo	-8561
▁thận▁trọng	-8562
▁đã▁chỉ▁đạo	-8563
▁chia▁sẻ▁với	-8564
▁sách▁giáo▁khoa	-8565
▁Mầm	-8566
▁Arabia	-8567
▁những▁đứa	-8568
▁theo▁cách	-8569
▁Chiến▁tranh	-8570
▁Không▁những	-8571
aki	-8572
▁53	-8573
▁Flor	-8574
▁chậu	-8575
▁gieo	-8576
▁của▁Sở	-8577
▁vật▁lý	-8578
▁suy▁giảm	-8579
▁tăng▁mạnh	-8580
▁với▁mục▁đích	-8581
▁Nguyễn▁Thị▁Kim	-8582
ham	-8583
▁2019	-8584
▁cành	-8585
▁tờ▁báo	-8586
▁hóa▁đơn	-8587
▁trợ▁giúp	-8588
▁Hà▁Nội▁và	-8589
▁Thống▁Nhất	-8590
▁việc▁sử▁dụng	-8591
▁Lời	-8592
Đà▁Nẵ	-8593
▁Khoản	-8594
▁ngôi▁mộ	-8595
▁kiến▁tạo	-8596
▁không▁tốt	-8597
▁xông	-8598
▁góp▁ý	-8599
▁đã▁đưa	-8600
▁cân▁đối	-8601
▁showbiz	-8602
▁nghĩ▁đến	-8603
▁thiếu▁nhi	-8604
▁sốt▁xuất▁huyết	-8605
ger	-8606
▁1-2	-8607
▁lùng	-8608
▁Văn▁bản	-8609
▁nắm▁bắt	-8610
▁để▁xử▁lý	-8611
▁đối▁diện	-8612
▁tại▁một▁số	-8613
▁các▁dịch▁vụ	-8614
▁quan▁trọng▁nhất	-8615
▁MI	-8616
▁Wal	-8617
▁nồi	-8618
▁CSĐT	-8619
▁hài▁hòa	-8620
▁như▁trên	-8621
▁nằm▁trên	-8622
▁tôi▁cũng	-8623
▁xâm▁nhập	-8624
▁Tiền▁Giang	-8625
▁chỉ▁có▁thể	-8626
▁Trên▁thực▁tế	-8627
▁vú	-8628
▁xen	-8629
▁Ever	-8630
▁bà▁mẹ	-8631
▁ngoan	-8632
▁bước▁đi	-8633
▁nổi▁dậy	-8634
▁điểm▁đến	-8635
▁ủy▁quyền	-8636
▁triệu▁hồi	-8637
▁tâm▁huyết	-8638
▁tranh▁luận	-8639
▁tỉnh▁Thanh▁Hóa	-8640
▁kẽ	-8641
▁lận	-8642
▁đoan	-8643
▁này▁vẫn	-8644
▁quỹ▁đạo	-8645
▁ở▁Syria	-8646
▁Mặt▁trận	-8647
▁này▁sẽ▁được	-8648
▁và▁hiệu▁quả	-8649
▁có▁điều▁kiện	-8650
▁dại	-8651
▁2012,	-8652
▁thu▁về	-8653
▁đều▁là	-8654
▁và▁cũng	-8655
▁vinh▁danh	-8656
▁Kiên▁Giang	-8657
▁TP▁Đà▁Nẵng	-8658
▁Nguyễn▁Đình	-8659
▁Viện▁trưởng	-8660
▁rất▁quan▁trọng	-8661
900	-8662
▁tạ	-8663
▁NSND	-8664
▁thưở	-8665
▁của▁A	-8666
▁trong▁vụ	-8667
▁Ông▁Trần	-8668
▁nhưng▁cũng	-8669
▁đã▁nhận▁được	-8670
▁có▁kích▁thước	-8671
Net	-8672
▁LG	-8673
▁Van	-8674
▁nan	-8675
▁đô▁la	-8676
▁thống▁đ	-8677
49	-8678
▁2020.	-8679
▁chiêm	-8680
▁hybrid	-8681
▁ông▁Phạm	-8682
▁chẳng▁hạn	-8683
▁thầy▁giáo	-8684
▁đã▁diễn▁ra	-8685
67	-8686
ud	-8687
▁Cũ	-8688
▁nã	-8689
▁bướ	-8690
▁cô▁bé	-8691
▁từ▁xa	-8692
▁danh▁tiếng	-8693
▁cơ▁quan▁công▁an	-8694
imir	-8695
▁và▁T	-8696
▁dễ▁bị	-8697
▁200.000	-8698
▁An▁toàn	-8699
▁xe▁tăng	-8700
▁ưa▁chuộng	-8701
▁câu▁lạc▁bộ	-8702
▁gắn▁bó▁với	-8703
▁các▁lực▁lượng	-8704
ON	-8705
PP	-8706
VC	-8707
▁58	-8708
▁KT	-8709
▁Khả	-8710
▁NASA	-8711
▁Lượng	-8712
▁chữ▁ký	-8713
▁các▁xã	-8714
▁tức▁là	-8715
▁đã▁cho	-8716
▁hiện▁đã	-8717
▁Khi▁được	-8718
▁đồng▁loạt	-8719
▁việc▁thực▁hiện	-8720
▁mộc	-8721
▁ngỡ	-8722
▁Ban▁đầu	-8723
▁giọng▁hát	-8724
▁trân▁trọng	-8725
▁và▁yêu▁cầu	-8726
▁có▁thể▁giúp	-8727
▁nhiều▁khả▁năng	-8728
Tube	-8729
▁nôn	-8730
▁đồn	-8731
▁thoảng	-8732
▁Huyện▁ủy	-8733
▁của▁loài	-8734
▁trung▁vệ	-8735
▁Vĩnh▁Long	-8736
▁học▁sinh▁lớp	-8737
back	-8738
▁cả▁về	-8739
▁ám▁ảnh	-8740
▁Cộng▁sản	-8741
▁tiện▁ích	-8742
▁nhưng▁chưa	-8743
▁chức▁năng▁đã	-8744
▁1.0	-8745
▁Rod	-8746
▁mía	-8747
▁Thánh	-8748
▁được▁đặt	-8749
▁khai▁thác▁cát	-8750
▁kiế	-8751
▁Dù▁vậy	-8752
▁cỡ▁nhỏ	-8753
▁dầu▁khí	-8754
▁tay▁vợt	-8755
▁đầu▁mối	-8756
▁làm▁nghề	-8757
▁Câu▁chuyện	-8758
▁đã▁bắt▁đầu	-8759
▁của▁nước▁này	-8760
▁không▁chỉ▁là	-8761
▁làm▁chủ▁đầu▁tư	-8762
▁trường▁tiểu▁học	-8763
EN	-8764
za	-8765
-15	-8766
▁Bãi	-8767
▁tour	-8768
▁Đừng	-8769
▁tiền▁để	-8770
▁đối▁lập	-8771
▁bằng▁việc	-8772
acom	-8773
▁van	-8774
▁tỷ▁phú	-8775
▁ở▁tỉnh	-8776
▁thu▁mua	-8777
▁xuất▁xứ	-8778
▁nghi▁vấn	-8779
▁từ▁nhiều	-8780
▁đến▁thăm	-8781
▁dây▁chuyền	-8782
▁đã▁yêu▁cầu	-8783
▁New▁Zealand	-8784
▁và▁hệ▁thống	-8785
▁Tết▁Nguyên▁đán	-8786
▁trong▁hoạt▁động	-8787
▁tặc	-8788
▁khuy	-8789
estine	-8790
▁Từ▁ngày	-8791
▁công▁vụ	-8792
▁Tây▁Ninh	-8793
▁động▁đất	-8794
▁kiểm▁toán	-8795
▁trên▁toàn▁cầu	-8796
▁UB	-8797
▁1-1	-8798
▁Ros	-8799
▁2020,	-8800
▁bởi▁vì	-8801
▁bản▁chất	-8802
▁trong▁quý	-8803
ng▁đặc▁biệt	-8804
▁Mitsubishi	-8805
▁chắc▁chắn▁sẽ	-8806
▁chui	-8807
▁2009,	-8808
▁Italia	-8809
▁diện▁đ	-8810
▁giữ▁lại	-8811
▁chỉnh▁sửa	-8812
▁rất▁nhanh	-8813
▁của▁bản▁thân	-8814
13	-8815
▁gốm	-8816
▁chìa	-8817
▁rong	-8818
▁sản▁đ	-8819
▁YouTube	-8820
ương▁đồng	-8821
▁thế▁nhưng	-8822
▁Tình▁trạng	-8823
▁theo▁yêu▁cầu	-8824
wn	-8825
▁CX	-8826
▁Cư	-8827
▁Fr	-8828
▁GB	-8829
▁Cực	-8830
▁dạo	-8831
▁kem	-8832
▁đã▁giảm	-8833
▁riêng▁cho	-8834
▁sinh▁nhật	-8835
▁Điều▁đáng	-8836
▁quy▁mô▁lớn	-8837
▁triệu▁bảng	-8838
▁của▁tổ▁chức	-8839
▁kỹ▁thuật▁số	-8840
▁Liệu	-8841
▁Paul	-8842
▁Than	-8843
▁tứ▁kết	-8844
▁làm▁mát	-8845
▁của▁Honda	-8846
▁hàm▁lượng	-8847
▁của▁cộng▁đồng	-8848
▁tú	-8849
▁bàng	-8850
▁tim▁mạch	-8851
▁trên▁đảo	-8852
▁ngọt▁ngào	-8853
▁và▁hỗ▁trợ	-8854
▁Chủ▁tịch▁Hội	-8855
▁một▁chiếc▁xe	-8856
▁và▁công▁nghệ	-8857
Ngh	-8858
▁3,5	-8859
▁Fort	-8860
▁Nhằm	-8861
▁kiềm	-8862
▁thưa	-8863
ng▁đẹp	-8864
▁radar	-8865
kswagen	-8866
▁ném▁bom	-8867
▁hằng▁ngày	-8868
▁tương▁tác	-8869
▁ngoại▁thất	-8870
▁có▁tác▁dụng	-8871
▁Saudi▁Arabia	-8872
▁Ban▁Thường▁vụ	-8873
▁Tổng▁thống▁Nga	-8874
▁đáp▁ứng▁yêu▁cầu	-8875
MB	-8876
▁Ass	-8877
▁bộ▁nhớ	-8878
▁vận▁tốc	-8879
▁báo▁động	-8880
▁làm▁tăng	-8881
▁bày▁tỏ▁sự	-8882
▁hình▁phạt	-8883
▁khuôn▁viên	-8884
▁liên▁doanh	-8885
▁tiến▁trình	-8886
//	-8887
ui	-8888
▁rắc	-8889
▁hôm▁sau	-8890
▁tại▁triển▁lãm	-8891
▁xuất▁hiện▁trên	-8892
▁nén	-8893
▁chọi	-8894
ng▁đậm	-8895
▁tập▁kết	-8896
▁Nội▁dung	-8897
▁cánh▁đồng	-8898
▁đáng▁tiếc	-8899
▁Có▁thể▁nói	-8900
▁chức▁vô▁địch	-8901
▁của▁lực▁lượng	-8902
▁thời▁gian▁dài	-8903
':	-8904
ga	-8905
▁dối	-8906
▁oxy	-8907
▁tẩy	-8908
▁2007	-8909
▁thềm	-8910
▁đổ▁bộ	-8911
chester	-8912
▁Kon▁Tum	-8913
▁lao▁vào	-8914
▁chủ▁quan	-8915
▁chồng▁tôi	-8916
▁khen▁ngợi	-8917
▁của▁chính▁quyền	-8918
ire	-8919
▁tị	-8920
▁1/1	-8921
▁Vẫn	-8922
▁cúm	-8923
▁sâm	-8924
▁hạch	-8925
▁VCK▁U	-8926
▁giếng	-8927
▁model	-8928
▁góc▁độ	-8929
▁đôi▁khi	-8930
▁đầu▁vào	-8931
▁mặt▁đường	-8932
▁nhân▁loại	-8933
yl	-8934
▁90%	-8935
▁đuối	-8936
▁Camry	-8937
▁nhân▁văn	-8938
▁khai▁nhận	-8939
28	-8940
",▁"	-8941
▁Dự▁á	-8942
▁xưng	-8943
▁2017▁-	-8944
▁có▁sức	-8945
▁ban▁đêm	-8946
▁cấp▁trên	-8947
▁tôi▁thấy	-8948
▁vừa▁công▁bố	-8949
AR	-8950
▁má	-8951
▁14,	-8952
▁bờ▁sông	-8953
▁quyền▁đ	-8954
ng▁đồng▁hồ	-8955
▁Pháp▁luật	-8956
▁bình▁tĩnh	-8957
▁người▁này	-8958
▁trong▁hai	-8959
▁điểm▁nhấn	-8960
▁phiến▁quân	-8961
▁triệu▁lượt	-8962
▁và▁thực▁hiện	-8963
▁với▁diện▁tích	-8964
2/	-8965
://	-8966
rin	-8967
▁Es	-8968
▁Áo	-8969
▁lộc	-8970
▁lướt	-8971
▁Vũ▁Đức	-8972
▁nói▁gì	-8973
▁Bây▁giờ	-8974
▁quỹ▁đất	-8975
▁năm▁tuổi	-8976
▁ở▁trường	-8977
▁Văn▁Thanh	-8978
▁khiến▁các	-8979
▁như▁những	-8980
▁Ngay▁sau▁đó	-8981
▁thương▁binh	-8982
▁Trung▁Quốc▁và	-8983
48	-8984
/2,	-8985
▁57	-8986
▁ND	-8987
▁Inn	-8988
▁ở▁thôn	-8989
▁ở▁tuổi	-8990
▁Tại▁sao	-8991
▁là▁loại	-8992
▁mưa▁lớn	-8993
▁nỗi▁đau	-8994
▁vành▁đai	-8995
▁thủ▁tướng	-8996
▁giết▁người	-8997
▁bị▁thiệt▁hại	-8998
gio	-8999
▁cá▁mập	-9000
▁Michael	-9001
▁nước▁nhà	-9002
▁dự▁án▁này	-9003
▁nhãn▁hiệu	-9004
▁và▁sau▁đó	-9005
▁Thị▁trường	-9006
▁chân▁thành	-9007
▁khó▁có▁thể	-9008
▁Trường▁THCS	-9009
▁khen▁thưởng	-9010
▁ngày▁hôm▁nay	-9011
38	-9012
▁40%	-9013
n▁đối	-9014
▁Trấn	-9015
▁hổng	-9016
▁là▁con	-9017
▁ở▁trên	-9018
▁bánh▁xe	-9019
▁cảm▁ứng	-9020
▁nào▁khác	-9021
▁khái▁niệm	-9022
▁hoang▁mang	-9023
▁tỉnh▁Hà▁Tĩnh	-9024
▁những▁khó▁khăn	-9025
PA	-9026
oot	-9027
▁Hai▁Bà	-9028
▁yêu▁mến	-9029
▁Minh▁Tuấn	-9030
▁chung▁với	-9031
▁tháng▁tuổi	-9032
ện	-9033
▁mui	-9034
▁ghen	-9035
▁Giống	-9036
▁Anh▁và	-9037
▁Liên▁bang	-9038
▁Thụy▁Điển	-9039
▁bảo▁dưỡng	-9040
ng▁điều▁khiển	-9041
EM	-9042
▁nòng	-9043
▁Thủ▁Đức	-9044
▁bạo▁hành	-9045
▁bảo▁tàng	-9046
▁thành▁quả	-9047
▁và▁bảo▁vệ	-9048
▁khu▁du▁lịch	-9049
▁để▁xây▁dựng	-9050
▁thời▁điểm▁đó	-9051
▁Hoa▁hậu▁Hoàn▁vũ	-9052
ww	-9053
que	-9054
▁05	-9055
▁kỉ	-9056
▁Mat	-9057
uyên▁bố	-9058
▁bạn▁đã	-9059
▁mới▁về	-9060
▁nhường	-9061
▁hạ▁cánh	-9062
▁Diễn▁đàn	-9063
▁khi▁thấy	-9064
▁ngay▁tại	-9065
▁vào▁trong	-9066
▁Tổng▁Bí▁thư	-9067
▁Chính▁vì▁thế	-9068
▁của▁quân▁đội	-9069
SA	-9070
ium	-9071
▁NLĐ	-9072
▁sấu	-9073
n▁điện	-9074
▁Lúc▁đó	-9075
▁của▁sự	-9076
▁500.000	-9077
▁gian▁lận	-9078
▁giải▁trình	-9079
▁liên▁ngành	-9080
▁tổ▁công▁tác	-9081
▁với▁số▁lượng	-9082
▁Thừa▁Thiên▁Huế	-9083
lus	-9084
eries	-9085
▁Chấp	-9086
▁Trực	-9087
▁diễu	-9088
▁online	-9089
▁Vladimir	-9090
▁trọn▁vẹn	-9091
▁về▁tình▁hình	-9092
▁85	-9093
▁chuồng	-9094
▁người▁đi	-9095
▁phóng▁tên▁lửa	-9096
▁Táo	-9097
▁gục	-9098
eymar	-9099
▁số▁phận	-9100
▁đã▁có▁mặt	-9101
▁đoạn▁đường	-9102
▁như▁thế▁này	-9103
▁Công▁an▁quận	-9104
▁Cù	-9105
▁2-3	-9106
▁là▁gì	-9107
▁thịnh	-9108
▁cách▁để	-9109
▁biên▁tập	-9110
▁bảo▁hành	-9111
▁dành▁cho▁các	-9112
14	-9113
xe	-9114
▁Mà	-9115
▁só	-9116
▁xá	-9117
raph	-9118
▁Red	-9119
▁với▁U	-9120
▁chủ▁tr	-9121
▁Công▁văn	-9122
▁hiện▁vật	-9123
▁đẩy▁nhanh	-9124
▁chấn▁chỉnh	-9125
▁với▁chủ▁đề	-9126
▁của▁lãnh▁đạo	-9127
alo	-9128
▁Chế	-9129
▁Vua	-9130
▁Tech	-9131
▁chuẩ	-9132
▁Vì▁sao	-9133
▁có▁lợi	-9134
▁có▁mức	-9135
▁lãng▁mạn	-9136
▁những▁đối	-9137
"▁(	-9138
-30	-9139
▁72	-9140
esla	-9141
ò▁mò	-9142
▁and	-9143
▁Biết	-9144
▁Giai	-9145
▁Uyên	-9146
▁vĩ▁đại	-9147
▁thân▁xe	-9148
▁tăng▁áp	-9149
▁sáp▁nhập	-9150
▁đón▁nhận	-9151
▁cho▁nhiều	-9152
▁nghiêm▁trọ	-9153
▁LS	-9154
▁Kar	-9155
▁neo	-9156
▁khao	-9157
ng▁đứng	-9158
▁dự▁trữ	-9159
▁lạc▁quan	-9160
▁Nếu▁không	-9161
▁chuyên▁đề	-9162
▁rơi▁xuống	-9163
▁tiên▁phong	-9164
▁tỉnh▁Nghệ▁An	-9165
▁được▁xác▁định	-9166
▁thực▁hiện▁việc	-9167
ấn▁đ	-9168
▁hận	-9169
2017,	-9170
▁thắp	-9171
▁Intel	-9172
▁album	-9173
▁đơn▁đ	-9174
▁Lần▁đầu	-9175
▁phóng▁xạ	-9176
▁giá▁thành	-9177
▁vòng▁loại	-9178
▁ngoài▁việc	-9179
▁vã	-9180
▁vào▁mùa	-9181
▁sinh▁con	-9182
▁chiều▁nay	-9183
▁vẫn▁có▁thể	-9184
▁các▁quốc▁gia	-9185
▁có▁gì	-9186
▁ngưng	-9187
▁phẳng	-9188
▁Macron	-9189
▁và▁rất	-9190
▁có▁chứa	-9191
▁lại▁cho	-9192
▁buổi▁sáng	-9193
▁đường▁kính	-9194
▁đã▁ban▁hành	-9195
▁người▁sử▁dụng	-9196
▁quã	-9197
▁tóm	-9198
▁Miền	-9199
▁mà▁là	-9200
ằng▁sau	-9201
▁Đến▁năm	-9202
▁nơi▁khác	-9203
▁được▁đưa	-9204
▁người▁bạn	-9205
▁thẳng▁vào	-9206
▁đường▁phố	-9207
▁rút▁kinh▁nghiệm	-9208
MP	-9209
▁Mê	-9210
▁rủ	-9211
nham	-9212
▁hàn	-9213
▁Tôi▁đã	-9214
▁tư▁liệu	-9215
▁dưới▁đây	-9216
▁văn▁nghệ	-9217
▁của▁Nhật▁Bản	-9218
▁đại▁diện▁cho	-9219
▁trên▁toàn▁quốc	-9220
gan	-9221
▁Jose	-9222
▁ồn▁ào	-9223
▁Khuyến	-9224
▁Nội▁Bài	-9225
▁cổ▁điển	-9226
▁tập▁tru	-9227
▁giữ▁chức	-9228
▁đình▁đám	-9229
▁Trong▁lúc	-9230
▁Long▁Thành	-9231
▁Nguyễn▁Thành	-9232
éc	-9233
-12,	-9234
▁tuyể	-9235
▁Ông▁Lê	-9236
▁Vụ▁việc	-9237
▁khi▁ông	-9238
▁Lạng▁Sơn	-9239
▁buôn▁lậu	-9240
▁nộp▁thuế	-9241
▁vượt▁quá	-9242
▁lại▁những	-9243
▁ngăn▁ngừa	-9244
▁cho▁đến▁nay	-9245
▁thành▁công▁của	-9246
DS	-9247
ivi	-9248
▁Da	-9249
▁Cúp	-9250
▁hẻm	-9251
▁diệu	-9252
▁hang	-9253
▁Bác▁Hồ	-9254
▁vòng▁t	-9255
▁và▁giảm	-9256
▁Nhiệt▁độ	-9257
▁các▁quận	-9258
▁diễn▁tập	-9259
▁quan▁niệm	-9260
▁hãng▁hàng▁không	-9261
▁52	-9262
▁95	-9263
▁dồi	-9264
▁NATO	-9265
▁Vòng	-9266
▁láng	-9267
▁nhậu	-9268
▁vạch	-9269
ng▁đại	-9270
▁các▁vụ	-9271
▁ly▁hôn	-9272
▁ra▁quân	-9273
▁hàng▁hải	-9274
▁được▁biết	-9275
▁Tiền▁Phong	-9276
▁không▁có▁sự	-9277
▁trận▁động▁đất	-9278
▁cũng▁không▁thể	-9279
ee	-9280
▁03	-9281
▁mài	-9282
▁cháu▁bé	-9283
▁làm▁đẹp	-9284
▁độc▁hại	-9285
▁cấu▁hình	-9286
▁Đánh▁giá	-9287
▁Palestine	-9288
▁chỉ▁trong	-9289
▁chủ▁nhiệm	-9290
▁từ▁đầu▁năm	-9291
▁Op	-9292
▁Phò	-9293
▁vớt	-9294
▁Vang	-9295
▁và▁việc	-9296
▁được▁cấp	-9297
▁những▁tình	-9298
▁nam▁thanh▁niên	-9299
MS	-9300
▁?	-9301
ise	-9302
▁ý▁chí	-9303
Đà▁Nẵng	-9304
▁cấp▁tỉnh	-9305
▁dẫn▁động	-9306
▁gắn▁liền▁với	-9307
td	-9308
▁AI	-9309
▁Tám	-9310
▁bẫy	-9311
▁Diễm	-9312
▁Rich	-9313
▁Nghệ▁sĩ	-9314
▁của▁trẻ	-9315
▁cương▁vị	-9316
▁tại▁tỉnh	-9317
▁địa▁phận	-9318
▁Hoàng▁Anh	-9319
▁thiếu▁niên	-9320
▁em▁học▁sinh	-9321
▁Sl	-9322
▁Muốn	-9323
▁điên	-9324
ng▁tỉnh	-9325
▁Cô▁gái	-9326
▁thư▁ký	-9327
▁đau▁đớn	-9328
▁bộ▁sưu▁tập	-9329
▁là▁một▁phần	-9330
▁Bộ▁Giao▁thông	-9331
▁về▁chất▁lượng	-9332
▁68	-9333
▁MP	-9334
▁cốc	-9335
▁xứng	-9336
▁đủ▁t	-9337
▁khiêm	-9338
▁Hội▁An	-9339
▁đúng▁t	-9340
▁bắt▁mắt	-9341
▁gần▁nhất	-9342
▁Hỗ	-9343
▁Ta	-9344
▁Vy	-9345
▁êm	-9346
▁rạch	-9347
▁đề▁cử	-9348
▁Vật▁lý	-9349
▁Dự▁thảo	-9350
▁cho▁anh	-9351
▁gia▁súc	-9352
▁giọng▁ca	-9353
▁chung▁tay	-9354
▁Thanh▁Xuân	-9355
▁chửi	-9356
▁Căn▁cứ	-9357
▁các▁DN	-9358
▁bị▁bệnh	-9359
▁túi▁khí	-9360
▁giao▁đất	-9361
uc	-9362
ầng	-9363
▁(7	-9364
▁cỗ	-9365
a▁và	-9366
▁6.000	-9367
▁sướng	-9368
▁Robert	-9369
▁để▁đưa	-9370
▁nhập▁cư	-9371
▁nổi▁lên	-9372
▁Anh▁hùng	-9373
▁Hoạt▁động	-9374
▁người▁nhà	-9375
▁tính▁chất	-9376
▁thường▁niên	-9377
▁với▁môi▁trường	-9378
▁đưa▁vào▁sử▁dụng	-9379
▁ă	-9380
▁".	-9381
▁ốp	-9382
lock	-9383
ăng▁đ	-9384
▁ngất	-9385
▁nhặt	-9386
▁email	-9387
àm▁phán	-9388
ng▁đề▁nghị	-9389
▁song▁phương	-9390
▁của▁hệ▁thống	-9391
▁hơn▁rất▁nhiều	-9392
▁54	-9393
oyce	-9394
▁Hòn	-9395
▁Res	-9396
▁vịt	-9397
▁đòn	-9398
ồn▁tại	-9399
▁cho▁U	-9400
▁mật▁độ	-9401
▁Tạp▁chí	-9402
▁của▁dân	-9403
▁về▁người	-9404
▁trong▁tay	-9405
▁2011,	-9406
▁khoai	-9407
▁này▁bị	-9408
▁hàng▁rào	-9409
ider	-9410
ield	-9411
▁đắm	-9412
▁đã▁ký	-9413
▁Qua▁đó	-9414
▁gay▁gắt	-9415
▁gắn▁kết	-9416
▁sa▁thải	-9417
▁khởi▁đầu	-9418
▁với▁tư▁cách	-9419
EU	-9420
▁88	-9421
alon	-9422
▁Moon	-9423
ng▁tìm	-9424
▁Ngược	-9425
▁hô▁hấp	-9426
▁đã▁gây	-9427
▁Nếu▁bạn	-9428
▁concept	-9429
▁hải▁quan	-9430
▁làm▁phim	-9431
▁không▁cho	-9432
▁và▁quản▁lý	-9433
▁và▁xây▁dựng	-9434
▁để▁tiếp▁tục	-9435
▁những▁kết▁quả	-9436
▁ê	-9437
ond	-9438
▁130	-9439
▁đếm	-9440
▁Lĩnh	-9441
▁Sở▁Y▁tế	-9442
▁phân▁bổ	-9443
▁qua▁lại	-9444
▁chỉ▁biết	-9445
▁năm▁ngày	-9446
▁pháo▁hoa	-9447
▁trong▁vùng	-9448
▁cung▁cấp▁cho	-9449
▁09	-9450
▁16,	-9451
▁Ngũ	-9452
ịa▁điểm	-9453
▁xăng▁E	-9454
▁có▁công	-9455
▁yếu▁kém	-9456
▁Tôi▁nghĩ	-9457
▁giúp▁cho	-9458
▁tiếp▁thu	-9459
▁không▁dám	-9460
▁chức▁trách	-9461
▁và▁Du▁lịch	-9462
▁xy	-9463
xpress	-9464
▁ấm▁áp	-9465
▁lớn▁đến	-9466
▁kết▁nối▁với	-9467
▁chúng▁tôi▁sẽ	-9468
▁không▁người▁lái	-9469
▁Cò	-9470
▁GV	-9471
▁báu	-9472
▁khi▁họ	-9473
▁lớn▁để	-9474
▁ông▁bà	-9475
▁của▁Đức	-9476
▁Tiếp▁tục	-9477
▁số▁người	-9478
▁sở▁thích	-9479
▁làng▁nghề	-9480
▁chiếu▁sáng	-9481
▁kinh▁hoàng	-9482
▁đặt▁câu▁hỏi	-9483
▁số▁điện▁thoại	-9484
▁trong▁khuôn▁khổ	-9485
ives	-9486
▁trơn	-9487
▁bỏ▁chạy	-9488
▁cây▁cầu	-9489
▁quá▁lớn	-9490
▁sứ▁mệnh	-9491
▁tạm▁dừng	-9492
▁có▁thể▁xảy▁ra	-9493
▁trong▁sự▁nghiệp	-9494
ớc	-9495
▁TX	-9496
u▁và	-9497
▁Cậu	-9498
▁Ind	-9499
▁Oai	-9500
▁lụy	-9501
▁Inst	-9502
▁buồng	-9503
▁khiêu	-9504
ường▁đã	-9505
▁một▁cái	-9506
▁này▁lại	-9507
ương▁được	-9508
▁Dưới▁đây▁là	-9509
▁khủng▁khiếp	-9510
▁ứng▁cử▁viên	-9511
▁xuất▁hiện▁trong	-9512
oan	-9513
▁900	-9514
▁Ghi	-9515
▁bạt	-9516
utsal	-9517
▁logo	-9518
▁thủng	-9519
▁Cán▁bộ	-9520
▁bác▁bỏ	-9521
▁đã▁qua	-9522
▁bị▁đánh	-9523
▁trên▁cao	-9524
▁Sinh▁viên	-9525
▁và▁dịch▁vụ	-9526
▁tiếp▁tục▁được	-9527
▁cơ▁sở▁giáo▁dục	-9528
xit	-9529
▁Đỏ	-9530
▁nàn	-9531
▁sống▁ở	-9532
▁phần▁thi	-9533
▁danh▁tính	-9534
▁Đối▁tượng	-9535
▁bắt▁đầu▁từ	-9536
▁của▁chính▁phủ	-9537
▁lệnh▁trừng▁phạt	-9538
▁mừ	-9539
aser	-9540
▁dặm	-9541
▁Tinh	-9542
▁Trận	-9543
▁nuối	-9544
▁Petro	-9545
▁Nga▁đã	-9546
▁có▁đến	-9547
▁là▁nhà	-9548
▁Cầu▁thủ	-9549
▁tạm▁giữ	-9550
▁ưu▁điểm	-9551
▁chữa▁trị	-9552
▁thuê▁bao	-9553
▁Chính▁quyền	-9554
▁ban▁tổ▁chức	-9555
▁phương▁tiện▁đ	-9556
▁am	-9557
▁xẻ	-9558
alem	-9559
ross	-9560
▁Haw	-9561
▁quát	-9562
▁nhỏ▁và	-9563
▁Báo▁chí	-9564
▁bỏ▁trốn	-9565
▁của▁cuộc	-9566
▁phương▁á	-9567
▁sinh▁sản	-9568
▁Bình▁Minh	-9569
▁nguồn▁thu	-9570
▁Bình▁Chánh	-9571
▁phát▁biểu▁tại	-9572
TK	-9573
ele	-9574
▁mỉ	-9575
▁Inf	-9576
▁Victor	-9577
▁lên▁án	-9578
▁tới▁các	-9579
▁nhằm▁vào	-9580
▁Hà▁Nội▁đã	-9581
▁không▁kém	-9582
▁hiện▁trạng	-9583
▁lần▁so▁với	-9584
▁vòng▁chung▁kết	-9585
▁nhận▁được▁nhiều	-9586
▁Son	-9587
▁bồn	-9588
n▁đầy	-9589
▁chéo	-9590
ng▁tạo	-9591
▁cả▁một	-9592
▁xu▁thế	-9593
▁còn▁phải	-9594
▁hồi▁phục	-9595
▁phần▁đầu	-9596
▁Hong▁Kong	-9597
ng▁tài▁chính	-9598
▁để▁điều▁tra	-9599
▁không▁thể▁thiếu	-9600
▁Cặp	-9601
▁Khối	-9602
▁South	-9603
▁chiết	-9604
▁thiện▁đ	-9605
▁kỹ▁lưỡng	-9606
▁Long▁Biên	-9607
▁còn▁gọi▁là	-9608
▁Hai▁Bà▁Trưng	-9609
▁và▁doanh▁nghiệp	-9610
▁ý▁kiến▁cho▁rằng	-9611
▁Giữa	-9612
▁ra▁từ	-9613
combank	-9614
▁máy▁ảnh	-9615
▁thì▁mới	-9616
▁đại▁hội	-9617
▁chân▁sút	-9618
▁cũng▁cần	-9619
▁sụt▁giảm	-9620
▁đánh▁bắt	-9621
▁mỗi▁tháng	-9622
▁Trường▁Sơn	-9623
▁thị▁trường▁t	-9624
▁và▁người▁dân	-9625
▁tại▁Bệnh▁viện	-9626
LED	-9627
▁Go	-9628
-100	-9629
▁chả	-9630
▁ai▁đó	-9631
▁Cuộc▁thi	-9632
▁ban▁ngày	-9633
▁của▁Viện	-9634
▁trên▁phố	-9635
▁phiên▁họp	-9636
▁của▁thế▁giới	-9637
▁loài▁động▁vật	-9638
▁Trường▁Tiểu▁học	-9639
▁Củ	-9640
▁rõ▁r	-9641
▁ra▁vào	-9642
▁tôi▁sẽ	-9643
▁một▁nửa	-9644
▁đoàn▁thể	-9645
▁Hữu▁Thắng	-9646
▁Vụ▁trưởng	-9647
▁dòng▁sông	-9648
▁phấn▁khởi	-9649
▁đại▁dương	-9650
▁pháp▁luật▁về	-9651
▁tỉnh▁Quảng▁Nam	-9652
▁Dan	-9653
▁Hào	-9654
▁2030	-9655
oàn▁đã	-9656
▁di▁cư	-9657
▁làn▁da	-9658
▁đi▁đến	-9659
▁gặp▁mặt	-9660
▁quê▁nhà	-9661
n▁đấu▁giá	-9662
▁Pakistan	-9663
▁đỉnh▁cao	-9664
▁Cuộc▁sống	-9665
▁của▁đơn▁vị	-9666
▁các▁trường▁hợp	-9667
▁khỉ	-9668
▁lót	-9669
▁Roll	-9670
▁Thần	-9671
ng▁đúng	-9672
▁cảm▁hứ	-9673
▁và▁cho	-9674
▁và▁học	-9675
▁ông▁Vũ	-9676
▁300.000	-9677
▁thể▁dục	-9678
▁tọa▁đàm	-9679
▁lứa▁tuổi	-9680
▁miền▁Tây	-9681
▁là▁vấn▁đề	-9682
▁tuần▁trước	-9683
▁Thiếu▁tướng	-9684
▁Việt▁Nam▁có	-9685
▁léo	-9686
▁Khôi	-9687
▁Ba▁Đình	-9688
▁Bến▁Tre	-9689
▁lâu▁năm	-9690
▁đối▁ngoại	-9691
▁Manchester	-9692
▁Nghệ▁thuật	-9693
▁Trưởng▁Ban	-9694
▁là▁một▁người	-9695
▁Theo▁kế▁hoạch	-9696
su	-9697
BSCL	-9698
▁Cap	-9699
▁lưỡi	-9700
▁của▁J	-9701
▁quyên	-9702
▁Dự▁báo	-9703
▁rõ▁rệt	-9704
▁Mỹ▁Linh	-9705
▁vào▁tối	-9706
▁vào▁đầu	-9707
▁bị▁nhiễm	-9708
▁Phó▁Bí▁thư	-9709
▁nhân▁chứng	-9710
oàn▁đại▁biểu	-9711
▁hộp▁số▁tự▁động	-9712
rl	-9713
bao	-9714
▁Bỉ	-9715
▁Nằm	-9716
▁kẹo	-9717
▁Kông	-9718
▁mười	-9719
▁Kỳ▁Anh	-9720
▁Nói▁về	-9721
▁tay▁ga	-9722
▁tri▁ân	-9723
▁công▁và	-9724
▁tập▁hợp	-9725
▁lưu▁niệm	-9726
▁rút▁ngắn	-9727
▁sáng▁chế	-9728
▁sống▁sót	-9729
▁tiến▁tới	-9730
ng▁đào▁tạo	-9731
▁có▁hành▁vi	-9732
sa	-9733
TTg	-9734
▁Snap	-9735
ồng▁độ	-9736
▁Tỷ▁lệ	-9737
▁bộ▁môn	-9738
▁bảo▁trì	-9739
▁chưa▁đầy	-9740
▁nhưng▁ông	-9741
▁Trung▁Quốc▁đã	-9742
▁với▁những▁người	-9743
số	-9744
-5,	-9745
▁Rõ	-9746
▁hối▁lộ	-9747
▁nghịch	-9748
▁rao▁bán	-9749
ng▁đô▁thị	-9750
▁thao▁tác	-9751
▁không▁hiểu	-9752
▁được▁hưởng	-9753
43	-9754
bi	-9755
iano	-9756
▁Bus	-9757
▁Morn	-9758
▁việt	-9759
ng▁đua	-9760
usalem	-9761
▁khó▁kh	-9762
▁với▁số	-9763
▁một▁nhà	-9764
▁Cao▁đẳng	-9765
▁Sáng▁nay	-9766
▁tri▁thức	-9767
▁điều▁tiết	-9768
▁Thường▁Châu	-9769
▁đoàn▁công▁tác	-9770
▁dạn	-9771
-2018	-9772
▁hé▁lộ	-9773
▁nhân▁tố	-9774
▁Quy▁định	-9775
▁hàng▁ghế	-9776
▁ngưỡng▁mộ	-9777
▁ngoài▁trời	-9778
PG	-9779
osh	-9780
▁dỗ	-9781
▁AFC	-9782
▁Hen	-9783
aptop	-9784
▁khi▁mà	-9785
▁Về▁phía	-9786
▁bài▁tập	-9787
▁khi▁đến	-9788
▁đang▁đi	-9789
▁hội▁viên	-9790
▁lệnh▁cấm	-9791
▁chìa▁khóa	-9792
▁linh▁kiện	-9793
▁lương▁thực	-9794
▁ngay▁trong	-9795
▁được▁công▁bố	-9796
▁màn▁trình▁diễn	-9797
▁tại▁địa▁phương	-9798
zo	-9799
▁tro	-9800
▁tồi	-9801
▁đắng	-9802
▁2008,	-9803
▁Fortun	-9804
▁Sự▁việc	-9805
▁màu▁vàng	-9806
▁tỏa▁sáng	-9807
▁xoay▁quanh	-9808
▁Chi▁Pu	-9809
sinh▁năm	-9810
▁khiến▁đ	-9811
▁Trần▁Đại	-9812
▁thủy▁thủ	-9813
▁Đông▁Bắc	-9814
▁Jerusalem	-9815
▁kim▁ngạch	-9816
▁đoạt▁giải	-9817
▁Ngoài▁việc	-9818
▁của▁Hà▁Nội	-9819
▁giữa▁hai▁nước	-9820
▁khám▁chữa▁bệnh	-9821
92	-9822
SC	-9823
▁lui	-9824
▁Vùng	-9825
▁gợi▁ý	-9826
▁ngoạn	-9827
▁có▁nơi	-9828
ottenham	-9829
▁lại▁với	-9830
▁diện▁mạo	-9831
▁một▁thời	-9832
▁xảy▁ra▁tại	-9833
▁niềm▁đam▁mê	-9834
▁tưởng▁tượng	-9835
▁Bi	-9836
ania	-9837
▁BĐS	-9838
▁Don	-9839
▁lẫy	-9840
▁Cang	-9841
▁Chiểu	-9842
▁bí▁thư	-9843
▁phi▁hành	-9844
▁vào▁cuối▁năm	-9845
▁29.	-9846
▁lột	-9847
▁Chắc	-9848
▁chay	-9849
▁Ca▁sĩ	-9850
▁và▁đưa	-9851
▁Ngữ▁văn	-9852
▁Người▁đẹp	-9853
▁phẩm▁chất	-9854
▁nhiệt▁điện	-9855
▁về▁kinh▁tế	-9856
▁QH	-9857
▁cẩu	-9858
▁Đưa	-9859
▁NHNN	-9860
▁họng	-9861
▁vì▁những	-9862
▁Bách▁khoa	-9863
▁trong▁cả▁nước	-9864
▁được▁phát▁hiện	-9865
▁1.6	-9866
▁Play	-9867
▁bỏ▁đi	-9868
▁mà▁thôi	-9869
▁đến▁nhà	-9870
ng▁từ▁năm	-9871
▁nảy▁sinh	-9872
▁thị▁trườ	-9873
▁Không▁phải	-9874
▁nuôi▁dưỡng	-9875
▁trước▁những	-9876
▁tham▁gia▁các	-9877
▁PVN	-9878
▁ham	-9879
▁bởi▁các	-9880
▁khá▁cao	-9881
▁với▁hai	-9882
▁đẹp▁mắt	-9883
▁Nghị▁định▁số	-9884
▁Ins	-9885
▁Gold	-9886
▁rồng	-9887
ng▁từng	-9888
▁vốn▁là	-9889
▁hiểu▁rõ	-9890
▁Cửu▁Long	-9891
▁lượng▁lớn	-9892
▁của▁chiếc▁xe	-9893
▁thầy▁cô▁giáo	-9894
▁lơ	-9895
▁Mel	-9896
▁Tom	-9897
▁Wan	-9898
▁cối	-9899
▁hắn	-9900
▁sen	-9901
▁và▁hơn	-9902
▁Đơn▁vị	-9903
▁lương▁t	-9904
▁Quân▁khu	-9905
▁theo▁hướ	-9906
▁trạm▁BOT	-9907
▁bởi▁những	-9908
▁Phó▁trưởng	-9909
▁tại▁Đại▁học	-9910
▁Thời▁gian▁qua	-9911
▁Me	-9912
▁son	-9913
ầu▁tư	-9914
▁ăn▁đ	-9915
▁nó▁sẽ	-9916
ầu▁tiên	-9917
▁khối▁u	-9918
▁để▁mua	-9919
▁tin▁cậy	-9920
▁cực▁đoan	-9921
▁xâm▁phạm	-9922
▁Volkswagen	-9923
▁của▁Hàn▁Quốc	-9924
ếm	-9925
cho	-9926
▁ax	-9927
▁Bao	-9928
▁kiều	-9929
ng▁đơn	-9930
▁Bóng▁đá	-9931
▁bất▁lợi	-9932
▁giảm▁bớt	-9933
▁thể▁loại	-9934
▁trầm▁cảm	-9935
▁hóa▁thạch	-9936
▁nghệ▁nhân	-9937
▁không▁những	-9938
▁Lậy	-9939
▁Face	-9940
▁ngần	-9941
▁sườn	-9942
▁tò▁mò	-9943
úng▁đắn	-9944
▁mồ▁hôi	-9945
▁môi▁trườ	-9946
▁nghỉ▁học	-9947
▁vận▁dụng	-9948
▁Không▁thể	-9949
▁khai▁quật	-9950
▁của▁Tập▁đoàn	-9951
ima	-9952
▁Duc	-9953
▁Fed	-9954
▁gai	-9955
▁lụa	-9956
ịa▁ph	-9957
▁Post	-9958
▁quãng	-9959
▁các▁sở	-9960
▁dân▁đã	-9961
▁để▁cho	-9962
▁bài▁bản	-9963
▁sáng▁sớm	-9964
▁các▁huyện	-9965
▁thiên▁văn	-9966
▁trầm▁trọng	-9967
▁phát▁triển▁và	-9968
▁Trọ	-9969
▁ướp	-9970
▁Diệp	-9971
lywood	-9972
▁là▁hai	-9973
▁gia▁cầm	-9974
▁mình▁đã	-9975
▁năm▁Ngày	-9976
▁Chấp▁hành	-9977
▁tại▁nhiều	-9978
▁để▁xảy▁ra	-9979
▁cho▁người▁dùng	-9980
▁không▁có▁nhiều	-9981
▁Ông▁Nguyễn▁Văn	-9982
,▁7	-9983
▁Tố	-9984
▁Đả	-9985
-10,	-9986
▁1.1	-9987
▁úng	-9988
▁Băng	-9989
▁Harv	-9990
▁Liệt	-9991
▁West	-9992
▁siết	-9993
▁khi▁đã	-9994
▁dự▁toán	-9995
▁lỗ▁hổng	-9996
▁nói▁đến	-9997
▁lấy▁ý▁kiến	-9998
▁FLC▁Thanh▁Hóa	-9999
▁dân▁địa▁phương	-10000
▁và▁những▁người	-10001
▁Hán	-10002
▁mụn	-10003
▁nhọn	-10004
ng▁tinh	-10005
▁vẫn▁có	-10006
▁ưu▁thế	-10007
▁gia▁hạn	-10008
▁hai▁năm	-10009
▁theo▁đó	-10010
▁từng▁là	-10011
▁Kết▁luận	-10012
▁thửa▁đất	-10013
▁quản▁lý▁và	-10014
▁Thương▁binh	-10015
▁các▁nhà▁máy	-10016
▁khai▁trương	-10017
▁tổ▁chức▁các	-10018
▁62	-10019
▁92	-10020
▁Mail	-10021
▁Noel	-10022
▁Trải	-10023
▁chủ▁lực	-10024
▁hiện▁là	-10025
▁nên▁tôi	-10026
▁sạch▁sẽ	-10027
▁giới▁tính	-10028
▁phòng▁học	-10029
▁Công▁Thương	-10030
▁nhóm▁nghiên▁cứu	-10031
▁bệ	-10032
▁bọ	-10033
-11,	-10034
2017	-10035
/2015,	-10036
ộng▁cơ	-10037
▁khiếm	-10038
▁tốn▁kém	-10039
▁vật▁dụng	-10040
▁Thông▁báo	-10041
▁chứng▁chỉ	-10042
▁cuộc▁bầu▁cử	-10043
▁mã▁lực▁và▁mô	-10044
▁độ▁phân▁giải	-10045
▁của▁ông▁Trump	-10046
▁180	-10047
▁20,	-10048
▁Tho	-10049
▁tam	-10050
▁quạt	-10051
▁đặc▁sắc	-10052
▁các▁cháu	-10053
▁tiêu▁hóa	-10054
▁tôn▁giáo	-10055
▁được▁bán	-10056
▁tháng▁qua	-10057
▁Thượng▁Hải	-10058
▁học▁sinh▁giỏi	-10059
▁ớt	-10060
▁Cụm	-10061
▁Lạp	-10062
▁Thắ	-10063
▁vặt	-10064
▁CTCP	-10065
▁thối	-10066
▁Thụy▁Sĩ	-10067
▁thể▁chế	-10068
▁Cũng▁theo▁ông	-10069
▁Việt▁Nam▁đang	-10070
▁của▁Trung▁tâm	-10071
▁của▁phóng▁viên	-10072
Hải	-10073
ilk	-10074
▁Big	-10075
Người	-10076
▁khan	-10077
▁Anh▁đã	-10078
▁Bộ▁đội	-10079
▁có▁khi	-10080
▁sơ▁tán	-10081
▁Máy▁bay	-10082
▁Thay▁vì	-10083
▁giá▁đất	-10084
▁hộ▁khẩu	-10085
ng▁đây▁là	-10086
▁người▁mẹ	-10087
▁vài▁chục	-10088
▁biết▁cách	-10089
▁chà	-10090
▁tại▁khu	-10091
▁bằng▁các	-10092
ts	-10093
▁Ku	-10094
▁Côn	-10095
▁mắm	-10096
▁táng	-10097
▁ĐBQH	-10098
▁Neymar	-10099
▁Nghiêm	-10100
▁nơi▁có	-10101
▁chưa▁kể	-10102
▁đi▁theo	-10103
▁mọi▁việc	-10104
▁Liên▁hiệp	-10105
▁trình▁báo	-10106
▁xã▁hội▁và	-10107
▁trình▁làng	-10108
▁khám▁nghiệm	-10109
▁Đối▁với▁các	-10110
▁thông▁tin▁từ	-10111
▁được▁thành▁lập	-10112
he	-10113
▁dừ	-10114
▁Phổ	-10115
utnik	-10116
▁Khuê	-10117
▁giàn	-10118
▁các▁hộ	-10119
▁Mô▁hình	-10120
▁sau▁một	-10121
▁cường▁độ	-10122
▁khéo▁léo	-10123
▁đều▁phải	-10124
▁quy▁chuẩn	-10125
▁Chính▁sách	-10126
▁trái▁phiếu	-10127
my	-10128
elf	-10129
▁IV	-10130
▁Vô	-10131
▁Lân	-10132
▁ra▁một	-10133
▁lối▁sống	-10134
▁ngắn▁hạn	-10135
▁phiên▁bản▁đ	-10136
▁các▁nội▁dung	-10137
▁hiện▁đại▁hóa	-10138
▁cho▁bệnh▁nhân	-10139
▁nghiên▁cứu▁về	-10140
-7,	-10141
olla	-10142
▁Vios	-10143
n▁điểm	-10144
▁tôi▁có	-10145
▁bận▁rộn	-10146
▁của▁Cục	-10147
▁im▁lặng	-10148
▁nồng▁độ	-10149
▁Dân▁Việt	-10150
▁giảm▁nhẹ	-10151
▁tâm▁thần	-10152
▁Hoàng▁Thị	-10153
▁tranh▁tài	-10154
▁tại▁Syria	-10155
XD	-10156
▁Bur	-10157
▁Mời	-10158
▁Độc	-10159
ition	-10160
▁Rover	-10161
▁dễ▁dà	-10162
▁hữu▁ích	-10163
▁chủ▁chốt	-10164
▁tay▁súng	-10165
▁kiếm▁tiền	-10166
▁động▁cơ▁V	-10167
▁nguồn▁cung	-10168
▁thất▁nghiệp	-10169
▁của▁Chủ▁tịch	-10170
▁tiếp▁xúc▁với	-10171
▁cho▁rằng▁việc	-10172
CD	-10173
ake	-10174
ews	-10175
▁Ducati	-10176
▁Innova	-10177
▁đại▁sứ	-10178
ung▁lũng	-10179
▁Dầu▁khí	-10180
▁Hồ▁Gươm	-10181
▁Mậu▁Thân	-10182
▁bất▁hợp▁pháp	-10183
▁nhưng▁đến▁nay	-10184
68	-10185
-19	-10186
▁ve	-10187
▁Smart	-10188
▁cấp▁độ	-10189
▁áp▁đặt	-10190
▁tiền▁bạc	-10191
▁sẽ▁là▁một	-10192
▁bị▁hư▁hỏng	-10193
▁thuộc▁diện	-10194
▁trên▁tuyến	-10195
▁Truyền▁hình	-10196
▁của▁tác▁giả	-10197
▁Thông▁tin▁và	-10198
▁khởi▁tố▁vụ▁án	-10199
▁trên▁địa▁bàn▁TP	-10200
ũa	-10201
Thái	-10202
ital	-10203
▁18,	-10204
▁Nav	-10205
aniel	-10206
ng▁đài	-10207
▁ký▁ức	-10208
▁cho▁bà	-10209
▁của▁mẹ	-10210
▁dân▁phố	-10211
▁dịp▁này	-10212
▁tay▁lái	-10213
▁thế▁này	-10214
▁kiên▁trì	-10215
▁ngày▁qua	-10216
▁Thanh▁Vân	-10217
▁cầu▁thủ▁U	-10218
▁chỉ▁có▁một	-10219
▁trong▁làng	-10220
▁chuyển▁động	-10221
▁Phòng▁Cảnh▁sát	-10222
44	-10223
▁ráo	-10224
ustin	-10225
acombank	-10226
▁khoác▁áo	-10227
▁mạo▁hiểm	-10228
▁của▁bóng▁đá	-10229
▁những▁đường	-10230
▁cũng▁khẳng▁định	-10231
▁ủ	-10232
▁kệ	-10233
▁Bre	-10234
▁Jun	-10235
agram	-10236
▁Hỗ▁trợ	-10237
▁đang▁ở	-10238
▁Sputnik	-10239
▁trợ▁cấp	-10240
▁hiểu▁được	-10241
▁khiêm▁tốn	-10242
▁Chiến▁lược	-10243
▁Khu▁đô▁thị	-10244
▁lòng▁đường	-10245
▁Tổng▁Công▁ty	-10246
▁Wi	-10247
eland	-10248
▁Rolls	-10249
▁cô▁đã	-10250
▁y▁học	-10251
▁xe▁điện	-10252
▁lẫn▁nhau	-10253
▁nhà▁giáo	-10254
▁vào▁cuối	-10255
▁Công▁Vinh	-10256
▁người▁lớn	-10257
▁thủ▁thành	-10258
▁Đại▁tướng	-10259
▁nhiều▁loại	-10260
y▁ban▁nhân▁dân	-10261
▁trường▁mầm▁non	-10262
,▁8	-10263
IDV	-10264
▁lê	-10265
▁(19	-10266
khủng	-10267
▁Lang	-10268
▁Thẩm	-10269
▁ngặt	-10270
▁bảo▁hộ	-10271
▁do▁ông	-10272
▁liệt▁sỹ	-10273
▁nhìn▁vào	-10274
▁trước▁sự	-10275
▁Thông▁qua	-10276
▁công▁cuộc	-10277
▁Buôn	-10278
a▁khoa	-10279
▁Power	-10280
ng▁tuyển	-10281
▁Cai▁Lậy	-10282
▁giữ▁vững	-10283
▁kiềm▁chế	-10284
▁lạm▁dụng	-10285
▁trên▁báo	-10286
▁đẹp▁nhất	-10287
▁MTTQ▁Việt▁Nam	-10288
ward	-10289
▁cố▁ý	-10290
▁iPad	-10291
▁Model	-10292
▁cho▁dù	-10293
▁vụ▁thử	-10294
▁danh▁dự	-10295
▁quy▁tắc	-10296
▁thì▁các	-10297
▁vay▁vốn	-10298
▁đến▁đây	-10299
▁Thống▁kê	-10300
▁cùng▁lúc	-10301
▁hướng▁đi	-10302
▁dòng▁chảy	-10303
▁phúc▁thẩm	-10304
30,	-10305
rad	-10306
▁bar	-10307
▁lắc	-10308
▁mìn	-10309
▁tem	-10310
ordan	-10311
▁Phút	-10312
▁vĩnh	-10313
▁vì▁nó	-10314
iền▁đạo	-10315
▁ở▁quận	-10316
▁Morning	-10317
▁Cận▁Bình	-10318
▁Ngọc▁Sơn	-10319
▁gặp▁nhau	-10320
▁cũng▁từng	-10321
▁gánh▁nặng	-10322
▁khởi▁kiện	-10323
▁nước▁ngọt	-10324
▁thân▁hình	-10325
▁Trấn▁Thành	-10326
▁chiêm▁ngưỡng	-10327
▁có▁nguồn▁gốc	-10328
▁trong▁xã▁hội	-10329
▁các▁thông▁tin	-10330
▁xuất▁hiện▁của	-10331
ăk	-10332
▁1,3	-10333
▁Mấy	-10334
▁Str	-10335
▁ướt	-10336
▁Ba▁Lan	-10337
▁cho▁em	-10338
▁và▁anh	-10339
▁Tiền▁vệ	-10340
▁bước▁tiến	-10341
▁chưa▁biết	-10342
▁công▁thức	-10343
▁hưởng▁ứng	-10344
▁biến▁chứng	-10345
▁không▁thấy	-10346
▁Tập▁Cận▁Bình	-10347
▁Điện▁Biên▁Phủ	-10348
ng▁tại▁Việt▁Nam	-10349
AV	-10350
▁Mun	-10351
▁lánh	-10352
▁rào▁cản	-10353
▁định▁kỳ	-10354
▁Biên▁Hòa	-10355
▁điều▁động	-10356
▁các▁đại▁biểu	-10357
▁với▁mục▁tiêu	-10358
▁xử▁lý▁vi▁phạm	-10359
AC	-10360
-9,	-10361
▁78	-10362
uyễn	-10363
▁sỏi	-10364
▁tám	-10365
▁Đắc	-10366
▁là▁để	-10367
▁và▁hai	-10368
▁và▁tạo	-10369
▁trôi▁qua	-10370
▁hạng▁sang	-10371
▁thoái▁vốn	-10372
▁minh▁chứng	-10373
▁mẫu▁xe▁này	-10374
▁đăng▁quang	-10375
▁khuyết▁điểm	-10376
▁Đá	-10377
▁vấp	-10378
Class	-10379
ốc▁độ	-10380
▁Mạch	-10381
▁tước	-10382
▁và▁H	-10383
▁tỉ▁số	-10384
n▁đã▁có	-10385
▁Bắc▁Mỹ	-10386
▁ra▁những	-10387
▁sương▁mù	-10388
▁được▁xem	-10389
▁thích▁ứng	-10390
▁và▁không▁có	-10391
▁nam▁diễn▁viên	-10392
vi	-10393
▁ủi	-10394
▁log	-10395
▁lo▁sợ	-10396
▁thân▁đ	-10397
ng▁đã▁có	-10398
▁vừa▁rồi	-10399
▁dược▁liệu	-10400
ng▁đánh▁giá	-10401
▁cho▁cán▁bộ	-10402
▁cho▁biết▁đã	-10403
▁chiếc▁máy▁bay	-10404
dio	-10405
▁Nob	-10406
▁Trưở	-10407
▁Willi	-10408
▁Christ	-10409
▁và▁nhà	-10410
▁giả▁mạo	-10411
▁Bình▁Phước	-10412
▁Bạn▁có▁thể	-10413
▁người▁Kurd	-10414
▁tái▁cơ▁cấu	-10415
▁thương▁vong	-10416
▁99	-10417
▁htt	-10418
▁tia	-10419
▁toà	-10420
n▁đốc	-10421
▁Green	-10422
▁con▁đi	-10423
▁là▁hơn	-10424
▁xe▁chở	-10425
▁Theo▁bà	-10426
▁cho▁nên	-10427
▁này▁của	-10428
▁thì▁tôi	-10429
▁cuộc▁đua	-10430
▁xuống▁đường	-10431
▁có▁công▁suất	-10432
▁mệnh▁danh▁là	-10433
▁với▁thiết▁kế	-10434
▁lưới▁tản▁nhiệt	-10435
▁của▁các▁cơ▁quan	-10436
san	-10437
use	-10438
▁Eco	-10439
▁gạt	-10440
▁khác▁để	-10441
▁kể▁trên	-10442
▁Công▁Danh	-10443
▁riêng▁mình	-10444
▁khánh▁thành	-10445
▁thực▁hiện▁đúng	-10446
▁gas	-10447
▁Chải	-10448
▁rung	-10449
▁xuôi	-10450
▁nhiễu	-10451
▁triết	-10452
▁ĐBSCL	-10453
▁kẻ▁thù	-10454
▁xóa▁bỏ	-10455
▁âm▁mưu	-10456
▁Chỉ▁cần	-10457
▁Rõ▁ràng	-10458
▁hằng▁năm	-10459
▁ống▁kính	-10460
▁cho▁trẻ▁em	-10461
▁sân▁vận▁động	-10462
▁đến▁thời▁điểm	-10463
;,	-10464
ago	-10465
akh	-10466
▁FI	-10467
cean	-10468
▁Tìm	-10469
▁mác	-10470
▁xát	-10471
ng▁tín	-10472
▁Thư▁ký	-10473
▁Trận▁đ	-10474
▁bên▁dưới	-10475
▁kéo▁theo	-10476
▁anh▁chàng	-10477
▁bằng▁khen	-10478
▁nguyên▁bản	-10479
▁gây▁ấn▁tượng	-10480
▁của▁UBND▁tỉnh	-10481
▁thông▁qua▁các	-10482
▁Ki	-10483
▁MT	-10484
▁QU	-10485
▁BBC	-10486
▁Los	-10487
▁Khác	-10488
▁2014.	-10489
▁bán▁trú	-10490
▁mà▁phải	-10491
▁tàn▁phá	-10492
▁bệnh▁nhi	-10493
▁vùng▁cao	-10494
▁mức▁lương	-10495
▁Hiện▁trường	-10496
▁có▁thiết▁kế	-10497
▁mà▁không▁có	-10498
▁cuối▁cùng▁của	-10499
▁tại▁bệnh▁viện	-10500
FC	-10501
ều	-10502
ida	-10503
▁UN	-10504
▁dặn	-10505
▁thố	-10506
▁Bank	-10507
▁ròng	-10508
▁bị▁bỏ	-10509
▁cục▁bộ	-10510
▁xã▁Tân	-10511
▁Bộ▁luật	-10512
▁Bởi▁vậy	-10513
▁ghi▁nhớ	-10514
▁lên▁ngôi	-10515
▁lưu▁hành	-10516
▁tiền▁mặt	-10517
▁vào▁lưới	-10518
▁tác▁chiến	-10519
▁trong▁tuần	-10520
▁bệnh▁viện▁đ	-10521
▁hoành▁tráng	-10522
▁77	-10523
▁sc	-10524
▁15.	-10525
▁17,	-10526
▁Rập	-10527
▁kíp	-10528
andal	-10529
▁sẽ▁sớm	-10530
▁ngón▁tay	-10531
▁đảm▁nhận	-10532
▁Ngược▁lại	-10533
▁TP▁Cần▁Thơ	-10534
▁một▁số▁người	-10535
▁sẽ▁tiến▁hành	-10536
▁tà	-10537
▁bong	-10538
▁vách	-10539
national	-10540
▁Lao▁Động	-10541
▁giảm▁cân	-10542
▁hương▁vị	-10543
▁cáo▁trạng	-10544
▁toàn▁tỉnh	-10545
▁đang▁phát▁triển	-10546
Hu	-10547
▁Bê	-10548
▁ABS	-10549
▁đính	-10550
▁Sở▁TN	-10551
▁đó▁có	-10552
▁bất▁ổn	-10553
▁xu▁hướ	-10554
▁Thủ▁tướ	-10555
▁mỹ▁phẩm	-10556
▁sơ▁sinh	-10557
▁rút▁khỏi	-10558
▁thỏa▁mãn	-10559
▁được▁phép	-10560
▁đấu▁trường	-10561
▁các▁khu▁vực	-10562
▁năng▁lượng▁t	-10563
▁Trao▁đổi▁với▁PV	-10564
63	-10565
▁04	-10566
▁5%	-10567
▁USB	-10568
▁Xác	-10569
▁Đặc	-10570
▁lộng	-10571
▁ngẫu	-10572
▁thục	-10573
▁điêu	-10574
▁lives	-10575
▁đang▁làm	-10576
▁giải▁ngân	-10577
▁quốc▁tịch	-10578
▁uống▁rượu	-10579
▁trên▁những	-10580
▁Chứng▁khoán	-10581
▁thời▁gian▁tới	-10582
▁thông▁qua▁việc	-10583
▁bảo▁đảm▁an▁toàn	-10584
yn	-10585
▁Vệ	-10586
▁ông▁H	-10587
▁mà▁tôi	-10588
▁Nhà▁văn	-10589
▁sẽ▁giảm	-10590
▁Thiết▁bị	-10591
▁cánh▁tay	-10592
▁đoạn▁qua	-10593
▁Quang▁Trung	-10594
▁bổ▁sung▁thêm	-10595
▁năm▁trở▁lại▁đây	-10596
ann	-10597
▁16.	-10598
▁450	-10599
▁Tiết	-10600
▁nương	-10601
▁và▁bà	-10602
▁Vừa▁qua	-10603
▁sâu▁vào	-10604
▁thịt▁lợn	-10605
▁hành▁nghề	-10606
▁luyện▁tập	-10607
▁tuyệt▁đẹp	-10608
▁tính▁cách	-10609
▁bán▁đấu▁giá	-10610
▁ATT	-10611
▁rầm	-10612
▁tăng▁từ	-10613
▁rất▁đông	-10614
▁đất▁liền	-10615
▁cổ▁truyền	-10616
▁giới▁chức	-10617
▁trước▁hết	-10618
▁truyền▁tải	-10619
▁dao▁động▁từ	-10620
▁liên▁hệ▁với	-10621
▁chiếc▁xe▁máy	-10622
ear	-10623
▁né	-10624
▁Cen	-10625
▁gậy	-10626
▁NGUY	-10627
▁nhức	-10628
▁quyề	-10629
▁Hy▁Lạp	-10630
▁ở▁trận	-10631
▁Hình▁sự	-10632
▁mùi▁hôi	-10633
▁nhưng▁do	-10634
▁HĐND▁tỉnh	-10635
▁Mọi▁người	-10636
▁với▁tỷ▁số	-10637
▁tiền▁lương	-10638
▁tiền▁nhiệm	-10639
▁cũng▁đã▁được	-10640
▁Hạt	-10641
▁nốt	-10642
▁tụt	-10643
▁ván	-10644
▁mươi	-10645
▁mương	-10646
▁Mầm▁non	-10647
▁Nhật▁Bả	-10648
▁gây▁mất	-10649
▁nhỏ▁hơn	-10650
▁hiện▁hữu	-10651
▁sản▁sinh	-10652
▁nam▁ca▁sĩ	-10653
▁nhưng▁các	-10654
▁quan▁ngại	-10655
▁và▁cũng▁là	-10656
▁có▁kế▁hoạch	-10657
▁và▁khả▁năng	-10658
y▁ban▁Kiểm▁tra	-10659
▁công▁nghệ▁mới	-10660
gen	-10661
▁Xử	-10662
ella	-10663
▁Khí	-10664
▁giề	-10665
▁nóc	-10666
utube	-10667
▁Home	-10668
▁tạng	-10669
▁Tesla	-10670
▁giang	-10671
▁nào▁để	-10672
▁chiến▁sỹ	-10673
▁ra▁trường	-10674
▁tạo▁thành	-10675
▁bằng▁tiếng	-10676
▁khủng▁long	-10677
▁riêng▁biệt	-10678
▁một▁công▁ty	-10679
▁quyền▁sở▁hữu	-10680
▁được▁biết▁đến	-10681
▁triển▁khai▁các	-10682
▁với▁các▁cơ▁quan	-10683
tin	-10684
▁nể	-10685
▁rễ	-10686
▁Nor	-10687
▁vứt	-10688
ivers	-10689
ng▁đế	-10690
▁Dinh	-10691
▁Thức	-10692
▁tràng	-10693
▁lưu▁lượng	-10694
▁quan▁trắc	-10695
▁Bình▁Thạnh	-10696
▁có▁giá▁bán	-10697
▁nuôi▁trồng	-10698
▁gây▁hậu▁quả	-10699
▁khung▁thành	-10700
▁đánh▁giá▁là	-10701
▁sự▁khác▁biệt	-10702
▁đã▁xuất▁hiện	-10703
▁mi	-10704
iter	-10705
▁29,	-10706
▁2▁-	-10707
▁Won	-10708
▁man	-10709
▁đặn	-10710
treet	-10711
▁Diện	-10712
▁Sa▁Pa	-10713
▁Ả▁Rập	-10714
▁chuông	-10715
▁phá▁sản	-10716
▁cao▁tầng	-10717
▁vòng▁đấu	-10718
▁trong▁vài	-10719
▁trang▁điểm	-10720
▁thành▁viên▁của	-10721
lít	-10722
▁phì	-10723
▁trán	-10724
▁mà▁vẫn	-10725
▁dọn▁dẹp	-10726
▁kích▁cỡ	-10727
▁nếu▁bạn	-10728
▁ông▁chủ	-10729
▁Đào▁Nha	-10730
▁ngay▁khi	-10731
▁ngày▁đêm	-10732
▁Mặc▁dù▁vậy	-10733
▁này▁cho▁biết	-10734
41	-10735
-35	-10736
▁).	-10737
▁20.	-10738
▁Lớn	-10739
▁Bill	-10740
▁Từng	-10741
▁và▁C	-10742
▁Đoạn	-10743
▁đã▁gửi	-10744
▁màn▁ảnh	-10745
▁bảo▁lãnh	-10746
▁yêu▁nước	-10747
▁khẩu▁súng	-10748
▁những▁tấm	-10749
▁trong▁cơ▁thể	-10750
AD	-10751
ream	-10752
▁Blu	-10753
▁Exc	-10754
▁Xét	-10755
▁lún	-10756
▁Sony	-10757
▁lanh	-10758
▁40.000	-10759
▁lô▁đất	-10760
▁mơ▁ước	-10761
▁đối▁xử	-10762
▁lại▁các	-10763
▁ghi▁hình	-10764
▁thư▁giãn	-10765
▁tuổi▁thọ	-10766
▁giữa▁tháng	-10767
▁trái▁chiều	-10768
▁khi▁tham▁gia	-10769
▁sẽ▁trở▁thành	-10770
▁trái▁quy▁định	-10771
▁Trong▁bối▁cảnh	-10772
▁rất▁nhiều▁người	-10773
tis	-10774
▁SE	-10775
mail	-10776
▁bôi	-10777
▁vùi	-10778
▁lách	-10779
▁san▁hô	-10780
▁Bùi▁Thị	-10781
▁Tuần▁lễ	-10782
▁quả▁bom	-10783
▁đáng▁yêu	-10784
▁Rất▁nhiều	-10785
▁kim▁cương	-10786
▁nội▁thành	-10787
▁cũng▁chẳng	-10788
▁với▁khoảng	-10789
▁quốc▁gia▁và	-10790
▁đang▁diễn▁ra	-10791
-6,	-10792
▁(8	-10793
▁360	-10794
▁sổ▁đỏ	-10795
▁Với▁sự	-10796
▁anh▁chị	-10797
▁mà▁mình	-10798
▁truy▁nã	-10799
▁giao▁hữu	-10800
Nếu	-10801
▁PSG	-10802
▁Vina	-10803
▁Jordan	-10804
▁từng▁t	-10805
▁Tiếp▁đó	-10806
▁cho▁bạn	-10807
▁cho▁đội	-10808
▁trước▁U	-10809
▁tử▁cung	-10810
▁Có▁những	-10811
▁dũng▁cảm	-10812
▁vắng▁mặt	-10813
▁Chi▁nhánh	-10814
▁cuốn▁trôi	-10815
▁tuyệt▁chủng	-10816
mos	-10817
trái	-10818
▁gặt	-10819
▁hạ▁tầ	-10820
▁xe▁và	-10821
▁cư▁trú	-10822
▁Chỉ▁thị	-10823
▁châu▁lục	-10824
▁loại▁trừ	-10825
▁phá▁hoại	-10826
▁ở▁thủ▁đô	-10827
▁Instagram	-10828
▁quan▁trọng▁là	-10829
,▁10	-10830
▁140	-10831
▁đạm	-10832
▁Chùa	-10833
▁quầy	-10834
▁tự▁tử	-10835
▁bản▁địa	-10836
▁sao▁cho	-10837
▁Fortuner	-10838
▁viện▁trợ	-10839
▁vai▁trò▁của	-10840
▁thị▁trường▁đ	-10841
▁ở▁địa▁phương	-10842
GĐ	-10843
ửng	-10844
▁160	-10845
▁Pri	-10846
▁lam	-10847
▁thèm	-10848
▁xe▁ôm	-10849
▁Vị▁trí	-10850
▁sa▁mạc	-10851
▁từ▁nay	-10852
▁dày▁đặc	-10853
▁rắc▁rối	-10854
▁rất▁mạnh	-10855
▁Tổng▁LĐLĐ	-10856
▁kiếm▁được	-10857
▁thông▁tấn	-10858
▁Huy▁chương	-10859
▁trường▁THCS	-10860
▁và▁nâng▁cao	-10861
▁Chúng▁tôi▁đã	-10862
▁TD	-10863
▁út	-10864
comm	-10865
ille	-10866
n▁đỏ	-10867
▁đèo	-10868
asaki	-10869
▁Dùng	-10870
▁mini	-10871
▁bộ▁đôi	-10872
▁gần▁đó	-10873
▁đồ▁chơi	-10874
▁song▁song	-10875
▁Kinh▁doanh	-10876
▁biến▁thành	-10877
▁cho▁khán▁giả	-10878
▁nghiên▁cứu▁và	-10879
▁ra▁thị▁trường	-10880
een	-10881
ESCO	-10882
▁Khó	-10883
▁lau	-10884
▁2006	-10885
▁Qual	-10886
▁ghét	-10887
▁Củ▁Chi	-10888
▁sao▁Hỏa	-10889
▁hòa▁giải	-10890
▁tích▁lũy	-10891
▁Đàm▁Vĩnh	-10892
▁Hàn▁Quốc▁và	-10893
▁các▁dân▁tộc	-10894
▁niềm▁tự▁hào	-10895
▁giải▁quyết▁được	-10896
KV	-10897
ys	-10898
▁Av	-10899
▁SG	-10900
enko	-10901
▁háo	-10902
▁nuốt	-10903
▁bị▁hại	-10904
▁đã▁đạt	-10905
▁thua▁lỗ	-10906
▁đến▁tận	-10907
▁các▁nhóm	-10908
▁mang▁BKS	-10909
▁phản▁cảm	-10910
▁quen▁với	-10911
▁chính▁hãng	-10912
▁sẽ▁tổ▁chức	-10913
▁cư▁dân▁mạng	-10914
▁để▁kiểm▁tra	-10915
▁nói▁chung▁và	-10916
▁nhưng▁không▁có	-10917
▁những▁tác▁phẩm	-10918
IN	-10919
▁uốn	-10920
▁CATP	-10921
▁bàn▁đ	-10922
▁Nam▁Bộ	-10923
▁Saigon	-10924
▁cả▁năm	-10925
▁rõ▁nét	-10926
▁gây▁nên	-10927
▁nhà▁thơ	-10928
▁quần▁chúng	-10929
▁tuyên▁phạt	-10930
▁khi▁sử▁dụng	-10931
▁có▁thể▁khiến	-10932
▁sau▁khi▁được	-10933
33	-10934
66	-10935
ng▁đèn	-10936
▁Ocean	-10937
▁dự▁bị	-10938
▁thỉnh	-10939
▁mặc▁áo	-10940
▁nữa▁là	-10941
▁bắt▁gặp	-10942
▁của▁Anh	-10943
▁sống▁và	-10944
▁trụ▁cột	-10945
▁với▁tôi	-10946
▁họ▁không	-10947
▁hủy▁diệt	-10948
▁quả▁tang	-10949
▁tầng▁lớp	-10950
▁của▁Bộ▁GD	-10951
▁chính▁đáng	-10952
▁khai▁giảng	-10953
▁nhưng▁phải	-10954
▁điều▁khoản	-10955
▁những▁đứa▁trẻ	-10956
▁theo▁tiêu▁chuẩn	-10957
▁bóp	-10958
▁Loài	-10959
▁chỉ▁vì	-10960
▁nghênh	-10961
▁Ngọc▁Hà	-10962
▁dài▁hơn	-10963
▁loài▁cá	-10964
▁khả▁quan	-10965
▁nắm▁được	-10966
▁Trung▁học	-10967
▁giống▁với	-10968
▁phát▁minh	-10969
▁sau▁những	-10970
▁ý▁kiến▁của	-10971
2)	-10972
bai	-10973
ock	-10974
▁59	-10975
▁Bè	-10976
▁FDI	-10977
▁Nạn	-10978
▁chấ	-10979
▁Nobel	-10980
▁Tương	-10981
▁nguyệt	-10982
▁cơ▁động	-10983
▁đã▁tăng	-10984
▁Nội▁thất	-10985
▁bình▁yên	-10986
▁các▁chất	-10987
▁Đầu▁tiên	-10988
▁triển▁vọng	-10989
▁trung▁thực	-10990
▁cuộc▁điều▁tra	-10991
▁Hà▁Nội▁cho▁biết	-10992
▁Gar	-10993
▁Mod	-10994
▁Ram	-10995
▁Biểu	-10996
▁giặt	-10997
▁thòi	-10998
▁Cơ▁sở	-10999
▁bê▁bối	-11000
▁cơ▁khí	-11001
▁để▁tìm	-11002
▁xi▁măng	-11003
▁láng▁giề	-11004
▁mua▁được	-11005
▁nuôi▁con	-11006
▁thư▁viện	-11007
▁không▁lâu	-11008
▁Điển▁hình	-11009
▁Trên▁cơ▁sở	-11010
▁Tăng▁cường	-11011
▁của▁Google	-11012
▁Nguyễn▁Quốc	-11013
▁tập▁trung▁t	-11014
▁trong▁trận▁đấu	-11015
CĐ	-11016
▁AR	-11017
▁Lô	-11018
▁Trình	-11019
▁mua▁vé	-11020
▁xe▁ôtô	-11021
▁vận▁hội	-11022
▁cầu▁vượt	-11023
▁theo▁một	-11024
ng▁tài▁sản	-11025
▁để▁hỗ▁trợ	-11026
▁lan▁truyền	-11027
▁xây▁dựng▁t	-11028
▁đã▁và▁đang	-11029
▁ngôi▁trường	-11030
▁cuộc▁cách▁mạng	-11031
▁trách▁nhiệm▁của	-11032
29	-11033
iti	-11034
▁79	-11035
Nghệ	-11036
▁Shi	-11037
▁bóc	-11038
in▁đã	-11039
▁đã▁ra	-11040
▁câu▁nói	-11041
▁hoa▁quả	-11042
▁lặp▁lại	-11043
▁có▁trong	-11044
▁giúp▁các	-11045
▁ngăn▁cản	-11046
▁thể▁chất	-11047
▁định▁giá	-11048
▁Hậu▁Giang	-11049
▁ranh▁giới	-11050
▁tiêm▁kích	-11051
▁International	-11052
▁Theo▁quy▁định	-11053
▁nhằm▁nâng▁cao	-11054
▁những▁đóng▁góp	-11055
ado	-11056
▁Cú	-11057
▁Bưu	-11058
▁hoá	-11059
▁nga	-11060
▁màu▁áo	-11061
▁toán▁đ	-11062
▁buổi▁lễ	-11063
▁cuối▁cù	-11064
▁tư▁pháp	-11065
▁Bạch▁Mai	-11066
▁nhắn▁tin	-11067
▁thế▁chấp	-11068
▁trở▁ngại	-11069
▁chóng▁mặt	-11070
▁chụp▁hình	-11071
▁qua▁những	-11072
▁tàu▁chiến	-11073
▁người▁Pháp	-11074
▁người▁được	-11075
▁tránh▁khỏi	-11076
▁tưởng▁niệm	-11077
▁đã▁sử▁dụng	-11078
▁cảm▁hứng▁từ	-11079
▁lần▁lượt▁là	-11080
▁Lần▁đầu▁tiên	-11081
▁của▁khán▁giả	-11082
▁với▁nội▁dung	-11083
Fi	-11084
ift	-11085
▁Ái	-11086
▁2.5	-11087
▁PVC	-11088
▁Đấu	-11089
field	-11090
ng▁to	-11091
▁tivi	-11092
▁dù▁có	-11093
▁Trà▁Vinh	-11094
▁diễu▁hành	-11095
▁nhận▁biết	-11096
▁chuyển▁hóa	-11097
▁của▁các▁nhà	-11098
▁Vụ▁trưởng▁Vụ	-11099
▁phát▁hiện▁và	-11100
▁có▁thành▁tích	-11101
▁đã▁triển▁khai	-11102
▁ngày▁càng▁tăng	-11103
▁xử▁phạt▁vi▁phạm	-11104
▁đấm	-11105
iness	-11106
NamNet	-11107
▁Tuyển	-11108
▁sư▁tử	-11109
▁đã▁là	-11110
▁ngã▁tư	-11111
▁ông▁ấy	-11112
▁đàn▁bà	-11113
▁bản▁sắc	-11114
▁đem▁đến	-11115
▁Quy▁Nhơn	-11116
▁giúp▁bạn	-11117
▁Đông▁Anh	-11118
▁điểm▁của	-11119
▁chuẩn▁mực	-11120
▁còn▁thiếu	-11121
▁nhưng▁nếu	-11122
▁nắng▁nóng	-11123
▁phát▁điện	-11124
▁chia▁sẻ▁về	-11125
▁khoảng▁hơn	-11126
▁nhiều▁nước	-11127
▁hiện▁nay▁là	-11128
▁các▁điều▁kiện	-11129
▁15%	-11130
▁Gói	-11131
▁Lig	-11132
▁Nhì	-11133
▁Đam	-11134
▁đệm	-11135
▁start	-11136
▁sơ▁bộ	-11137
▁15.000	-11138
▁thứ▁tư	-11139
▁giản▁dị	-11140
▁và▁tăng	-11141
▁hãng▁tin	-11142
▁bùng▁phát	-11143
▁Nguyễn▁Thiện	-11144
▁nhằm▁mục▁đích	-11145
▁tình▁trạng▁này	-11146
đã	-11147
▁tơ	-11148
▁Niê	-11149
ander	-11150
▁chốn	-11151
▁1.200	-11152
iêu▁thụ	-11153
▁hi▁vọng	-11154
▁đơn▁xin	-11155
▁Bảo▁hiểm	-11156
▁cái▁nhìn	-11157
▁mực▁nước	-11158
▁phòng▁hộ	-11159
▁riêng▁tư	-11160
▁xúc▁tiến	-11161
ng▁điều▁trị	-11162
▁Thanh▁Bình	-11163
▁Nguyễn▁Quang	-11164
▁trên▁bán▁đảo	-11165
aya	-11166
ign	-11167
▁vọt	-11168
▁chuyệ	-11169
▁William	-11170
▁bầu▁Đức	-11171
▁nhà▁dân	-11172
▁ông▁nói	-11173
▁Mặt▁trời	-11174
▁môi▁giới	-11175
▁toàn▁thể	-11176
▁vì▁lý▁do	-11177
▁bằng▁sông	-11178
▁người▁con	-11179
▁Ban▁Chỉ▁đạo	-11180
▁Huân▁chương	-11181
▁đối▁mặt▁với	-11182
▁có▁chiều▁dài	-11183
▁Ban▁Chấp▁hành	-11184
▁dòng▁sản▁phẩm	-11185
aro	-11186
itan	-11187
▁60%	-11188
▁dưng	-11189
▁VKSND	-11190
▁của▁DN	-11191
▁du▁học	-11192
▁đi▁tìm	-11193
▁đầu▁ra	-11194
ng▁đó▁là	-11195
▁Bộ▁phim	-11196
▁thu▁hẹp	-11197
▁đau▁đầu	-11198
▁đến▁đâu	-11199
▁Phan▁Thị	-11200
▁bên▁phải	-11201
▁chiếc▁áo	-11202
▁phụ▁tùng	-11203
▁nóng▁bỏng	-11204
▁Thành▁Công	-11205
▁và▁tiếp▁tục	-11206
▁về▁khả▁năng	-11207
▁Theo▁số▁liệu	-11208
▁cuộc▁họp▁báo	-11209
▁không▁đảm▁bảo	-11210
▁trong▁hệ▁thống	-11211
íp	-11212
▁ni	-11213
▁Kaw	-11214
▁hức	-11215
▁Daniel	-11216
▁chỉ▁mới	-11217
▁thuê▁đất	-11218
▁đơn▁thuần	-11219
▁thì▁có▁thể	-11220
▁chỉ▁ra▁rằng	-11221
▁cũng▁chính▁là	-11222
▁gây▁tranh▁cãi	-11223
ista	-11224
ivic	-11225
ovic	-11226
▁1▁-	-11227
▁Sky	-11228
▁Hill	-11229
h▁sáng	-11230
▁thằng	-11231
▁bộ▁ảnh	-11232
▁laptop	-11233
ập▁trung	-11234
▁Những▁t	-11235
▁Tối▁cao	-11236
▁quý▁giá	-11237
▁xây▁nhà	-11238
▁cấp▁bách	-11239
▁căn▁phòng	-11240
▁căn▁cứ▁vào	-11241
▁trú▁tại▁xã	-11242
▁chặng▁đường	-11243
▁ngoài▁hành▁tinh	-11244
log	-11245
▁Kẻ	-11246
ment	-11247
▁14.	-11248
▁220	-11249
▁AMG	-11250
▁phô	-11251
▁Đền	-11252
▁Hiểu	-11253
▁chứng▁từ	-11254
▁nhân▁dịp	-11255
▁tràn▁lan	-11256
▁vùng▁núi	-11257
▁Liên▁hoan	-11258
▁nguy▁kịch	-11259
▁Daily▁Mail	-11260
▁hàng▁tháng	-11261
▁có▁khả▁năng▁t	-11262
▁trên▁Facebook	-11263
▁tốc▁độ▁tối▁đa	-11264
▁đối▁với▁những	-11265
▁người▁tham▁gia	-11266
▁theo▁phong▁cách	-11267
XB	-11268
aku	-11269
ave	-11270
way	-11271
arao	-11272
icro	-11273
m▁và	-11274
▁Cúc	-11275
▁Tai	-11276
▁hoi	-11277
▁xoa	-11278
Trong	-11279
▁1000	-11280
▁Carl	-11281
▁girl	-11282
▁khía	-11283
▁sưởi	-11284
▁7.000	-11285
▁2017-0	-11286
▁Di▁sản	-11287
▁cú▁sút	-11288
▁kẹt▁xe	-11289
▁bài▁thơ	-11290
▁bị▁phạt	-11291
▁lấy▁lại	-11292
▁Qualcomm	-11293
▁sau▁trận	-11294
▁Danh▁sách	-11295
▁miễn▁dịch	-11296
▁mới▁trong	-11297
▁tầm▁trung	-11298
▁của▁Samsung	-11299
▁nhằm▁đảm▁bảo	-11300
▁tỉnh▁Đồng▁Nai	-11301
USD	-11302
▁83	-11303
▁18.	-11304
▁Fin	-11305
▁dẻo	-11306
▁Luân	-11307
▁chèo	-11308
▁Pixel	-11309
▁hệ▁lụy	-11310
▁làm▁từ	-11311
▁như▁là	-11312
▁góc▁nhìn	-11313
▁Trung▁Hải	-11314
▁qua▁đường	-11315
▁bất▁ngờ▁khi	-11316
iag	-11317
▁Hân	-11318
▁Ren	-11319
ng▁đủ	-11320
▁Type	-11321
▁món▁đồ	-11322
ng▁đến▁đ	-11323
▁Sử▁dụng	-11324
▁đến▁nơi	-11325
▁biến▁thể	-11326
▁Hàng▁loạt	-11327
▁coi▁trọng	-11328
▁có▁quy▁mô	-11329
ng▁tiền▁mặt	-11330
▁thế▁nào▁để	-11331
▁đoạn▁video	-11332
▁tương▁tự▁như	-11333
▁đưa▁ra▁những	-11334
▁bỉ	-11335
)...	-11336
ador	-11337
▁Màu	-11338
▁Pol	-11339
-2020	-11340
▁Glob	-11341
▁Mạng	-11342
▁Đằng	-11343
▁đọng	-11344
ng▁đầy	-11345
▁Bắc▁Bộ	-11346
▁dừng▁xe	-11347
▁này▁rất	-11348
▁quá▁cao	-11349
▁và▁cách	-11350
▁Tuyên▁bố	-11351
▁bãi▁đỗ▁xe	-11352
▁của▁chính	-11353
▁Nguyễn▁Chí	-11354
▁Trong▁suốt	-11355
▁ngay▁cả▁khi	-11356
▁quãng▁đường	-11357
act	-11358
▁1/3	-11359
▁Vài	-11360
▁hét	-11361
▁qui	-11362
ăn▁đe	-11363
▁Thới	-11364
▁chọc	-11365
▁quấy	-11366
ội▁phạm	-11367
▁của▁xã	-11368
▁có▁tiền	-11369
▁khá▁tốt	-11370
▁Hoàng▁Sa	-11371
▁phát▁tán	-11372
▁họ▁có▁thể	-11373
▁nhưng▁với	-11374
▁nghiệm▁thu	-11375
▁thuyền▁viên	-11376
▁và▁đặc▁biệt▁là	-11377
▁với▁Triều▁Tiên	-11378
▁của▁nhiều▁người	-11379
mo	-11380
▁Tp	-11381
▁eo	-11382
▁lữ	-11383
▁Sec	-11384
▁quất	-11385
▁nên▁khi	-11386
▁Cận▁cảnh	-11387
▁khép▁lại	-11388
▁thuộc▁vào	-11389
▁chết▁người	-11390
▁của▁các▁em	-11391
▁thiệt▁thòi	-11392
▁tàu▁thuyền	-11393
▁Tuyên▁Quang	-11394
▁có▁nghĩa▁là	-11395
▁mà▁không▁cần	-11396
▁quan▁trọng▁để	-11397
,▁9	-11398
▁AC	-11399
▁rổ	-11400
▁Bầu	-11401
▁Lim	-11402
▁cám	-11403
▁em▁trai	-11404
▁hài▁cốt	-11405
▁thì▁lại	-11406
▁vụ▁cháy	-11407
▁Đến▁ngày	-11408
▁đạt▁giải	-11409
▁chơi▁bóng	-11410
▁Đường▁sắt	-11411
▁trung▁thành	-11412
▁hành▁vi▁phạm	-11413
▁bản▁thân▁mình	-11414
ato	-11415
oad	-11416
▁86	-11417
▁Xá	-11418
cker	-11419
▁Bốn	-11420
▁Góc	-11421
▁Her	-11422
▁Ver	-11423
▁dào	-11424
▁nức	-11425
▁Cháu	-11426
▁Trân	-11427
▁nhộn	-11428
▁bấy▁giờ	-11429
▁hành▁lý	-11430
▁Đề▁nghị	-11431
▁Cao▁Bằng	-11432
▁bên▁trái	-11433
▁nhưng▁có	-11434
▁đóng▁tàu	-11435
▁chào▁mừng	-11436
▁phân▁khối	-11437
▁soạn▁thảo	-11438
▁cũng▁đã▁có	-11439
▁phòng▁khám	-11440
▁thất▁thoát	-11441
▁vào▁cuối▁tháng	-11442
▁được▁triển▁khai	-11443
eed	-11444
▁ID	-11445
▁vác	-11446
▁Niềm	-11447
▁chen	-11448
▁2007,	-11449
▁Chile	-11450
ng▁đông	-11451
▁huyện▁đã	-11452
▁trăn▁trở	-11453
▁tùy▁theo	-11454
▁xin▁phép	-11455
▁cho▁khách	-11456
▁lên▁đường	-11457
▁một▁tháng	-11458
▁Bồ▁Đào▁Nha	-11459
▁giống▁nhau	-11460
▁lâm▁nghiệp	-11461
▁ngoài▁khơi	-11462
▁giữ▁chức▁vụ	-11463
▁các▁gia▁đình	-11464
▁và▁trở▁thành	-11465
BĐ	-11466
col	-11467
tức	-11468
elfie	-11469
▁Chúc	-11470
▁Tranh	-11471
▁bán▁vé	-11472
▁răn▁đe	-11473
▁Tân▁Bình	-11474
▁cấp▁nước	-11475
▁làm▁sạch	-11476
▁này▁phải	-11477
▁đó▁là▁một	-11478
▁thích▁nghi	-11479
▁tương▁đồng	-11480
▁phối▁hợp▁cùng	-11481
▁trong▁quản▁lý	-11482
▁tổng▁giám▁đốc	-11483
!!	-11484
.1.	-11485
dro	-11486
▁1:	-11487
iger	-11488
in▁đ	-11489
▁Nâng	-11490
▁axit	-11491
▁hoạn	-11492
▁Điệp	-11493
-2017.	-11494
▁2009.	-11495
▁tư▁thế	-11496
▁có▁hình	-11497
▁sau▁hơn	-11498
▁Nông▁dân	-11499
▁vào▁sáng	-11500
▁Tottenham	-11501
▁nhiều▁nơi	-11502
▁láng▁giềng	-11503
▁Theo▁tìm▁hiểu	-11504
▁Theo▁đánh▁giá	-11505
Huế	-11506
any	-11507
▁Ký	-11508
▁Lữ	-11509
▁Cou	-11510
▁vì▁sự	-11511
▁George	-11512
▁Từ▁khi	-11513
▁Hollywood	-11514
▁nhân▁rộng	-11515
▁nhưng▁chỉ	-11516
▁vấn▁đề▁về	-11517
▁chia▁thành	-11518
▁Thông▁thường	-11519
▁các▁thí▁sinh	-11520
▁việc▁xây▁dựng	-11521
int	-11522
iro	-11523
▁HP	-11524
▁đả	-11525
illa	-11526
▁Bát	-11527
n▁đau	-11528
▁Vành	-11529
ribank	-11530
▁Steph	-11531
▁vốn▁đã	-11532
▁các▁bên	-11533
▁hai▁lần	-11534
▁háo▁hức	-11535
▁Hoàng▁gia	-11536
▁Tôi▁không	-11537
▁ban▁ngành	-11538
▁cũng▁tăng	-11539
▁gây▁chú▁ý	-11540
▁học▁đường	-11541
▁sóng▁thần	-11542
▁tiện▁nghi	-11543
▁ngay▁sau▁đó	-11544
▁Nguyễn▁Hoàng	-11545
BV	-11546
▁bồ	-11547
▁cừ	-11548
▁Cầm	-11549
▁Trở	-11550
▁Trụ	-11551
▁Khám	-11552
▁cưng	-11553
▁cỡ▁lớn	-11554
▁là▁anh	-11555
▁có▁phải	-11556
▁gặp▁nạn	-11557
▁Theo▁lời	-11558
▁gian▁hàng	-11559
▁nhận▁tiền	-11560
▁Đó▁là▁một	-11561
▁Nam▁Từ▁Liêm	-11562
▁tại▁Hội▁nghị	-11563
▁sẽ▁chính▁thức	-11564
ech	-11565
▁Ac	-11566
▁1,8	-11567
▁2-1	-11568
▁Mua	-11569
▁Mong	-11570
▁Con▁số	-11571
▁Gia▁Lâm	-11572
▁liên▁qua	-11573
▁trên▁sàn	-11574
▁vẫn▁luôn	-11575
▁ít▁người	-11576
▁Trần▁Quốc	-11577
▁bức▁tường	-11578
▁thiết▁yếu	-11579
▁cùng▁những	-11580
▁vị▁trí▁thứ	-11581
▁người▁nghèo	-11582
▁tác▁động▁của	-11583
▁không▁sử▁dụng	-11584
▁thuận▁lợi▁cho	-11585
▁Bí▁thư▁Đảng▁ủy	-11586
▁Phạm▁Công▁Danh	-11587
omp	-11588
▁nhị	-11589
▁Suốt	-11590
ái▁tạo	-11591
▁đất▁ở	-11592
▁đội▁bó	-11593
▁HĐND▁TP	-11594
▁Hải▁Phò	-11595
▁giết▁mổ	-11596
▁gắn▁máy	-11597
▁protein	-11598
▁giờ▁sáng	-11599
▁khu▁trục	-11600
▁thuế▁suất	-11601
▁tiếc▁nuối	-11602
▁ngang▁nhiên	-11603
▁gây▁khó▁khăn	-11604
▁vào▁Việt▁Nam	-11605
▁các▁chính▁sách	-11606
▁08	-11607
▁RS	-11608
alan	-11609
▁ngậm	-11610
▁em▁bé	-11611
▁xa▁lạ	-11612
▁Sở▁hữu	-11613
▁cô▁lập	-11614
▁quy▁tụ	-11615
▁tị▁nạn	-11616
▁cốt▁lõi	-11617
▁gìn▁giữ	-11618
▁một▁bên	-11619
▁tuổi▁trẻ	-11620
▁đang▁đứng	-11621
▁thế▁hệ▁thứ	-11622
▁tiểu▁đường	-11623
▁chứng▁nhận▁đ	-11624
▁làm▁công▁tác	-11625
▁và▁triển▁khai	-11626
-8,	-11627
?".	-11628
ets	-11629
▁Ha	-11630
▁sà	-11631
▁Ngư	-11632
▁Tour	-11633
▁Tưởng	-11634
▁kể▁về	-11635
ng▁dụng	-11636
▁mã▁hóa	-11637
▁trong▁sự	-11638
▁Đặng▁Văn	-11639
▁ngoạn▁mục	-11640
▁Tuyên▁giáo	-11641
▁trong▁tỉnh	-11642
▁công▁trường	-11643
▁tạo▁nên▁một	-11644
▁và▁chất▁lượng	-11645
▁chống▁khủng▁bố	-11646
EP	-11647
MA	-11648
▁ấ	-11649
▁ạt	-11650
▁19,	-11651
▁ngỏ	-11652
▁rẫy	-11653
▁Nhuận	-11654
▁nhược	-11655
▁Phú▁Mỹ	-11656
▁sẽ▁rất	-11657
▁an▁sinh	-11658
▁bám▁sát	-11659
▁hồ▁chứa	-11660
▁nhà▁thờ	-11661
▁Số▁lượng	-11662
▁bước▁chân	-11663
▁chân▁dung	-11664
▁mặt▁trăng	-11665
▁tận▁hưởng	-11666
▁thương▁lái	-11667
▁tuyển▁chọn	-11668
▁đề▁cập▁đến	-11669
▁Bất▁động▁sản	-11670
▁bài▁phát▁biểu	-11671
▁trên▁đường▁phố	-11672
▁FBI	-11673
ng▁đo	-11674
▁Thắm	-11675
▁gián	-11676
▁phao	-11677
/2016.	-11678
/2017/	-11679
▁tồn▁đ	-11680
▁đủ▁để	-11681
▁Nghệ▁A	-11682
▁chủ▁xe	-11683
▁hệ▁thố	-11684
▁về▁sau	-11685
▁Tên▁lửa	-11686
▁kỳ▁tích	-11687
▁môn▁thi	-11688
▁sĩ▁quan	-11689
▁ăn▁thịt	-11690
▁Ngày▁nay	-11691
▁Theo▁các	-11692
▁mặt▁nước	-11693
▁người▁vợ	-11694
▁phải▁mất	-11695
▁khía▁cạnh	-11696
▁khốc▁liệt	-11697
▁góp▁phần▁đ	-11698
▁của▁các▁nước	-11699
▁cho▁công▁suất	-11700
▁của▁các▁tổ▁chức	-11701
IT	-11702
ont	-11703
shi	-11704
▁66	-11705
▁nô	-11706
▁âu	-11707
/11.	-11708
▁Mưa	-11709
▁Sur	-11710
▁Tel	-11711
▁của▁máy	-11712
▁tổn▁hại	-11713
▁vòng▁tua	-11714
▁cũng▁chưa	-11715
▁không▁phép	-11716
▁triệu▁euro	-11717
▁đội▁trưởng	-11718
▁và▁hoạt▁động	-11719
▁được▁đưa▁vào	-11720
▁được▁tìm▁thấy	-11721
▁ồ	-11722
nếu	-11723
loom	-11724
▁Lat	-11725
▁lầy	-11726
dragon	-11727
▁Civic	-11728
▁mà▁cả	-11729
▁có▁con	-11730
▁hội▁tụ	-11731
▁bên▁kia	-11732
▁gửi▁tới	-11733
▁bí▁quyết	-11734
▁dân▁được	-11735
▁họa▁tiết	-11736
▁qua▁mạng	-11737
▁thay▁mặt	-11738
▁thủ▁đoạn	-11739
▁xúc▁phạm	-11740
▁giáo▁dục▁và	-11741
▁13.	-11742
▁Bor	-11743
▁Lấy	-11744
▁Ung	-11745
ận▁đã	-11746
▁Chúa	-11747
▁và▁xe	-11748
▁Xây▁dự	-11749
▁sụp▁đổ	-11750
▁tạo▁sự	-11751
▁cơ▁giới	-11752
▁sản▁phụ	-11753
▁Trường▁t	-11754
▁của▁giới	-11755
▁ghế▁ngồi	-11756
▁một▁tuần	-11757
▁nhưng▁nó	-11758
▁thay▁cho	-11759
▁trên▁nhiều	-11760
▁Hải▁quân▁Mỹ	-11761
▁dẫn▁đến▁việc	-11762
▁trong▁tổng▁số	-11763
▁về▁môi▁trường	-11764
▁Bộ▁Giáo▁dục▁và	-11765
▁xử▁lý▁nước▁thải	-11766
ene	-11767
burg	-11768
Royce	-11769
▁OLED	-11770
▁Suối	-11771
▁Trâm	-11772
▁Ô▁tô	-11773
▁Angeles	-11774
▁ca▁ngợi	-11775
▁có▁điểm	-11776
▁đứng▁ra	-11777
▁khai▁báo	-11778
▁ngày▁nào	-11779
▁tổn▁thất	-11780
▁Giải▁pháp	-11781
▁Nhận▁được	-11782
▁Không▁gian	-11783
▁còn▁lại▁là	-11784
▁kháng▁sinh	-11785
▁Chiến▁thắng	-11786
▁kiểm▁tra▁và	-11787
▁đội▁ngũ▁cán▁bộ	-11788
nay	-11789
▁Ry	-11790
▁Jae	-11791
▁Giảm	-11792
▁VNCB	-11793
▁chấu	-11794
▁Franc	-11795
▁có▁số	-11796
▁cả▁ngày	-11797
▁mới▁với	-11798
▁Thứ▁nhất	-11799
▁cất▁cánh	-11800
▁xách▁tay	-11801
▁dưới▁thời	-11802
▁Hoàng▁Minh	-11803
▁đương▁nhiên	-11804
/9.	-11805
esh	-11806
▁Cử	-11807
▁cọ	-11808
▁sọ	-11809
etty	-11810
▁Matt	-11811
▁giặc	-11812
▁muôn	-11813
▁ngàng	-11814
▁Alibab	-11815
▁ca▁hát	-11816
▁của▁bé	-11817
--------	-11818
▁mình▁là	-11819
▁Theo▁một	-11820
▁bạn▁đang	-11821
▁giải▁đáp	-11822
▁đang▁rất	-11823
▁chiến▁thắ	-11824
▁giảm▁nghèo	-11825
▁tại▁Đà▁Nẵng	-11826
▁với▁gia▁đình	-11827
▁cộng▁đồng▁mạng	-11828
▁người▁phát▁ngôn	-11829
77	-11830
TD	-11831
:▁1.	-11832
Nhật	-11833
▁Đôn	-11834
▁Cout	-11835
▁mông	-11836
▁nhốt	-11837
▁có▁cả	-11838
▁vì▁bị	-11839
▁làm▁ra	-11840
▁cho▁mỗi	-11841
▁chu▁đáo	-11842
▁còn▁rất	-11843
▁hợp▁kim	-11844
▁khá▁lớn	-11845
▁đạt▁mức	-11846
▁Tham▁gia	-11847
▁cũng▁nên	-11848
▁hiến▁máu	-11849
▁mới▁biết	-11850
▁tội▁danh	-11851
▁Thanh▁Hải	-11852
▁hưởng▁lợi	-11853
▁khí▁quyển	-11854
▁với▁tỷ▁lệ	-11855
▁Bộ▁Tư▁lệnh	-11856
▁đã▁thu▁hút	-11857
▁quán▁cà▁phê	-11858
▁địa▁phương▁t	-11859
▁của▁người▁dùng	-11860
iat	-11861
ons	-11862
▁Ga	-11863
ette	-11864
▁Pen	-11865
▁nới	-11866
/2010	-11867
▁Tràm	-11868
nguyên	-11869
ng▁đời	-11870
▁2016▁-	-11871
▁bọc▁da	-11872
▁chu▁kỳ	-11873
▁tận▁dụ	-11874
▁Nam▁Phi	-11875
▁chưa▁rõ	-11876
▁tiền▁tệ	-11877
▁Hưng▁Đạo	-11878
▁mạnh▁dạn	-11879
▁nhắc▁lại	-11880
▁nuôi▁tôm	-11881
▁tang▁vật	-11882
▁thêm▁các	-11883
▁trẻ▁tuổi	-11884
▁này▁khiến	-11885
▁sử▁dụng▁t	-11886
▁với▁lý▁do	-11887
▁có▁thời▁gian	-11888
▁các▁em▁học▁sinh	-11889
chi	-11890
tra	-11891
▁Hù	-11892
ardo	-11893
▁SIM	-11894
▁vòm	-11895
-2016	-11896
tream	-11897
▁dẫn▁đ	-11898
▁hỏi▁về	-11899
▁ở▁châu	-11900
▁Lê▁Minh	-11901
▁dự▁luật	-11902
▁kiên▁cố	-11903
▁đáp▁trả	-11904
▁chăm▁chỉ	-11905
▁tháng▁tù	-11906
▁nguyên▁tử	-11907
▁Phóng▁viên	-11908
▁của▁xã▁hội	-11909
▁của▁khu▁vực	-11910
▁địa▁phương▁đã	-11911
▁của▁nhà▁trường	-11912
▁thông▁tin▁trên	-11913
ble	-11914
▁Vn	-11915
▁Luk	-11916
▁Moh	-11917
ventus	-11918
▁2010.	-11919
▁Giọng	-11920
▁choáng	-11921
▁lại▁bị	-11922
▁mới▁để	-11923
▁đã▁rất	-11924
▁lưu▁trú	-11925
▁âm▁thầm	-11926
▁đi▁chơi	-11927
▁đôi▁mắt	-11928
▁Lai▁Châu	-11929
▁Với▁việc	-11930
▁dâng▁cao	-11931
▁sân▁golf	-11932
▁vì▁không	-11933
▁cải▁lương	-11934
▁nộp▁hồ▁sơ	-11935
▁các▁mẫu▁xe	-11936
▁gây▁tai▁nạn	-11937
▁ứng▁phó▁với	-11938
▁về▁công▁nghệ	-11939
ght	-11940
▁1,4	-11941
▁bẩm	-11942
▁gập	-11943
▁Đậu	-11944
Không	-11945
▁Kính	-11946
▁cháo	-11947
▁phác	-11948
-2016,	-11949
▁nền▁đ	-11950
▁lâu▁đời	-11951
▁sẽ▁tăng	-11952
▁rộng▁lớn	-11953
▁vóc▁dáng	-11954
▁giảm▁mạnh	-11955
▁kinh▁ngạc	-11956
▁trong▁nhóm	-11957
▁và▁phát▁huy	-11958
▁thì▁không▁thể	-11959
▁di▁sản▁văn▁hóa	-11960
▁dành▁cho▁người	-11961
▁Mù	-11962
▁1,6	-11963
▁Lái	-11964
▁giã	-11965
▁náo	-11966
▁rạn	-11967
▁hack	-11968
▁miệt	-11969
▁cabin	-11970
▁nguội	-11971
▁cổ▁đại	-11972
▁sau▁đây	-11973
▁định▁vị	-11974
▁báo▁giới	-11975
▁Sacombank	-11976
▁rạng▁sáng	-11977
▁với▁vai▁trò	-11978
▁cũng▁đề▁nghị	-11979
▁đúng▁quy▁định	-11980
▁triệu▁cổ▁phiếu	-11981
▁nhiều▁thời▁gian	-11982
-4,	-11983
tăng	-11984
▁Bri	-11985
▁ươm	-11986
▁lại▁và	-11987
▁Ngọc▁Hải	-11988
▁Quản▁trị	-11989
▁cánh▁cửa	-11990
▁mẹ▁chồng	-11991
▁vừa▁phải	-11992
▁Đường▁bộ	-11993
▁quyên▁góp	-11994
▁mã▁lực▁tại	-11995
Ảnh▁minh▁họa	-11996
▁mà▁chúng▁ta	-11997
▁tháng▁trước	-11998
▁Tại▁Việt▁Nam	-11999
▁tại▁Hàn▁Quốc	-12000
AMA	-12001
▁gõ	-12002
▁Phả	-12003
▁sex	-12004
▁vôi	-12005
▁nhậm	-12006
òi▁hỏi	-12007
▁Angela	-12008
▁mặt▁nạ	-12009
▁hấp▁thụ	-12010
▁mối▁tình	-12011
▁và▁đường	-12012
▁vẻ▁ngoài	-12013
▁Đạo▁diễn	-12014
▁dưới▁nước	-12015
▁dự▁án▁BOT	-12016
▁hiệp▁định	-12017
▁trong▁mùa	-12018
▁tâm▁trạng	-12019
▁Vũ▁Đức▁Đam	-12020
▁kinh▁tế▁và	-12021
▁và▁khu▁vực	-12022
▁nghiêm▁ngặt	-12023
▁của▁Hội▁đồng	-12024
▁nhiếp▁ảnh▁gia	-12025
39	-12026
kel	-12027
▁06	-12028
▁61	-12029
▁SHB	-12030
▁nơi▁ở	-12031
▁võ▁sĩ	-12032
▁mà▁anh	-12033
▁tồi▁tệ	-12034
▁đã▁nói	-12035
▁đều▁bị	-12036
ộng▁đồng	-12037
▁cho▁dân	-12038
▁lần▁nữa	-12039
▁năm▁nữa	-12040
▁tối▁cao	-12041
▁Phần▁lớn	-12042
▁cảnh▁cáo	-12043
▁Huỳnh▁Đức	-12044
▁không▁dây	-12045
▁nhậm▁chức	-12046
▁loại▁thuốc	-12047
▁và▁điều▁trị	-12048
▁nà	-12049
▁(200	-12050
▁Hoặc	-12051
▁nhái	-12052
▁nhát	-12053
▁Chỉ▁có	-12054
▁hủy▁bỏ	-12055
▁Thanh▁Hà	-12056
▁đám▁đông	-12057
▁thủy▁tinh	-12058
▁Nguyễn▁Hồng	-12059
▁chiến▁đấu▁cơ	-12060
▁thông▁tin▁và	-12061
▁tiếng▁đồng▁hồ	-12062
▁và▁các▁cơ▁quan	-12063
ẽn	-12064
▁76	-12065
▁87	-12066
▁bỏ▁lỡ	-12067
▁sân▁đ	-12068
▁nhà▁ga	-12069
▁cường▁t	-12070
▁dần▁dần	-12071
▁nổi▁tiế	-12072
▁sôi▁nổi	-12073
▁tâm▁hồn	-12074
▁con▁mình	-12075
▁học▁hành	-12076
▁ngọn▁lửa	-12077
▁nâng▁lên	-12078
▁tái▁hiện	-12079
▁thường▁có	-12080
▁biên▁phòng	-12081
▁trong▁thời▁kỳ	-12082
Ah	-12083
NQ	-12084
bar	-12085
▁Dĩ	-12086
▁HN	-12087
▁Nay	-12088
▁bik	-12089
▁keo	-12090
▁chớp	-12091
▁8.000	-12092
▁Anton	-12093
▁và▁số	-12094
▁ở▁gần	-12095
▁bộc▁lộ	-12096
▁vật▁tư	-12097
▁gây▁hại	-12098
▁hơn▁hẳn	-12099
▁thạc▁sĩ	-12100
▁ánh▁mắt	-12101
n▁đề▁xuất	-12102
▁Mai▁Linh	-12103
▁thủ▁phạm	-12104
▁liên▁bang	-12105
▁trong▁dịp	-12106
▁đảm▁nhiệm	-12107
▁được▁gọi▁là	-12108
▁Cơ▁quan▁CSĐT	-12109
▁Đàm▁Vĩnh▁Hưng	-12110
▁Az	-12111
Những	-12112
▁Chăm	-12113
▁xoáy	-12114
▁Tràng	-12115
▁Young	-12116
▁khang	-12117
▁khuya	-12118
Nghệ▁An	-12119
▁chủ▁độ	-12120
▁vào▁sân	-12121
▁cơ▁sở▁để	-12122
▁tạo▁hình	-12123
▁bắt▁nguồn	-12124
▁sau▁khi▁bị	-12125
▁Los▁Angeles	-12126
▁Trong▁những	-12127
▁công▁tác▁tại	-12128
▁cho▁sinh▁viên	-12129
▁trực▁tiếp▁đến	-12130
▁105	-12131
▁Cải	-12132
▁McC	-12133
▁bin	-12134
▁râu	-12135
▁2005	-12136
▁Chấn	-12137
▁Tư▁vấn	-12138
▁để▁bán	-12139
▁đôn▁đốc	-12140
▁chất▁béo	-12141
▁mang▁đậm	-12142
▁sớm▁nhất	-12143
▁vòng▁bảng	-12144
▁chuyên▁dụng	-12145
▁tinh▁thần▁đ	-12146
▁trắc▁nghiệm	-12147
▁các▁mục▁tiêu	-12148
▁tất▁cả▁những	-12149
▁Ea	-12150
ival	-12151
ổ▁số	-12152
▁Dam	-12153
▁Jon	-12154
▁Lão	-12155
▁bén	-12156
▁vô▁số	-12157
▁cá▁sấu	-12158
▁Tham▁dự	-12159
▁lũ▁quét	-12160
▁máy▁chủ	-12161
▁quay▁về	-12162
▁Guardian	-12163
▁Trong▁ảnh	-12164
▁đã▁có▁một	-12165
▁tại▁sân▁bay	-12166
▁lại▁tiếp▁tục	-12167
▁trên▁sân▁nhà	-12168
▁thu▁ngân▁sách	-12169
▁xây▁dựng▁được	-12170
▁sang▁Trung▁Quốc	-12171
-2,	-12172
ase	-12173
pot	-12174
công	-12175
▁All	-12176
▁Whi	-12177
▁cày	-12178
▁vắc	-12179
▁Mang	-12180
▁lừng	-12181
▁Chàng	-12182
▁và▁đi	-12183
▁công▁tố	-12184
▁khu▁nhà	-12185
▁mất▁mát	-12186
▁Agribank	-12187
▁Hợp▁đồng	-12188
▁giấc▁ngủ	-12189
▁rộng▁hơn	-12190
▁thu▁thuế	-12191
▁không▁mấy	-12192
▁Snapdragon	-12193
▁đó▁chính▁là	-12194
▁thầy▁trò▁HLV	-12195
▁vùng▁lãnh▁thổ	-12196
)-	-12197
.10	-12198
Các	-12199
The	-12200
▁22,	-12201
▁Tào	-12202
▁hãm	-12203
▁mịn	-12204
▁Blue	-12205
▁Bánh	-12206
▁chùm	-12207
▁2011.	-12208
▁Hải▁Vân	-12209
▁hồi▁năm	-12210
▁vẫn▁giữ	-12211
▁cầm▁quân	-12212
▁của▁dòng	-12213
▁lên▁trên	-12214
▁môn▁Toán	-12215
▁nước▁Anh	-12216
▁đứng▁thứ	-12217
▁Bên▁trong	-12218
▁chuyển▁về	-12219
▁tình▁tiết	-12220
▁Trung▁đoàn	-12221
▁xin▁ý▁kiến	-12222
▁của▁Đại▁học	-12223
▁và▁học▁sinh	-12224
▁Nghị▁quyết▁số	-12225
▁trong▁phạm▁vi	-12226
-22	-12227
orm	-12228
▁Ka	-12229
▁li	-12230
▁ập	-12231
▁3-4	-12232
▁Hot	-12233
▁Khảo	-12234
▁Phấn	-12235
▁dang	-12236
▁Vượng	-12237
▁đưa▁về	-12238
▁các▁mẫu	-12239
▁mua▁nhà	-12240
▁sự▁sống	-12241
▁một▁điều	-12242
▁phía▁Tây	-12243
▁tạo▁được	-12244
▁côn▁trùng	-12245
▁va▁chạm▁với	-12246
▁điều▁tra▁làm▁rõ	-12247
LA	-12248
▁gu	-12249
▁115	-12250
▁1▁(	-12251
▁Dựa	-12252
▁cào	-12253
▁nhã	-12254
▁vùng▁xa	-12255
▁đến▁giờ	-12256
▁làm▁bằng	-12257
▁lớn▁tuổi	-12258
▁thượng▁đ	-12259
▁Đan▁Mạch	-12260
▁đạt▁điểm	-12261
▁như▁trước	-12262
▁Câu▁lạc▁bộ	-12263
▁biểu▁dương	-12264
▁cảm▁nhận▁được	-12265
▁là▁nguyên▁nhân	-12266
▁thuế▁nhập▁khẩu	-12267
▁ạ	-12268
▁Sm	-12269
/199	-12270
Việt	-12271
▁Lầu	-12272
▁chì	-12273
▁nha	-12274
▁tấu	-12275
▁GPMB	-12276
▁và▁N	-12277
▁em▁gái	-12278
▁Youtube	-12279
▁hành▁độ	-12280
▁thì▁ông	-12281
▁từng▁bị	-12282
▁đến▁gần	-12283
▁sau▁thuế	-12284
▁giai▁điệu	-12285
▁tiếng▁nói	-12286
▁trong▁đợt	-12287
ng▁tiếp▁tục	-12288
▁bao▁giờ▁hết	-12289
▁của▁mình▁và	-12290
▁tiểu▁thuyết	-12291
▁cũng▁yêu▁cầu	-12292
▁nhiều▁vấn▁đề	-12293
▁cơ▁sở▁sản▁xuất	-12294
ĐH	-12295
▁Rùa	-12296
▁BIDV	-12297
▁Bàng	-12298
▁Huấn	-12299
▁rước	-12300
▁Đang	-12301
▁với▁bộ	-12302
▁bitcoin	-12303
▁chú▁chó	-12304
▁lên▁cao	-12305
▁rải▁rác	-12306
▁đầu▁đạn	-12307
▁còn▁chưa	-12308
▁thủ▁lĩnh	-12309
▁Đức▁Chinh	-12310
▁được▁nhận	-12311
▁Văn▁bản▁số	-12312
▁thế▁hệ▁trẻ	-12313
▁cho▁biết▁sẽ	-12314
▁đây▁cũng▁là	-12315
▁nguyên▁chiếc	-12316
▁đơn▁vị▁thi▁công	-12317
▁0,5	-12318
▁25%	-12319
▁5,5	-12320
▁tẩu	-12321
▁Rạch	-12322
▁có▁lúc	-12323
▁gây▁án	-12324
▁lên▁xe	-12325
▁mới▁lạ	-12326
▁Hóa▁học	-12327
▁Hạ▁viện	-12328
▁cần▁đến	-12329
▁dồi▁dào	-12330
▁Kiến▁trúc	-12331
▁chiều▁ngày	-12332
▁hoan▁nghênh	-12333
▁đủ▁điều▁kiện	-12334
ect	-12335
như	-12336
espa	-12337
▁rớt	-12338
▁tốp	-12339
▁mãnh	-12340
▁Motors	-12341
▁bởi▁sự	-12342
▁ra▁các	-12343
▁của▁CLB	-12344
▁luôn▁có	-12345
▁người▁dù	-12346
▁tại▁giải	-12347
▁Hồng▁Kông	-12348
▁phun▁trào	-12349
▁vào▁trường	-12350
ng▁đối▁tượng	-12351
▁nhưng▁sau▁đó	-12352
▁tạo▁ra▁những	-12353
1)	-12354
gin	-12355
uar	-12356
▁BR	-12357
▁lờ	-12358
▁36,	-12359
▁nấy	-12360
ather	-12361
n▁đài	-12362
▁Cổng	-12363
▁nhục	-12364
▁Asian	-12365
▁nghẹn	-12366
▁gửi▁về	-12367
▁Alibaba	-12368
▁mái▁tóc	-12369
▁san▁lấp	-12370
▁Bình▁Tân	-12371
▁làn▁sóng	-12372
▁nhập▁học	-12373
▁chuyển▁từ	-12374
▁chuyện▁gì	-12375
▁tất▁nhiên	-12376
▁Nguyễn▁Anh	-12377
▁Nguyễn▁Phú	-12378
▁phán▁quyết	-12379
▁của▁nhà▁nước	-12380
▁trong▁công▁việc	-12381
air	-12382
▁cớ	-12383
▁1.8	-12384
▁RON	-12385
▁VID	-12386
▁bưu	-12387
yeong	-12388
▁Bent	-12389
▁nhọc	-12390
▁Ba▁Vì	-12391
▁huy▁độ	-12392
/12/2017	-12393
VTC▁News	-12394
▁Vân▁Đồn	-12395
▁cuộc▁số	-12396
▁vào▁vai	-12397
▁Honda▁CR	-12398
▁Juventus	-12399
▁cụ▁thể▁là	-12400
▁không▁may	-12401
▁mà▁còn▁là	-12402
▁công▁ty▁này	-12403
▁chưa▁từng▁có	-12404
▁của▁tập▁đoàn	-12405
▁bán▁chạy▁nhất	-12406
▁Viện▁Nghiên▁cứu	-12407
%3	-12408
▁73	-12409
▁Vo	-12410
...,	-12411
▁Acc	-12412
ây▁là	-12413
▁Thỏa	-12414
▁ngửa	-12415
▁phôi	-12416
▁2.500	-12417
▁selfie	-12418
▁Sau▁hơn	-12419
▁bạn▁hãy	-12420
▁bệnh▁lý	-12421
▁liệu▁có	-12422
UBND▁ngày	-12423
▁cao▁tuổi	-12424
▁của▁Pháp	-12425
▁giành▁vé	-12426
▁lòng▁tin	-12427
▁lạm▁phát	-12428
▁xin▁được	-12429
▁địa▁chất	-12430
▁Cùng▁ngày	-12431
▁qua▁nhiều	-12432
▁chung▁cuộc	-12433
▁chỉ▁khoảng	-12434
▁những▁tính	-12435
▁quán▁triệt	-12436
▁Liên▁minh▁châu	-12437
▁của▁các▁đơn▁vị	-12438
▁của▁người▁khác	-12439
▁tỉnh▁Quảng▁Trị	-12440
anc	-12441
/10.	-12442
▁(30	-12443
▁Dàn	-12444
▁Mạc	-12445
▁côi	-12446
ng▁đỏ	-12447
▁Binh	-12448
áp▁ứng	-12449
▁0-100	-12450
▁hệ▁số	-12451
▁Vũ▁trụ	-12452
▁mưa▁to	-12453
▁của▁Hội	-12454
▁mắc▁kẹt	-12455
▁xếp▁thứ	-12456
▁ấn▁định	-12457
Thanh▁Hóa	-12458
▁Theo▁báo	-12459
▁Thái▁Sơn	-12460
▁chân▁dài	-12461
▁các▁loài	-12462
▁nhưng▁họ	-12463
▁những▁kẻ	-12464
▁giây▁phút	-12465
▁là▁chuyện	-12466
▁HLV▁trưởng	-12467
▁dự▁án▁được	-12468
▁phát▁thanh	-12469
▁Thế▁vận▁hội	-12470
▁Nguyễn▁Trọng	-12471
▁cần▁thiết▁để	-12472
▁nhà▁cung▁cấp	-12473
▁các▁quan▁chức	-12474
▁cũng▁không▁có	-12475
▁Vladimir▁Putin	-12476
▁môi▁trường▁sống	-12477
af	-12478
ưỡi	-12479
▁Vỹ	-12480
ance	-12481
ater	-12482
lott	-12483
▁1/5	-12484
▁giò	-12485
▁xấp	-12486
▁đục	-12487
▁Harry	-12488
▁Rodri	-12489
▁chỉ▁để	-12490
▁cô▁dâu	-12491
▁nhỏ▁bé	-12492
▁ít▁hơn	-12493
▁trẻ▁nhỏ	-12494
▁quy▁luật	-12495
▁thì▁được	-12496
▁trên▁tay	-12497
▁xếp▁hàng	-12498
▁Quỳnh▁Anh	-12499
▁cá▁nhân▁đ	-12500
▁khoản▁thu	-12501
▁đăng▁trên	-12502
▁trong▁giới	-12503
▁gây▁bức▁xúc	-12504
▁Nữ▁diễn▁viên	-12505
▁cuộc▁tập▁trận	-12506
kav	-12507
ppo	-12508
uss	-12509
▁BP	-12510
▁xé	-12511
▁1,7	-12512
▁hit	-12513
▁que	-12514
▁rốt	-12515
▁Milan	-12516
▁Xương	-12517
▁xướng	-12518
▁bế▁tắc	-12519
▁lệ▁phí	-12520
▁thì▁họ	-12521
▁Đơn▁cử	-12522
▁khi▁anh	-12523
▁trên▁là	-12524
▁tố▁tụng	-12525
▁xứ▁Nghệ	-12526
▁ước▁đạt	-12527
▁hướng▁về	-12528
▁khác▁với	-12529
▁ngày▁xưa	-12530
▁phần▁đất	-12531
▁thế▁trận	-12532
▁đúng▁đắn	-12533
▁Diễn▁viên	-12534
▁có▁trụ▁sở	-12535
▁công▁đoạn	-12536
▁Chủ▁đầu▁tư	-12537
▁cũng▁khiến	-12538
▁phòng▁cháy	-12539
▁cùng▁với▁các	-12540
▁sẽ▁không▁thể	-12541
▁ngành▁giáo▁dục	-12542
ault	-12543
▁4,5	-12544
▁Mur	-12545
▁Sir	-12546
▁ếch	-12547
n▁đưa	-12548
▁VIDEO	-12549
▁đã▁đi	-12550
▁đồ▁ăn	-12551
▁gia▁vị	-12552
▁bao▁phủ	-12553
▁sắc▁đẹp	-12554
▁nhanh▁và	-12555
▁vài▁trăm	-12556
▁Đồng▁Tâm	-12557
▁chiếc▁máy	-12558
▁lấy▁chồng	-12559
▁phong▁tỏa	-12560
▁và▁Xã▁hội	-12561
▁không▁kích	-12562
▁so▁với▁mức	-12563
▁Đà▁Nẵng▁đã	-12564
▁Hoàng▁Anh▁Tuấn	-12565
▁trường▁hợp▁này	-12566
ru	-12567
rom	-12568
ware	-12569
▁Xiao	-12570
▁suýt	-12571
▁Conte	-12572
▁Sở▁NN	-12573
▁vượng	-12574
▁con▁em	-12575
loomberg	-12576
▁xe▁chạy	-12577
▁Đinh▁La	-12578
▁Trận▁đấu	-12579
▁nhân▁đạo	-12580
▁đồng▁phạm	-12581
▁các▁hộ▁dân	-12582
▁cơn▁bão▁số	-12583
▁Thông▁tư▁số	-12584
▁có▁biểu▁hiện	-12585
▁duy▁nhất▁của	-12586
Một	-12587
ega	-12588
won	-12589
▁Tùy	-12590
▁xăm	-12591
▁Đăk	-12592
▁TNGT	-12593
▁sành	-12594
▁Đứng	-12595
ng▁đón	-12596
▁phân▁đ	-12597
▁ống▁xả	-12598
▁Ngô▁Văn	-12599
▁Tác▁giả	-12600
▁chú▁trọ	-12601
▁lời▁nói	-12602
▁Màn▁hình	-12603
▁bạn▁thân	-12604
▁cho▁từng	-12605
▁cuốn▁hút	-12606
ng▁tại▁các	-12607
▁kháng▁cáo	-12608
▁ngỡ▁ngàng	-12609
▁trung▁cấp	-12610
▁trước▁các	-12611
▁an▁toàn▁và	-12612
▁kỳ▁họp▁thứ	-12613
▁với▁quy▁mô	-12614
▁Ban▁Tổ▁chức	-12615
▁đã▁góp▁phần	-12616
▁để▁nâng▁cao	-12617
▁tại▁hội▁nghị	-12618
TVN	-12619
eing	-12620
erry	-12621
▁(20	-12622
áng▁kể	-12623
▁của▁G	-12624
▁là▁vì	-12625
▁xứ▁sở	-12626
▁Các▁em	-12627
atchback	-12628
▁đâm▁vào	-12629
▁Tổng▁hợp	-12630
▁của▁toàn	-12631
▁danh▁giá	-12632
▁khóa▁học	-12633
▁quyền▁và	-12634
▁tôi▁phải	-12635
▁ở▁phường	-12636
▁Giai▁đoạn	-12637
▁phản▁biện	-12638
▁tỷ▁đồng▁và	-12639
▁chuyên▁viên	-12640
▁các▁bạn▁trẻ	-12641
▁với▁công▁suất	-12642
▁hoàn▁thành▁tốt	-12643
▁không▁ít▁người	-12644
▁tuyển▁Việt▁Nam	-12645
▁2:	-12646
▁thạo	-12647
n▁đoạn	-12648
▁để▁đi	-12649
▁Là▁một	-12650
▁chi▁bộ	-12651
▁cho▁bé	-12652
▁nhất▁ở	-12653
▁Chi▁phí	-12654
▁Chưa▁kể	-12655
▁nhỏ▁gọn	-12656
▁Điện▁tử	-12657
▁Theo▁anh	-12658
▁bất▁động	-12659
▁đọc▁sách	-12660
▁chấn▁động	-12661
▁giúp▁việc	-12662
▁huyện▁Yên	-12663
▁uống▁nước	-12664
▁Nhật▁Bản▁và	-12665
▁nhiều▁năm▁qua	-12666
▁với▁người▁dân	-12667
▁2▁(	-12668
chiếm	-12669
▁của▁I	-12670
▁Brexit	-12671
▁của▁bộ	-12672
▁mức▁án	-12673
▁sẽ▁còn	-12674
▁Sau▁này	-12675
▁nguồn▁đ	-12676
▁đa▁phần	-12677
▁Duy▁Mạnh	-12678
▁nên▁phải	-12679
▁phần▁quà	-12680
▁sự▁hỗ▁trợ	-12681
▁quyết▁toán	-12682
▁lúc▁nào▁cũng	-12683
▁vẫn▁còn▁nhiều	-12684
▁dành▁thời▁gian	-12685
▁ngành▁liên▁quan	-12686
▁mí	-12687
▁rã	-12688
eral	-12689
▁1.3	-12690
▁30.	-12691
▁Leon	-12692
▁Láng	-12693
▁Thích	-12694
▁Trans	-12695
▁thiêu	-12696
▁và▁họ	-12697
▁ăn▁mặc	-12698
▁Sự▁kiện	-12699
▁Về▁phần	-12700
▁mạch▁máu	-12701
▁đường▁đi	-12702
▁giọng▁nói	-12703
▁lập▁trình	-12704
▁Bộ▁Tư▁pháp	-12705
▁Bệnh▁viện▁đ	-12706
▁còn▁hạn▁chế	-12707
▁liên▁quan▁đ	-12708
▁theo▁thời▁gian	-12709
▁đạt▁tiêu▁chuẩn	-12710
▁khiến▁người▁dân	-12711
▁là▁một▁trong▁số	-12712
▁nhiều▁người▁dân	-12713
eon	-12714
▁SX	-12715
▁Vit	-12716
▁Yem	-12717
▁ách	-12718
▁Miếu	-12719
▁hông	-12720
▁rách	-12721
▁ở▁cả	-12722
ng▁địa	-12723
▁Dream	-12724
▁nghẽn	-12725
▁thính	-12726
▁băng▁t	-12727
▁dấu▁vết	-12728
▁học▁lớp	-12729
▁Tiền▁đạo	-12730
▁buổi▁tập	-12731
▁hiệu▁năng	-12732
▁khác▁cũng	-12733
▁kể▁từ▁năm	-12734
▁trúng▁thầu	-12735
▁tiểu▁thương	-12736
▁tỉnh▁Yên▁Bái	-12737
▁đã▁có▁văn▁bản	-12738
õm	-12739
eda	-12740
▁Hư	-12741
▁óc	-12742
anol	-12743
▁Bos	-12744
▁Mir	-12745
▁Net	-12746
▁Ngọ	-12747
▁Pat	-12748
▁quỷ	-12749
▁Tây▁Hồ	-12750
▁Vũ▁Thị	-12751
▁giá▁xe	-12752
rossover	-12753
▁khác▁gì	-12754
▁hiếm▁hoi	-12755
▁lập▁công	-12756
▁nhầm▁lẫn	-12757
▁vốn▁được	-12758
▁xử▁lý▁các	-12759
▁Khách▁hàng	-12760
▁giành▁giải	-12761
▁khác▁trong	-12762
▁nhưng▁được	-12763
▁công▁nghệ▁và	-12764
▁bảo▁hiểm▁y▁tế	-12765
▁môi▁trường▁và	-12766
▁những▁giá▁trị	-12767
▁tại▁hiện▁trường	-12768
▁17.	-12769
▁tảo	-12770
▁Frank	-12771
▁Camera	-12772
▁của▁nữ	-12773
▁đoạn▁đ	-12774
▁phòng▁đ	-12775
▁Tác▁phẩm	-12776
▁chảy▁máu	-12777
▁con▁cháu	-12778
▁hủy▁hoại	-12779
▁Phật▁giáo	-12780
▁suy▁thoái	-12781
▁tăng▁trưở	-12782
▁Chiến▁dịch	-12783
▁Thanh▁Tùng	-12784
▁thời▁lượng	-12785
▁nhiễm▁trùng	-12786
▁người▁dân▁đã	-12787
▁quốc▁gia▁này	-12788
▁Những▁hình▁ảnh	-12789
AE	-12790
IP	-12791
òm	-12792
gor	-12793
▁00	-12794
▁30,	-12795
▁Hal	-12796
▁Nad	-12797
▁Comp	-12798
▁Tịnh	-12799
▁2013.	-12800
ắn▁được	-12801
▁sau▁vụ	-12802
▁tôi▁là	-12803
▁Lê▁Hồng	-12804
▁càng▁tốt	-12805
▁của▁làng	-12806
▁dự▁án▁đã	-12807
▁mang▁tới	-12808
▁mặt▁trận	-12809
▁tôi▁nghĩ	-12810
▁Đặng▁Thị	-12811
▁sẽ▁bắt▁đầu	-12812
▁thần▁tượng	-12813
▁Bộ▁Xây▁dựng	-12814
▁dịch▁vụ▁công	-12815
▁Bà▁Nguyễn▁Thị	-12816
▁MW	-12817
▁ST	-12818
n▁đá	-12819
▁Lau	-12820
▁nhủ	-12821
▁sào	-12822
▁thỏ	-12823
lượng	-12824
▁ngụy	-12825
▁và▁U	-12826
ên▁lửa	-12827
▁bổ▁su	-12828
▁của▁W	-12829
▁Sơn▁đã	-12830
▁Số▁tiền	-12831
▁dễ▁hiểu	-12832
▁từ▁thời	-12833
▁tử▁hình	-12834
▁với▁anh	-12835
▁Ngày▁hội	-12836
▁buổi▁tối	-12837
▁trên▁kênh	-12838
▁coi▁là▁một	-12839
▁khung▁cảnh	-12840
▁rừng▁phòng▁hộ	-12841
▁tử▁vong▁tại▁chỗ	-12842
▁Ah	-12843
▁LT	-12844
▁bã	-12845
▁Lou	-12846
▁ODA	-12847
▁Riê	-12848
▁Sol	-12849
▁Tal	-12850
▁Đen	-12851
▁Dong	-12852
▁miêu	-12853
▁Moham	-12854
▁vì▁đã	-12855
▁và▁đạt	-12856
▁Giờ▁đây	-12857
▁nước▁có	-12858
▁scandal	-12859
▁vết▁nứt	-12860
▁Ngọc▁Anh	-12861
▁dân▁sinh	-12862
▁hợp▁nhất	-12863
▁mạnh▁hơn	-12864
▁mật▁khẩu	-12865
▁niên▁đại	-12866
▁tâm▁linh	-12867
▁khám▁bệnh	-12868
▁Viễn▁thông	-12869
▁của▁bà▁con	-12870
▁ra▁nước▁ngoài	-12871
▁của▁nền▁kinh▁tế	-12872
▁69	-12873
▁nộ	-12874
▁vỗ	-12875
▁dai	-12876
▁dạt	-12877
▁Steve	-12878
▁gì▁để	-12879
▁và▁tự	-12880
▁chế▁tài	-12881
▁tiêu▁dù	-12882
▁đặt▁tên	-12883
▁bào▁chữa	-12884
▁tai▁nghe	-12885
▁Nguyễn▁Huệ	-12886
▁lời▁khuyên	-12887
▁được▁đầu▁tư	-12888
▁hiệu▁quả▁hơn	-12889
▁doanh▁nghiệp▁và	-12890
05	-12891
oT	-12892
ita	-12893
xin	-12894
▁",	-12895
▁vữ	-12896
▁Kha	-12897
▁Lin	-12898
▁Pha	-12899
▁khử	-12900
▁xảo	-12901
▁chót	-12902
▁cởi▁mở	-12903
▁giảm▁từ	-12904
▁này▁với	-12905
▁Cty▁TNHH	-12906
▁Giang▁đã	-12907
▁dòng▁chữ	-12908
▁hóa▁thân	-12909
▁võ▁thuật	-12910
▁Đắk▁Nông	-12911
▁cũng▁đồng	-12912
▁ngàn▁đồng	-12913
▁ngôi▁làng	-12914
▁còn▁có▁thể	-12915
▁ngoại▁tình	-12916
▁trong▁sáng	-12917
▁thành▁phố▁lớn	-12918
.19	-12919
khi	-12920
ody	-12921
phải	-12922
▁xít	-12923
▁điền	-12924
▁bù▁đắp	-12925
▁tín▁đồ	-12926
illerson	-12927
▁béo▁phì	-12928
▁khó▁khă	-12929
▁và▁luôn	-12930
▁được▁cho	-12931
▁Ninh▁Thuận	-12932
▁đường▁thủy	-12933
▁hoạt▁động▁t	-12934
▁huyện▁Thanh	-12935
▁Trần▁Hưng▁Đạo	-12936
▁của▁mọi▁người	-12937
▁của▁ngân▁hàng	-12938
▁theo▁kế▁hoạch	-12939
▁đất▁nông▁nghiệp	-12940
HN	-12941
▁84	-12942
▁KS	-12943
▁SN	-12944
▁dè	-12945
▁fl	-12946
▁(18	-12947
▁21,	-12948
▁3▁-	-12949
▁Fox	-12950
▁Tuấ	-12951
▁Vấp	-12952
▁đũa	-12953
▁Thom	-12954
CP▁ngày	-12955
▁Ford▁F	-12956
▁lũ▁lụt	-12957
▁góp▁vốn	-12958
▁xác▁lập	-12959
▁đã▁trao	-12960
▁đến▁lúc	-12961
▁cây▁cảnh	-12962
▁là▁chiếc	-12963
▁rất▁thấp	-12964
▁thai▁nhi	-12965
▁theo▁từng	-12966
▁trong▁mọi	-12967
▁Chất▁lượng	-12968
▁Hành▁trình	-12969
▁có▁văn▁bản	-12970
▁thuộc▁sở▁hữu	-12971
▁gây▁thương▁tích	-12972
▁lấy▁cảm▁hứng▁từ	-12973
▁Lâu	-12974
▁Sắc	-12975
▁Sắp	-12976
/2009	-12977
▁Alph	-12978
ng▁đàn	-12979
ộc▁lập	-12980
▁của▁R	-12981
▁ở▁chỗ	-12982
iều▁trị	-12983
▁lại▁để	-12984
▁Exciter	-12985
▁bức▁thư	-12986
▁cộng▁sự	-12987
▁của▁cựu	-12988
▁suy▁yếu	-12989
▁thế▁lực	-12990
▁bên▁nhau	-12991
▁bẩm▁sinh	-12992
▁cho▁nhau	-12993
▁giá▁vàng	-12994
▁quần▁thể	-12995
▁thua▁kém	-12996
▁có▁ý▁kiến	-12997
▁cho▁ra▁mắt	-12998
▁Khu▁du▁lịch	-12999
▁mũ▁bảo▁hiểm	-13000
▁nghiêm▁khắc	-13001
▁những▁mẫu▁xe	-13002
▁đang▁tiến▁hành	-13003
zz	-13004
-25	-13005
/8.	-13006
itz	-13007
.11,	-13008
▁21.	-13009
▁ĐTQG	-13010
▁2019.	-13011
▁Oscar	-13012
▁Wanna	-13013
▁Xử▁lý	-13014
▁ưu▁ái	-13015
▁Bayern	-13016
▁kỳ▁diệu	-13017
▁là▁được	-13018
▁tiện▁lợi	-13019
▁trình▁tự	-13020
▁chơi▁game	-13021
▁vài▁tháng	-13022
▁Chia▁sẻ▁với	-13023
▁đối▁phó▁với	-13024
▁nếu▁không▁có	-13025
▁Theo▁ghi▁nhận	-13026
▁giống▁như▁một	-13027
▁đoàn▁kiểm▁tra	-13028
▁tương▁đương▁với	-13029
asc	-13030
gat	-13031
aren	-13032
▁170	-13033
▁Bal	-13034
▁Cay	-13035
▁hệt	-13036
▁phà	-13037
▁Moto	-13038
alonia	-13039
▁2012.	-13040
▁Feder	-13041
▁Formos	-13042
▁Street	-13043
▁cô▁đơn	-13044
▁về▁hưu	-13045
▁táo▁bạo	-13046
▁tôi▁rất	-13047
▁Coutinho	-13048
▁Có▁nhiều	-13049
▁Kawasaki	-13050
▁của▁thầy	-13051
▁dọc▁theo	-13052
▁những▁đồ	-13053
▁Hàng▁trăm	-13054
▁ngay▁trên	-13055
▁trồng▁rau	-13056
▁vững▁mạnh	-13057
▁xem▁video	-13058
▁Công▁văn▁số	-13059
▁các▁yêu▁cầu	-13060
▁ở▁thời▁điểm	-13061
▁cho▁nhân▁dân	-13062
▁Phó▁thủ▁tướng	-13063
▁Sở▁Giao▁thông	-13064
VP	-13065
▁VAT	-13066
▁bứt	-13067
▁nản	-13068
▁CNVC	-13069
▁China	-13070
▁chưng	-13071
▁là▁ai	-13072
▁vừa▁là	-13073
▁độ▁sâu	-13074
▁Hậu▁quả	-13075
▁Ireland	-13076
▁Thống▁đ	-13077
▁cho▁hai	-13078
▁rạng▁rỡ	-13079
▁và▁giúp	-13080
▁về▁cách	-13081
▁cứng▁rắn	-13082
▁tỉnh▁táo	-13083
▁Cang▁Chải	-13084
▁quay▁phim	-13085
▁trước▁mặt	-13086
▁đi▁cấp▁cứu	-13087
▁Vietcombank	-13088
▁không▁nhiều	-13089
▁chúng▁ta▁phải	-13090
▁các▁cầu▁thủ▁U	-13091
▁Phản	-13092
▁cuộn	-13093
▁phàn	-13094
▁ồ▁ạt	-13095
▁Chuẩn	-13096
▁ông▁K	-13097
Hà▁Tĩnh	-13098
▁bị▁cấm	-13099
▁chỉ▁rõ	-13100
▁khó▁để	-13101
▁vợ▁con	-13102
▁bày▁bán	-13103
▁cổ▁tích	-13104
▁kêu▁cứu	-13105
▁mỹ▁nhân	-13106
▁nhà▁đất	-13107
▁lòng▁đất	-13108
▁dẫn▁đường	-13109
▁nhật▁thực	-13110
▁những▁tài	-13111
▁trên▁được	-13112
▁đến▁những	-13113
▁cho▁bà▁con	-13114
▁chứa▁nhiều	-13115
▁Nguyên▁Giáp	-13116
▁Tổ▁công▁tác	-13117
▁sinh▁trưởng	-13118
▁cho▁công▁tác	-13119
▁Việt▁Nam▁được	-13120
▁trực▁tiếp▁với	-13121
▁vào▁chung▁kết	-13122
▁dành▁riêng▁cho	-13123
▁Hw	-13124
▁bo	-13125
▁Cro	-13126
▁Lớp	-13127
▁TMCP	-13128
▁2017:	-13129
▁ưu▁tú	-13130
▁Chuyển	-13131
▁giữa▁U	-13132
▁gỡ▁hòa	-13133
▁là▁năm	-13134
▁bởi▁một	-13135
▁mái▁nhà	-13136
▁đặc▁sản	-13137
▁Trung▁tá	-13138
▁vùng▁sâu	-13139
▁Con▁đường	-13140
▁Trước▁mắt	-13141
▁kinh▁điển	-13142
▁thám▁hiểm	-13143
▁độc▁quyền	-13144
▁Vụ▁tai▁nạn	-13145
▁giờ▁đồng▁hồ	-13146
▁hoạt▁động▁tại	-13147
▁đang▁tiếp▁tục	-13148
/5.	-13149
ila	-13150
▁đụ	-13151
ourn	-13152
rome	-13153
▁Chư	-13154
▁Max	-13155
▁Tấm	-13156
▁VNĐ	-13157
▁gam	-13158
Media	-13159
▁Krem	-13160
▁tin▁vào	-13161
▁vốn▁vay	-13162
▁xe▁được	-13163
▁đáng▁sợ	-13164
▁Mục▁đích	-13165
▁hiếp▁dâm	-13166
▁khi▁nghe	-13167
▁ngày▁sau	-13168
▁nhắc▁tới	-13169
▁vấp▁phải	-13170
▁đặt▁hàng	-13171
▁nghị▁định	-13172
▁người▁Anh	-13173
▁Đức▁Thắng	-13174
▁dạy▁và▁học	-13175
▁sự▁lựa▁chọn	-13176
▁các▁ứng▁dụng	-13177
▁ngày▁càng▁nhiều	-13178
32	-13179
78	-13180
▁Dẫu	-13181
▁bừa	-13182
▁Musk	-13183
▁Trầm	-13184
▁Hybrid	-13185
▁lối▁đi	-13186
▁bao▁lâu	-13187
▁rất▁lâu	-13188
iều▁khiển	-13189
▁Business	-13190
▁Mặt▁Trời	-13191
▁mưu▁sinh	-13192
▁ý▁kiến▁đ	-13193
▁ngần▁ngại	-13194
▁cường▁quốc	-13195
▁cầu▁thủ▁trẻ	-13196
▁và▁thậm▁chí	-13197
▁không▁đồng▁ý	-13198
▁nói▁riêng▁và	-13199
▁thương▁mại▁và	-13200
▁à	-13201
▁nọ	-13202
▁22.	-13203
▁hóc	-13204
▁rập	-13205
▁sấy	-13206
chiếc	-13207
▁Hung	-13208
▁Nhàn	-13209
▁còn▁bị	-13210
▁hôm▁đó	-13211
▁mở▁màn	-13212
▁tự▁lái	-13213
▁ấn▁tượ	-13214
▁Nhạc▁sĩ	-13215
▁Richard	-13216
▁bắt▁cóc	-13217
▁chủ▁đạo	-13218
▁lượt▁đi	-13219
▁ngôi▁vị	-13220
▁nuôi▁cá	-13221
▁ra▁lệnh	-13222
▁Du▁khách	-13223
▁công▁phu	-13224
▁vượt▁lên	-13225
▁xâm▁lược	-13226
▁yêu▁nhau	-13227
▁Đoàn▁Thị	-13228
▁Giáo▁viên	-13229
▁cảnh▁giác	-13230
▁di▁truyền	-13231
▁giết▁chết	-13232
▁hoài▁nghi	-13233
▁nghỉ▁việc	-13234
▁các▁bị▁cáo	-13235
▁trong▁từng	-13236
▁Thượng▁viện	-13237
▁không▁thích	-13238
▁ở▁trung▁tâm	-13239
▁bậc▁phụ▁huynh	-13240
▁người▁có▁công	-13241
▁qua▁điện▁thoại	-13242
aka	-13243
▁GĐ	-13244
-400	-13245
▁Ele	-13246
▁Ger	-13247
▁Tức	-13248
▁Vir	-13249
▁hưở	-13250
▁ngây	-13251
▁và▁D	-13252
▁25.000	-13253
▁Lý▁Sơn	-13254
▁Bảo▁tồn	-13255
▁Quy▁chế	-13256
▁bé▁trai	-13257
▁nhất▁để	-13258
▁ven▁sông	-13259
ng▁đội▁ngũ	-13260
▁Hoài▁Linh	-13261
▁là▁đơn▁vị	-13262
▁nó▁có▁thể	-13263
▁Thêm▁vào▁đó	-13264
▁có▁trình▁độ	-13265
▁tại▁buổi▁lễ	-13266
▁và▁Nhà▁nước	-13267
▁và▁đặc▁biệt	-13268
▁cho▁mọi▁người	-13269
▁cơ▁sở▁dữ▁liệu	-13270
▁lãnh▁đạo▁tỉnh	-13271
▁khởi▁tố▁bị▁can	-13272
▁trên▁diện▁tích	-13273
55	-13274
EF	-13275
SS	-13276
WD	-13277
250	-13278
rol	-13279
▁gò	-13280
▁750	-13281
▁ATM	-13282
▁Chữ	-13283
▁ngả	-13284
istics	-13285
▁Online	-13286
▁Ranger	-13287
▁ăn▁cơm	-13288
▁Lý▁giải	-13289
▁Thế▁nên	-13290
▁còn▁nhỏ	-13291
▁tất▁yếu	-13292
▁vào▁dịp	-13293
▁và▁nhận	-13294
▁Chánh▁án	-13295
▁bốc▁cháy	-13296
▁chưa▁đến	-13297
▁ghi▁chép	-13298
▁ngày▁mai	-13299
▁nút▁giao	-13300
▁Bệnh▁nhân	-13301
▁phòng▁thi	-13302
▁tín▁nhiệm	-13303
▁phân▁luồng	-13304
▁khiêu▁khích	-13305
▁một▁số▁điều	-13306
▁an▁ninh▁mạng	-13307
▁của▁Ngân▁hàng	-13308
CA	-13309
-1.	-13310
▁91	-13311
▁Hi	-13312
▁òa	-13313
.100	-13314
aris	-13315
mund	-13316
▁Gặp	-13317
▁Mike	-13318
▁Pháo	-13319
▁Sand	-13320
▁Bộ▁NN	-13321
ăng▁tốc	-13322
▁Tài▁xế	-13323
▁rầm▁rộ	-13324
▁Cấp▁cao	-13325
▁Formosa	-13326
▁là▁đúng	-13327
▁lên▁mức	-13328
▁đã▁chết	-13329
▁đã▁dùng	-13330
▁chậm▁trễ	-13331
▁cũng▁đều	-13332
▁này▁giúp	-13333
▁nếu▁muốn	-13334
▁phàn▁nàn	-13335
▁Thống▁đốc	-13336
▁Người▁dùng	-13337
▁bị▁bắt▁giữ	-13338
▁Công▁thương	-13339
▁công▁nhận▁là	-13340
▁cặp▁vợ▁chồng	-13341
▁hãng▁sản▁xuất	-13342
▁về▁tình▁trạng	-13343
▁hơn▁bao▁giờ▁hết	-13344
asp	-13345
eta	-13346
▁Hè	-13347
▁cúi	-13348
▁vòi	-13349
▁dông	-13350
▁trặc	-13351
▁Quách	-13352
▁Vespa	-13353
▁ở▁khu	-13354
▁UNESCO	-13355
▁văn▁bả	-13356
tổng▁hợp	-13357
▁nét▁đẹp	-13358
▁Ngôi▁nhà	-13359
▁hòa▁nhập	-13360
▁kiểm▁sát	-13361
▁Điều▁tra	-13362
▁Hồi▁tháng	-13363
▁lây▁nhiễm	-13364
▁ngồi▁trên	-13365
▁nằm▁ngoài	-13366
▁phía▁đông	-13367
▁Vietnamnet	-13368
▁buổi▁chiều	-13369
▁có▁vai▁trò	-13370
▁các▁văn▁bản	-13371
▁xem▁xét▁lại	-13372
▁bắt▁quả▁tang	-13373
▁cho▁du▁khách	-13374
▁giảm▁chi▁phí	-13375
▁buổi▁làm▁việc	-13376
▁Trường▁tiểu▁học	-13377
iF	-13378
TCK	-13379
▁19.	-13380
▁Bán	-13381
▁Tần	-13382
▁bới	-13383
ám▁mây	-13384
▁Bắc▁K	-13385
▁Swift	-13386
▁mà▁lại	-13387
▁nhờ▁sự	-13388
▁xa▁xôi	-13389
▁ý▁muốn	-13390
▁đồ▁họa	-13391
▁Hồng▁Hà	-13392
▁biết▁ơn	-13393
▁và▁nước	-13394
▁bất▁đồng	-13395
▁bậc▁nhất	-13396
▁sóng▁gió	-13397
▁túi▁xách	-13398
▁tràn▁ngập	-13399
▁tải▁trọng	-13400
▁tại▁thủ▁đô	-13401
▁và▁chia▁sẻ	-13402
▁tác▁động▁đến	-13403
▁người▁Việt▁Nam	-13404
▁Giấy▁chứng▁nhận	-13405
▁bảo▁hiểm▁xã▁hội	-13406
▁không▁được▁phép	-13407
-50	-13408
dex	-13409
ren	-13410
▁Im	-13411
▁XK	-13412
▁đơ	-13413
ound	-13414
▁2.4	-13415
▁đan	-13416
▁Bông	-13417
▁Sống	-13418
▁lung	-13419
▁trêu	-13420
▁họ▁có	-13421
▁viếng	-13422
▁Nhà▁Bè	-13423
▁các▁xe	-13424
▁một▁bộ	-13425
▁và▁gây	-13426
▁Thái▁La	-13427
▁làm▁bài	-13428
▁đàn▁anh	-13429
ack▁Obama	-13430
▁Trần▁Phú	-13431
▁bình▁dân	-13432
▁chấm▁thi	-13433
▁mẫu▁giáo	-13434
▁phía▁bắc	-13435
▁ít▁nhiều	-13436
▁là▁có▁thể	-13437
▁trong▁mắt	-13438
▁dùng▁thuốc	-13439
▁trước▁thềm	-13440
▁khang▁trang	-13441
▁phương▁châm	-13442
▁Mù▁Cang▁Chải	-13443
▁chuyên▁trách	-13444
▁của▁người▁Việt	-13445
▁với▁các▁đơn▁vị	-13446
Khi	-13447
SNN	-13448
bus	-13449
▁HO	-13450
ooth	-13451
▁1.4	-13452
▁Las	-13453
▁Nậm	-13454
▁tao	-13455
▁(199	-13456
▁Asia	-13457
iaggio	-13458
bao▁gồm	-13459
▁cậu▁ấy	-13460
▁ông▁ta	-13461
▁mật▁ong	-13462
▁rồi▁mới	-13463
▁vào▁vòng	-13464
▁vật▁nuôi	-13465
▁không▁gây	-13466
▁phòng▁ngủ	-13467
▁thăng▁hoa	-13468
▁cải▁thiện▁đ	-13469
▁nhiệt▁huyết	-13470
▁thì▁bất▁ngờ	-13471
▁gia▁đình▁tôi	-13472
▁liên▁lạc▁với	-13473
▁Người▁đàn▁ông	-13474
▁an▁sinh▁xã▁hội	-13475
▁chị▁Nguyễn▁Thị	-13476
▁triệu▁đồng▁cho	-13477
69	-13478
ym	-13479
uto	-13480
▁98	-13481
▁Hã	-13482
▁Ji	-13483
play	-13484
▁Mùi	-13485
▁Sầm	-13486
▁gầy	-13487
▁2003	-13488
▁Tống	-13489
▁then	-13490
▁ngoặt	-13491
▁và▁để	-13492
iêu▁cực	-13493
▁vận▁độ	-13494
▁hỏa▁lực	-13495
▁mức▁phí	-13496
▁đã▁nhận	-13497
▁Hải▁Châu	-13498
▁phía▁nam	-13499
▁phía▁dưới	-13500
▁phố▁đi▁bộ	-13501
▁thống▁trị	-13502
▁xuống▁đất	-13503
▁ngẫu▁nhiên	-13504
▁tại▁phường	-13505
▁và▁an▁toàn	-13506
▁vào▁đầu▁năm	-13507
▁của▁sản▁phẩm	-13508
▁ở▁thị▁trường	-13509
▁hộ▁kinh▁doanh	-13510
▁khiến▁khán▁giả	-13511
ien	-13512
itt	-13513
oud	-13514
õng	-13515
▁Ke	-13516
▁Ul	-13517
▁Dao	-13518
▁Mối	-13519
▁tỉa	-13520
▁Store	-13521
▁Series	-13522
▁Mỗi▁lần	-13523
▁khi▁gặp	-13524
▁thật▁là	-13525
▁đi▁cùng	-13526
▁mô▁phỏng	-13527
▁nguy▁hại	-13528
▁tấm▁lòng	-13529
▁đắt▁tiền	-13530
▁giao▁diện	-13531
▁thung▁lũng	-13532
▁nhiều▁so▁với	-13533
▁những▁nỗ▁lực	-13534
▁và▁tinh▁thần	-13535
▁về▁tài▁chính	-13536
▁đặt▁mục▁tiêu	-13537
▁tại▁thời▁điểm	-13538
▁Không▁những▁thế	-13539
ker	-13540
win	-13541
▁Ap	-13542
.12,	-13543
▁kìm	-13544
▁dàng	-13545
óng▁Cái	-13546
▁Chuyến	-13547
▁Dân▁tộc	-13548
▁bạn▁cần	-13549
▁bất▁lực	-13550
▁lên▁một	-13551
▁để▁tăng	-13552
iều▁chỉnh	-13553
▁chào▁bán	-13554
▁khích▁lệ	-13555
▁Năm▁ngoái	-13556
▁bao▁quanh	-13557
▁công▁chúa	-13558
▁làn▁đường	-13559
▁nhanh▁nhất	-13560
▁rất▁có▁thể	-13561
▁quan▁hệ▁với	-13562
▁trong▁vụ▁án	-13563
▁Barack▁Obama	-13564
▁Không▁chỉ▁có	-13565
▁của▁đội▁bóng	-13566
▁cũng▁cho▁thấy	-13567
▁nhưng▁thực▁tế	-13568
cổ	-13569
▁Đệ	-13570
▁Cru	-13571
▁Old	-13572
▁Hoan	-13573
▁Phil	-13574
▁Trại	-13575
▁thốn	-13576
▁Coupe	-13577
▁Hường	-13578
▁rẻ▁hơn	-13579
▁Corolla	-13580
▁mưa▁bão	-13581
▁thu▁giá	-13582
▁từng▁có	-13583
▁Thế▁Vinh	-13584
▁khán▁đài	-13585
▁ngoài▁ra	-13586
▁thì▁cũng	-13587
▁trên▁nền	-13588
▁Ông▁Phạm	-13589
▁đánh▁bạc	-13590
▁nhưng▁anh	-13591
▁trục▁trặc	-13592
▁thi▁hành▁án	-13593
▁đã▁xây▁dựng	-13594
▁trong▁quá▁khứ	-13595
▁cho▁thị▁trường	-13596
▁Đồn▁Biên▁phòng	-13597
▁trật▁tự▁an▁toàn	-13598
SDĐ	-13599
els	-13600
▁DA	-13601
▁xì	-13602
▁190	-13603
▁Hun	-13604
▁Thử	-13605
▁Utd	-13606
▁Tháo	-13607
▁http	-13608
▁ngắt	-13609
▁đống	-13610
▁do▁bị	-13611
▁Tôi▁rất	-13612
▁kỳ▁nghỉ	-13613
▁tầm▁bắn	-13614
▁ông▁Hải	-13615
▁ưa▁thích	-13616
▁Công▁việc	-13617
▁học▁tập▁và	-13618
▁phấn▁khích	-13619
▁tổ▁chức▁lễ	-13620
▁vẫn▁là▁một	-13621
▁để▁xác▁định	-13622
▁với▁hệ▁thống	-13623
▁phát▁hiện▁một	-13624
▁và▁các▁đơn▁vị	-13625
▁máy▁bay▁ném▁bom	-13626
.11	-13627
▁Lũ	-13628
▁Vu	-13629
▁Đo	-13630
▁đe	-13631
oney	-13632
Đồng	-13633
▁(10	-13634
▁Loa	-13635
▁Nov	-13636
▁chẳ	-13637
▁FIFA	-13638
▁rưỡi	-13639
ích▁cực	-13640
▁sang▁t	-13641
▁Edition	-13642
▁Florida	-13643
▁coi▁như	-13644
▁nên▁các	-13645
▁phụ▁cấp	-13646
▁trên▁QL	-13647
▁vỏ▁thép	-13648
▁Tuổi▁trẻ	-13649
▁chiêu▁mộ	-13650
▁chi▁phối	-13651
▁học▁được	-13652
▁luân▁lưu	-13653
▁với▁phần	-13654
▁tốc▁độ▁cao	-13655
▁và▁đề▁nghị	-13656
▁có▁thu▁nhập	-13657
▁của▁nhạc▁sĩ	-13658
▁gia▁đình▁và	-13659
▁quan▁tâm▁tới	-13660
▁từ▁Trung▁Quốc	-13661
▁người▁Hàn▁Quốc	-13662
▁chúng▁ta▁có▁thể	-13663
oz	-13664
▁CM	-13665
ling	-13666
n▁đa	-13667
ỷ▁đỏ	-13668
▁Cel	-13669
▁Mẫn	-13670
▁bọt	-13671
eting	-13672
n▁đạt	-13673
▁Cánh	-13674
▁để▁ý	-13675
▁gì▁đó	-13676
▁Wenger	-13677
▁này▁do	-13678
▁Giá▁bán	-13679
▁Univers	-13680
▁là▁ngày	-13681
▁mình▁có	-13682
▁rất▁đẹp	-13683
▁tự▁xưng	-13684
▁đưa▁lên	-13685
▁Cũng▁tại	-13686
▁Mazda▁CX	-13687
▁Thu▁Thảo	-13688
▁anh▁trai	-13689
▁ghi▁được	-13690
▁giai▁đoạ	-13691
▁vị▁khách	-13692
▁Bằng▁khen	-13693
▁với▁một▁số	-13694
▁Đây▁là▁những	-13695
▁vào▁thị▁trường	-13696
▁phiên▁giao▁dịch	-13697
▁tổng▁mức▁đầu▁tư	-13698
79	-13699
eva	-13700
▁Đế	-13701
▁Lib	-13702
▁Sim	-13703
▁VOV	-13704
▁hốc	-13705
▁xùm	-13706
▁Doãn	-13707
▁Phục	-13708
▁Rồng	-13709
▁Trãi	-13710
▁Chồng	-13711
▁VHTTDL	-13712
▁bolero	-13713
▁đất▁đá	-13714
▁Francis	-13715
▁các▁môn	-13716
▁này▁khi	-13717
▁tái▁chế	-13718
▁khó▁hiểu	-13719
▁năng▁lượ	-13720
▁tình▁thế	-13721
▁phút▁ngày	-13722
▁thiếu▁hụt	-13723
▁thấy▁rằng	-13724
▁Vương▁quốc	-13725
▁cho▁xã▁hội	-13726
▁nhưng▁việc	-13727
▁trước▁thuế	-13728
▁chất▁ma▁túy	-13729
▁lượng▁khách	-13730
▁thông▁thoáng	-13731
▁chính▁trị▁gia	-13732
▁Chánh▁Văn▁phòng	-13733
▁ơ	-13734
aza	-13735
▁Xa	-13736
▁cc	-13737
iser	-13738
ỷ▁số	-13739
▁Des	-13740
▁Quất	-13741
▁chén	-13742
▁mắng	-13743
ercedes	-13744
estival	-13745
▁nỗi▁lo	-13746
Tổng▁hợp	-13747
▁lặng▁lẽ	-13748
▁lời▁mời	-13749
▁startup	-13750
▁thì▁nên	-13751
▁thảm▁đỏ	-13752
▁đèn▁hậu	-13753
▁Nạn▁nhân	-13754
▁VTC▁News	-13755
▁ghé▁thăm	-13756
▁hứng▁thú	-13757
▁mạnh▁tay	-13758
▁mở▁tỷ▁số	-13759
▁Bến▁Thành	-13760
▁Hiến▁pháp	-13761
▁sông▁Hồng	-13762
▁Các▁bác▁sĩ	-13763
▁cơ▁sở▁y▁tế	-13764
▁nhất▁là▁khi	-13765
▁tăng▁tốc▁từ	-13766
▁để▁người▁dân	-13767
▁không▁phù▁hợp	-13768
▁tại▁phiên▁tòa	-13769
▁thu▁hút▁đầu▁tư	-13770
34	-13771
rey	-13772
thị	-13773
▁MB	-13774
▁dì	-13775
▁dép	-13776
▁coup	-13777
▁Aston	-13778
▁Bảo▁an	-13779
▁Nam▁Mỹ	-13780
▁và▁tôi	-13781
▁là▁điểm	-13782
▁miêu▁tả	-13783
▁ra▁biển	-13784
▁chia▁làm	-13785
▁lại▁phải	-13786
▁quà▁tặng	-13787
▁tay▁nghề	-13788
▁vi▁xử▁lý	-13789
▁đến▁việc	-13790
▁ở▁đây▁là	-13791
▁phản▁công	-13792
▁Cục▁Quản▁lý	-13793
▁trên▁quốc▁lộ	-13794
▁của▁đội▁tuyển	-13795
TW	-13796
òe	-13797
▁bơ	-13798
▁tấp	-13799
▁Vượt	-13800
in▁cậy	-13801
▁Global	-13802
▁La▁Lig	-13803
▁bao▁bì	-13804
▁đã▁mất	-13805
▁cột▁mốc	-13806
▁hảo▁tâm	-13807
▁tình▁cờ	-13808
▁Hoài▁Đức	-13809
▁Trung▁Bộ	-13810
▁mở▁đường	-13811
▁phu▁nhân	-13812
▁chạy▁theo	-13813
▁cấp▁huyện	-13814
▁cầm▁quyền	-13815
▁diện▁rộng	-13816
▁quanh▁năm	-13817
▁Hồ▁Ngọc▁Hà	-13818
▁của▁mình▁để	-13819
▁chiếm▁khoảng	-13820
▁Đây▁chính▁là	-13821
▁cho▁chúng▁tôi	-13822
▁có▁chất▁lượng	-13823
▁Võ▁Nguyên▁Giáp	-13824
QS	-13825
óp	-13826
-17	-13827
rah	-13828
trú	-13829
/12.	-13830
chưa	-13831
▁1/2	-13832
▁Abu	-13833
▁Mũi	-13834
▁Nik	-13835
▁Quỳ	-13836
▁Sar	-13837
▁Shin	-13838
▁bừng	-13839
▁văng	-13840
ùm▁xùm	-13841
▁là▁bà	-13842
oàn▁kết	-13843
▁Nm▁tại	-13844
ối▁thiểu	-13845
▁bị▁chết	-13846
▁ca▁nhạc	-13847
▁chủ▁thể	-13848
▁hậu▁cần	-13849
▁kế▁thừa	-13850
▁lây▁lan	-13851
▁mãi▁mãi	-13852
▁nơi▁này	-13853
▁mời▁thầu	-13854
▁tại▁thôn	-13855
▁cảng▁biển	-13856
▁của▁chồng	-13857
uyên▁truyền	-13858
▁vụ▁việc▁này	-13859
▁của▁giáo▁viên	-13860
▁kiểm▁soát▁được	-13861
▁thực▁hiện▁theo	-13862
▁Người▁phát▁ngôn	-13863
-18	-13864
Phú	-13865
ury	-13866
vel	-13867
▁xă	-13868
▁đò	-13869
rain	-13870
▁Dậu	-13871
▁Eng	-13872
▁Mag	-13873
▁cúc	-13874
▁run	-13875
▁toa	-13876
▁nang	-13877
▁sừng	-13878
▁12.000	-13879
▁Bolero	-13880
▁Hà▁Văn	-13881
▁Lukaku	-13882
▁Võ▁Thị	-13883
▁mồ▁côi	-13884
▁chỉ▁đạt	-13885
▁căn▁bản	-13886
▁lời▁hứa	-13887
▁âm▁lịch	-13888
▁điều▁mà	-13889
▁Ngay▁khi	-13890
▁còn▁đang	-13891
▁học▁thêm	-13892
▁tại▁quận	-13893
▁với▁nước	-13894
▁Kể▁từ▁khi	-13895
▁cách▁biệt	-13896
▁dòng▁nhạc	-13897
▁hatchback	-13898
▁Trong▁cuộc	-13899
▁trung▁gian	-13900
▁về▁kết▁quả	-13901
▁bệnh▁ung▁thư	-13902
▁có▁thể▁sử▁dụng	-13903
▁phát▁triển▁của	-13904
Xem	-13905
học	-13906
▁Xê	-13907
▁Áp	-13908
tron	-13909
ỏ▁ra	-13910
▁1,1	-13911
▁Sap	-13912
▁ghe	-13913
▁set	-13914
▁1968	-13915
▁Chiêm	-13916
▁laser	-13917
▁ở▁Anh	-13918
▁cứu▁trợ	-13919
▁viết▁về	-13920
▁Nghi▁Lộc	-13921
▁cả▁những	-13922
▁hoa▁hồng	-13923
▁nên▁được	-13924
▁tiêu▁hao	-13925
▁trời▁mưa	-13926
▁tuần▁qua	-13927
▁tuổi▁thơ	-13928
▁khiến▁anh	-13929
▁khẩu▁hiệu	-13930
▁leo▁thang	-13931
▁phát▁thải	-13932
▁quen▁biết	-13933
▁thân▁nhân	-13934
▁ở▁nước▁ta	-13935
ng▁tự▁nhiên	-13936
▁có▁xu▁hướng	-13937
▁bị▁phát▁hiện	-13938
▁địa▁phương▁đ	-13939
▁07	-13940
▁Hóc	-13941
▁Pep	-13942
▁Open	-13943
▁Wall	-13944
▁đinh	-13945
▁ở▁hai	-13946
▁Justin	-13947
▁lấy▁từ	-13948
▁để▁xem	-13949
▁của▁tàu	-13950
▁phát▁ra	-13951
/12/2017,	-13952
▁Dương▁đã	-13953
▁Ngọc▁Linh	-13954
▁dễ▁thương	-13955
▁giống▁lúa	-13956
▁là▁mẫu▁xe	-13957
▁thỏa▁đáng	-13958
▁Động▁thái	-13959
▁giả▁thuyết	-13960
▁uống▁thuốc	-13961
▁đến▁từ▁các	-13962
▁tập▁thể▁dục	-13963
▁lễ▁trao▁giải	-13964
▁đều▁là▁những	-13965
▁cấp▁giấy▁phép	-13966
out	-13967
▁củi	-13968
idane	-13969
▁Chan	-13970
etooth	-13971
Công▁ty	-13972
▁2017▁(	-13973
▁chỉ▁thị	-13974
▁gây▁sốc	-13975
▁hàng▁tỷ	-13976
▁hơi▁thở	-13977
▁ngay▁sau	-13978
▁sâu▁rộng	-13979
▁tiếng▁ồn	-13980
▁trào▁lưu	-13981
▁tâm▁điểm	-13982
▁Catalonia	-13983
▁Thượng▁tá	-13984
▁cho▁ngành	-13985
▁chịu▁đựng	-13986
▁lương▁hưu	-13987
▁thăm▁khám	-13988
▁Vương▁Đình	-13989
▁hợp▁tác▁xã	-13990
▁mọi▁chuyện	-13991
▁các▁nạn▁nhân	-13992
▁vẫn▁chưa▁thể	-13993
▁trong▁dịp▁Tết	-13994
lie	-13995
▁Od	-13996
face	-13997
iola	-13998
▁xóc	-13999
▁Ying	-14000
araoke	-14001
▁Khiêm	-14002
▁Yemen	-14003
▁Bến▁xe	-14004
▁do▁vậy	-14005
▁Đô▁thị	-14006
ương▁tại	-14007
▁Di▁tích	-14008
▁nói▁lời	-14009
▁tủ▁lạnh	-14010
▁TAND▁tỉnh	-14011
▁khí▁tượng	-14012
▁lưới▁điện	-14013
▁quân▁nhân	-14014
▁chuyên▁sâu	-14015
▁nguy▁cơ▁bị	-14016
▁tỉnh▁thành	-14017
▁tổ▁dân▁phố	-14018
▁đứng▁trước	-14019
▁bị▁cáo▁buộc	-14020
▁kết▁hợp▁giữa	-14021
▁xây▁dựng▁NTM	-14022
▁Đinh▁La▁Thăng	-14023
▁di▁tích▁lịch▁sử	-14024
▁khẳng▁định▁rằng	-14025
kok	-14026
▁Hảo	-14027
▁Vốn	-14028
▁Càng	-14029
▁chợt	-14030
▁khiể	-14031
▁lượn	-14032
▁nung	-14033
▁lá▁cờ	-14034
ng▁đóng	-14035
▁Thomas	-14036
▁Zidane	-14037
▁bạn▁có	-14038
▁hãng▁t	-14039
▁tung▁t	-14040
▁tự▁sát	-14041
▁bỏ▁tiền	-14042
▁cà▁chua	-14043
▁karaoke	-14044
▁ra▁được	-14045
▁áp▁thấp	-14046
▁Đất▁đai	-14047
▁Cũng▁như	-14048
▁Ngôi▁sao	-14049
▁chọn▁lựa	-14050
▁dao▁động	-14051
▁do▁chính	-14052
▁vượt▁khó	-14053
▁Bloomberg	-14054
▁Như▁Quỳnh	-14055
▁ngập▁nước	-14056
▁đường▁ống	-14057
▁tỷ▁đồng▁để	-14058
▁phòng▁tránh	-14059
▁đã▁trải▁qua	-14060
▁hợp▁đồng▁với	-14061
▁vào▁đầu▁tháng	-14062
.12	-14063
Hàn	-14064
▁),	-14065
▁FA	-14066
Book	-14067
▁Kênh	-14068
/2014,	-14069
ng▁đau	-14070
▁chặng	-14071
ặt▁hàng	-14072
▁Boeing	-14073
▁Merkel	-14074
▁dị▁ứng	-14075
▁xấp▁xỉ	-14076
▁Tân▁Phú	-14077
▁lý▁luận	-14078
▁Có▁người	-14079
▁phải▁nộp	-14080
▁quốc▁hội	-14081
▁Tất▁Thành	-14082
▁lần▁thứ▁X	-14083
▁quyền▁hạn	-14084
▁Tổng▁thư▁ký	-14085
▁chuyên▁khoa	-14086
▁HLV▁Hữu▁Thắng	-14087
▁sản▁xuất▁ô▁tô	-14088
▁với▁mong▁muốn	-14089
▁hay▁còn▁gọi▁là	-14090
▁xuất▁nhập▁khẩu	-14091
▁Ne	-14092
▁đu	-14093
oshi	-14094
▁(25	-14095
▁Atl	-14096
▁Lav	-14097
▁2000,	-14098
▁Colom	-14099
▁ra▁để	-14100
▁Nhờ▁đó	-14101
▁một▁vụ	-14102
▁Đông▁Á	-14103
▁đám▁mây	-14104
▁chạy▁đua	-14105
▁giật▁cấp	-14106
▁nóng▁lên	-14107
▁thì▁thấy	-14108
▁tiêu▁hủy	-14109
▁trong▁bộ	-14110
uyến▁đường	-14111
▁người▁làm	-14112
▁phần▁cứng	-14113
▁của▁bị▁cáo	-14114
▁những▁việc	-14115
▁này▁là▁một	-14116
▁dự▁án▁đường	-14117
▁và▁cho▁rằng	-14118
▁bắt▁tạm▁giam	-14119
▁thời▁gian▁và	-14120
▁trong▁màu▁áo	-14121
▁để▁triển▁khai	-14122
▁bằng▁hình▁thức	-14123
▁cạnh▁tranh▁với	-14124
62	-14125
ngụ	-14126
▁Ak	-14127
▁vs	-14128
n▁đội	-14129
▁Chry	-14130
▁Liễu	-14131
▁gàng	-14132
▁trọt	-14133
▁Nhiệm	-14134
▁Peter	-14135
▁Bởi▁lẽ	-14136
▁Munich	-14137
▁bãi▁rác	-14138
▁cửa▁ngõ	-14139
▁vô▁hiệu	-14140
▁Khả▁năng	-14141
▁Lê▁Quang	-14142
▁giam▁giữ	-14143
▁ngoại▁tệ	-14144
▁nhà▁kính	-14145
▁phá▁rừng	-14146
▁nước▁khác	-14147
▁tại▁dự▁án	-14148
▁tấm▁gương	-14149
▁khối▁động▁cơ	-14150
[...]
